ffffc38d
200c
e2e2
12020
f8a9
54e2
6784
fffff530
b54
4d60
3899
fffff33c
706
fffff8a3
fced
743a
a4c1
769f
70
ffffd8fc
91e5
1547b
fffffed8
1bc3
7bce
96c3
ffffcc1b
fffffa95
64d6
a930
2eab
ffffff51
ffffc653
ffffe7b1
3bdf
ffff66ea
ffffe096
ffffff2c
ffffdb65
1321b
fffff90c
ffffff38
14318
fffff63d
91e3
49c
856e
11699
ffffda19
61b3
548c
123b5
fc57
ffffdb15
ffffaf4c
390b
ffff5e06
1c1f
7f7b
fffff5fb
54ed
74eb
aa4c
5482
26ba
ffffd351
72cc
ffffc6a5
229
ffffb874
3f2e
8bec
bd27
ffff5f37
fffffeb9
25de
ffff662c
6032
1075
53d6
65e5
4f93
716
ffff96ca
6238
ffffe65f
7f87
fffffbb2
bf8d
54f
fffff610
ffffed39
1b70
65da
ffffd9a2
d2ce
3de8
b35
d81e
bc63
2216
3907
f11d
6c1c
7e35
a66
2ede
e56
e8c
140b
998b
6f44
9caf
ffff316e
7d73
b331
cb3d
cb06
4fb5
9cfd
ffffe5ba
fa5
ffff9110
2777
fffffb1f
2645
12ac0
9cbe
c364
ffffeb5f
ffffb90a
b4a
fffff709
ffffedff
fffff6ad
ffffc21c
415f
56df
ffffd9f8
3ca9
5f6b
26cd
e687
11015
62b5
df5c
2db9
2cee
5272
fffff9d5
2b90
ffff5a16
a132
65f4
ffffe0a2
5c0c
fffffa7a
246f
8fe
b71
ffffcc5f
add7
2059
9eb
ffffd0f7
b23
18b68
e34
781a
ffffe570
11bd6
4df3
7ea
ffffe0e4
123a
134f3
6428
ffffff1a
fffff6e1
3426
b352
3056
fffff409
f43e
56e0
89ee
593
ffffec1e
ffffffa3
9c5
1b45
fffffaa5
2
2f1d
fffff528
109cb
7b8c
ffffed8f
f2a4
5acb
fffff216
b1bd
f3
50d0
ffffe6eb
ffff30aa
4f0d
e9f4
ffffe800
ffffd44b
ffffedca
ffffcce2
ffffef5e
62fb
30ca
47f9
4df8
ffffdfb8
2314
4700
4f93
8c5b
fffffb13
1557
d4e0
6a62
ffffe5a2
e2d6
1460e
176d
fffff526
49e7
8056
fffee5f5
8560
8bb
2b40
6452
86b4
ffffe1a9
79dd
3cac
1778
1bc3
ffffbf21
40e
3e6a
f060
a0ca
f46a
1ed3
ffffb6e5
fffff238
fffffeaa
7ed7
141
