fffffea4
ffffe8b8
1273
ffffde1b
9f
2167
4908
445e
1412
262b
ffffec41
fb5
fffffdbd
1ce
476
5070
4403
fffff560
60c
22fc
fffffb66
20f6
3d4a
161e
fffffed5
ffffccfb
9ab
ffffd27f
45d
36b3
bc5
ffffd760
b07
1287
1627
5aec
fffffbae
5962
1a4b
6ac2
fffffcb5
1c8f
9ea
fffffeef
4648
c7f
fffffed1
1f
1a09
3ec6
38ee
336c
37b6
ffffff05
5b36
1e4b
fffffaed
fffff167
ffffec5e
fffff7e1
e8
1c63
19d6
1324
7004
2524
52b
728
fffffb89
fffff4e5
9ff
af6
106e
36
2a6c
193e
d7c
1fc0
2bf
274d
fffff230
32d7
fffffd7f
3263
fffffa6b
92e
1fed
1c0a
a8
fffff2b8
350a
1a2f
106c
3eb9
6a8
2a38
1edd
ffffe5c0
dbb
fffff97e
d50
1503
24ae
1859
fffffbac
fffffade
2f94
69fe
1465
ffffffee
5f77
3e9
135e
289b
1d34
4446
ffffec6d
fffffff4
ffffff19
1e28
26ef
fffff886
2f66
fffff614
3db5
4c37
2248
fffff0ce
