fffffff3
36
fffffff7
1
fffffff9
fffffffb
0
fffffffd
0
1c
fffffff0
ffffffa3
3
0
3
0
fffffff7
18
ffffffe9
2
45
ffffffd2
fffffffd
5
33
ffffffff
ffffffff
ffffffff
11
5
c
fffffff8
2
14
10
0
ffffffff
ffffffd3
6
ffffffe4
ffffffff
fffffffe
ffffffe5
e
20
fffffffa
fffffff1
4e
17
3f
3f
1
ffffffe5
fffffff0
fffffffc
1
27
ffffffea
fffffffe
0
2
1e
ffffffb8
2
