45
6e
6d
b
b4
e6
30
3c
e4
6f
63
5d
44
80
65
35
45
eb
5b
f0
6d
61
cc
5a
62
5b
e9
af
e4
69
ac
63
29
5b
ec
d6
53
cd
22
c6
ee
f0
ed
66
ee
e5
d3
61
6f
42
e3
e8
f0
6c
61
c6
6a
ea
d1
53
e6
6e
ef
ca
6b
e0
ef
da
4f
da
5b
54
5a
6f
e8
64
67
5c
e4
5e
6b
d8
5a
62
cf
ee
eb
3c
56
d5
bb
d6
ee
ed
df
6a
e0
6b
f0
3b
66
d7
e9
ca
c2
62
3b
e8
60
e6
db
e1
e0
ef
61
d1
e2
6b
70
47
bb
5e
34
5a
e4
3e
66
3c
68
dd
4a
ef
c9
ea
e1
31
5b
6f
de
d8
69
61
65
53
4a
ed
db
98
e3
6c
64
6b
ee
5c
c8
4d
c6
e9
f0
e6
e1
df
61
65
6b
d7
d3
ec
dd
5f
ed
da
6d
57
e8
58
5e
cf
e8
60
e7
d7
d8
d7
6b
4c
ef
6d
5e
cf
d4
e6
d9
69
c1
66
31
ec
d8
33
b8
6d
ec
be
67
e2
e6
ea
54
5b
4e
e1
4c
3a
d8
32
5b
e9
c7
ed
6b
d2
e0
e4
ce
4a
ba
ed
68
c1
d6
63
ca
6d
42
f0
e4
68
d2
61
da
ee
37
e8
53
60
e2
ea
6b
d3
d4
5e
d8
be
e8
62
54
65
6f
61
65
65
2d
66
68
ea
eb
94
6b
86
e5
c1
ef
63
ee
c7
ef
6d
d6
5d
58
6e
5c
5a
6a
ec
6c
d6
9d
c5
6c
e7
57
36
67
74
36
e3
a4
62
56
d3
5d
e8
ea
60
d9
e8
e6
34
5e
ca
56
db
6b
64
ed
e1
53
56
e2
a8
ec
90
35
dd
66
6e
81
70
cc
68
e6
6c
66
6c
71
eb
d6
4e
59
4
e1
6a
39
2e
3c
55
b2
5d
50
e1
be
dd
6f
de
ca
b7
ef
a9
ed
e3
63
ed
ca
dc
51
49
59
ec
ed
2d
b7
d1
59
50
6b
6c
d1
eb
55
6f
e0
67
e9
df
eb
de
ce
d2
dd
e7
dd
bb
eb
e8
e3
6a
df
ee
b6
61
3b
4e
e9
cb
5a
e7
64
d7
34
e8
6e
6b
23
e3
46
dd
34
6a
e3
dc
65
6
dd
6e
dc
de
69
58
6b
73
e7
d3
df
6b
c3
5d
da
d9
a1
bc
64
67
df
eb
e9
2
80
e4
de
6d
6e
ad
e5
53
6f
65
57
ea
cd
d3
68
a9
ed
21
68
45
6d
63
d0
d9
55
6a
d6
ad
b3
95
d2
f0
6f
67
61
ea
71
b8
c0
51
58
df
df
63
5f
e6
67
66
d2
50
da
9a
e7
68
60
68
5e
39
6f
e7
51
37
52
6e
9f
16
aa
50
5e
69
63
ee
5a
68
dc
5a
ef
b9
29
67
6d
f0
6f
e3
66
e7
56
64
dc
6b
d1
cf
d1
69
d5
e9
46
58
4e
65
e8
ec
d6
d3
6e
e3
ee
de
f0
65
ed
55
6e
6a
ea
e6
5a
d6
e9
62
df
6a
ce
d0
64
ef
eb
e1
ed
6f
57
e8
54
67
5c
57
68
61
4f
66
5b
64
6d
ef
c9
e9
9b
67
d3
ed
d0
58
66
6e
68
ed
df
65
6c
e6
19
df
ca
34
ed
33
45
6c
55
4b
6d
9c
df
6f
e6
66
dd
53
e3
cc
e3
70
eb
68
69
ea
c0
e4
dd
cd
cd
4c
c7
f0
ee
c8
38
d7
ef
e3
e3
bb
8e
6e
c8
b3
db
ec
e9
6f
dc
d9
6a
d4
63
67
db
db
e4
69
6b
58
df
41
6c
3a
28
51
3e
65
e8
eb
6e
cf
42
36
62
e5
e3
e6
cb
6f
6a
6c
63
8a
4c
62
ed
6b
bf
d7
8c
db
65
ed
97
ef
57
b8
3d
db
ea
6d
ed
c7
69
f0
6f
45
d3
d6
33
6e
65
6a
4b
c1
69
52
5c
4d
f0
46
ed
54
5d
d8
9a
c7
ce
dd
65
d2
e5
6d
38
9e
6c
6f
70
68
e5
4f
5a
dd
db
dc
e3
54
52
6a
eb
45
65
6b
70
f
d2
dd
e2
b7
57
6e
ef
69
2a
eb
60
dc
b3
6c
e5
68
e6
6c
dc
ed
ed
4c
ef
51
68
67
cf
ee
67
42
6d
55
e0
70
24
4
5e
dc
be
e4
ea
e9
5a
50
3d
56
53
ef
ca
ea
52
c6
e7
6d
ba
6f
59
62
d7
ed
c7
63
ba
6c
6a
eb
d7
60
6e
55
65
ea
69
9d
3d
80
bb
d4
eb
5c
ea
cd
59
e4
df
d6
c8
67
e7
bf
54
ee
64
51
6e
ea
52
52
6b
ec
6e
2
44
60
ea
11
e1
9f
55
6f
e2
e1
4b
e3
d2
52
bf
6c
e6
ae
66
71
64
58
e2
ea
f0
66
d1
ea
f0
6b
70
5f
cc
70
c1
ef
e4
67
e4
6c
ee
89
e6
df
e5
ec
63
41
d2
d8
eb
d5
57
63
71
80
5b
6a
5f
70
69
ef
6b
e3
70
eb
6e
4d
ef
37
e0
58
e5
f0
e2
66
db
50
dd
48
ec
d8
67
61
4b
3
c5
61
a0
6d
3e
e9
f0
40
ed
53
ea
ec
6e
40
6b
d7
63
d6
e6
e4
ee
67
6f
da
6a
70
e3
64
2e
34
8f
47
43
ed
99
f0
67
6e
b1
66
6d
62
ea
6e
4a
e6
eb
64
c7
e9
ec
6f
e4
61
62
ed
df
e4
6a
e2
6f
ec
d7
53
e9
a6
d7
6f
c7
ec
6d
6e
6f
e4
6a
65
6a
d8
e7
69
6c
63
25
6a
d2
d8
e6
e8
da
5f
cc
18
c2
41
60
ec
d2
44
6f
e3
4c
56
e0
56
6e
c3
5b
ca
c3
9c
e5
54
4f
65
66
5d
cb
69
69
ee
68
ba
31
5d
e4
ee
6c
d0
6f
e5
63
6d
df
59
ba
eb
ee
ec
eb
56
e7
d4
e9
d3
ed
d8
ef
d8
52
cd
df
70
70
db
53
68
67
ea
70
6c
ec
5a
6f
ee
e9
c8
69
ef
53
e3
84
59
eb
6d
56
67
0
66
da
b3
61
cf
ea
ed
c1
48
b0
eb
ef
d6
69
e9
ef
69
a5
50
db
56
34
64
5d
66
64
bc
2c
57
e1
dc
6d
5f
6e
d7
4d
ec
45
6f
e1
e3
6b
cc
e4
ca
ee
ef
6d
4a
6b
ed
6d
6c
c0
56
54
6d
47
ef
ce
da
4f
58
0
ea
6a
53
42
da
ef
e9
6b
5c
5b
d9
65
c5
68
e8
e4
c2
6e
64
4d
6f
6b
4f
35
eb
df
ef
e8
cc
68
70
ec
df
dd
ec
e9
e9
68
52
da
ef
35
ba
3b
66
e4
c7
48
70
d8
2b
3f
c4
26
a7
53
ed
d2
ef
5b
e4
ea
f0
64
e5
64
6e
5c
e3
c8
e5
67
dc
cd
dd
27
6f
65
a0
e7
de
eb
e5
ef
dc
81
57
75
67
66
72
6f
63
e8
46
6f
4a
e6
eb
72
64
4f
d0
3b
6b
51
5e
d8
6c
dd
66
dc
72
41
e8
24
a3
eb
41
ea
ee
47
e4
e4
6d
f2
b3
72
e3
dd
ef
70
63
ec
12
e6
67
48
b6
dd
87
c9
ee
d6
e6
dc
ee
ec
b3
4e
60
e2
da
62
5f
ed
88
71
57
e3
6c
68
6c
e0
d3
67
59
65
5b
62
85
eb
80
e1
e6
55
6b
ee
a5
72
e5
d8
61
c3
e8
46
a0
d1
be
53
ef
6f
ee
e9
47
6c
4c
f1
4a
ea
0
6c
e4
35
67
6a
66
73
8f
44
ee
4d
68
e4
62
6c
c0
70
ce
6d
80
e4
ab
58
e9
d6
d6
58
71
51
f
e8
46
66
46
65
56
ee
93
ef
74
ef
71
6e
ed
4b
da
6b
ee
e4
6a
6e
ec
c7
4e
6a
6b
6f
ec
eb
6f
6c
5e
e5
56
69
ec
6d
41
54
5b
ee
ee
11
d2
6e
6f
63
56
52
4d
6c
5f
f4
59
ef
32
e9
68
69
e6
ef
42
5b
68
4c
5e
de
6c
e4
69
6d
e0
d5
6d
e6
e8
6a
de
ee
e0
53
ea
bb
70
df
4a
6a
e4
ed
4e
a3
17
69
d8
80
5e
70
5c
61
75
d1
5e
6f
d2
de
eb
df
c6
8a
dd
6a
6d
6d
e8
65
d0
5d
e7
41
e9
32
65
66
e5
40
6b
ed
e7
52
db
e5
5c
e5
6a
cb
63
71
9d
6c
6c
42
59
65
c6
51
66
ea
65
d6
ef
68
e4
66
ed
ee
63
3c
d6
9f
6f
69
77
d0
67
42
6f
87
56
64
69
b6
ed
70
dd
56
67
44
6e
55
da
63
6a
d3
66
ec
54
4e
b3
6f
20
53
e3
c9
eb
f0
c6
dc
e8
6c
3d
c2
de
4b
cf
5c
5f
e9
de
e6
6d
ed
e2
d9
38
e8
36
c5
58
d4
e4
2b
69
e1
3c
f1
6a
6b
6f
55
6b
e0
62
80
e6
c4
69
6e
70
56
70
63
eb
9f
de
62
bd
ee
e0
d4
d9
d6
de
9
2d
de
62
ec
e5
57
eb
5a
6d
d8
cc
3f
41
66
e4
71
c1
e8
6e
5a
ee
80
ea
ce
60
e4
55
e7
26
de
6e
68
e1
6d
6b
ea
38
74
70
db
57
e4
5e
6f
67
67
c2
6e
68
e0
50
e0
e4
70
6f
e9
e2
70
c4
4b
e8
6f
d1
6b
e0
38
70
5d
70
6f
c0
5a
49
71
cb
6d
50
68
e8
67
d8
e6
e5
e2
bf
66
4f
6b
dd
a9
af
5b
56
5d
9c
ee
ef
5a
63
d4
72
5b
5a
68
3f
ea
da
66
ea
6f
d0
ea
41
70
e3
ac
7a
d9
64
55
67
ec
67
ee
f2
76
1e
47
e0
e1
6e
31
da
94
da
a5
73
6b
ef
ed
e3
67
73
ee
f0
58
6c
b9
e5
4f
66
74
6d
ee
65
70
69
71
e7
cf
56
55
6d
5f
70
b0
de
eb
e7
b7
59
ef
d6
f5
e9
64
d1
d8
56
70
2d
dc
71
c8
5c
6b
5f
e7
b9
33
37
f3
f1
d8
66
67
ee
59
e2
67
b3
dd
6a
d7
ee
64
ea
62
79
46
dc
f1
39
57
e0
f4
69
6f
ef
5a
ed
68
e6
6d
e5
c9
77
d3
cc
71
6f
57
b6
5d
6f
70
47
e7
61
ea
70
7b
32
5c
66
71
e6
ea
da
6c
e9
6c
ec
5d
e6
63
71
e9
ef
a9
dd
21
62
6a
cc
5c
6f
53
e5
c4
70
45
5e
72
d1
68
52
db
44
e7
a0
72
4f
30
66
52
bc
4f
57
61
62
6f
69
75
b4
53
7a
b5
73
15
5d
d7
e7
5e
64
bf
73
b5
81
69
84
24
70
5d
76
67
1e
64
71
55
6b
6e
d3
f0
dd
72
7c
d2
e9
f0
5b
5d
db
ed
f0
5a
e5
de
55
32
25
73
2d
6d
cb
a3
cc
34
e5
73
6b
b9
e8
68
4e
ad
6d
66
7b
d9
65
6c
70
70
75
c9
70
5c
63
3d
e8
e8
e7
eb
eb
52
5d
cb
ce
56
59
aa
5e
e2
b8
e8
b3
dc
dd
b7
dc
ee
54
69
e4
f0
6a
45
db
ef
dc
53
f0
e0
62
ed
c7
bc
c9
de
62
57
d6
e6
47
4d
df
e1
27
52
aa
63
5b
ab
c0
5a
52
5f
6f
e7
62
4f
b6
6d
6f
58
54
ec
6f
42
d9
e1
5f
51
64
3e
5f
d9
12
ef
b
e8
e6
d9
5f
d4
dd
3b
ef
e5
4e
5c
69
de
d2
cc
56
ed
6b
e8
d5
95
e7
61
dc
67
58
d2
64
3b
51
ef
6e
e4
64
6b
e7
6c
eb
d2
42
e3
32
5c
ed
e3
c3
ea
d7
6c
c0
d6
d8
d3
df
ea
67
6b
e9
e3
f0
67
ed
6b
59
6f
67
4a
d8
f0
4b
ef
67
5b
6a
3a
46
66
55
ea
d9
da
d6
a6
d9
c8
64
eb
ed
d1
e7
dc
ec
ed
ea
e7
db
6b
67
44
da
dd
ed
c2
db
e2
db
ef
be
ed
5a
6f
6f
3e
bc
68
81
ef
41
4d
ec
eb
e1
4a
64
c6
c1
4f
69
45
ec
eb
6a
b1
ec
5c
67
63
d8
ef
67
6a
d7
e3
ee
65
e5
33
69
e9
55
70
67
e9
df
6d
5f
6d
e0
0
d2
58
46
ea
ed
ef
6e
55
ed
63
62
cf
69
5b
ce
6c
d5
6e
dd
92
ee
47
70
ae
c9
ee
eb
4e
df
dc
68
c6
e6
c7
ee
67
e3
e8
6f
6e
d3
a6
44
e2
4c
ed
52
68
36
56
ee
4e
6d
e2
e4
df
ed
3d
6c
66
62
6b
6e
6c
62
ea
d8
ef
6f
4d
a4
d3
60
e8
23
c0
d7
4b
e3
ef
ed
3f
e3
b
e7
27
e8
67
e1
67
69
5e
57
5b
e9
63
66
d3
64
6b
68
6d
d9
e9
de
37
e9
c9
4e
f0
ef
33
5f
cd
e5
c2
5a
cd
ec
56
68
e6
df
c3
d9
e9
bb
f0
58
5d
e3
e9
65
c6
dd
ef
c6
eb
ee
e3
ca
81
d3
63
b3
57
5f
81
d8
ef
65
ee
5e
cf
6c
5f
4f
90
ed
6a
de
37
ed
36
6f
d4
e8
f0
67
3f
e4
e3
6f
94
a9
cf
ec
5a
eb
ce
e1
cc
be
e5
ef
4b
e6
dc
4c
ec
50
ee
f0
e9
e7
d3
69
6f
66
6f
6e
eb
69
6c
6d
cb
3e
eb
6e
f0
b6
69
6e
70
d2
6c
5f
70
68
eb
c6
e3
f
d9
e5
ee
c8
c5
41
2c
5a
67
70
64
2c
e5
ed
eb
6a
ef
55
e3
ec
43
ca
c5
e7
e2
ea
70
f0
ca
6f
5d
de
68
59
4f
69
3e
da
b4
eb
5f
ee
e5
4e
e1
e4
6a
58
3d
da
e0
6e
f0
56
50
5e
6d
60
69
a6
d5
4e
6f
e3
5e
d8
df
51
db
5c
c0
e1
39
c0
6e
f0
55
ee
eb
cf
e8
d3
6a
5e
51
de
dd
51
6d
c8
b3
5a
6e
cb
c6
ce
c8
d8
36
6a
ed
8
8f
ce
66
5d
51
ef
d6
6c
72
5f
d1
64
6a
63
6e
6c
2a
44
cd
e6
6f
6f
d4
e3
c1
da
e4
5c
c9
70
e7
9b
60
cd
54
56
db
61
e9
d7
29
d5
df
43
c9
d8
e0
bf
e7
5f
59
63
5a
ee
20
60
65
ee
ea
ed
36
cc
e3
e3
46
ef
52
66
65
6a
eb
e9
6f
cd
c7
df
dc
cd
62
de
e6
5f
e5
dc
e7
67
ec
ef
4e
62
bc
d9
db
65
ea
ef
dd
eb
62
61
e5
ef
6b
64
63
e7
bc
cb
4e
df
e2
ef
eb
6c
b8
ab
e0
66
d6
e3
af
70
c2
31
81
24
71
d0
4a
72
e9
62
c0
6d
ec
26
e6
5a
65
c4
ed
71
81
e7
d2
65
5d
49
3c
66
6b
47
65
6f
5e
da
ec
58
ea
d8
94
ef
ec
4d
5d
ed
5c
70
32
bb
e7
d8
63
4f
6d
45
d0
e0
6b
72
d3
5b
de
70
65
2e
8f
6b
e5
e1
5b
5e
ea
44
4a
46
83
6c
70
e1
6c
42
e6
56
6f
72
77
6e
5a
4d
5f
cc
d3
69
f3
ef
71
6a
69
8c
55
e3
70
54
54
e7
ec
46
eb
44
ea
ef
ea
5c
e5
57
5d
f0
60
6a
62
ef
6e
3b
ce
70
55
5d
e8
b7
e3
52
ed
74
e5
c4
61
72
65
b8
e9
6c
dc
e1
70
df
31
4e
e1
e5
e1
df
3c
e3
d9
d6
bf
e8
46
e3
6c
e2
bb
e2
ee
ef
54
6a
c2
e3
73
de
80
d2
d5
56
96
cc
52
65
73
e4
d9
6e
70
36
86
59
d8
df
3b
6b
d8
6a
d8
e3
de
74
60
6f
69
6b
54
ed
64
f1
5f
41
c7
d0
29
ed
ef
3d
65
6a
4a
ee
e5
3e
6f
3c
d7
e9
26
4d
f0
72
a7
6f
da
6c
e0
c7
ec
db
6b
3c
d7
ed
4f
e9
e4
e3
dc
61
6a
4e
5f
63
53
bb
76
d3
59
6c
ca
5b
72
ea
54
e9
6f
d
5a
62
cf
43
4e
e6
ca
6f
3c
e6
43
f0
d7
65
50
bb
6e
d0
4d
ef
4c
e5
26
f2
d4
b9
6e
57
3c
6a
e3
55
e5
e6
66
d2
6f
63
e1
4a
70
61
56
51
6d
e2
42
5e
ef
34
68
de
72
6a
d6
66
ba
44
e9
de
e6
68
71
d5
3e
9e
69
cc
dd
c5
e8
47
d9
6d
14
ed
c4
57
e9
d2
e8
e8
d7
47
d6
e3
ed
27
5e
ea
40
40
ed
c2
dc
b0
64
51
1f
ee
ef
c6
68
de
ec
d5
bf
35
e5
ed
5c
c8
e0
e5
6f
40
b4
ee
60
67
73
e4
d5
c5
e8
65
5d
6e
ed
e1
70
5a
e6
ef
e2
ce
d5
5a
f0
f0
6d
67
5f
54
d5
ec
6d
55
e5
ce
62
db
4d
d5
49
d9
65
6e
54
e4
6e
70
a4
4a
58
64
e8
59
ed
b1
e6
e7
e6
e3
b5
6c
e9
59
c9
ef
ec
48
c6
6a
de
6c
6f
4f
45
e7
37
72
65
5f
d8
d4
6b
6e
56
54
e8
67
67
2a
db
e8
d9
69
3d
ed
59
c8
6c
e7
4c
cd
70
71
eb
59
d8
e1
4b
e7
c7
50
50
63
d4
b8
df
dd
2d
39
21
38
4c
64
e0
5a
ea
59
68
e8
b9
2a
da
dc
60
df
e6
6d
e9
ed
75
5e
6f
68
a9
6d
db
51
5c
e2
ec
62
ed
eb
db
5f
ec
30
63
de
2a
6e
5e
74
11
6b
ee
77
b9
e1
5f
5f
ce
77
e7
f0
6f
c3
6a
d3
72
ed
ce
45
d1
73
e8
69
cf
d6
ed
c7
e8
cf
db
73
5b
6b
6f
3b
4d
73
bb
71
6c
78
d4
60
60
26
5c
71
cf
6d
26
5f
ea
db
70
e2
70
6c
69
ce
1
d7
56
df
df
81
f
ea
eb
ec
64
e0
ee
67
30
5d
84
e1
f1
d0
72
62
6f
6d
34
4c
c1
88
ec
68
61
e6
c9
bc
3e
df
5e
eb
ea
6c
c5
70
e8
e5
ec
eb
6b
57
d0
5f
dc
d0
e0
68
d2
5f
6e
61
70
70
6e
2c
db
e9
5b
ee
c9
6f
dc
bc
df
cf
e6
aa
e2
58
63
e8
eb
6e
87
df
52
cc
e9
80
e2
54
64
ab
6d
56
50
60
46
61
c3
5a
55
c3
68
32
e7
70
ee
d1
9d
55
ab
e0
27
ca
bf
5b
64
48
5a
3f
62
d1
5d
6e
55
ec
6c
d8
48
6c
4c
d6
e0
6d
54
d9
de
6c
ac
ef
6e
66
e8
e2
59
6d
63
62
56
d9
ea
ed
e8
e7
ca
71
60
ec
da
5e
cc
c1
4d
46
57
6c
d8
d7
6f
6e
ce
67
e4
9a
66
39
1b
e9
ee
db
cb
70
ec
ef
68
f0
54
e3
ec
6f
6a
eb
6d
6a
ba
5c
eb
4a
2a
48
5b
6c
68
5d
67
6e
65
57
e8
eb
63
d0
df
d7
68
5b
5b
e4
d4
95
43
e2
ce
e9
58
80
48
e0
67
6b
c9
6e
72
e6
67
6b
6a
56
e0
df
67
de
df
ca
ed
6d
6f
5d
6e
2a
5e
2b
c2
70
ef
6b
6c
ed
6b
69
5c
d3
70
69
c6
66
dc
12
3b
6a
4b
6a
ca
d3
e3
e2
e5
4b
66
c8
63
ec
ec
cf
6d
d4
6d
c4
e1
e0
dc
ef
59
ae
2f
6a
54
d8
e5
23
70
eb
68
e7
cb
5c
6e
4d
4e
6d
da
ee
5f
71
df
e8
6c
bd
6e
ea
e1
52
50
67
67
ea
d9
54
1e
6f
61
6f
8a
e7
e6
6a
20
60
5b
67
ec
ca
61
41
62
e3
d5
d7
d4
e0
d6
f0
58
69
f0
e7
d9
57
c4
ee
c3
5d
55
55
d8
56
65
dc
69
bc
e8
e6
43
58
a8
e5
6f
c4
25
3b
ef
de
46
e8
70
65
cd
e0
66
53
6d
ef
ed
dd
bf
c5
ed
51
e7
67
ca
de
68
67
eb
3
ed
4e
64
36
ea
e1
da
48
ed
df
ee
d3
65
81
6c
df
3c
ea
80
70
6b
6b
6d
e6
59
2b
ba
ed
a1
20
e4
e8
63
e1
4f
dd
69
da
22
d5
eb
1d
af
c2
9
dd
ea
eb
c9
5d
ed
e3
69
60
e5
4c
e5
6b
66
cd
c7
ea
ea
61
c4
ce
ef
dc
d5
e0
ad
4d
69
61
67
ee
62
ec
68
cc
ec
80
6a
6d
eb
da
65
ac
2f
b7
ee
e0
b2
6a
69
2a
d5
66
4e
54
6d
69
47
3e
6c
e9
e8
ca
71
5f
de
c8
dd
c
ea
60
2e
df
3b
ea
dc
b3
64
ee
a7
49
63
e0
3e
e3
e3
6c
c1
34
de
d6
e4
67
63
e1
df
e2
30
dd
6e
5f
6a
e9
43
c7
6c
44
d9
e2
70
71
e4
e4
d0
58
6c
6a
64
53
ed
6c
c3
e8
d7
6e
71
63
d6
3a
69
71
bb
6e
6b
e8
57
55
62
ec
69
9d
6f
e9
75
68
31
6c
e6
4d
ea
31
e4
65
e6
74
d9
ec
de
6d
d1
cb
53
e8
ea
50
ba
e3
73
65
3e
48
cc
40
50
d5
67
e1
ef
60
db
cb
5d
e1
54
64
e4
ce
4f
66
d9
cf
6a
ca
c5
64
dd
de
ed
71
dd
5d
ea
db
ea
ed
55
ee
6e
e3
6d
cb
ed
5e
d5
53
6e
59
5a
6d
5a
ea
dc
63
e5
58
e2
6a
f1
47
c3
e9
73
4e
63
6f
e6
e8
56
74
a7
eb
ee
66
1e
e8
ee
57
6b
e8
53
ac
65
e4
69
d7
b3
59
b8
66
4e
4c
e6
6d
4b
f0
55
cd
6f
c5
66
64
70
6f
6c
e7
70
5e
c0
e7
ee
5b
65
eb
d5
ee
52
72
bf
64
d2
73
49
d3
58
bb
21
e1
59
e8
e8
5c
6f
58
d2
26
2a
64
54
6b
66
6e
67
6c
e7
d6
e0
d2
6a
55
c5
eb
e8
70
d1
e7
66
69
b5
70
80
1d
d5
6a
e6
e7
27
e5
e0
ec
68
d8
69
e8
5e
b0
6e
60
cf
d9
c4
db
6c
6b
e8
df
d6
4b
dd
6f
6d
dc
3d
c8
e5
e6
c8
62
6c
68
65
ea
5b
55
cd
5f
60
da
6b
63
eb
ee
6a
e9
da
5d
dd
50
6f
41
67
ed
e6
0
49
6f
6a
d5
62
ee
ed
f0
52
65
cd
67
ee
eb
ed
6a
bb
f0
e8
d0
e2
db
6d
5c
ee
da
da
d6
ea
d1
33
d5
eb
6d
49
5c
e0
ef
53
d4
62
66
61
ef
67
3e
be
bd
60
e2
53
6f
e9
ed
57
df
f0
70
6e
70
32
57
6b
6b
e8
2b
6e
70
4c
6d
dc
eb
6d
28
e0
6d
d8
69
b6
e5
3c
54
69
ea
64
2b
43
b3
ee
3b
71
59
69
5d
63
b7
ef
e9
d3
67
6e
f1
ce
c7
ba
65
df
df
63
55
5e
e8
65
6d
3d
45
a5
ec
ee
d3
e3
b8
4d
32
ec
ec
3b
df
37
80
e8
4d
5e
51
70
54
e7
60
6f
e9
58
6e
66
65
35
80
cc
e5
ef
e7
5d
ef
dd
df
6c
b0
a6
e4
e0
ea
44
61
61
c0
e7
e8
5c
71
12
e7
62
ef
e9
68
eb
ec
66
e3
ee
e8
51
f0
1b
68
80
46
65
49
e4
5a
6c
6b
69
60
69
45
67
5f
dc
48
5d
d5
66
c7
4e
66
a3
6e
ec
9d
de
d9
6d
6b
eb
62
ed
61
54
1a
6f
59
ea
65
cf
14
63
66
eb
6d
4c
e4
f2
44
45
6f
70
dc
df
e6
51
de
cc
d8
6d
5e
64
75
f0
66
dc
5d
eb
e8
ef
94
6f
6a
e2
59
69
1c
2e
d1
e3
32
db
d3
66
71
ea
e1
c4
ef
65
68
f0
e8
f0
f0
ee
ef
cf
5b
df
53
6c
a5
e4
66
e4
31
57
62
6c
5e
75
e0
4a
6e
d2
51
ed
e0
63
64
cc
b2
69
46
6f
67
ef
de
ea
63
df
5a
6d
48
72
66
e7
db
e8
76
3b
48
6f
be
6d
c7
6f
3a
63
d7
5e
68
0
e3
6f
6a
ed
dc
cf
c4
6c
5a
54
e3
d7
e1
af
35
6e
72
13
2f
32
e6
2c
68
3d
50
bf
68
e8
71
67
f2
ed
e0
63
64
e6
66
dc
71
ee
de
e7
6d
52
90
5d
65
ed
80
66
dc
c9
4b
6a
dd
5c
5d
e2
df
d0
12
33
6
67
d8
4e
e2
68
4d
6a
e2
34
d6
41
e6
66
58
59
2b
4e
83
eb
e4
43
db
66
e7
2b
aa
e7
38
66
9c
70
64
61
dd
e9
60
5e
6b
6d
3a
dc
61
5b
6d
e7
eb
6e
bd
ef
70
de
d4
ea
51
69
e8
df
e2
6b
6d
66
c4
4f
e5
4f
70
6f
47
51
18
51
ef
f0
ec
dd
46
54
ed
36
e5
ea
e7
70
6c
61
67
e8
4b
e6
e6
ec
bf
61
48
60
59
ee
44
d7
69
c6
60
eb
d8
69
56
c9
d0
ea
69
da
5f
3d
e8
db
f0
f0
e1
6b
67
ed
e8
a1
7
44
e5
e3
60
cc
70
dd
55
e3
33
53
5a
70
6f
ef
6e
ef
e8
16
4a
3a
68
e1
46
d4
e0
ee
f0
cf
cb
ee
e9
f0
59
2f
67
80
9b
6a
5c
ef
d1
b5
db
67
e2
69
6b
6c
24
f0
6d
e4
32
eb
ee
68
cc
5f
6e
4f
df
3f
39
c7
ef
3f
ed
6f
53
e5
66
ca
df
54
e3
eb
d6
e7
65
da
ee
57
51
9a
68
c1
ca
ef
ef
ef
6d
e4
ea
f0
db
6c
e7
68
24
d8
d9
ec
a4
5d
ed
ec
55
6e
e2
ed
e9
eb
e2
6f
ca
eb
af
46
a1
bf
bb
69
6b
b1
eb
4a
ec
68
e8
d2
f0
4f
54
ed
de
57
ef
e2
ef
bf
e0
cc
d9
d4
5a
39
48
eb
6f
ee
54
54
60
d7
ac
54
6d
e4
d3
4f
56
d3
80
4c
ca
e9
e2
eb
6b
cc
ed
55
9e
cf
56
34
5d
e1
53
e0
f0
5e
63
ec
e9
98
6a
41
68
62
ce
d3
e5
64
a0
e1
e7
96
15
b6
6e
cc
52
e6
dd
54
c3
66
6f
6d
5e
6f
66
60
69
5c
64
c1
63
db
e2
d5
d6
6d
69
65
69
de
34
e4
57
61
f0
42
db
d4
66
ef
6a
6b
be
43
3f
cc
6d
dc
e0
6b
e5
40
6f
6c
6c
5a
56
d6
eb
bd
37
6f
d4
5d
e
4f
ec
cb
ee
80
6c
ea
ef
a7
dc
ee
6d
f1
f1
dd
53
a0
e5
60
55
dd
e7
a5
b3
64
18
6f
ef
4c
b0
e6
13
d4
8e
1e
3b
b9
6f
e4
eb
e8
26
6a
47
de
6e
68
eb
5d
d3
6f
54
ee
de
6f
dd
6e
59
d4
d2
55
e7
e7
58
67
da
5e
ef
6c
e6
69
c8
d7
65
25
54
6c
e6
6f
60
eb
4c
e8
59
6b
d5
6b
55
55
ec
e8
59
69
6e
ed
ed
52
60
4d
6d
e0
ee
66
6e
e3
59
44
65
dc
ec
ef
d7
e9
ee
47
ee
19
ed
6c
e4
af
ed
ed
e9
34
60
ed
c0
5d
d3
e7
f0
e7
5e
dd
63
e7
d5
e8
6f
cb
dd
d3
d8
ad
70
55
ca
18
50
5c
e4
ce
e9
54
5a
e2
70
ef
d6
51
ed
68
39
57
6a
10
73
6c
d4
e5
ed
54
ef
b
8b
61
d4
e4
9
6c
9c
df
ce
6d
de
ec
e8
80
80
ef
e1
dc
5c
56
c3
d0
ef
64
ed
ee
5c
e6
78
ea
2a
76
60
ed
f0
48
db
60
e8
d7
59
e1
61
68
4b
d3
9d
56
ae
5f
5b
d8
6d
ed
db
77
6f
53
6b
71
ef
5e
5c
db
52
da
dd
b7
d8
68
c3
ea
26
ee
62
d6
6c
73
d0
46
d7
62
87
f0
f0
5c
46
d8
e8
93
91
63
6f
6e
76
58
63
dc
be
6d
f0
cc
ed
e3
e7
f2
a5
6e
d8
e7
e1
8b
f0
ed
f0
6f
f0
f3
38
e4
3c
5d
6c
85
6a
65
4a
6e
aa
c5
e3
68
0
df
69
6b
ca
de
5d
ca
24
a0
6a
51
4f
e9
41
5e
5d
ed
e5
e9
66
54
6b
ee
d3
48
67
d2
77
72
db
ea
c0
e0
e3
6b
d4
d5
47
ef
38
ea
60
5a
70
6f
e8
62
2c
73
4f
4e
dc
6d
e1
ef
5d
bb
ae
65
57
bc
df
c9
e9
78
37
f0
67
57
3e
e9
ed
69
ee
70
70
2e
52
6f
76
3d
ec
53
e4
60
79
5f
6a
e4
68
6a
e7
66
f4
e7
59
e1
ba
3e
10
40
5e
5e
68
38
f0
e1
e2
bc
e9
eb
53
bb
6e
c4
a2
ce
66
d5
c9
dd
ef
69
ed
eb
ec
64
dc
de
e6
e3
c0
61
df
44
3e
df
38
b1
6e
6f
d1
1f
cd
a1
24
e9
56
bd
e9
61
6c
be
c2
cd
dc
6f
e8
70
f0
6d
67
41
eb
e2
3f
69
67
69
d6
d6
e
e8
65
a7
de
e5
6d
5d
5e
57
e6
3f
ed
a4
e7
1f
d2
4f
f0
6c
63
ee
71
ea
e0
ee
55
1b
e8
c4
d7
6a
cc
d0
ec
ec
54
58
d1
43
32
32
d3
eb
d4
51
e4
51
6e
65
e4
6f
e4
6c
59
ec
5e
e8
35
e2
5d
e1
70
6f
62
f1
f2
ed
ce
4e
da
de
43
17
de
6a
eb
2e
aa
df
ad
6e
d3
70
61
d9
e3
ed
69
db
65
64
59
d4
15
36
b3
6a
54
e7
dd
cd
d5
22
d8
6f
5e
f0
3b
c2
5f
6a
2d
64
6d
12
6e
17
54
ea
d4
c7
6d
eb
64
d3
a7
4e
67
49
f0
45
dc
6f
a7
d4
63
46
e7
d8
e4
ee
e0
69
6b
36
61
70
e1
69
6e
3e
6f
e0
d8
71
ea
da
e6
e4
44
42
c6
57
d8
6c
ed
d9
c2
df
c2
db
dd
62
c8
54
57
63
de
6d
ea
65
eb
da
52
53
1f
ec
db
33
ee
57
63
db
f0
64
80
e0
bc
63
dd
42
eb
30
ee
6b
e4
db
e1
6f
5a
73
e5
f1
e1
5f
dd
c8
ea
68
62
b2
70
35
cc
5a
ea
eb
eb
e6
c1
61
2a
64
c6
66
73
6a
db
60
50
69
70
d1
aa
63
ee
32
74
e3
ef
4f
3c
38
5e
c4
5b
e6
6c
67
e8
43
6d
5c
e4
6e
dc
5a
e0
df
67
db
67
75
64
53
6c
e5
db
5a
6e
64
5f
c6
e9
bc
70
72
6d
61
ec
c
80
cc
6f
46
e3
6a
54
e1
d1
74
61
e4
ec
65
62
25
6f
67
69
c5
e2
26
6e
d8
dd
68
d5
43
e2
e9
d2
35
6a
71
ea
da
dd
be
ea
df
4e
46
e3
e9
68
e0
66
ea
62
e2
6d
d7
6b
69
e2
f0
e5
6f
48
6c
57
ee
cf
63
6d
ec
59
e3
4c
6f
e8
d9
ec
d8
9c
5a
55
d3
6f
6a
5c
57
44
68
d5
60
58
de
65
d8
e2
6b
6a
ec
61
e0
eb
e0
6d
5a
d9
d1
72
64
49
a6
5b
db
65
59
5c
6d
56
d9
ca
e0
5b
60
bc
64
dc
5d
eb
67
74
e9
ea
6d
ed
e1
cf
e5
b3
60
ea
63
ed
bb
56
db
1
ea
ba
e8
e9
6a
ea
ea
e7
ea
6f
ef
61
45
df
e4
e9
69
3d
ef
e1
6f
5d
61
eb
69
3c
e0
65
61
4b
b6
e5
e4
dd
6c
e1
e5
52
e6
ef
69
4f
57
e5
68
e7
d3
31
ea
41
68
e6
37
ed
bb
32
d1
cf
e1
bc
d6
26
64
e3
d0
e8
ea
30
69
de
ed
d8
36
e3
da
ed
6a
df
55
6f
ea
e4
d6
ee
ea
66
3f
5f
65
68
d1
6b
df
e9
54
6e
c8
6f
58
e6
cc
ee
65
1d
b9
4a
6e
e5
dd
6c
61
df
ed
5c
56
66
5f
50
6c
dd
70
e7
da
de
e4
da
5c
e8
6e
e0
2a
cf
cc
6e
c2
d3
23
5b
53
66
6c
6f
a7
3b
e4
60
6d
44
69
d9
5b
67
e5
e1
68
d4
4c
e7
e2
e2
6e
9e
68
4c
e1
ed
69
5c
ee
e9
62
ed
e8
5d
ec
e7
e6
69
9a
e7
b4
48
bc
64
cb
6a
3c
c0
c7
e0
61
5b
e0
e9
eb
68
cf
4b
ef
b3
d4
dd
df
dc
e1
23
5d
53
d8
6f
6d
6e
65
4d
38
d9
e9
3b
66
58
6d
cd
c3
60
eb
6b
e0
ed
31
e4
55
66
e9
c9
c5
d9
39
e8
e3
f0
4e
9f
28
24
e7
ae
e2
e6
dd
d6
bc
5f
a9
ee
ee
65
36
ec
6b
58
6a
c4
ce
b2
d2
6f
5f
4b
c1
63
e9
e0
13
5c
c8
cc
44
f0
38
f0
4c
2d
e0
eb
34
69
65
dc
6f
ea
6a
51
c1
e5
46
5b
60
c4
5e
50
d7
ed
43
e4
da
ca
61
f0
e7
d8
e8
68
97
de
e6
e0
5c
59
dd
ed
6a
70
e8
60
45
e6
4b
d2
cb
e3
20
66
6f
e8
5c
6c
70
e5
6d
62
54
cd
ed
b0
53
e2
81
65
6b
5b
63
cb
e7
d9
ae
6c
ed
6f
55
e4
5c
6e
5d
66
69
34
b1
6c
b6
67
e5
48
63
af
ca
6e
c9
68
e1
e7
e9
48
5e
6d
6a
b9
96
66
63
46
dc
e4
59
e8
e6
6f
41
f0
3b
da
a1
6d
64
e8
57
3c
2f
d7
2f
62
70
f0
80
e1
ef
3a
f0
e2
dc
f0
e5
f0
ef
de
5e
70
e0
e5
5a
e1
5b
eb
f0
43
d5
6a
40
e2
6b
bf
6b
de
ea
e7
d3
56
d6
e6
d4
59
64
6f
62
a9
69
cf
ec
70
92
23
5c
dd
c9
28
6f
22
dc
ee
6f
37
18
e2
57
ed
2d
67
49
69
f0
b6
f0
4f
d9
59
66
65
6c
e0
ea
e9
3f
4d
d2
e9
e2
b4
f0
d4
13
36
cc
4b
6b
6f
60
69
68
ee
d7
e2
d6
eb
61
c7
69
eb
ee
57
da
c6
66
2e
de
e3
64
4c
d9
69
a3
60
6a
5f
c0
ef
e1
22
e3
be
36
6b
70
4d
56
5e
d1
6d
eb
69
4b
56
f0
c6
aa
d4
ea
6e
e4
58
53
e4
ef
6e
e6
70
6b
5d
9f
59
e7
d8
ef
de
c9
4a
a4
ed
64
3f
c9
63
6d
55
5a
ef
6d
e6
dc
6d
68
c9
de
0
c7
e3
6d
42
70
60
62
e7
ef
e9
ea
2c
5a
ea
63
5c
56
53
45
6f
dc
4c
e7
e4
63
c
6d
1b
ef
96
d6
6b
c9
50
5b
68
d4
c5
dd
6f
51
d2
43
cd
c8
d3
dd
6f
58
67
bb
48
b2
51
1a
6a
d3
50
eb
52
4d
65
b6
26
e2
ef
dd
ba
81
db
68
e4
ea
e1
cb
cc
3a
ed
c8
9b
ef
eb
68
d2
69
67
d7
5e
ed
ef
df
68
dc
ee
ef
ba
e6
6b
e5
43
5f
f0
66
e2
e3
d8
85
60
e3
6c
6f
e9
30
54
ea
ef
63
62
c7
69
6b
57
69
e0
db
6d
b9
e6
6f
b7
eb
6c
70
37
64
e8
ee
e6
dc
52
6f
64
48
80
5c
57
e9
63
6c
5f
bc
a6
52
f0
ca
d8
38
e8
4e
5f
ef
da
5c
63
6c
52
62
70
e9
30
dc
d0
4d
61
69
c3
d6
dc
ed
e1
44
5f
11
d5
ec
62
6e
56
f0
ae
d2
ee
dc
5b
63
55
5c
d0
dc
db
33
ed
5f
ea
de
eb
6a
71
f0
dd
c1
e0
55
d8
66
df
66
6e
9c
eb
df
e8
ec
0
5f
5d
c8
3e
d4
70
80
61
c6
cb
db
f0
e6
6c
65
68
68
ef
ed
60
d7
ee
67
d7
f0
5f
45
b8
e9
40
e4
cb
e3
e7
51
70
e6
d4
47
db
45
55
d9
d7
f0
d0
ea
62
4c
ca
53
db
45
6f
70
53
d7
62
e7
a3
62
6d
6c
ec
f0
70
e5
ef
6a
d5
58
c6
e9
66
6a
50
e3
d1
68
70
c0
e0
48
62
c7
ec
eb
3a
da
6e
ea
36
64
e3
6e
dc
1d
e3
c2
5f
de
81
ec
33
c6
52
ce
51
cb
27
bf
62
e2
bc
65
df
66
6b
e9
69
62
f0
b2
5b
ec
e2
e7
ea
ce
5a
60
e3
c7
c6
34
ea
a3
cc
3e
e2
6f
68
6d
6e
55
53
0
e5
d1
e8
6e
6e
e9
ea
62
37
e1
e5
56
58
63
5c
4e
eb
eb
5f
f0
65
48
ef
4a
6c
29
69
5f
41
e7
cc
ec
61
bc
5b
f0
ef
68
42
68
ef
67
c0
c9
d4
ec
d0
63
52
ed
df
d7
df
6a
cb
4c
a6
e6
6a
ea
e7
60
c6
5f
e7
43
cc
e8
6c
66
6b
66
d3
f2
db
81
68
5e
d9
72
6a
65
61
e9
44
6d
d2
62
6d
57
49
d3
ea
6a
41
33
6a
d8
f0
d7
ea
eb
e4
5b
64
db
c4
6f
f1
67
5f
65
ef
6a
ed
da
63
42
e1
e2
6c
ef
b7
5c
60
74
14
5f
e9
6b
ce
5e
65
e6
64
58
3f
8e
59
75
72
be
3e
af
c1
44
5f
61
6d
e2
cc
6a
70
5d
4c
db
68
70
5d
64
65
df
69
47
63
6c
6c
e9
ea
5
58
74
31
29
58
66
62
45
62
6e
c5
e8
67
de
69
e9
5f
d5
d6
e5
49
e4
60
e7
ee
52
69
cf
e3
64
cb
c1
6a
c8
51
b5
ea
68
e4
de
58
ee
d7
55
70
37
6d
c6
5c
4a
e5
5d
66
d7
ee
c3
de
61
cf
eb
a
4b
e8
44
16
d2
e0
ed
e7
e6
cf
59
c7
d1
54
d5
9d
e6
84
56
70
69
67
da
de
e8
62
58
e1
60
cb
2c
e2
e9
e7
1c
60
73
af
4b
e5
b8
e7
6b
d6
ed
e8
e8
e4
e9
6f
e5
d0
a5
1d
ed
e3
2c
d5
66
d1
f1
44
f2
eb
57
e8
ec
56
62
65
b7
6f
74
bd
60
65
d8
e2
ef
e5
f0
42
6e
dc
b8
e3
60
68
b1
8e
e4
d9
dc
c6
f0
ee
e8
67
68
63
ea
e5
6c
dd
ee
ec
6c
56
de
71
53
5a
4e
64
6f
ef
67
ec
68
ed
67
6f
e7
39
3d
2b
da
3a
6e
68
5f
64
64
de
db
5a
ef
ec
e6
ba
55
4d
6e
f0
ee
74
70
ec
9a
3a
e3
e2
73
68
55
5d
df
57
4d
5d
a6
69
81
58
d9
d5
e2
ec
5b
65
62
46
66
c9
ee
e7
4c
ef
e3
e8
e7
2c
65
e9
c1
52
c7
e3
dd
ea
80
e9
6f
e1
6f
6c
29
25
6c
56
c8
44
ee
ef
cf
35
66
b4
69
e8
d6
cc
68
70
ec
42
58
5d
e4
69
ad
db
5e
52
68
dc
49
45
70
5d
6b
60
e6
6b
5c
e7
62
65
e0
71
6b
ed
42
f0
e6
f4
0
e3
51
ea
d5
e9
e8
f0
ef
d2
65
0
5b
cb
51
6b
60
de
59
dc
5b
69
67
6e
67
d3
4f
de
58
ee
d8
6b
ee
e0
e8
61
67
5a
ec
e4
57
e5
5a
48
69
6c
de
81
68
6e
f1
51
eb
cd
e7
6c
6e
54
6e
e0
e1
e3
6e
ef
6f
d5
45
d9
69
8e
d8
ef
6e
eb
3f
e2
c4
c6
a8
d1
da
de
73
c3
eb
de
cd
71
c8
e9
e2
4f
5e
af
e0
66
d8
68
96
55
5c
ea
a
ae
63
ef
4e
a3
29
ba
53
52
55
e7
6b
eb
d2
3f
e9
de
49
dc
e4
57
60
a6
1a
ba
1b
b9
4b
ed
c1
1f
5c
6e
60
ec
68
db
ea
6c
6f
ec
cd
69
d6
58
70
66
ea
5a
6a
e2
cf
62
e3
eb
d8
ed
4c
cb
61
5a
db
d6
b6
d1
d2
3a
ae
e8
e8
db
27
c7
b2
6c
d6
ec
ea
5c
c8
4b
6d
9e
e4
ef
43
b2
17
d4
e3
67
b8
b6
63
e9
b3
ed
d6
e1
6f
67
ae
c0
d3
d0
c1
58
e0
e8
d6
8d
df
5c
e2
60
e7
e1
6c
ee
e7
c1
e9
e4
eb
e9
5f
c9
e1
ea
6c
70
6f
67
2a
4f
63
ea
e5
d9
e2
88
dd
44
ec
6d
b4
a0
cc
e9
df
64
d2
cd
db
df
ef
65
64
52
6f
62
4d
e4
3d
5d
1e
d5
e6
5a
67
bf
40
6c
43
e9
6d
4d
6b
5a
6e
ef
58
e8
ab
60
6a
66
51
6f
e3
6c
67
53
6f
65
ec
56
68
da
54
6e
54
eb
9a
5c
e3
6e
e8
d7
6d
67
ed
d7
ef
6e
6a
db
68
eb
68
c3
ee
d4
b7
db
ec
ef
da
d8
d3
6a
3f
e4
57
ec
ed
d0
eb
56
ed
eb
53
c7
62
f0
61
57
6c
d2
59
e1
64
6e
d1
e1
e3
ec
ed
ef
f6
f0
72
ee
d9
62
e6
dd
d7
6e
51
ea
f1
7b
6e
62
5a
eb
6a
f5
f0
f2
dc
6f
75
57
ed
71
7b
4d
41
e6
ed
5a
a6
70
ed
f7
15
6c
62
64
44
ea
69
98
55
dc
53
7f
e5
f2
43
7b
eb
6a
7a
d3
65
d9
68
76
6c
47
69
5a
5a
d3
73
e5
5e
e1
68
67
f5
f1
6c
5a
cc
c7
6e
d2
bc
52
ee
6d
7b
d5
ca
4f
f3
36
71
6b
df
70
7d
79
eb
e4
76
e2
67
65
4f
e4
6e
e7
72
cc
cb
f2
f8
97
68
78
f1
5d
66
5a
f4
6b
5b
c7
4a
be
ed
70
50
6a
d9
e8
58
e3
f5
f0
bf
13
f1
cb
f0
7a
f6
6d
f4
b9
e6
61
e9
f4
e6
e8
73
5e
6e
6
44
d4
ef
64
5a
6f
b6
d1
e5
e6
74
57
75
56
f6
6a
67
ee
77
e9
d9
66
a0
c3
dd
e1
cc
63
ec
6f
e0
70
30
df
5c
f3
e8
d8
77
d2
53
ea
53
f5
3b
f5
66
f9
6e
b6
c6
6d
65
f3
e5
f8
e5
69
b6
5f
6b
62
79
65
80
75
49
4b
de
ed
69
dc
5c
73
69
38
69
69
de
c9
d7
c9
6a
69
a6
27
6d
e2
70
f2
3f
f9
66
f0
95
ed
59
7c
60
ce
6b
6a
e3
d4
61
e5
eb
5e
55
cd
b2
e5
6a
e7
e1
59
e0
ec
65
6f
5e
80
eb
3d
e2
6d
58
ea
d0
6e
5e
70
e2
60
5e
a
ec
6e
e9
e1
ca
4f
6f
5a
4f
6b
ec
ee
e2
62
cf
e8
4a
68
4b
62
ec
ea
e7
69
cb
ea
52
df
6b
b2
b9
eb
ca
62
4c
3c
ed
5d
ea
51
e7
a1
50
52
b8
de
60
e8
5d
d5
c6
68
e0
e4
b0
b3
ca
ee
49
50
e9
64
58
59
6e
6a
35
6b
ea
6e
de
6e
d6
72
5b
5e
41
ea
e9
d4
e3
d9
5c
6b
4c
ee
da
eb
e1
c6
61
cc
bc
0
57
6f
dd
6b
3e
71
ef
5c
5c
ca
5c
52
66
a8
df
66
35
65
c7
e4
cd
6c
4e
d2
d8
6d
ca
eb
5d
35
4d
60
67
4c
eb
e8
4d
61
e0
e3
5f
56
e0
df
dc
66
d2
e6
63
6e
e3
d3
eb
e4
66
5d
d8
65
3e
d2
69
e5
b3
65
49
ee
5b
e9
e1
6e
2e
54
54
eb
e4
65
e3
5b
de
64
ef
ac
5d
4d
ee
6e
66
4e
6d
6a
dd
e7
6c
64
6b
45
60
ea
48
54
5c
cb
e5
e4
6a
81
e4
cc
5c
e6
db
e4
b0
64
c5
e5
35
c0
d8
9e
61
5f
ea
44
e4
64
e8
6f
ec
e6
42
bc
dd
d5
2f
4a
c0
6f
eb
58
ec
60
ee
dc
81
71
eb
ef
d4
17
d4
2d
ee
e2
ce
e8
e5
65
e9
ea
6c
63
e9
68
ee
d8
c7
ec
68
50
ef
de
ea
70
6c
71
4a
e7
39
48
72
9e
ec
ee
d3
f0
d3
6a
5e
5d
63
e3
d4
bc
64
37
e7
e9
6c
6d
b4
81
9f
d0
71
6b
43
80
eb
d8
59
66
eb
70
ea
ef
ef
40
63
cd
37
65
d2
67
24
dd
da
69
56
ea
4c
e2
6c
db
6f
65
32
cf
6c
e3
60
cc
e6
6d
dd
71
45
b1
e2
e1
59
ea
c0
6a
e2
f0
64
ed
e4
da
55
69
61
b1
55
c1
cb
49
d6
e2
61
ed
eb
44
6a
70
e1
71
5e
d6
d3
57
2b
dc
ac
65
ee
62
d6
66
32
ed
ca
5a
dc
55
e4
e7
60
43
73
d9
e0
eb
6c
df
6d
6a
e8
e1
d8
e9
70
e8
20
b8
e8
5d
ea
53
ef
e9
e7
d0
e4
64
ce
30
64
6d
e0
64
df
70
ef
ec
a7
62
68
50
56
b0
6b
6f
dc
68
e6
73
c3
80
63
66
44
e2
f0
ee
62
5d
2e
69
da
e7
20
ee
d5
6d
70
e4
70
51
61
70
e7
97
ea
6e
29
c6
eb
d9
35
db
74
75
50
71
9e
e4
aa
6f
63
65
e4
55
df
e2
5a
5d
67
ed
5a
72
67
e9
6e
6c
d9
c0
c3
68
ec
e8
5f
6a
5e
51
d0
e3
ea
df
d9
70
5b
45
3c
68
df
47
6e
6d
d4
77
6b
55
db
59
62
61
61
9b
6f
f0
4c
2f
5f
54
df
38
e1
ec
bc
c5
71
70
e1
6b
5b
63
ee
c4
4b
c4
e9
b7
cf
6a
e6
dc
72
66
6e
c8
c2
35
e7
71
d1
e6
c6
ea
66
db
da
58
4e
eb
40
66
c9
4c
65
f1
ef
4e
61
66
d6
5d
6a
6e
db
3b
6f
5e
e0
60
6a
41
4c
e3
77
ce
d2
69
dd
5b
51
e5
ee
62
6f
65
6a
5f
e6
55
6a
62
6d
5c
70
b0
67
b5
e6
6e
70
69
ee
e5
60
5c
5d
58
d1
6d
d4
58
63
50
60
e1
e5
63
58
ee
70
ec
e2
dd
68
ed
d7
cb
77
74
59
6c
e5
e9
73
6f
54
e8
db
e8
c5
da
2d
ba
66
e9
38
6e
65
71
68
4c
41
76
e5
ca
74
d8
52
ce
44
c7
5e
70
55
4e
e0
bf
f2
6b
cc
69
72
6b
a4
61
71
a4
4b
e1
4e
22
ea
b9
6c
e5
e7
6c
38
76
6a
ac
e7
bd
70
47
69
53
cc
4b
ec
ef
63
eb
ee
a
15
ed
51
5f
ea
61
52
43
da
ec
6f
6e
5c
64
d9
b8
5b
38
e3
54
47
ed
e9
65
6d
d8
4e
3f
e6
70
d9
4f
e6
6f
be
6c
4c
51
6f
d8
d0
60
c4
5b
dc
3c
dc
e6
69
e1
2a
6b
d6
6e
d7
5f
6e
e4
6c
de
4e
d1
e9
e5
c8
3c
df
6f
e9
6b
5b
ca
c9
62
ec
e1
ec
98
e0
ef
ea
63
ef
67
6c
6e
6d
c6
e6
e3
67
e4
5f
ab
c9
27
58
e2
a7
c8
6b
d2
e7
64
39
e7
d
6e
53
56
b1
2c
e2
6f
dc
3d
45
e7
e8
64
ef
6f
68
ed
5c
59
c0
3e
cb
de
3a
66
43
e1
67
bc
55
6e
5e
e8
3c
ed
70
3b
48
25
56
6f
e4
3c
4c
db
26
ad
34
6c
1e
e8
dd
6f
6f
e4
e1
e7
71
ec
dc
9f
ed
6d
5c
c2
33
62
e3
e0
1e
dc
46
e7
5e
c6
67
0
70
cb
ed
52
da
ee
ea
48
5c
52
54
ef
e2
e9
32
54
4d
f0
67
6d
d8
c6
cf
5e
57
ce
e2
bf
44
6d
49
e0
e8
d0
ae
dc
3f
58
e4
32
da
65
5f
5c
3b
40
57
41
6a
5e
32
6a
b5
64
66
68
42
68
3d
f0
4e
6d
4c
ec
6b
cd
5b
ef
56
90
2e
69
5e
28
f0
e5
51
e0
5e
db
5c
ec
2c
e2
d1
64
67
30
6d
ed
e0
69
5d
6d
48
a5
d5
dd
66
5f
43
50
22
df
63
6c
df
ef
61
ee
e9
ed
c0
d8
53
cf
52
f1
ee
63
64
cc
4f
ea
e7
25
dc
d8
35
5d
e3
56
dc
6a
cc
68
e5
6d
56
65
a6
e0
df
69
57
dd
57
3a
e0
ec
ea
ef
e0
64
5a
da
68
ee
50
ec
ea
5a
cb
ee
de
e5
35
ed
c9
70
f0
d2
de
67
4b
6c
cb
e3
e7
de
ef
da
c0
e
62
ed
5b
cd
4f
57
6e
69
6e
5b
69
bb
67
a4
5d
ed
62
64
60
45
e7
e5
66
60
4a
48
4b
f0
bd
d7
31
57
b2
ef
4d
e0
ea
f1
ef
6d
eb
6b
ed
65
ed
43
e1
ec
64
6e
d8
bd
d8
e7
3e
4e
69
6f
46
6d
c5
44
68
e5
e6
52
3e
ef
11
e5
e5
cd
ed
5c
54
e6
66
e5
e7
65
e0
cb
e1
e8
e8
ef
ee
67
ed
9f
de
69
d8
6f
63
ec
6d
d8
e0
6c
ed
ee
66
e8
55
56
6d
61
3d
53
5e
ed
6f
eb
d7
db
ee
ee
68
61
6c
68
d0
e3
e0
d7
53
63
eb
34
f0
e9
40
dd
6b
5d
61
56
ed
ed
4e
cc
ed
c3
eb
cd
ed
a3
37
5c
bc
52
6d
65
6f
b2
dd
de
6e
63
a0
0
50
68
50
e9
58
ea
44
6e
ed
d6
59
54
64
6d
59
5e
d1
5f
e9
55
ec
af
4e
5d
6e
e8
70
ed
69
dd
df
e8
d9
ea
d8
f0
e0
cb
36
4e
e5
f
d6
3c
f0
e2
66
e1
df
3c
d0
54
8d
ec
ce
6e
ec
65
35
63
66
e0
5d
41
67
e7
6b
6a
d2
c6
54
ef
6c
ec
de
65
ae
67
1e
e8
6e
e2
85
68
e0
63
6d
66
e8
99
6b
6c
48
21
9e
43
d8
ea
5b
58
e6
6b
54
5d
6a
6a
a2
6a
de
e9
63
cf
22
e1
63
6c
6b
58
d4
e2
6f
eb
5d
e7
56
6e
38
6c
6f
70
6d
c9
45
55
66
da
6b
4f
6f
cc
ca
ec
58
68
ed
5f
e6
d8
eb
8
6f
e3
ee
6b
ea
63
dd
4f
be
60
e9
67
50
d5
6a
6d
e5
5b
70
6d
e8
66
d7
ef
62
2b
68
63
da
3f
58
5a
e0
57
55
e8
6e
eb
db
ed
57
c4
cc
5d
6e
ea
29
d3
65
f1
70
62
6c
e9
eb
d5
e4
d8
5a
c2
64
df
e7
b4
57
eb
64
e8
d4
d6
cb
6f
55
6d
50
ee
5f
6f
ef
bf
cf
69
55
4a
e7
db
69
e9
af
e8
e0
41
ed
9
5b
6f
6a
6c
5d
4c
57
52
ee
5f
ee
d0
42
6b
b9
d4
4a
40
57
eb
ea
69
dc
3d
da
eb
58
f1
d9
d9
dd
d9
ec
64
4a
71
e9
ef
6b
77
d5
61
6d
27
5e
e6
cd
ea
66
e6
5d
e6
6e
6e
66
70
ec
38
6c
5f
49
da
6d
48
5c
6d
e9
d2
d3
70
e0
d3
c6
ef
dc
47
54
cf
eb
da
44
c5
50
6b
f1
f2
69
ea
4e
eb
6e
6a
e4
6e
e4
b8
c0
da
5e
50
6a
d2
d8
dc
11
6f
c7
d6
d1
cf
67
ed
e4
b6
ea
e8
69
ec
64
70
e9
54
e9
5c
ee
60
4d
e9
93
bf
63
6e
e4
70
67
e6
e2
c9
6a
ba
4f
c7
4c
d4
e5
64
4b
32
51
59
70
dc
ea
ea
eb
47
67
68
6d
e
22
50
e5
da
6e
6f
5b
e8
34
63
6b
6f
db
eb
e8
56
65
e3
ed
6f
d6
64
e9
50
5
e7
bc
d9
53
e3
71
ef
62
61
b1
49
0
5c
ce
d1
e4
67
eb
df
73
d4
ec
cf
ca
ef
6c
d9
c7
55
d1
69
ec
58
df
6c
68
e2
b6
63
4a
e7
6d
59
d9
ae
b8
ee
ed
62
58
6a
58
e0
b8
6e
70
af
eb
e7
e3
cb
94
d7
ec
ea
ee
e8
e8
e6
61
d0
62
5e
5d
69
e6
ec
5d
6f
49
e2
65
6a
60
d5
df
71
dd
52
ed
e9
2d
4b
6b
e2
37
b5
e6
81
5b
55
62
c8
4e
67
57
3f
38
6e
ef
57
2d
6d
ef
dc
ef
d2
57
c7
e5
ed
44
e4
e4
50
45
5d
58
e5
e7
46
52
67
d3
71
57
d6
62
ed
d9
d0
d0
d0
e2
de
5c
a7
65
f0
65
51
6e
e5
e3
e6
e1
e2
40
69
6d
c0
e9
d8
6b
cf
e3
c7
64
eb
48
ee
dc
6d
59
5d
65
2a
d9
6e
32
e6
5a
e0
54
bb
5f
5f
6a
53
64
41
54
10
29
ba
6c
d3
ee
b9
eb
d9
bb
ea
58
6d
71
ef
70
e2
ea
e7
67
d9
8c
61
c6
f1
e0
df
6d
65
60
57
36
e5
c3
36
ea
df
d8
63
ed
ee
ee
65
64
34
d9
e0
cb
37
70
de
68
ce
5b
da
e4
e7
e8
61
6c
dc
da
6d
65
a2
34
ed
f0
5a
d2
96
70
6f
63
71
e4
65
ef
ea
5b
e9
5b
d6
5c
3d
64
dd
80
6b
b8
cf
3b
ee
d0
ec
6c
d5
eb
a9
df
eb
ef
4b
d5
c2
41
e3
b2
6c
66
6c
c7
39
58
66
d8
d3
c8
34
e3
d0
6e
68
0
ef
65
eb
e9
ee
53
36
e9
ec
c5
cd
eb
d7
ce
e5
5d
dc
35
de
e6
dc
6c
d6
60
e3
6b
dd
cf
63
65
53
ed
c2
c9
e5
61
4d
63
d6
ea
64
62
67
e7
ad
44
c8
4b
da
e9
57
dd
6e
d7
63
2a
23
6f
68
de
5b
5c
6f
6b
ef
d4
63
50
db
5e
66
6b
d9
bf
6b
ef
58
d3
eb
60
e9
6a
eb
6a
66
ea
5c
b4
42
5e
ef
bd
62
ea
69
6c
68
60
da
e8
d4
6f
e9
6a
eb
5d
c3
e7
6f
ed
64
e4
67
6d
e8
d4
c9
6d
69
10
a2
ef
72
a2
80
d8
cf
66
15
67
56
ec
66
eb
e8
cd
f1
eb
5c
db
23
4c
3c
eb
73
e9
67
e2
e0
bd
dc
e0
ed
70
6a
ec
dd
4d
eb
ee
c6
6d
6d
e0
64
72
dd
dd
ed
71
ef
40
51
a1
cc
5e
69
4b
43
72
59
da
ea
d0
62
ed
b0
c0
ea
d9
e1
ce
54
4e
d7
e8
6c
51
50
63
16
6d
55
6b
6d
61
e1
b1
5d
55
53
b0
42
44
eb
bd
e5
be
d0
71
d3
d1
75
2f
d3
dd
2f
cc
5a
67
49
65
56
70
37
d2
c6
da
2c
ef
5a
3a
e1
41
72
da
4c
59
eb
6f
de
6b
eb
6e
e2
e0
cb
6a
45
51
6a
71
e2
d3
66
2
65
53
65
c1
c9
72
66
58
e5
ea
f0
69
b5
64
d9
72
6e
f2
6c
6a
6a
ea
d1
56
54
eb
68
49
ef
71
4f
d2
61
67
49
5d
4b
e4
d7
71
6f
dd
65
6d
5a
64
d9
77
db
68
dc
ee
68
42
60
cb
6b
69
eb
b2
e8
61
f5
d4
57
3b
ef
6a
55
d9
38
62
46
d8
68
cb
ec
67
63
68
55
ec
4d
b9
5b
56
c8
68
6e
b4
65
26
69
d3
62
f0
dc
59
d0
ed
4f
72
f0
c0
43
6a
a8
ec
1f
54
e9
3a
72
97
67
ad
e4
5b
a2
d7
d5
ea
c0
69
6a
e9
dd
57
6c
c3
43
eb
6e
6f
71
59
68
f3
62
d5
e9
96
d8
49
bb
51
60
6f
6c
71
3f
e7
d1
d8
6a
56
69
64
6b
6a
64
f0
b4
6f
e6
cb
dd
6d
b0
4b
ef
db
73
68
e7
ef
3a
ea
62
eb
61
e7
68
45
3a
d8
aa
69
63
dd
d3
47
47
61
e8
41
6a
e3
71
6b
56
6c
e8
cd
dc
92
6f
dc
e9
54
6f
51
62
57
73
55
69
ca
70
c0
ec
d5
8c
6e
6d
ca
d9
e3
63
4b
e8
e4
61
69
5f
bd
ef
4b
ed
8f
6c
56
68
60
6f
8c
ec
d9
57
6f
d4
6b
c6
da
55
c6
4e
e7
61
59
e4
ef
70
cc
68
62
df
6c
6c
4a
b7
6c
36
6d
d7
d1
66
ea
69
70
e1
d8
e2
71
61
e2
68
63
6d
73
ee
f0
e7
70
cf
e2
e7
ba
e5
e2
ed
54
c9
61
50
e2
be
ec
da
dc
5f
6c
dc
e8
58
6d
dd
60
dc
58
d7
6c
d7
97
72
5f
5c
cf
ec
6d
68
6d
4f
b5
d3
ee
93
6f
6e
69
52
5c
ea
62
e7
eb
e7
f1
d8
57
59
6b
ec
69
dd
44
ee
b3
5e
52
6c
42
ab
6d
da
cc
e1
71
6c
6f
ee
3d
70
5f
9b
4a
cd
4a
36
ed
45
e0
5b
d0
d1
ed
64
d2
da
5f
e1
bf
ce
6b
e8
f0
c7
59
3f
eb
ec
ec
6b
49
cf
c8
c9
1f
59
71
66
4f
48
c4
5e
cb
64
b1
52
45
65
5e
d8
38
6c
68
e9
e7
72
d2
c9
e6
e0
6a
6e
6d
a7
42
28
eb
ce
d9
d4
44
65
6c
a5
6f
e4
eb
db
cd
57
e7
69
f0
57
6c
4a
39
67
2d
4c
9c
48
56
6a
f0
cf
ca
97
bb
eb
db
6b
69
5e
e6
67
dc
6b
ee
63
6b
6a
60
eb
e2
5a
bf
e1
a4
6f
e9
6e
1c
ba
ef
b5
5b
6d
6a
48
c9
d4
e4
3c
81
6d
60
6b
e8
65
6c
e3
6b
e8
e9
62
e5
89
d9
e9
67
59
e2
65
72
b2
ca
be
68
51
e5
5a
eb
60
ee
e3
60
db
6f
e6
e9
2a
6f
ed
5d
b7
64
dc
d3
4b
96
69
63
57
40
d6
6e
ed
49
c9
71
28
eb
69
f0
8b
da
5f
e8
62
ee
48
c4
e5
ea
c6
6e
cf
da
ab
59
25
de
42
e7
65
e0
27
d6
de
e9
70
f1
c8
f0
27
ec
e3
ef
e7
61
e4
80
6e
cb
e5
b8
6e
c1
ce
ef
b9
b3
39
3e
eb
43
4f
48
b2
ea
c5
e0
49
f1
c5
f0
48
4f
e6
cc
6b
66
c
6e
1e
d4
67
d7
f0
3c
4c
cc
4a
ec
e
e1
e3
6b
65
5b
ea
6c
48
69
3e
d0
66
d6
ea
de
b2
6b
53
c0
68
e2
d7
cb
65
8b
38
e1
5b
5e
65
6e
53
e5
ea
6d
6c
6b
64
d8
65
67
e5
ee
60
6d
56
e7
6a
57
60
4d
cf
6b
df
a5
e3
67
5d
31
3f
5a
4a
63
dc
e8
5d
df
d1
cc
e0
65
5f
db
58
e8
ea
c5
e6
68
67
da
62
e0
6d
46
c3
cc
6f
69
3b
6b
70
6a
92
ae
ec
b4
bb
e7
ec
3a
58
6e
65
de
e1
38
35
6e
6b
3f
71
58
eb
6b
e8
b9
69
4b
6f
70
cb
cf
70
5f
f2
e4
d4
6b
44
5f
c8
41
71
e1
6d
e9
e2
e2
ee
68
66
67
36
dc
70
55
3f
5a
b7
36
2f
2b
62
6d
70
ed
ee
51
7a
76
6a
b6
4f
e6
e8
76
ee
da
64
52
57
6f
5b
62
e7
e5
e0
f1
64
57
ea
ef
5c
c1
34
52
6d
6c
e1
62
67
f1
5f
36
ef
e4
70
e5
e4
ed
ef
65
6f
df
6e
b2
38
e7
ca
4c
d8
ea
ef
50
60
4e
68
73
f2
ea
34
38
73
77
dd
60
be
e4
c0
ca
65
3e
92
e9
6c
e5
d1
63
da
e6
df
75
52
ca
6d
db
67
5d
6a
6d
5f
62
d9
d9
3f
5e
51
ef
e6
63
db
e9
76
ec
61
81
6a
d0
ee
51
d8
ca
ee
db
bb
6e
83
66
6a
61
69
60
6a
75
5a
6a
ea
6a
67
c4
69
6e
64
e7
5c
e7
ef
58
df
e0
da
6b
63
75
d7
eb
e6
59
dd
d5
eb
3c
4c
3b
f3
48
a8
da
6c
31
31
d3
e8
75
4e
63
e7
44
30
35
76
1f
6b
e3
cc
1c
59
62
73
7a
d8
d0
bc
4c
e5
e3
3f
e1
66
d6
eb
58
50
eb
ef
cf
75
67
eb
d2
e6
69
de
f0
69
3a
c5
da
dd
e5
bb
cc
66
63
68
30
ef
f2
70
11
ed
3b
e9
67
66
6f
ec
d4
68
6d
b5
13
f0
cb
ec
b8
6f
63
ed
e1
6e
70
67
67
de
6a
61
c6
cc
b0
e2
3d
d6
22
62
6b
e8
6f
dd
64
d5
66
60
dc
eb
ef
ed
6f
67
6d
ed
3b
ea
46
6c
ee
6b
e9
ed
da
ea
64
e2
ee
3b
e0
65
ec
80
70
d2
80
f0
e6
dc
65
b8
5a
ca
65
ec
88
41
ef
f0
b8
bd
e8
b1
70
6d
6b
d5
d3
d6
55
52
c9
66
80
e5
56
58
6e
ed
62
e8
54
5c
cf
de
6a
ed
ea
49
da
e0
6a
ed
ce
6f
44
40
63
62
47
4e
63
5b
e6
6a
ea
6b
bd
d3
d7
ed
60
81
6a
b4
2f
ed
4f
ed
c5
b7
6c
e4
51
ee
63
e4
d3
e7
5c
5f
48
e7
71
ec
ec
ef
54
53
ed
68
da
ec
c2
65
5b
6f
60
d6
4b
6a
e3
b4
ec
b7
64
64
6c
6c
ef
18
e4
34
68
d9
4a
69
e9
51
e9
bd
bd
6b
e5
60
6c
60
e9
f0
e1
e9
66
6c
5c
d9
e8
ed
49
5d
eb
45
65
8e
ed
e1
68
70
aa
6c
e0
5f
66
db
5d
3f
e1
e4
e6
1e
66
6c
6b
e2
66
6d
80
74
e1
e4
9
5c
d4
70
e7
52
6a
b4
58
af
5f
3b
ea
d9
72
60
d1
e8
73
e9
ee
ec
cb
6e
6a
6a
e5
e8
d7
e6
b
9e
1c
f1
d4
6c
f2
62
6e
59
6f
e7
0
67
44
4a
6a
5f
72
e7
f3
e0
74
60
72
b5
ee
67
5e
d9
64
6f
60
ae
52
6d
74
ec
6a
e3
b2
e0
34
6b
4b
5e
e9
f0
e5
bd
5b
aa
e9
e3
69
57
40
61
e3
55
67
ee
6f
71
d8
e3
49
dd
df
38
d3
df
3e
69
bf
d9
ec
b8
45
f4
6c
dc
f4
6d
65
e5
e1
4e
dc
2a
ee
66
69
64
f0
e0
eb
6b
71
2e
d8
ca
e2
69
6a
d1
e5
75
d3
dd
f0
dd
b7
6c
f0
cf
70
58
b9
d3
60
df
cc
5e
63
e1
66
51
d0
61
67
57
d9
59
74
58
62
65
b7
f0
cf
eb
3e
10
70
54
6a
e8
ca
dc
22
62
5e
d8
e1
eb
c6
4d
ec
66
73
c9
6b
ef
63
d4
f0
ef
5e
d9
e4
e1
c3
51
6e
6e
c9
b9
67
6a
6c
da
6d
52
67
56
64
64
e8
d9
c4
e8
e5
67
e9
ed
ec
df
dc
6d
e2
43
58
cd
6e
67
eb
ef
ee
ab
6e
bd
c5
6b
73
5d
e4
e8
3e
4c
e1
3f
3d
1e
37
5
2c
d2
d8
2e
d5
e8
ed
6c
b
6e
5c
6d
69
ed
e4
e9
43
e1
63
eb
38
bf
59
52
55
57
f0
5a
a7
e7
1d
57
6e
6e
db
e9
53
4e
d1
57
6a
6a
52
29
57
f1
5e
e6
f0
cf
70
eb
ef
eb
d0
66
2d
3a
ab
42
6b
5e
ea
ce
6d
e4
96
eb
e8
ee
64
37
61
e3
eb
ec
61
51
61
d5
d7
6f
d4
5d
c6
54
d9
e3
49
c5
c4
5c
4f
6e
c7
67
de
5f
39
e5
e9
69
67
e2
69
e8
63
68
4c
31
65
68
db
e6
da
de
6a
62
c8
62
49
6a
ec
df
d5
6f
69
6e
eb
ea
ef
6b
6d
5d
ed
6a
f0
f0
ea
b7
e3
65
4c
62
6b
d9
eb
6b
56
ee
b1
6e
50
c9
c6
f0
56
60
cb
d7
5f
4d
e7
d3
ca
ee
d6
39
bb
ee
ef
45
dc
e6
dd
5a
f0
6b
a3
65
df
59
e1
bf
e5
60
e0
60
6d
ed
db
9a
60
62
28
66
57
e1
63
6a
6f
6f
6c
43
57
e8
5e
54
db
0
e2
6c
e7
dc
69
70
da
63
28
eb
5f
eb
de
1e
59
47
62
63
61
c6
54
d5
a7
66
67
56
46
69
50
6f
e5
66
d4
42
4c
f0
6c
61
e9
eb
c7
e1
42
e4
6a
e0
62
6f
61
61
58
e8
68
5e
72
6a
a0
e0
e1
dd
e8
e3
e9
68
62
6c
b8
57
61
6d
de
61
ad
a9
50
dd
41
64
62
ce
66
52
ea
d8
6b
46
cd
6e
29
e3
70
59
c7
5f
1b
ea
c7
60
4a
ee
e7
62
65
53
b4
57
4f
70
6f
46
df
59
29
a9
e5
e5
de
dd
e0
d8
e8
eb
6f
ec
4f
8b
30
e0
d8
e1
e5
d9
54
1b
45
d6
ed
4c
d4
52
4a
69
5e
2f
4c
66
ee
e8
54
56
ea
65
de
d4
6e
e8
e1
60
5d
50
e8
6f
a7
45
6a
e2
35
65
db
6b
34
61
d3
95
24
d6
f0
68
63
ee
b6
eb
e6
6c
65
d8
69
5d
62
2a
60
67
d7
ea
e7
e9
e0
5f
66
5d
33
bb
44
e8
a7
6b
6a
53
32
6e
ef
5a
e9
dd
69
6e
5d
ee
6c
13
d3
c4
53
26
4c
e7
e1
d2
cf
ec
b0
d2
df
c4
65
69
6d
67
59
4f
e8
5f
6b
e7
ea
d5
5d
70
e8
ee
67
12
63
6f
e4
de
d3
58
61
ea
35
67
e9
e6
69
80
2f
ef
3e
cf
eb
6f
20
6b
45
d5
34
db
6d
65
5b
e7
cf
dc
63
6d
e2
eb
d0
6b
cf
ee
ce
6f
ed
f1
ef
5f
dc
66
ef
58
50
6a
6b
d9
ea
67
66
d0
e5
5f
62
67
61
c8
44
46
66
6b
de
ef
6b
c7
38
70
d9
6b
63
cf
4d
70
ef
e7
57
59
d3
53
d5
6c
e7
70
61
66
51
64
70
e4
4f
c9
34
6a
c1
c8
d6
c3
29
6e
d4
49
d7
58
dc
6c
66
6e
67
c9
c5
48
f0
5f
d4
da
54
66
e0
59
ac
6f
68
eb
62
69
e6
db
cb
6d
33
dd
6f
de
68
de
e2
70
da
66
d9
66
e7
48
e7
de
53
d2
40
70
30
ab
aa
d9
ee
70
dd
4c
e4
ec
70
6b
3b
ee
d9
3f
6e
ea
e6
4e
48
af
64
4d
64
63
d8
66
46
e7
c1
50
81
e0
e2
c3
62
6c
52
e8
a5
62
da
4d
5d
3b
60
34
52
ea
ed
5f
e7
6a
ee
67
ee
da
e8
48
e8
e1
38
d5
c2
5b
6b
5e
ea
e3
64
e5
f0
cc
cb
6f
60
5e
65
6c
6c
6f
e8
69
d9
58
cd
e3
ea
da
ec
d4
eb
51
58
5c
ee
93
bb
6b
db
37
cb
e8
68
ec
ef
5
53
4f
63
e5
64
70
56
6f
ce
5d
eb
e6
e8
3c
e4
b3
5c
69
cf
e9
ec
e2
c7
e1
ec
d5
ec
ea
54
70
dd
ea
d5
6e
59
d3
50
c1
4b
e6
5d
43
e6
5a
e7
b9
ec
d0
cb
6d
f0
0
d9
6a
6d
6b
d5
c4
ef
e3
e1
6e
69
cf
49
38
e1
45
e1
6c
68
6f
6d
5d
5e
ee
6f
eb
eb
eb
e8
ef
6a
70
ca
ef
91
cd
e7
68
3d
45
72
6b
e3
ef
71
d7
e8
6a
ce
cc
e9
64
cd
6f
72
eb
62
74
b1
6e
66
65
cd
ea
6a
6d
d6
71
4f
b1
dd
68
d4
6b
5c
e4
55
71
e5
bd
56
6b
e8
ed
64
44
69
5f
3b
e7
ec
d0
65
62
67
16
6f
dd
d1
df
71
56
57
6d
32
c1
71
cc
e9
eb
2c
d9
61
55
6e
5f
bf
ea
d6
ce
dd
43
c7
30
68
e6
4c
e4
e1
6e
3a
43
d0
6b
96
d8
e1
ed
31
6e
6c
e7
4d
ae
4d
dd
ed
e4
e2
d7
3e
ec
62
54
e7
c9
63
de
e1
d8
44
d9
db
1d
ce
5b
69
ea
ec
5c
66
6e
4c
58
4e
40
d8
eb
db
df
d2
d9
df
e7
d0
3e
e6
69
50
b1
6a
4d
6a
e5
52
69
6e
d2
bf
b6
54
e9
dd
e1
bc
49
6e
57
e0
d9
71
e6
5e
cc
4a
ab
e0
ec
dc
d7
3f
c1
d3
d0
ee
66
67
6c
6f
69
d6
d0
ce
60
46
6c
24
6e
ea
b4
d2
62
71
52
ca
71
eb
e9
54
4d
c8
5c
d9
64
5f
62
ed
c3
46
63
5c
6b
6c
e1
37
67
8e
70
53
6c
47
6a
eb
e9
57
ef
66
dc
32
e5
e8
d3
cb
e1
61
e8
ed
70
71
db
49
72
ef
6d
ed
ea
64
57
bb
66
56
70
cd
cd
6a
d3
5a
61
e4
e7
6e
e6
65
5f
6e
72
35
6c
6a
dd
6f
67
ea
d5
57
b2
6c
31
6b
2f
6c
2b
df
ec
db
0
63
0
65
6a
ef
ef
68
5d
6e
c2
6c
69
bf
6a
e2
e3
9b
4f
65
bd
af
d8
4f
69
da
55
6b
38
e0
e3
6a
4b
52
c7
6e
ed
ee
4a
6c
e9
6f
f0
e6
6d
5c
70
63
e8
e0
d8
5f
eb
d8
35
ea
ec
d7
71
80
bf
5d
6c
5e
ca
d3
6d
5d
5a
57
6e
6d
5c
59
4e
b0
58
e4
6b
5d
e4
5c
c3
b8
53
71
5c
64
d5
e4
53
3f
d4
ec
5c
c9
65
5e
72
e1
6a
ed
c0
68
d8
4c
b9
71
80
45
6f
80
67
5a
6e
c5
db
aa
44
97
67
ea
ef
65
e8
6e
df
71
cd
46
bc
e2
39
69
25
51
6b
51
5b
6b
25
43
5a
a6
e1
ea
3
ee
d9
5c
6d
b4
ec
67
73
d9
68
ed
6b
e3
d6
e1
d1
d2
6f
e2
e8
bd
d9
62
0
d7
ef
71
d6
d0
e0
e0
5f
e7
df
c9
6d
f1
4e
ed
4f
6e
ad
6f
73
4e
ee
5a
6e
6c
64
6f
a1
64
e2
ea
ca
b4
68
4a
e7
61
56
e8
31
e4
27
a0
be
db
ef
8d
a0
a3
70
e9
e3
d8
a6
4b
e0
73
68
67
db
6e
ef
6d
63
5b
5d
cf
e2
6b
e8
5f
70
46
71
da
5e
6b
f0
e7
4a
63
6e
ef
73
b2
62
64
6e
d0
e9
e7
d6
64
60
ee
6f
dd
df
4f
e2
6e
d6
68
ea
43
58
d5
64
66
71
db
73
71
cf
43
da
3a
d7
56
e9
41
eb
63
6e
e4
69
d3
eb
be
93
50
70
e8
68
90
a7
23
f0
e8
6b
f0
e2
64
e8
92
2e
df
3b
6e
6e
57
70
4b
d9
5a
6f
c3
5c
36
60
6f
e3
ce
bc
2b
e7
66
6e
d5
68
c1
c6
6d
46
46
57
e9
6c
af
6a
6b
61
42
46
60
d2
e4
26
6b
ea
e3
68
6b
51
52
6e
d0
6b
34
66
6e
6b
db
56
5e
6a
ed
53
6b
de
73
6b
dd
6e
63
6b
bd
68
60
6a
69
6f
e5
d4
80
e8
e2
ee
66
e6
8c
68
eb
63
42
59
d4
f2
e7
e9
d9
67
cc
ea
df
4d
51
b5
74
53
c2
53
d5
bc
28
61
f1
6a
df
81
cc
f1
59
6e
6c
28
d5
6d
53
db
6f
5d
d8
b2
56
76
66
65
e2
f0
44
eb
e1
6b
6b
e9
61
e7
e9
ee
6c
e9
e8
dc
6d
d1
eb
ca
4e
6d
62
f1
69
70
e5
6f
e6
eb
d0
d3
de
de
77
e0
6e
42
6d
60
6c
dd
5e
e3
b8
61
f2
d2
71
eb
ec
e2
ce
4a
6b
d0
db
e6
e5
ed
e5
60
68
62
5a
68
6c
65
6d
d7
70
47
6a
ef
ed
c5
6c
6e
d2
ec
ef
4b
4b
e1
20
b2
d4
66
e3
e1
ea
6f
cc
69
6c
6d
56
d6
d8
46
4c
84
cf
f
34
ed
da
e5
6d
ce
72
ea
e2
cd
dc
f0
68
d0
e2
51
d8
6a
f1
69
c7
72
d1
4b
cd
e9
65
61
e3
5f
e1
6b
4e
5c
d7
66
e2
21
60
e9
4b
1b
e6
e4
72
5f
4b
e8
54
75
e9
ee
ee
ed
c8
dd
de
c9
eb
c3
f0
e8
58
61
52
62
ba
6d
68
dd
68
f1
6a
76
5b
5f
b0
d5
e5
55
a0
de
da
e6
de
e8
e0
67
6f
69
4d
54
3b
58
81
d7
6c
63
d2
5f
63
6a
67
f0
71
cc
e4
70
5e
54
df
e2
69
4b
52
b7
6d
6c
74
cc
ba
b1
e1
5b
62
5
6e
e1
63
f0
68
6d
64
e4
6d
df
95
df
4f
e7
70
6d
56
44
62
42
4d
5f
b
50
43
6b
ed
43
e8
55
e4
e6
60
77
be
6a
e4
e5
f1
ee
e2
77
6e
3d
c8
5d
73
d2
68
6a
69
ec
dd
e5
74
69
e2
4f
dd
ec
e7
6e
eb
ea
ed
6c
5a
50
d2
72
d2
5a
6e
6f
36
51
56
f1
63
ed
2c
d1
5f
6d
6f
69
72
e1
6e
69
ed
2a
e6
58
6e
24
a4
f0
cf
6a
65
45
1b
eb
6d
6a
f3
6f
6d
47
77
e1
6d
72
e6
e7
69
e0
e0
61
6d
da
5b
4d
eb
68
ec
66
d9
36
5f
66
d8
50
ea
f0
59
c4
c6
d9
e5
67
6d
d4
92
9
54
d0
e1
50
6d
e7
ef
67
42
62
ed
4d
26
6b
6b
2b
71
ed
55
92
df
66
ee
6e
5b
69
d1
70
6d
e6
d1
f3
71
51
9f
cd
62
69
d0
ca
e0
64
72
62
42
5e
9a
e4
eb
5f
df
5a
e6
60
6e
ee
67
74
ea
6f
62
e6
69
6d
82
93
67
bc
24
ce
6a
d9
6c
6e
27
ec
ea
45
e7
4d
57
96
c9
2a
9
ea
66
5a
ec
ec
61
e8
cc
e2
eb
5d
ce
74
ef
59
68
df
ea
e0
de
4b
e1
d5
f7
6b
d9
ee
48
df
e2
e9
4b
a8
f0
72
81
6e
dd
b7
54
70
69
e7
60
5d
70
f2
df
6b
68
69
d2
4f
ec
6c
d8
e5
6d
65
ee
4a
4e
eb
72
f2
73
f3
e8
e4
65
72
e8
5a
49
d4
5b
dc
6a
e8
63
5c
eb
e7
69
df
71
6a
69
ea
6b
5f
3d
6c
45
28
69
d1
d3
4e
5e
6a
a0
ee
e6
41
d5
63
6c
e8
e9
ed
6e
6c
6e
3e
54
cf
e2
dd
e4
eb
ea
6f
cf
60
67
e9
5a
e3
6e
ee
e4
48
50
e5
80
e4
6f
ba
53
5b
3c
be
d9
5d
41
e4
56
e3
49
32
e0
e8
dd
df
ef
66
3c
60
c4
54
5c
70
e0
5
cf
e1
4d
6a
f0
d3
69
5b
67
52
c5
ae
c8
11
de
a4
d5
ef
cf
6f
6d
c7
e3
dd
ed
6e
e2
e6
bd
ee
50
d5
d8
68
75
63
6b
76
e2
6a
64
6d
5e
c5
67
6a
62
de
dc
c2
c7
59
71
71
63
e5
dd
72
72
a7
70
6d
9
63
40
e9
e7
3a
d5
68
cb
eb
70
de
67
6b
69
67
63
c7
3f
56
54
56
5a
cf
56
49
61
ca
d6
b8
48
2d
2d
71
d7
ea
e3
70
58
d8
d2
e3
72
75
6e
d5
71
77
4f
5e
e1
5d
3b
67
67
67
5d
68
47
6d
e6
ed
e8
80
f0
61
d5
67
4c
bb
68
ea
6c
c5
e8
70
a0
e2
50
ce
62
2f
6f
e8
54
50
54
c7
e3
6c
49
ac
ee
8d
ce
ed
6a
de
66
dd
d5
6e
63
e2
64
58
3c
5f
6e
6e
d8
8
b5
ec
62
db
2d
ee
bc
63
6d
62
4d
e3
61
4a
43
ee
f0
55
64
b6
bb
cd
e6
c7
ec
e4
54
59
c1
6f
cb
e7
46
d9
d9
5b
ef
5f
e8
63
6c
61
cd
4f
6b
ca
6c
64
4f
eb
48
d8
e5
53
46
6b
9f
61
6c
6e
cb
be
6d
e4
6b
70
eb
ba
66
ea
c7
eb
ca
6d
ec
5c
28
e3
e6
69
d4
c3
ef
63
da
9a
ea
bd
e4
e9
e7
e5
f0
ef
e3
61
4c
41
ac
6d
e4
ac
eb
6d
e2
ed
ea
da
e3
ea
6d
52
e8
54
24
3a
cb
62
ea
56
56
5a
67
2b
e3
4c
d8
4f
65
46
49
de
6d
5d
cb
6e
e0
d8
6a
67
1c
50
57
e8
e5
62
61
59
dc
62
e1
f0
5d
70
e7
d8
66
57
5d
d7
e3
37
54
6d
ed
63
e7
16
58
63
44
37
35
39
d6
5c
6e
52
50
c5
c2
e5
69
56
c9
d3
e2
d
ca
bb
ee
63
28
d4
1c
5e
6f
5c
e2
dd
50
4b
64
da
6b
9f
7
bf
b9
33
6d
55
ef
e9
5d
67
60
f0
6f
57
4d
ec
c4
e4
d9
0
3e
e3
64
5a
80
e3
6b
55
e1
ca
d6
3a
6f
6d
e3
70
e6
4a
63
56
55
ca
6f
de
4a
e2
5e
2c
e5
e4
c3
e8
ec
6e
db
60
4a
65
ce
62
6a
6c
e4
5d
df
d3
ed
ef
65
4d
56
0
6c
ec
69
6a
62
53
e5
56
5e
ef
6f
6c
4e
b6
64
65
2b
6c
8d
da
e8
ea
ef
eb
e7
ea
eb
71
66
db
5b
e7
3f
ce
2c
e2
72
31
f0
e6
e3
6e
6e
df
e0
2e
ef
69
e2
ef
5f
16
d3
5d
43
e7
42
72
70
c0
55
d9
e1
61
ee
5a
d4
61
c6
ef
c6
65
eb
e
d8
ec
e6
6b
6b
5e
ec
e7
e4
d8
39
dd
de
9f
54
d8
6d
64
61
e8
6b
65
5b
e6
eb
6e
49
de
db
e0
d3
dc
53
b3
5a
87
da
ef
ed
f0
5b
6e
6a
e7
54
73
e5
6
da
af
ef
63
de
73
d1
ee
6f
6e
71
b4
f1
d5
65
df
de
59
ca
56
97
d3
5e
e0
5e
61
64
ec
de
65
70
da
de
e7
ea
6e
d2
64
5e
69
5f
bd
c4
30
dc
e9
bf
61
6f
c8
62
36
6f
42
51
47
66
ec
ea
4a
d8
e5
6c
a8
df
55
57
67
71
73
66
ee
69
69
e3
e8
4d
de
e6
d4
5b
54
5a
6d
6f
33
6d
77
6e
5e
c5
e4
cc
6d
cb
e9
2f
71
6f
e5
b9
55
ef
5c
da
c8
ea
5a
d8
d8
eb
eb
31
52
c7
69
43
bc
ef
50
72
66
ea
dd
e8
e6
67
cf
e5
de
62
db
60
4a
cd
4e
ef
ec
68
31
5d
d7
4e
50
ed
e7
c5
6c
6d
ca
97
6b
46
ab
6e
ea
66
58
c7
5a
4d
db
6a
49
c7
f0
73
e8
d6
68
e2
ed
df
1d
41
ad
d9
e6
6f
e8
cc
6e
cc
e0
62
6f
59
6b
4d
e5
76
6d
cc
cf
4a
6c
66
e5
60
ec
e1
67
ed
72
4c
66
69
6b
ed
66
ef
d7
d7
e8
bf
6a
ee
b6
ef
ec
ea
ec
c0
6c
f0
d2
ec
e8
54
ec
65
59
cd
de
6e
ea
a0
5e
65
70
eb
e5
46
6f
b1
e2
a1
69
ee
de
cc
45
f0
5f
16
e0
64
d0
62
94
6c
c6
c3
e6
80
6e
eb
70
ca
44
4b
e8
6a
41
4b
e6
57
f1
44
eb
51
58
ca
54
e9
5c
4b
eb
6c
69
5d
e0
d4
d5
cf
e8
6a
5e
3d
ec
e6
de
6c
df
62
d3
5b
dc
70
de
e0
6e
67
5a
50
61
f0
c4
66
70
ef
dd
6d
de
5b
cf
da
6b
3a
e7
ea
6f
d8
80
46
3d
2a
ec
d9
cf
53
ef
f0
5c
ee
70
ee
ef
60
c3
e5
61
41
60
6e
ec
e1
e1
27
da
65
81
c4
cc
57
4f
6f
6e
cb
e3
e4
c9
ed
ef
18
6f
ec
6c
62
f0
53
e7
bc
ea
ef
6a
6a
80
e2
e6
ed
dd
d1
d2
e7
62
d5
db
6f
ef
cf
5a
cf
e7
31
68
df
6e
46
a2
6f
e9
6e
3f
ea
6c
69
67
e1
b8
6c
6a
d1
e3
5f
21
3c
5c
54
37
f0
66
ec
d2
e7
59
6a
6e
ec
ec
68
e9
4e
f0
4d
48
be
e2
e4
e8
e8
c7
ef
66
b3
5b
6a
5d
b7
cd
ce
55
6f
ef
0
3b
70
67
d6
c9
d3
55
ab
62
40
5f
e3
df
e0
6b
ee
68
6e
d4
66
f0
e0
51
e4
db
ee
69
cc
4f
dd
e1
38
14
3f
e8
de
f0
b2
67
6f
6a
d9
ef
65
e8
eb
ef
65
ef
c3
31
ea
55
49
e2
5d
b2
6a
44
5b
df
6d
60
63
e8
ef
b6
31
ec
69
d9
5e
d7
8c
c5
2e
ee
e1
df
e9
45
34
49
d4
e5
ee
69
d6
e3
ef
e2
50
cf
4e
ec
b8
65
e8
f0
bb
6a
e4
e4
6c
66
4d
12
e9
e1
b8
d3
e8
60
3a
c5
f0
97
c1
57
54
d5
d2
6a
d6
61
ef
5d
c4
e7
42
70
ef
e4
de
dc
e3
71
e8
54
6b
e2
e8
e4
c4
d3
6b
69
6a
7
44
52
b9
5f
59
ec
ec
ee
61
4e
31
c1
dc
dc
ca
e0
62
ab
65
5e
43
70
eb
ee
56
e3
53
ec
e8
5e
69
b3
58
49
6e
e5
cf
8a
bd
e1
d4
c2
4e
6b
4e
4e
4a
d9
b0
6d
d8
52
c4
6c
d5
ba
da
c4
de
e1
66
d9
b8
e9
dc
db
e9
51
de
f1
69
66
35
d6
6c
66
2a
65
4b
69
54
4d
37
4e
33
0
6f
4f
d5
e1
b9
44
e4
e1
4a
eb
6b
52
e6
f0
ec
45
8f
ee
61
65
e6
e9
6f
6b
cb
0
6d
54
55
bb
6d
65
54
6d
e5
67
6f
1f
66
6e
6b
9a
5e
d5
58
e4
d9
69
d7
df
58
d4
52
6a
6e
69
69
65
6e
52
6c
ee
eb
cd
a3
db
ee
3c
f0
ec
eb
e6
eb
51
65
de
72
e7
56
6f
63
c8
6b
e4
eb
ce
5e
3e
70
ca
6a
72
d4
5a
6f
dc
c0
65
9e
e7
4c
72
eb
66
61
4c
66
e0
8d
ee
d6
66
e9
d5
e8
6f
b4
de
d8
ed
69
45
52
61
34
e7
69
eb
63
b5
2a
5d
e7
5b
cd
be
51
eb
70
3e
e6
ef
89
80
f1
d4
6e
68
e6
bf
6f
56
60
c3
5a
6b
dc
66
e8
70
f0
56
5e
ee
f0
c6
f0
6a
eb
e3
4b
b4
4c
ec
80
c2
ec
e1
67
6d
eb
d4
e6
d0
4b
df
6d
66
6c
5d
6c
6b
37
88
e3
6f
e2
70
dd
e5
65
56
e5
df
ef
b7
ca
cd
67
66
d1
e7
e5
64
46
e7
5c
e3
72
5b
ec
f0
6a
b5
6e
33
ef
4c
6c
d1
e3
db
50
b6
47
45
6d
5e
6b
80
e4
e6
e9
6b
ed
70
e9
60
f1
e6
ee
65
eb
dc
66
a1
61
d1
f1
ef
6e
67
61
86
ec
6d
e9
e9
61
6b
e4
46
ef
67
b4
52
b2
6d
6a
3b
54
25
de
5a
c5
f0
54
c9
81
65
e6
66
b5
55
ca
28
3d
d0
6a
2f
22
ee
e0
68
6c
3b
4a
62
63
e2
6e
6d
1f
ef
5e
4d
70
6f
e7
cd
45
6f
5e
cf
60
68
db
64
eb
bd
d9
ea
20
ee
68
59
41
64
e9
8a
61
63
70
f
48
f0
ca
4d
e5
62
63
e8
64
d7
e2
6f
61
51
5f
2f
6d
ba
6d
f1
66
eb
eb
f0
66
63
e5
86
59
62
68
5e
50
5f
cb
56
cc
60
31
b2
ca
49
d9
ef
ca
70
29
6d
6e
da
60
6b
6a
ba
67
d8
6c
64
d9
d0
ce
62
b3
c0
58
ed
6b
ba
ec
4c
ec
65
6a
57
69
da
d7
f0
ed
d4
d3
e2
6e
eb
6f
64
d0
d5
eb
1c
de
e7
f0
c7
58
5b
69
4e
b4
65
e1
6f
ef
e9
60
db
5f
81
46
e1
c6
c9
e4
f0
ec
bf
6f
6f
e4
60
e6
50
d2
ca
ec
5f
54
ed
e6
6b
c3
ee
64
46
df
d5
6a
d3
5e
ec
ef
50
4d
ce
e5
67
6a
ed
39
6a
ea
5d
eb
60
ea
df
d7
44
58
57
a1
4c
67
d3
2f
e8
85
dc
43
cb
c8
6e
c7
5b
eb
d8
68
5c
ec
6c
62
65
63
a4
44
ab
e3
69
65
e2
d3
da
eb
da
58
d8
da
ae
c9
64
5b
5f
97
d1
cf
4a
db
6a
ea
ea
e6
5e
e0
6d
ed
e5
6e
cd
e1
c8
dd
6f
5a
6e
39
5b
68
eb
dd
6a
63
cc
6d
e5
d7
5b
db
eb
c7
6a
cf
e1
d1
5f
4f
9b
5d
e8
e9
5b
c9
e2
1a
db
66
dd
3f
6a
e5
6f
ee
80
6d
44
e5
d3
eb
c6
f0
dd
e4
eb
49
cb
dc
cc
66
ed
6e
62
e8
e8
66
eb
dd
6a
eb
e7
6f
eb
ea
ec
6f
d1
e1
e2
e2
6c
f0
5a
ed
d6
2e
e0
c3
4e
6a
6c
e5
de
6f
70
66
4e
ce
65
6f
52
c6
cb
61
eb
6a
d6
62
3d
e9
56
ee
ed
6a
d9
ec
da
dd
52
e2
20
6f
af
e9
69
5f
e2
5b
6a
66
32
b6
db
55
ec
e4
69
6d
6d
4a
39
ec
33
6d
ef
55
5a
4f
3e
2e
52
87
b3
64
d7
e6
e0
d5
57
58
de
ef
43
6a
62
e6
ee
51
ec
6b
dc
6d
57
69
e4
e6
5b
c0
cc
c2
50
70
5c
3d
d4
69
d6
ef
70
67
db
5f
cf
cb
a
64
eb
ee
ed
6e
e3
d7
58
ef
45
6f
df
3d
6e
e1
ef
f0
6e
f0
e3
ec
5e
eb
5c
5b
5e
dd
5b
e5
6a
6c
64
ec
6e
52
61
6d
6a
68
60
51
d0
ee
ef
4c
6e
e7
d0
ef
d3
e8
c8
eb
58
c5
e7
ee
e4
c7
e9
6e
e7
57
e9
e1
56
e2
e7
e4
d3
e9
e7
ec
d0
ef
aa
6d
69
6e
60
97
9b
a3
69
e4
64
e9
4d
52
e7
e4
6a
4f
e3
df
e6
56
d9
5d
e3
67
60
9e
e4
6a
65
eb
64
52
d9
20
d7
6f
6f
58
e7
62
df
26
66
5b
eb
d4
d5
cb
68
39
6c
ef
ef
45
ab
d3
5d
66
6f
d5
4e
6e
bd
35
e5
61
65
43
69
e3
62
e7
da
6f
ec
5c
da
6e
ee
3b
28
50
69
69
61
e6
ee
e2
69
e0
e8
66
df
e5
6a
ec
ec
45
51
3b
c4
60
64
53
eb
c7
e4
eb
57
dc
e1
6f
ee
d8
dc
69
69
d8
53
83
6e
3a
ba
63
39
6f
d5
57
ea
6b
58
62
5b
64
df
66
ea
cf
6b
e3
54
68
59
e9
5c
5b
f0
ef
5e
6d
36
e8
66
b1
6d
ea
db
d8
ea
d3
d3
31
6e
63
e1
39
d3
55
53
eb
ea
e7
dd
c9
70
e1
4f
af
da
4c
a9
f0
e9
4b
4c
1f
ea
4b
ea
6a
58
4d
63
66
4c
e8
3d
b9
e8
60
51
d7
df
6a
5b
70
e3
64
6b
b9
e4
1b
d7
df
e4
26
6c
4d
ca
f1
64
ac
ac
49
52
c5
f1
e0
d3
c1
6a
0
e8
6f
e8
b4
e5
e1
67
62
69
6a
6f
6a
62
81
ce
df
cc
c3
4b
59
66
ec
ba
6c
e4
db
6a
6b
4e
ce
4e
f0
4f
6a
d6
ed
5a
ec
ea
ee
51
d5
32
28
5d
67
ea
63
df
ae
49
dc
59
6c
e6
61
5d
b7
e7
66
62
58
cd
38
5b
9d
ef
51
ee
6c
67
eb
50
d4
d4
