c2
6a
49
52
67
47
5e
e7
5a
dd
eb
5c
5a
62
cc
ec
68
d8
ea
da
ca
a0
64
6d
e1
dc
32
5f
66
5e
c6
6a
e6
ec
e5
65
6b
c0
e3
c6
6a
65
bd
4c
e1
32
6a
ec
e9
6d
5c
e8
4a
ce
e5
58
e9
20
e1
56
e5
61
6c
cb
ec
68
cf
6c
69
69
ea
62
4a
6c
47
e9
39
66
65
23
6a
60
d9
66
a2
e0
d3
23
db
67
6a
eb
56
b9
a7
ab
aa
e3
e5
e9
e1
cc
e3
eb
5d
da
61
c0
3a
ed
b6
66
5f
e7
3d
e8
c8
c9
6b
e6
cc
da
e7
e6
6b
ee
e5
5b
cb
e7
66
67
21
33
62
de
5c
5c
64
e9
eb
eb
66
47
6b
67
5d
ed
63
e4
54
46
e8
e0
b6
ea
56
d9
66
e7
6a
3b
de
ec
55
ee
62
ce
60
28
e9
4d
a1
ec
5b
ed
e2
dd
6a
61
69
66
16
e9
56
e3
e0
e0
cf
63
6a
3e
19
63
6c
65
ed
ed
4a
51
de
d9
da
66
5c
be
ca
6d
6d
34
e0
d3
64
1b
b3
62
6a
41
68
52
44
6d
4d
e7
61
d2
6b
da
e9
e5
61
25
e7
6b
ca
65
b2
5b
5b
3e
42
6c
5f
63
60
5a
d9
d3
e0
e7
c0
5f
e6
62
de
ce
e9
4e
e0
da
66
42
36
63
c7
40
d4
6c
e5
47
61
5c
51
59
eb
58
e3
6b
cd
51
28
41
da
dd
cc
dc
ea
5b
67
20
69
65
6a
53
68
6d
68
eb
5b
4a
58
42
dc
52
c6
e8
80
c2
64
ee
80
5a
d7
61
e8
dd
62
e2
e0
6d
e9
63
cc
0
6d
69
de
6d
e8
50
50
ee
de
6b
66
5e
6c
48
52
d8
e9
dd
69
56
6e
4f
e3
98
e3
52
e7
6a
6b
e8
be
64
6b
cb
42
e9
ca
e1
da
c1
e9
df
cc
af
e8
46
43
67
db
e6
ec
e2
ed
4f
e3
62
df
20
49
68
65
b0
cc
38
66
ab
d0
63
eb
66
d2
3b
ec
6a
60
50
eb
6b
61
cb
42
5b
64
e9
e4
d2
30
c3
e6
e1
59
e1
cf
5d
d2
ca
dc
d3
d1
6b
d3
5b
c9
4e
6c
be
68
26
be
cd
d5
6e
eb
67
b0
6d
e8
e4
dd
eb
68
69
1b
48
e5
6a
b1
d8
e6
d9
c4
d1
ed
e5
e4
e4
59
e3
ec
ea
db
e0
4e
ea
ed
d9
5a
d9
68
3f
e9
67
67
da
6a
5e
57
cb
bf
e6
e0
e7
da
2b
e4
58
d3
e4
97
57
d5
da
e6
b8
bb
34
6d
de
5f
cb
d7
69
68
55
ed
88
63
da
5d
66
65
59
58
bc
e2
b7
69
db
54
5a
e4
e8
5f
68
eb
67
eb
e7
6a
6d
4f
e0
da
b9
69
60
e0
66
d8
e9
da
eb
d9
42
e0
ee
6b
c1
df
69
d4
6b
5e
80
dd
cd
5a
bb
e0
d0
b5
31
62
3d
dd
ed
6b
2f
54
67
dd
dc
6b
ee
5a
eb
d7
e3
67
d7
ab
6b
6b
44
e0
a8
df
e7
e5
e2
e7
6b
49
4b
e2
9c
0
68
6e
47
6a
69
6a
5b
6a
57
e4
68
e6
2a
63
ea
65
80
e7
c2
68
67
81
dc
d6
97
6a
d8
e5
13
57
64
6a
e6
c7
ec
df
5e
68
6c
64
d9
5b
4a
2c
e9
3d
5f
a9
4d
dc
4f
2b
cd
e6
e7
dd
e8
1a
6d
33
6c
2e
c5
61
56
ea
b0
d0
dd
5e
e2
46
0
db
6b
4c
dc
ee
ca
51
e6
67
b0
c3
ec
e5
c4
3f
6b
ce
6c
66
34
50
47
ea
68
d0
55
e2
5c
55
e2
e3
59
64
6c
6b
64
29
e0
e4
e8
42
46
62
e5
59
e6
d3
d5
6a
d0
ea
d6
69
2a
68
ea
cd
68
3b
ec
d9
65
3b
6e
da
66
eb
64
61
dd
cc
4d
ee
5d
6c
db
4b
6d
53
5c
64
cc
5f
62
6c
6c
60
e5
d3
6b
5f
ec
4d
ec
46
d7
4b
96
6d
5c
18
d9
4e
e9
67
d8
67
62
d5
e2
6b
e3
62
67
6c
6b
eb
2b
60
e3
ed
c5
e5
63
65
66
df
5d
eb
eb
62
9f
62
d0
51
6b
df
64
ae
e6
66
cc
5a
3c
dd
45
57
3d
e0
62
54
e1
3a
48
df
5b
41
5d
29
98
b9
5a
59
68
7
e8
de
4c
6d
59
63
ee
0
d3
e8
e3
64
d5
3d
6a
d1
bd
5e
5e
5f
64
9b
a7
d1
3d
58
56
50
4f
e8
e5
5d
4f
e0
60
de
50
6b
e2
da
6d
df
da
69
e9
d5
6d
d6
ea
52
62
5e
e7
e0
d8
5d
34
ea
df
bc
50
53
5f
4b
23
6c
e1
b2
38
4f
6a
ea
3f
69
63
e8
ed
6d
cd
a1
c6
ce
df
6c
d2
33
9c
d4
5d
ce
26
3d
81
da
28
80
69
d6
ec
c1
dd
51
da
c5
d3
ee
3b
e2
e4
54
68
e0
b7
e8
67
b9
64
da
e4
6b
3e
e2
e1
41
ed
e6
e6
d3
da
42
7
64
e5
d6
67
60
6d
60
d1
6a
5c
b4
63
3e
ee
24
6b
e9
6d
6c
66
e7
63
60
df
6c
38
68
3a
52
51
ca
e8
cf
60
dc
e2
e5
4d
e3
cf
6d
e6
e5
db
45
ac
62
ea
c2
67
e2
64
e9
66
ea
e0
cc
46
66
50
e6
56
66
6c
65
6c
c5
d7
1d
54
d8
f
e4
df
ea
e2
69
ee
91
68
a6
66
36
66
df
dd
69
4b
46
e2
ec
e6
52
3b
e4
64
ea
65
43
e0
67
df
c4
64
eb
66
e4
e4
be
43
e9
55
e1
66
c4
6b
e6
eb
6a
5a
67
eb
66
e4
92
60
48
e9
e5
69
ed
5f
5a
e1
d7
3f
9f
e8
68
da
64
e4
44
49
dd
46
68
53
c8
4a
c6
ec
63
e4
ec
63
43
4a
d7
45
6e
c5
66
54
55
e5
ae
df
63
cd
ed
6d
44
ee
eb
d7
ec
4e
b5
3f
e6
6b
6a
5d
56
e6
ed
50
ea
6d
65
eb
6b
6b
ec
5f
55
55
37
eb
62
e1
d8
64
ba
da
5b
cd
6d
ee
e2
6a
d0
c0
6b
e3
38
4b
62
c2
1f
eb
e6
b4
56
ea
e6
5b
3c
dd
e5
d6
91
e1
4c
e1
61
61
56
38
eb
d3
62
5f
d5
3e
5d
d2
64
d7
63
65
4c
ef
50
de
b9
ec
eb
68
67
e0
e5
81
d3
c6
d0
eb
94
ec
65
c3
c8
e9
ee
6a
eb
69
d3
57
e9
6d
51
be
e4
6d
71
30
4c
74
64
ea
49
dd
f0
69
c4
65
f0
54
69
eb
6e
d0
54
5b
2f
e5
d6
6c
ef
6a
e0
ec
6c
34
e3
45
c9
5b
94
6d
4e
dd
db
6f
6b
e7
e5
dc
df
eb
64
58
5c
67
ef
e7
57
e1
e7
e3
ec
ec
55
6c
e8
43
e1
e5
ec
ce
ec
90
e2
61
6c
ed
e0
eb
d2
69
a3
4c
65
31
56
da
66
80
6f
63
5c
cb
de
dd
e2
db
d3
dd
e3
5c
67
60
48
e3
67
c7
4b
bf
67
46
c6
6a
ed
69
ec
3e
b7
48
59
cb
6b
5d
5d
d3
cb
37
de
d7
c4
3c
df
6d
e9
a6
e7
ed
ee
d2
e5
57
13
e7
65
bb
d9
b1
ec
ee
3a
e9
29
e1
b5
b8
eb
e0
6d
d0
56
6f
60
56
5b
da
b7
6b
ee
2f
db
58
6e
74
74
49
66
71
75
6e
77
58
4d
65
58
ed
d4
6a
ce
60
eb
4f
65
6a
64
e0
68
19
ee
b6
e9
60
e2
e0
b0
69
49
58
e8
ea
19
51
d1
59
4f
d6
d8
5f
6e
e1
b4
d6
be
56
dd
e9
67
e5
32
d1
5a
63
6b
df
db
69
5a
62
55
61
6a
61
dd
cc
3c
3d
6d
44
d6
ed
6a
50
eb
e7
e7
81
42
6d
bc
69
eb
61
d5
4c
48
71
68
53
67
d5
6b
d8
60
47
6b
ec
cd
64
3c
d3
4e
55
e9
d2
29
e0
5c
53
ee
6c
e9
65
53
5a
d7
67
71
b1
df
67
69
49
be
6d
69
d0
52
6b
b1
62
68
64
e0
5c
73
3d
e7
bf
ea
c5
52
63
69
1c
63
ec
d9
6d
e9
32
65
c4
64
a0
69
5d
c1
e7
5d
e6
eb
56
b3
b0
d2
db
64
d2
65
ea
f0
f0
c7
c2
e9
d6
6d
de
c1
b1
62
e1
5a
e5
51
45
b6
68
67
6b
67
f0
e7
62
e9
60
24
d9
b0
5a
22
3b
65
d6
66
52
69
e1
19
5d
d7
e4
55
bc
6d
e7
67
68
5f
cd
de
64
df
c1
6a
bb
e2
1d
ef
eb
d3
d6
e5
cf
2a
68
e1
58
66
31
dc
d6
de
ee
52
42
eb
6c
e7
b1
6b
3e
ce
c4
dd
6f
6d
55
37
62
d0
6d
67
d6
e3
e2
c8
38
e6
e0
62
ed
e5
59
6a
e6
ea
62
eb
38
5e
e4
67
5a
64
6b
cc
64
bd
dd
ed
4b
69
48
6b
d5
d7
5f
e7
5f
ec
3e
46
eb
5f
c4
58
c7
63
5b
60
56
a3
ed
e6
60
c8
b0
ed
6b
52
69
ed
43
e5
65
da
49
6c
6e
ab
e0
63
69
6b
63
6b
d7
2a
6d
54
5e
e8
63
5b
ea
52
ea
5e
ba
e1
5c
c4
db
33
ee
d1
bc
5a
e5
e1
58
59
d8
57
ee
e1
67
ed
3a
d7
d5
48
67
6c
49
eb
58
60
5b
5b
b0
e2
b6
da
c2
61
e8
e8
67
e8
dd
be
59
d7
c3
cf
64
62
b5
ba
e5
b3
dc
6b
d6
ed
ba
6c
65
68
58
65
65
80
e4
5d
69
59
5d
5b
bc
cc
60
bd
e4
d4
6e
6d
e3
cc
da
de
e7
e9
e3
41
53
64
49
ef
d3
61
e7
e2
cb
eb
6d
ca
27
53
d2
53
ca
b8
6a
3d
e8
64
36
e8
5c
b8
d7
6b
4f
e4
6e
a4
65
5e
69
e7
4c
5f
56
d0
5d
ef
cb
60
6c
ec
d4
66
59
dd
bd
d9
d7
2a
5c
6d
5c
48
e2
47
18
64
9b
4a
68
57
2
a5
1
6d
6a
ed
c2
40
e6
cf
5c
59
da
53
69
54
e2
0
ea
eb
e7
cb
d0
d2
40
e9
e4
d5
5a
c9
c1
5f
6d
eb
eb
df
e7
5c
55
ec
5d
5c
5e
bf
e6
dc
5c
5b
de
e2
e9
67
69
60
68
d9
9b
5a
61
da
eb
57
e6
50
dd
c1
5c
cf
6e
d6
4e
51
a5
d3
51
5e
d8
59
66
80
50
3d
e9
e3
64
64
5e
df
b3
db
e9
54
dc
5b
e8
67
e9
60
ed
69
6e
67
6b
26
d7
59
cd
65
62
ce
63
6d
ed
6c
55
db
ed
e8
53
62
37
d5
da
62
35
de
c7
38
52
6b
49
ea
e9
64
e1
d2
67
df
60
69
6c
69
5d
e3
6d
ed
d6
69
ee
5d
e5
c8
63
e9
e2
64
e3
e5
5a
6a
e5
6b
3f
69
61
2d
d9
ed
61
ef
d9
c4
49
69
cd
e7
dd
55
ec
bd
43
32
e4
63
66
32
62
e0
70
5d
d4
de
df
ec
3d
e7
e2
1c
eb
52
69
4c
61
c3
d7
25
49
6c
61
68
6d
ee
53
e3
4f
de
e4
53
55
e2
2a
65
d2
e8
e7
e0
e3
df
d6
c2
4d
69
64
e0
e6
6a
5a
60
53
d4
4e
22
db
5c
6d
4f
ea
e3
55
d2
dd
b5
64
e7
da
5f
63
db
e9
65
64
e8
ce
5f
1d
69
cc
6c
44
29
56
61
d9
ed
dc
ed
4f
6c
6e
22
38
e4
db
d4
61
e6
e9
ed
61
63
ba
5d
e5
eb
d7
d7
50
63
59
61
51
61
6c
4e
e5
4d
dd
6f
6b
6b
3f
e6
58
ed
81
ee
5d
60
d7
5e
6c
5c
bc
34
e2
d1
e6
be
d7
66
65
6c
d7
d1
69
e6
6a
e1
30
d7
a1
65
6d
e9
de
96
d0
4e
36
d1
ea
dc
67
2c
37
e3
54
e3
ec
36
67
6c
ec
61
e9
82
ed
67
bd
6
59
65
c6
64
10
da
55
67
17
db
5f
df
6d
f
64
1e
b6
e9
e9
59
dc
5c
af
d7
6b
d9
22
b1
6c
58
b0
65
6c
81
ed
d0
d2
e6
d8
15
bd
e1
44
eb
d0
ec
5e
6b
c2
d5
eb
b0
65
65
da
e6
a0
d8
e0
5b
cc
eb
cf
69
d5
e7
d0
4e
56
6e
e3
5a
42
cf
ea
ec
e8
6a
e6
dc
62
4a
e2
ac
e5
61
56
65
5f
66
6c
52
ed
de
ec
b8
6b
60
dc
62
68
d2
d8
c7
4c
32
e9
6a
b4
49
ea
d9
6c
e3
65
c9
e7
ec
ee
e8
e4
e9
e8
51
e7
6d
df
59
d2
e2
5b
4c
29
e0
c8
6c
49
6e
62
eb
67
dc
1f
c4
cc
5d
5c
e3
9f
63
6e
eb
e9
df
67
66
e8
e9
5e
5d
61
67
d7
da
61
df
ea
6a
6a
d3
60
67
5c
66
57
e4
e7
e6
66
e8
e4
ba
67
e2
e2
5c
d3
63
6c
c9
ea
5f
e9
e9
6c
e2
67
c9
4f
c7
5c
80
3e
62
59
95
d5
c7
54
ec
c2
4f
56
ae
dd
65
bb
bf
62
de
eb
5c
d3
da
45
5a
df
d6
69
dd
b0
66
b3
eb
61
57
a
48
5f
d1
69
6e
61
1c
ec
2b
c2
3f
b4
da
6c
e7
6b
57
cb
e7
d9
dd
80
6c
e0
30
cb
ae
61
ec
dc
d0
4e
5a
5b
e9
ec
e7
6c
d6
67
43
e6
e3
67
d9
d3
df
e5
64
61
2e
49
ee
65
d9
ea
da
51
49
66
c0
5e
66
c6
dd
e8
d6
ea
e9
ed
cd
dc
d1
eb
e6
5d
d7
ea
4a
d5
b5
eb
30
6b
db
63
b7
4b
c7
66
52
23
56
5e
68
c8
60
35
68
59
1b
58
55
e2
55
28
d9
c8
b9
d9
60
da
42
5c
d6
6a
e2
55
be
d6
be
29
62
ee
6d
d6
e0
4b
63
b5
dc
41
3
c9
48
eb
e0
5d
eb
d0
b1
ed
a0
dc
d7
e1
cf
38
eb
3a
d5
ec
d6
62
d6
e6
eb
e9
b8
26
52
ec
0
e9
ee
3a
e1
e6
57
c0
29
40
38
ce
6a
c1
6c
e5
6c
30
ed
36
65
ed
a2
dc
48
57
db
d9
ed
6a
52
4f
4b
62
ed
6c
e5
35
b0
37
ed
6d
ce
d0
e5
68
36
e3
44
ed
e7
62
d6
d3
c1
62
ea
6d
ca
68
50
5a
e1
3f
6a
6d
dc
e2
3f
65
6a
d9
e1
d7
6c
e5
dc
db
e8
a7
e1
68
bb
6b
55
5e
1b
e9
e9
db
bc
e2
65
51
ac
68
5a
63
61
e2
55
69
5c
eb
eb
69
de
49
67
a6
6d
67
31
66
6b
5e
e4
db
5a
64
ac
c4
df
e6
eb
55
c3
59
e0
4a
d3
cb
49
44
4b
ed
43
51
e5
e2
5d
e7
ed
6c
f
ca
44
bc
6c
ce
ec
b4
ed
d4
3b
4c
63
6d
50
44
d4
66
c4
57
ed
6d
d9
67
4e
6d
cd
cc
39
d0
e6
ea
42
3e
39
64
cf
db
e5
e7
42
10
3f
30
d5
b7
ea
cc
ad
65
62
da
64
c4
6d
6d
3c
63
bb
d7
e7
da
ed
c0
ec
ce
39
bc
59
e5
e6
df
e0
e8
67
4f
36
d2
dd
e6
e1
3e
68
ed
48
6b
62
6e
55
66
5b
eb
ed
ed
6b
eb
2c
80
5f
ce
70
d6
d0
63
53
6f
aa
d7
40
db
ea
ee
4d
d2
d0
3a
b6
b4
61
81
60
63
6e
eb
6d
c4
48
68
ec
6b
60
5d
6a
58
ea
e4
47
6c
e6
6d
80
c7
65
6d
68
70
66
cb
62
0
e7
43
5e
62
b5
ed
e5
b9
e9
6e
65
e3
6a
5c
6d
6d
dc
99
c8
d9
45
d0
94
6a
36
4b
5c
d3
65
65
6e
52
e5
4b
a4
d5
60
eb
42
45
d3
84
c1
d6
2b
65
e2
ea
e2
50
ea
ed
eb
5a
d1
57
df
60
8b
91
c5
e9
60
4d
e8
53
55
cf
60
e9
e3
59
ee
4a
dd
63
60
e6
67
ea
5c
61
3b
50
6c
de
40
d3
d2
51
68
ec
68
dc
57
5b
4f
d5
52
60
65
5e
e1
b7
d9
64
d6
d1
cf
e0
57
39
88
e0
e9
d7
dd
ea
63
e1
5b
66
34
6a
4c
68
dd
54
40
6b
35
e7
6e
d4
5e
e1
58
dc
eb
dd
cc
db
e2
5d
e1
4c
d3
35
5b
66
41
56
c1
d7
ec
67
b0
e9
ac
42
eb
62
68
46
66
da
d3
e1
8e
e5
b1
c5
e9
c6
b4
dc
d5
e8
d4
c7
e5
48
6a
b4
dc
58
6c
e6
3a
c4
e4
62
63
2a
e9
49
67
a5
b9
3b
ed
de
67
63
6d
d2
66
ec
b0
eb
6e
5c
40
ea
52
3d
6b
ec
6c
ed
60
4d
64
c9
c6
5d
dd
1d
ec
ad
6d
68
bf
e9
ce
52
3f
df
bb
b9
df
c0
5c
b1
e3
55
5a
68
67
be
e6
6d
e9
63
e6
6d
e2
6f
52
6a
e8
d0
e2
ec
ec
50
d2
9f
c7
32
6a
e0
49
eb
db
e5
1c
e8
61
e0
ab
e6
62
5c
d1
da
e4
e6
dd
cf
68
48
e7
61
5a
d3
45
e8
d0
60
dd
d6
6c
d9
33
e6
ec
65
c7
81
6c
6e
e2
56
d9
e4
5c
5f
d8
ee
6d
17
cb
e0
6c
69
66
5d
e4
bf
35
4d
6d
e6
80
49
4a
ed
68
66
de
ec
59
a8
6d
dc
ec
64
6a
e2
63
df
66
d5
db
d1
6a
52
dd
37
5f
ea
65
60
68
a5
df
6a
d5
3d
62
61
67
69
dd
59
48
65
47
49
e6
5c
6c
e4
6b
61
57
e3
d5
61
cb
5e
e2
5a
eb
6c
1a
68
24
c6
5a
e2
c3
69
d8
56
e4
e7
5c
e3
5b
eb
39
db
ea
4f
d0
c5
e5
0
ee
2d
c3
60
69
cf
6d
63
e4
ec
58
b1
55
e2
b6
5e
e5
41
e7
b6
6a
d3
6a
c6
10
da
e5
66
5f
dc
c8
6a
5b
26
e0
dc
e1
66
dc
df
e9
62
e5
6b
ac
e8
e7
e1
62
d3
69
cf
e9
50
e8
66
57
bc
e2
49
54
64
ed
d2
50
5f
cb
4a
ed
d7
eb
af
d8
6b
c6
2a
ee
df
58
ce
55
e0
e8
6a
64
eb
e2
6f
ea
5f
e8
8d
de
e5
3b
4f
37
39
1b
69
5a
da
70
ce
4d
28
cc
e8
81
e9
de
56
59
eb
49
4f
d6
66
e5
5d
39
4a
eb
c8
c9
ec
e9
e1
e9
ec
42
e2
c4
c1
14
e9
6c
57
6d
bf
60
74
e9
e7
63
a9
2f
e4
d9
4b
e5
d7
68
ed
eb
dc
e5
d6
2d
e4
e0
e0
65
4b
69
ae
e5
c5
e7
6c
63
e7
62
e5
68
60
e9
3d
b4
e5
e9
bb
e8
6c
db
5c
e3
6a
67
5a
e3
54
54
e5
5b
ec
e9
df
e9
60
d2
64
8f
81
ee
54
ea
d6
66
b1
57
e7
d9
67
66
66
68
ed
e4
45
68
6d
5f
70
53
de
5f
d0
63
ce
b6
cd
2d
eb
47
52
68
ec
6e
6c
6a
6a
d9
c7
6b
58
c9
62
ee
e6
64
56
d6
ee
e9
60
80
62
35
e5
d2
6d
d4
e0
53
5f
6a
ec
59
ea
6e
d7
e7
ed
47
62
ec
ee
5c
32
a9
9a
6c
d9
4a
ec
db
5b
ee
e3
ed
e1
e6
4d
d2
49
e7
e5
df
cf
12
4d
6c
5d
e6
2f
bc
2c
e0
b2
62
c8
6e
74
5c
78
69
56
65
9c
6a
5c
52
52
c7
5a
25
dd
d5
ca
d1
e0
e9
eb
e0
6b
e2
da
c9
58
53
6b
4e
5e
51
6b
5c
cd
db
e5
ef
45
66
d7
e7
6a
6a
e9
e1
e1
e3
68
e3
96
ea
39
67
eb
ed
eb
df
e2
5a
6b
b3
cc
37
6e
df
10
6c
6d
2e
67
e0
ed
0
ef
5c
df
68
e8
ea
6a
e0
68
3c
e5
69
b7
6e
70
6e
b0
61
6c
5f
5b
74
c6
c1
6a
5b
df
49
ef
e8
4a
d5
67
d8
d0
b7
c4
66
15
46
df
73
72
71
6b
af
62
61
75
1d
55
ec
df
e6
37
ba
60
ef
74
d0
5c
b6
44
a9
74
6f
6f
53
e1
e9
d4
d0
ea
c5
ea
de
e3
6e
6b
e0
e8
cb
be
ed
eb
b1
cc
dc
eb
e0
63
62
6c
b8
3f
44
65
66
26
e8
da
d3
e1
64
b1
6e
e6
db
6c
5b
5b
5d
6e
64
60
c7
57
58
e0
e2
6c
6a
e5
df
ce
cd
62
5f
70
6e
b1
62
b3
dd
e0
d7
d3
b1
e9
73
67
4a
52
da
c9
39
cc
1d
58
57
c8
d0
4b
4f
5b
6d
db
da
4e
e2
ed
67
b3
80
59
ef
e8
40
50
3d
64
26
eb
ce
a8
d2
6e
22
6b
a7
cf
4f
e0
68
d7
60
39
66
5d
ca
eb
d8
61
c6
c6
63
5b
e1
66
e7
64
ec
e1
30
a8
4b
61
d4
66
9f
52
de
c9
64
5c
de
61
57
63
ec
4c
dc
a4
b0
47
55
65
dc
3b
64
cf
d3
e4
35
49
52
9e
c9
5c
e5
5e
eb
d1
e3
67
e3
c5
e8
d8
6d
54
e3
54
40
bb
dd
6d
53
e2
66
6a
d4
e9
45
c9
d7
de
e6
4a
eb
e4
5f
51
d1
5b
d9
70
67
58
db
da
e5
c9
54
e3
df
d0
db
80
b6
e5
46
6b
d7
6f
d0
d9
75
70
74
6e
cb
e6
5d
6c
e9
c6
16
40
e9
41
68
64
d7
46
b4
de
6c
4d
cc
4a
4f
e6
54
33
62
e7
56
6a
bf
e1
dc
67
d4
db
68
60
47
51
67
69
f
4b
66
b3
6f
d8
60
cd
d8
b9
69
6a
5f
dd
dc
58
59
dc
e1
e0
b8
67
e2
69
1c
5e
b6
68
d7
54
c8
de
50
ea
41
d8
64
e1
e6
67
6e
5b
e7
3a
69
65
5b
59
b0
b1
aa
eb
bb
24
5b
cd
e6
ed
6e
a6
6d
ec
52
9d
b8
e4
6c
6e
55
64
3a
62
63
d4
f0
c0
68
4a
5e
47
d1
41
54
ed
e8
6b
36
58
62
d9
58
64
bb
e4
ab
d0
c7
3
d7
d2
6a
e1
cc
5c
b0
52
c5
c7
e8
66
e9
4a
df
1e
cb
6e
52
54
6c
52
6a
2e
c4
5e
d5
ed
de
a6
3e
af
c6
e1
ea
6b
68
ee
cb
47
bb
60
6d
e4
3b
4a
64
ab
cd
e9
cd
60
d5
cb
dc
6d
e5
4f
ea
bd
b6
4c
de
4e
f6
d4
f5
f4
ce
60
ef
e0
56
e4
d7
60
55
cc
58
64
eb
c0
39
5c
58
cb
6b
6a
6e
71
2b
c8
64
60
e5
55
e8
60
4d
d0
c7
5e
66
64
e4
da
ec
63
6a
e5
dc
b4
af
d3
50
63
e5
ee
cf
a8
57
eb
6b
d1
c2
dd
e8
3b
6c
36
e6
8b
62
81
e7
c8
68
e9
10
6e
51
eb
ce
d5
62
e1
e2
16
57
66
e5
a6
e4
ea
24
6b
57
b5
d7
e6
98
eb
ed
61
ed
e4
6f
e1
e5
5e
4f
66
5b
be
48
59
31
5d
eb
38
1
5f
e5
5b
38
e0
a6
6c
e0
6e
df
6e
5e
65
e0
ea
65
c9
5d
db
6a
31
ee
18
dd
e8
6d
5d
e0
61
cf
61
40
28
5f
e9
57
62
47
ea
e8
6d
de
ea
46
6a
65
ed
dc
ea
e7
64
dd
5f
3f
ce
80
6b
6e
6a
5a
6c
eb
5c
e6
5c
6d
62
cc
63
71
5d
5e
67
e7
d1
d7
e2
56
64
65
29
3e
6e
56
e8
66
96
6b
e3
da
62
53
38
68
da
55
e7
55
ea
9a
0
e2
21
4b
55
ec
58
e4
4b
68
63
6a
eb
e0
4e
65
b8
6d
da
5b
6e
49
c4
89
cb
4a
f1
eb
39
f0
5d
d0
bc
5c
ea
4c
e5
80
ed
37
59
a3
d6
6d
d
cc
cd
bb
e0
e4
e9
63
d3
e7
df
e6
64
e3
db
64
bd
5e
40
e9
44
ea
d5
6b
51
68
ea
52
64
6d
c6
e4
e9
60
65
62
51
51
ec
2b
ae
4a
ea
de
dc
50
6a
6d
ee
6a
6c
cd
e8
91
27
c9
61
40
64
65
5b
e3
57
dd
ec
66
ec
cf
68
64
eb
db
ce
5a
69
4c
65
51
44
53
6b
6a
6d
ab
63
50
d7
ec
c7
e2
6b
e5
ea
4c
64
40
dc
65
e8
63
59
58
c3
65
e1
65
ed
f3
c6
e5
f3
e4
ce
44
6b
3a
e5
64
5e
cf
46
e9
b5
e2
5e
47
ce
d2
63
eb
e2
24
9f
eb
5e
f0
68
d6
db
4c
68
69
ba
6b
d0
54
cf
d9
6f
bc
ec
56
80
ee
5d
9c
d0
ec
61
5d
1d
66
5b
d7
e6
d2
6b
ec
65
d3
ec
e7
ed
ed
5a
64
6b
5b
53
99
58
eb
da
57
b4
e9
59
d8
65
eb
33
6a
bf
4b
d4
de
ef
aa
e8
62
61
c7
58
5e
ea
e1
62
38
ca
ee
57
ce
69
d0
5c
6c
db
5f
38
37
c0
b2
e4
56
90
4a
e7
66
c4
44
d9
6a
64
59
e6
eb
51
38
69
5b
65
6c
68
6b
67
d9
e5
4d
b4
c3
64
57
62
dc
4d
55
4d
d1
5e
c8
dc
e5
d1
4d
6b
69
36
50
5d
69
5c
e8
52
38
da
b9
b0
aa
6c
cc
cc
61
54
29
e5
60
ec
6e
6e
0
67
e6
6b
6f
e3
d4
6a
47
55
e4
68
ca
e6
6e
ea
cc
40
df
c2
e1
d2
5a
6f
68
54
69
de
63
e2
e9
ea
3b
aa
65
5d
6a
e9
d9
4b
61
e7
de
ed
48
e7
e1
ea
2d
df
40
3e
68
6c
d3
d5
ac
65
d6
df
67
38
d5
3f
ed
61
58
e7
5c
e0
cb
5b
e9
63
6c
e3
e5
6b
6c
6e
2c
da
69
dc
39
63
ca
d3
53
40
6d
db
64
5f
67
61
59
41
a7
56
63
31
5e
65
e6
69
b2
ad
64
e7
5c
41
e7
6d
6c
a3
63
dc
50
c4
cb
63
dd
e0
ef
62
4a
5b
6b
d8
50
d8
5e
6e
de
c6
e0
e0
d5
d5
50
66
ba
cb
6a
a5
6c
6a
64
65
63
eb
68
e0
51
e9
48
d6
50
ea
57
e2
df
53
6c
63
5f
d6
1e
ea
60
5b
63
17
61
c3
cd
e6
dd
e0
d3
32
e2
ea
56
6a
4b
dc
dc
d4
e4
6a
cc
6d
3c
68
62
d4
4e
6d
67
40
54
e9
d8
d7
69
41
55
63
a6
cc
e8
64
ef
69
6c
d9
d4
e5
df
54
ee
e4
d4
51
e9
55
e4
be
63
6a
6d
e4
da
6f
6e
6c
65
ea
63
ea
e6
e5
da
da
e5
6c
4f
5f
c1
5e
d7
4f
63
e8
e3
d3
e8
d4
d0
d8
59
c1
ed
ed
e7
4d
66
d5
e3
d6
62
d4
57
da
90
64
6c
ed
b4
aa
5e
e8
68
64
e2
e0
d8
ec
21
6c
4a
dd
b1
5c
d4
6b
cd
e6
de
5e
54
e7
5e
c9
4d
5f
6c
c8
c4
c3
66
ee
ee
50
50
64
c8
e6
5e
c4
63
b4
cc
e8
53
61
e6
5b
52
bf
cf
97
80
61
5e
ec
d7
ed
ec
e7
da
e7
4b
e1
e3
42
e6
47
40
6c
ed
51
e0
47
67
ec
6a
c5
60
de
d9
6b
5f
69
a8
3b
e5
e9
d7
49
59
3b
e3
54
eb
49
6b
ed
e0
6b
ea
ef
5d
4f
de
5f
ea
4a
6b
e0
e6
59
58
6a
65
6b
4c
5d
df
d2
65
ca
e8
5b
3b
5f
d4
e3
c3
95
6b
63
ed
e9
5f
67
64
d4
d8
eb
eb
5d
64
e7
eb
0
e9
33
d4
e0
5d
52
ed
66
5b
d0
ea
b6
e8
da
e9
5b
db
48
e9
cf
d7
b5
59
3e
b3
e5
62
ea
46
dc
61
6c
5d
d9
ad
b7
3f
d4
f1
2f
f0
3b
e3
48
ac
cb
54
58
dd
5b
57
69
39
40
d4
48
e7
66
6a
4e
6c
ab
bc
c3
4b
a9
53
e9
50
2d
57
d8
e6
5b
69
68
d9
ea
e9
d2
ef
cf
68
e5
80
ce
2d
68
bc
e1
66
50
65
ca
65
e8
dd
17
e2
dc
62
ed
3a
5b
69
51
dd
6b
49
88
68
40
60
dd
60
52
55
4e
58
6b
63
68
58
81
e7
5b
e7
e9
4f
cb
45
eb
ea
da
68
61
66
e9
e7
69
5e
69
e6
b4
e6
3c
55
66
63
eb
3e
59
6c
ed
93
e2
4d
e1
17
f0
54
3b
a2
4c
df
6b
d7
ea
e8
80
f6
e5
65
60
d2
ef
c1
c1
5f
6d
d6
d3
5c
6c
e3
ee
63
e6
5e
d4
6b
66
eb
d2
df
63
bb
e3
97
c8
68
64
65
68
6f
71
5d
e6
5a
64
ea
63
e6
e3
a5
51
55
67
e8
6c
de
6e
5b
6b
e6
6b
61
e9
e4
b1
6b
ea
2d
ef
b0
5c
0
69
eb
0
e4
44
33
d5
67
5e
bb
52
e7
69
be
e9
ec
e2
47
6a
b4
eb
cc
6b
67
48
e2
60
38
c3
e2
65
97
5b
bd
d7
d3
d8
58
e3
4a
3c
d9
1f
e3
55
5f
e6
6d
62
64
20
a6
51
5c
5c
57
6b
a6
4e
dc
e5
e6
ee
4f
6a
69
5d
b5
68
8d
e7
d9
d3
70
69
57
4a
be
ca
6a
4a
e7
e2
31
eb
27
d7
e5
d9
63
63
ee
5a
31
4b
66
d
60
cf
c1
80
48
69
60
9c
6a
53
63
6b
c0
53
4e
6b
db
53
6e
be
80
53
64
6a
5f
aa
62
5c
e5
3e
bc
62
70
66
56
d2
ae
4e
df
6e
c3
42
d5
df
e6
4b
6e
6e
97
5a
e9
56
e0
e7
34
e1
68
d6
60
ca
d6
c0
d4
e3
d8
ed
df
5d
1e
6a
dd
5f
55
de
5
ea
ba
6b
c9
5a
e6
62
e8
c0
dd
2d
de
65
63
69
ee
5d
47
6d
6a
40
63
ed
65
2e
db
b3
e7
bf
e7
dd
ee
c7
51
27
bf
e7
80
3d
6a
da
43
56
5c
cd
dc
a5
ec
60
5c
6c
eb
b8
6b
60
6e
df
e8
45
6e
e5
6c
ab
de
62
5f
64
d6
6b
4b
e5
eb
ec
5f
e9
ec
12
dc
ed
e2
ea
67
d7
20
68
9a
c1
47
cb
46
6b
a2
d9
eb
45
6a
e6
63
dc
e1
3d
65
63
cf
33
c0
67
69
66
a3
cc
62
54
be
3d
d4
af
65
4b
55
59
6e
dd
dc
df
e1
a1
6d
e7
c8
e7
db
f2
e6
e1
e4
55
0
4f
d9
ec
ed
ee
d8
43
59
e4
53
65
69
65
eb
de
dc
64
ce
6e
6e
dd
ca
da
5a
66
60
66
d5
6c
d8
df
38
d8
d8
66
6a
62
db
6a
e6
ee
62
f0
5c
eb
55
52
d2
e9
cd
4c
d6
56
69
cc
dd
53
c6
e3
c9
6c
5c
60
e8
d1
d8
5f
e3
5c
df
6e
62
45
4b
d9
52
ec
68
e0
e4
20
e2
ea
e9
cf
db
6d
69
d7
68
56
bd
68
6d
d7
df
d6
64
69
cc
62
52
e0
51
ea
55
c8
d2
ca
12
df
69
50
5a
b8
4a
b9
60
68
e8
2c
cb
61
43
46
d0
6c
5a
71
6d
5c
5f
55
6a
6a
62
ec
d4
4d
d1
c6
29
cb
60
6b
db
6b
64
54
e4
e1
63
48
2c
e6
e4
4b
5e
c2
62
69
de
e2
5b
ea
e7
54
6c
df
65
c6
65
44
6b
dd
db
6f
6e
5b
61
de
35
e0
c7
e2
c3
63
c4
d8
de
d7
ec
e4
57
d8
d9
d9
5f
e6
51
65
58
69
71
e5
60
6d
52
e4
68
e6
e7
6f
e4
b6
6f
e9
54
59
ec
5d
4a
37
d9
81
d8
5a
e7
5e
c9
5c
43
ca
e7
ee
68
2e
6a
68
ed
5a
d7
ad
e7
6b
cf
57
44
4f
60
2b
6b
37
6c
ba
de
4b
d5
d9
ec
cf
5c
b9
c6
eb
e9
43
63
62
31
e5
e8
5b
51
b0
ec
cf
ee
dc
db
a3
57
57
ae
df
66
b9
d6
da
e5
67
e7
70
6a
e0
e5
6c
dc
61
5a
4a
d3
d4
de
d3
51
69
61
64
d7
e3
6e
48
90
45
6d
d6
65
28
e4
c8
eb
d8
59
e7
d1
ed
4f
ac
df
e8
70
eb
de
d9
c6
68
5b
f0
e1
6c
ec
e2
58
6d
67
9c
e4
48
6b
60
c6
dd
6b
61
e9
da
a8
1e
eb
cb
69
69
e7
68
6b
ee
ec
63
b0
65
69
df
5a
5d
dd
cc
61
54
38
52
eb
48
a2
6a
42
c3
5d
ed
60
61
57
ca
6e
64
66
e4
60
e6
5a
32
e7
d3
5d
4a
92
e0
d7
5b
e9
57
ea
da
66
f0
aa
1c
66
5f
66
ba
d2
5b
d2
62
6b
e8
e8
e5
56
6b
43
c9
d2
42
3c
e3
ec
e7
5a
c3
ad
5f
4f
ed
4e
6f
ef
ad
dd
ea
50
e1
69
d8
6b
4f
d9
42
6c
5d
69
d6
55
db
61
e8
d3
80
e7
ec
39
e7
98
de
e4
e0
47
ea
5e
96
60
69
53
5d
2a
e6
6b
ec
1e
42
e4
cc
e3
6a
68
43
bf
36
57
56
4c
50
44
56
61
e2
eb
5c
e4
5f
bf
cc
4b
e8
d1
ea
39
e7
4b
e2
e8
e7
d3
5b
ed
2f
d7
69
ec
e8
42
6c
67
6e
e1
6b
dc
e5
ec
6c
6c
da
e9
6d
ed
66
66
60
68
df
28
70
c9
e9
5e
65
4c
c6
64
a3
63
e5
58
9f
ed
34
dc
e8
53
71
36
67
e2
60
c0
49
54
21
dd
db
c0
49
3b
ea
cb
ed
62
5b
57
4e
e5
4d
6a
e7
e2
5b
51
e9
6a
53
ef
ec
df
6c
a4
60
d6
54
ee
e4
47
cc
4d
52
d6
db
b6
cd
ec
64
4f
ec
69
51
5a
ca
0
63
e4
66
65
43
5b
5f
ce
e9
d5
6b
eb
2f
3e
e9
dd
68
61
e8
53
58
cd
e0
e4
24
5e
c5
ee
62
d8
59
65
4f
e0
e6
67
ee
6b
68
e6
6c
61
30
cf
5f
ed
bc
5a
be
29
6c
ad
d7
0
e8
df
68
68
a7
e9
3c
eb
6a
db
e9
d9
4c
55
eb
e9
64
66
32
63
de
10
eb
e6
9b
59
6e
67
ac
ea
46
c0
56
3b
52
e3
dc
b6
6b
2f
61
e9
ed
5d
e7
66
35
a1
e1
66
d6
db
ce
ec
cd
0
59
e5
cf
44
d1
ec
dc
ec
9c
d4
11
da
df
e5
3e
aa
c9
50
c3
6a
5b
b1
d2
e8
be
d2
e3
c0
92
61
c1
d5
6c
e6
19
ca
68
63
d3
f0
ea
eb
ec
e9
e4
f3
4c
ec
51
b8
ea
43
e7
2d
0
c5
b9
65
45
6c
48
e4
67
5d
6f
69
e1
4f
6d
61
ec
69
b6
67
df
48
60
6f
4d
c0
57
d8
d4
4c
5a
d8
5b
de
6b
d5
48
e2
56
3a
d6
6d
6b
b4
64
e2
c8
e4
de
bb
6a
0
df
66
e0
da
55
6e
da
e9
43
e4
62
6b
95
63
ae
ee
9d
3c
63
5f
63
68
62
dd
58
e7
70
e3
d2
5f
6d
6d
d4
c6
44
ba
47
6c
6c
52
6a
4f
df
45
eb
4a
4d
69
e6
45
6b
a6
61
61
e8
e9
63
4f
5d
d8
48
57
ed
6a
68
dc
d3
6a
60
c6
66
70
bf
53
6f
cf
e1
eb
61
cc
4e
5f
dd
48
2e
ab
dc
e3
e5
4b
e1
1a
7
3c
a3
6b
e1
d7
69
e4
54
ed
2
ab
68
58
ea
5c
d2
e5
b3
eb
c4
60
62
b4
e7
5f
69
dc
e1
bb
dc
e1
da
58
e8
35
de
ed
df
60
40
40
6c
e0
ed
ca
66
3c
ca
63
d0
ea
80
6e
66
ec
6c
6e
6c
3b
62
5d
54
dd
de
34
d0
3f
57
6e
e5
5d
4e
cc
bb
6e
cd
6a
6a
52
e4
57
58
53
4c
eb
cd
f0
b9
43
e2
4a
60
dc
e7
dd
e9
d3
d2
55
6f
ac
5b
58
d6
e0
3c
3f
4c
e3
e8
46
32
d8
59
65
cc
5e
12
e6
ed
c2
5b
37
62
69
64
59
c9
cf
bb
59
eb
be
6b
e9
65
eb
54
67
d0
d8
4f
e7
e9
e3
61
d7
57
cf
e9
e0
dc
df
eb
6d
ab
65
da
43
d3
5f
43
11
6d
e7
64
e8
5e
60
4d
c7
eb
59
52
6b
ea
b1
dd
68
e5
e8
e2
ea
ed
6e
4f
c4
6c
66
65
d0
54
54
51
6c
4
45
60
d1
22
5f
48
de
e5
dd
d4
ec
e7
e9
3d
dd
b6
e3
55
d1
c2
51
dc
d4
dc
d4
66
d4
c1
d0
64
e9
c3
65
6c
5e
66
3e
e2
56
d5
bb
6e
54
cb
e3
9e
5f
5d
62
ea
ec
eb
42
5e
50
d6
61
5f
6d
65
52
57
63
de
48
68
69
c6
ed
e1
60
e9
a5
56
db
e8
49
17
d7
dc
d5
e9
ed
e4
53
26
e7
df
68
4d
ba
dc
d5
6d
df
3b
61
e8
ec
2d
d3
4c
4c
e7
c7
d3
56
d9
4b
a0
da
5f
d1
d1
53
e5
28
26
55
65
53
3f
de
6c
ee
56
ed
d8
39
3e
66
c4
5a
6c
40
c6
5c
db
e4
c6
e9
ed
d0
53
6a
6c
5e
d9
e2
d7
b7
ab
5a
d8
c8
6d
a4
ec
4f
59
38
e9
68
64
e6
c3
eb
da
aa
62
da
a0
8a
65
35
e7
c5
cf
81
53
6d
3f
50
59
ca
d3
e0
db
e9
2d
dd
aa
51
e1
e4
eb
ea
5d
e0
ea
c0
68
2a
69
69
c0
cd
6c
de
d8
62
6d
66
ea
cf
d6
d6
e6
41
ec
bc
6c
6a
66
95
69
56
20
68
65
5c
36
6e
e2
d6
53
db
6a
4a
d3
da
69
ca
54
e7
ac
34
e1
6b
e1
da
bc
5c
d3
cf
5a
2f
35
69
95
eb
e9
6b
ed
c9
35
d6
e3
6d
6c
91
e4
6d
c9
5a
ba
df
ed
5f
ce
de
63
60
5e
5a
ec
4e
e6
d8
a5
66
6c
53
df
42
5d
59
56
54
cb
ea
c0
ca
dd
69
ba
e3
c8
ce
e1
d6
d9
ea
4f
64
5c
a6
e3
53
ec
ee
e8
69
e5
e3
be
69
eb
e4
be
5f
e9
68
6d
6b
5c
a0
40
e2
ed
32
e5
d5
6d
67
63
ea
c4
ec
59
65
e7
62
2e
57
6c
69
43
69
c9
e7
38
e9
6b
ec
d8
c8
59
80
b7
4c
e8
e6
e7
59
5a
ee
62
ed
5b
e9
4b
e3
ac
9c
6d
e6
80
65
62
c4
ed
5b
67
65
67
45
4d
24
e7
cf
e2
97
db
e9
63
4
3f
68
ca
d7
67
46
e9
d0
bb
cd
5f
4d
b4
ea
d8
e7
db
ec
ed
65
c4
ed
6a
e5
ea
c5
6d
d0
e9
63
4a
ce
c8
de
ea
64
d2
ee
ee
69
6c
5d
63
62
56
d6
62
c5
e2
d0
e3
dd
e4
5c
a8
64
dc
6e
e5
64
4c
e0
e5
c1
6b
d0
2f
db
4e
cb
d1
6b
62
d3
52
3c
65
e5
cc
b9
6d
6b
4d
e1
69
da
e7
66
68
68
df
5f
d0
48
c6
cb
39
c8
23
e0
26
59
59
40
6a
5b
4d
e7
e2
ab
5b
3d
e1
36
69
d2
9c
d5
55
6d
62
39
e4
6c
59
d5
d8
69
66
ae
c9
68
84
6a
81
ed
5a
68
d5
6b
d8
5a
d4
ca
58
50
67
62
ea
23
ea
45
68
df
db
eb
6d
e0
67
d7
66
ad
e8
d7
38
5c
e4
ee
b5
68
1b
5a
da
ba
53
59
dc
41
45
5b
63
ea
54
ca
c4
5b
c9
ec
e9
6d
6d
dd
56
da
41
ea
6e
d0
66
e3
6d
e2
d5
ee
66
eb
b0
6c
4b
da
67
47
27
2b
e8
1c
63
e9
69
dd
68
e7
e6
e3
ea
de
63
e9
ea
69
3e
db
ec
4d
eb
e4
e3
c2
e8
65
4a
e9
69
d8
ce
29
57
e8
c6
b4
62
35
cc
e8
5b
5e
d6
6a
e9
95
71
61
c3
67
d8
dd
d1
3c
34
e6
3c
53
85
64
df
6d
d9
69
e1
94
c0
66
c0
6c
66
46
e7
e0
3d
5e
e3
6b
55
eb
e8
b7
df
2d
3c
6d
cd
e8
ce
d0
d9
58
e2
5c
d9
e4
e5
b0
5e
e7
67
ea
e8
4e
cd
6e
49
56
6d
cd
5f
5e
d6
e6
e6
66
5f
47
ed
e0
57
ec
41
eb
e9
66
6d
ec
df
30
de
dd
e6
57
26
60
53
e0
e4
eb
6c
cd
ea
e9
65
50
43
5d
62
6e
6e
63
e3
44
50
ea
ee
5d
b3
bf
5d
e0
5d
e9
68
5e
63
eb
da
d0
6b
4e
e3
d6
66
61
57
67
60
60
70
70
6e
3a
61
d3
d1
bf
e0
5a
67
9c
3b
6a
dc
db
67
39
a5
e2
63
66
6a
69
6d
6a
e4
ea
db
e1
48
de
46
e8
df
c6
db
d2
4b
38
67
db
65
d7
60
40
e4
d3
5d
66
5f
49
e7
5d
67
e7
ee
e8
ce
d3
e6
c4
6a
4a
dd
47
47
e3
be
4c
ee
dd
55
29
50
dc
5e
df
c7
4f
6d
57
b8
47
ea
4b
ba
de
c0
d5
51
30
e8
d9
c3
55
d3
bc
ca
c7
e6
6d
59
d0
55
55
6d
51
61
26
50
d3
71
6c
68
4a
cb
e8
cd
e5
6b
43
bb
5b
45
66
6a
6f
6f
e0
ee
e5
ec
f0
12
6c
e5
67
63
62
c8
ed
69
d9
e6
59
d5
9a
db
69
63
22
59
cb
51
57
6b
6d
52
cf
5d
63
d5
dc
6c
e2
5a
6c
66
6d
d1
df
db
6d
6c
b9
e3
ea
a5
68
32
6d
63
d0
66
58
6e
e8
68
4f
e6
3c
70
38
d6
67
61
e8
69
5b
98
e1
41
c3
ed
cd
61
e2
e8
e1
69
c4
56
57
60
6a
72
6b
5c
6a
55
67
2
e8
e0
66
6c
54
da
c8
49
65
5b
61
d6
64
d5
e9
13
6c
ea
6b
68
65
e6
35
63
b5
be
3e
6a
60
d1
5d
d3
54
e9
ed
bd
5e
53
22
bb
eb
e8
b6
48
e2
ea
69
49
ba
23
5f
e6
a9
de
d3
2e
3b
e6
9e
51
e4
de
d5
c1
6b
d2
b8
d8
de
6b
6c
d6
52
69
e8
da
eb
d7
e0
59
ec
d3
66
eb
66
e4
60
4b
de
a1
58
68
5f
d8
ed
66
e5
68
e9
ea
65
44
bd
e2
1c
e2
ed
e3
af
d3
34
ea
da
67
d8
60
6b
ce
6a
42
6c
5b
d6
81
ee
2c
ee
4a
58
dd
ec
3d
e2
59
c2
45
3c
6a
e
c2
53
59
66
d0
f1
d1
e5
55
dd
e4
69
69
85
36
ee
aa
4e
5f
63
67
e1
bb
4f
dd
17
ce
5d
e7
57
69
a1
5e
45
2f
aa
6a
cb
e8
ba
e9
ba
d4
6e
44
d7
48
dd
6c
4e
b9
62
6a
c5
df
e9
e5
53
b5
58
1b
64
3a
ba
de
5c
80
62
67
60
d6
cc
5b
d6
dc
57
5f
63
d6
5a
d9
de
dd
5b
66
e9
46
b4
68
ec
ed
c6
20
ea
4d
db
6a
6a
e6
6b
50
cd
48
d9
53
ca
67
2
5b
56
6a
ec
ed
b7
db
4f
3e
e4
de
57
ce
d8
5a
e3
e7
5e
5d
d6
6c
6e
57
ea
67
ec
6b
63
3e
6e
ee
e2
e4
6b
53
69
6e
db
cb
63
3e
e0
1f
56
de
e7
e8
6a
cd
62
ca
ee
ee
ed
e1
64
eb
41
cf
4c
d1
e9
cb
5c
e9
54
67
df
1f
5f
69
4c
cb
60
5f
e8
e8
50
4e
69
af
38
99
46
5e
e8
67
d6
66
d3
1c
cd
ea
55
51
4c
6a
59
54
d1
71
2b
df
ab
d5
cd
70
60
6b
36
de
be
5d
e0
6f
56
59
e8
e7
df
6e
e4
c5
4c
e6
56
6a
51
da
6b
58
ea
80
c2
4f
e8
60
e3
3b
98
ee
ca
57
df
63
6b
50
6c
68
ec
d1
d3
53
69
df
e0
65
65
62
69
6c
6a
6b
ab
cd
e9
6a
66
d2
32
6d
3a
bb
68
54
db
e0
4b
6a
d1
64
e5
65
6d
4b
55
c8
db
51
6c
6d
5f
29
46
ed
62
68
cd
6c
d7
e8
e8
d1
ea
d2
83
68
66
4a
e0
5e
d3
eb
67
eb
de
ec
e2
50
dd
64
43
48
db
56
af
63
56
9d
68
be
67
61
d3
d9
63
ee
11
41
62
28
e9
45
b6
da
da
6a
5c
ec
d6
4d
6b
be
5f
5d
55
a
e3
e2
64
32
ed
c4
9b
66
d0
44
67
cd
46
8
6c
4b
63
de
6c
d5
e8
ef
db
ce
ee
68
eb
3f
3a
62
25
60
4d
6b
6d
50
ec
58
c0
52
4d
56
ec
1e
da
c8
5d
14
50
64
6c
6b
dc
55
ef
eb
50
86
6a
6c
e7
65
70
6a
97
64
eb
6b
4a
65
8e
45
69
d1
e6
55
ef
5a
59
6b
da
e9
25
da
66
d2
80
5e
58
bd
5c
4
ad
43
e5
63
6
5d
64
57
ed
c7
69
4b
e4
5c
e3
1e
ae
9c
ab
47
27
57
6e
59
d4
64
b7
dd
b4
ed
5c
b1
e5
68
c4
eb
ed
61
e6
ed
6c
56
d6
6d
67
58
e4
ce
da
52
6b
c2
e0
da
1b
67
61
e4
e8
5c
58
1f
6d
31
e0
a9
e3
6e
58
5b
47
66
ea
cd
20
68
31
b5
4a
c0
5c
57
4c
5e
3a
67
cd
ec
3d
52
6c
6d
db
66
e7
4e
e7
65
d7
ea
3d
ee
d2
64
e6
6e
6f
6c
e1
e9
61
4c
17
c6
3d
64
46
c4
c6
d2
dd
5
dd
e0
63
6d
dc
6c
6b
64
21
6c
66
c8
69
e1
6d
d5
e0
5c
e5
e2
68
81
65
5c
6a
95
b1
66
df
6e
db
6b
68
2c
e9
55
b7
ce
6c
f0
3c
bd
e8
5e
e1
92
6d
63
67
67
c5
5d
6d
ec
ee
cc
6c
d8
ed
63
3c
51
59
e2
47
e8
d1
d8
49
c9
e3
27
6c
d1
5e
5e
6a
58
63
cc
e9
6d
68
df
64
4d
bc
e4
4b
d1
c
dc
5f
d9
65
53
80
3e
6d
ca
d6
6c
cb
ca
44
44
ed
de
4f
bd
5f
21
cc
31
56
4f
27
9c
61
cf
5c
66
ec
68
e9
44
5a
6c
c1
e7
59
ed
e4
e5
67
3e
4b
ed
c3
47
dc
2a
5c
e2
c6
6c
d9
5c
5f
52
d6
af
ea
5d
4c
d0
5d
46
2d
0
6c
dd
49
db
66
63
d6
e6
eb
5b
d4
5f
ed
e3
d9
e0
3e
e0
5b
d5
46
e6
69
bd
ee
c9
4a
dc
db
ed
d0
d7
4f
6a
66
e2
6a
ec
ce
6c
e4
62
ca
ec
eb
58
e0
5d
ab
4e
59
eb
52
43
67
e3
ed
5f
de
e0
c9
5f
39
66
a5
eb
ec
b6
45
5f
6f
a8
e2
56
c9
6e
e7
5c
c6
3b
dc
6c
6c
e5
6a
e4
e5
4a
e3
eb
ec
6e
bd
e6
68
b2
a6
dc
e8
5c
5c
c2
5e
6b
cc
6d
5a
46
c2
e5
eb
64
5a
45
bd
d6
ec
2c
64
6c
55
e2
53
e3
e9
d9
5a
c5
e7
dd
60
cf
57
64
51
42
ea
5e
d7
e1
d4
e7
60
62
64
e9
5b
28
db
11
5d
9a
ed
39
a7
66
d1
35
ec
59
e4
cf
48
92
e1
6d
6c
4c
70
64
cb
80
c7
ce
5f
67
66
e8
6d
51
d0
47
6d
6d
de
d3
37
6b
ec
e5
e0
cc
d8
50
e2
85
62
e4
3b
85
c6
d5
d0
5f
68
e2
4e
4e
bb
d8
d3
e9
6d
eb
e4
36
e1
d6
64
b0
50
ed
60
df
64
65
49
69
ab
dc
dd
e7
dc
63
e7
53
5
ea
da
6c
be
db
2f
62
64
b7
6c
56
d8
59
38
e5
69
36
5a
cc
d1
e4
de
6e
6f
66
57
6e
65
e6
62
6d
e5
dc
9
a7
e6
59
68
4a
e8
81
d0
cc
d3
b6
ec
48
ec
da
e7
d6
ee
28
4a
65
49
66
c9
6f
4c
6a
41
6c
6a
d5
61
5f
5c
69
57
d9
a0
de
d2
6d
e6
53
c9
68
6b
68
b4
e5
d5
6d
35
8d
bb
66
50
1b
d0
d2
e8
57
ea
58
42
d5
67
6a
5e
6a
64
c2
d4
e1
c9
1f
6e
3b
6d
65
ec
61
eb
4f
eb
e5
3b
55
48
67
51
e2
61
53
2c
e0
d9
58
de
64
6d
d4
25
d6
5c
62
be
5b
c4
6e
64
d8
0
d9
dc
d4
ed
e7
e8
d9
6d
4b
e3
6d
de
44
6d
d6
69
5b
68
60
74
aa
4d
63
d7
48
c5
46
56
6f
6e
53
c7
6d
52
70
68
d4
6c
d0
cc
e5
ed
b8
dc
64
ec
37
d2
6d
6b
e7
ea
e9
38
5d
5f
5
5d
ec
f0
5f
5e
e3
64
cb
e4
b2
1e
6f
23
1b
59
53
62
64
ea
81
e4
0
47
df
8c
67
b0
ef
59
d2
51
d9
df
d9
b1
eb
80
41
25
6a
e2
d6
db
b
eb
9d
50
ca
e8
91
ee
cd
ee
d3
da
d9
6f
e6
e2
de
e7
ad
6b
e3
6b
59
54
dd
67
4a
a
4e
e7
66
9c
5f
ed
e5
de
e3
59
c9
d3
6d
48
e1
65
e1
db
65
6e
ec
58
e9
3c
3d
ea
b3
da
e8
5e
f0
e6
e2
63
6c
db
28
47
de
ef
70
4c
b2
6a
4d
eb
56
ec
cc
e3
5d
d6
36
53
cc
68
d5
e6
cb
6d
af
d0
ba
6a
c2
52
67
c8
e3
df
96
d5
eb
67
e1
9e
63
c3
66
59
c1
b5
58
e6
61
6c
e4
d4
ce
dd
e2
d4
df
6e
49
d5
e6
eb
dd
c7
63
68
dd
e8
e7
5f
5a
6d
6b
42
eb
e4
55
da
db
5b
eb
f2
e3
e0
5b
e0
e1
c3
1e
e2
2f
d4
e4
39
b3
b4
e6
e4
4b
51
54
5f
72
5c
db
73
72
d0
76
e9
6b
df
d7
d8
b7
e7
64
d9
e7
3e
d4
cd
6d
dc
4e
e5
e8
c8
b6
d9
6a
51
6e
6b
3c
e9
6d
6a
42
41
e9
6e
d5
d8
5b
47
61
64
62
54
c7
16
e3
3f
5c
6b
e3
66
63
ef
5b
65
69
2c
f0
d0
53
ac
2e
b1
67
eb
69
e1
df
62
ed
52
c8
e1
e7
e3
e1
e7
67
e2
e6
e2
ec
64
b7
71
70
67
c7
6c
3b
e0
55
54
22
45
57
e2
e1
ec
65
d6
f0
df
dd
e7
e3
ea
ea
ab
e4
d2
b6
38
d0
ed
49
e7
eb
e0
d9
6d
64
6b
d0
0
ee
6b
c1
e
cd
e2
d0
69
5b
b2
ec
df
e4
5f
6b
6f
52
49
4d
6f
4d
d5
ea
5f
5a
6f
c8
e4
71
57
e8
66
6e
4c
57
c4
4e
60
e8
e8
a6
d8
e2
64
62
ee
70
e8
e0
3e
6e
70
69
4f
e4
65
69
5b
e9
e5
da
c3
c9
43
58
63
a1
53
e9
d6
45
d0
d6
ce
ea
d9
4f
6a
71
53
5a
70
63
62
66
64
63
d5
4d
ef
de
d4
ef
55
a1
5c
6a
58
eb
6b
9a
e8
54
ed
e7
81
5f
e4
43
55
eb
4b
6c
de
5f
de
ee
e8
4a
e7
6a
cd
2a
d0
4a
dc
e3
61
5d
6e
ea
d7
e3
ea
ec
6a
50
67
ec
5f
d0
ee
e3
c9
e6
6a
60
d3
68
c5
6d
ec
4d
6c
64
4a
dc
6d
e9
62
41
e1
e5
6b
5a
dd
69
a8
65
64
d2
d9
4b
cc
53
b5
ec
df
e0
5f
81
59
5c
46
eb
6e
54
dc
65
c2
6b
51
69
c3
d5
64
64
dc
5c
4c
c0
a5
60
2f
e5
c5
80
54
d6
6d
69
60
e5
e2
ef
d8
5e
47
eb
6d
49
e8
5e
b6
e5
da
5d
a9
eb
e6
65
bd
e7
e9
e4
1b
cf
d4
d7
e5
99
eb
62
6b
eb
50
e9
31
e4
ea
98
5c
ee
59
6a
5f
6b
dc
e4
ed
c6
65
ec
c5
5a
cd
e4
d2
5c
e9
4f
dd
42
e8
61
55
e6
54
5e
5a
5a
39
66
64
52
d5
5e
cf
6c
6c
e2
da
69
e5
d3
de
df
ec
5d
b8
6b
dd
5e
dc
ea
5d
5b
dc
66
68
e2
bf
57
db
86
24
55
c2
de
da
e6
b1
cc
6b
6a
60
5f
b7
62
54
57
d6
5c
eb
d5
65
eb
e6
61
4c
d8
d8
41
69
58
69
67
d6
6d
ec
47
5e
ed
e0
6a
ec
3c
56
68
5c
5b
eb
6a
65
ca
5a
5b
d2
37
61
4b
e7
69
db
5b
ed
b6
c7
66
3b
5e
e6
3c
69
59
d8
db
ae
e6
58
6d
e3
68
cc
6b
6d
c5
d8
5d
2f
bc
ce
47
5c
58
53
55
e8
64
eb
eb
bb
51
6b
d1
b7
69
60
ab
61
e8
ec
c7
24
3d
dd
dc
61
c8
d9
66
d9
da
d1
ed
92
ea
4f
52
65
47
5c
34
e7
e0
6b
65
b9
41
e6
34
5b
e1
52
c6
e1
bb
e0
eb
69
de
6b
59
ec
66
ec
4d
6a
67
69
68
6c
52
bc
e5
ea
58
d7
e3
4f
5b
69
69
e4
5d
e4
68
5a
64
d9
ce
4b
5d
c8
d4
2b
df
5f
6c
54
e0
5c
3f
d7
e6
c
50
68
c1
9
80
e2
40
ec
68
d8
67
d7
e3
48
6d
c0
6d
e2
6c
c9
1a
5f
c9
d8
53
af
db
e5
6e
e0
d1
d9
ec
c7
66
ec
45
d9
3a
63
6c
62
3b
6c
50
e4
ed
ed
d2
e0
5f
4d
46
e6
3c
ed
31
e1
3e
44
dd
19
d8
29
e5
1f
66
6b
66
5e
68
ee
51
58
6a
d8
d1
5c
d5
db
e4
ec
eb
50
45
63
1a
e4
91
61
59
6c
df
e2
93
67
ec
57
d9
33
e2
4e
68
da
20
cf
6a
67
6e
52
eb
5e
2c
69
ed
eb
ba
ec
f
da
67
41
5e
6c
e3
64
69
5b
e1
ed
cb
e7
d2
ac
d8
bd
ad
17
46
4d
67
55
6d
d1
42
ec
e9
69
de
e1
e6
e5
e7
51
c5
29
69
66
e2
e9
df
e6
d0
42
eb
55
c9
4c
67
68
6e
da
6a
a7
4c
6a
d8
e0
5c
e7
e5
6b
e2
cd
3e
45
d0
2f
c8
5c
58
48
ed
e3
6b
ea
e0
e2
66
3d
2b
63
d9
eb
e7
62
5d
5b
e2
6d
b6
cb
eb
6a
cf
e8
5a
dd
67
d9
e9
6c
e6
66
e9
ae
5d
69
cf
27
6b
b9
c1
ea
6b
69
64
e9
3d
40
e9
e7
e5
c9
4e
d5
da
d6
67
64
63
53
39
ed
61
45
e2
3b
ec
e9
db
5b
5f
d1
3d
43
55
de
68
69
97
d2
3e
ce
c6
48
53
22
d0
6a
67
ea
68
67
0
ea
4e
ed
f0
6b
6a
d3
66
d8
67
5b
65
df
cd
e0
e8
92
ee
67
dd
16
de
ed
dd
1f
3d
5b
63
53
d6
51
cc
e9
e8
61
e9
64
cd
66
93
68
66
ea
5e
db
ed
d6
d2
5b
9c
57
6d
bb
56
e3
6b
66
58
17
68
61
e1
39
b9
e9
bc
6d
db
ed
64
60
69
5b
d3
e6
e0
67
db
44
d8
95
e8
e5
6a
69
d9
ca
66
63
ea
80
46
47
5d
e8
5f
e2
d3
b4
5d
62
56
de
e7
ee
67
61
ba
60
58
68
dd
80
ce
be
2d
c2
68
6a
ec
59
a9
64
6a
6b
e0
b7
dc
3b
e9
6e
e3
6b
df
d0
68
df
e3
6e
e4
d7
e6
d7
4d
3e
a8
63
d4
59
de
5c
3f
e5
af
3c
e6
58
52
e3
b3
d6
ad
51
dd
59
68
47
ce
5e
53
5f
ec
3a
65
bb
d5
6b
50
5d
d3
e5
de
e2
e9
5a
d9
65
eb
6e
e0
cf
ce
2b
58
a8
56
ed
6c
6a
51
cf
6b
51
4f
23
d8
2f
e3
6b
eb
64
ed
4f
e9
55
d3
4d
a9
58
e8
ea
66
51
dd
60
55
6c
52
cc
55
e0
d9
b1
62
68
e4
b6
66
5b
ed
6e
dd
58
54
e3
4a
e6
62
e1
6d
50
e5
5f
d6
6d
e4
3a
68
dc
58
5e
53
e0
c9
ec
5b
67
da
6c
e8
80
61
3d
6c
6a
e2
6e
e8
6a
5c
68
cb
ea
5c
d8
d7
e3
e9
60
5f
6c
e7
de
67
5e
d4
d8
6f
68
b5
5f
d1
6d
e4
69
c1
65
6e
50
2c
e8
e7
e3
ca
de
d7
68
a1
e1
60
34
55
e3
d1
c3
b1
e5
50
cb
e0
ba
d1
d5
ea
e6
5f
e8
be
3d
1f
6c
53
64
e8
5d
67
6b
6e
6c
ed
6b
e8
df
b5
6a
3c
e5
5f
80
6e
d4
da
b7
d6
5e
a6
52
5f
d7
96
e8
da
55
d2
e8
ea
5c
ce
ec
e3
b9
58
e7
c5
ec
e1
b5
e4
d3
e7
5f
58
25
e2
62
d4
65
e6
61
50
62
50
65
dd
4b
e7
de
27
6b
34
6b
65
6b
6d
61
5e
e3
d1
61
db
e2
e6
64
ed
52
ea
e4
dd
e5
2b
e0
66
e7
e8
ec
cc
21
5c
63
de
51
4d
5f
5c
58
f
5b
ec
ed
6a
eb
61
81
61
d5
b0
ba
ed
ed
62
e0
e7
6a
d3
e7
dc
ed
4f
eb
d0
d7
b8
65
6d
59
e1
59
6d
5e
38
63
e2
66
e3
66
cd
c4
eb
54
e
b8
5e
36
69
da
6a
62
cc
d0
48
ee
39
db
6a
46
6a
e8
29
c3
b9
d1
e4
c6
ed
c0
5e
b1
eb
62
5f
ed
e8
e2
d4
dc
eb
e9
40
53
6c
58
cc
bf
33
d6
e7
d1
cf
eb
59
eb
a3
e7
e1
65
64
67
e5
65
dc
e1
b1
68
6c
c4
db
a6
69
be
60
6c
e7
f
ec
cd
dd
bc
e9
69
6b
65
d4
c6
c3
d7
e6
6f
6b
51
39
44
4f
6b
27
e6
5d
ea
58
a9
ec
6b
e3
d0
80
3a
e9
ca
6d
d6
ed
d9
57
ee
67
c5
61
3f
ef
eb
ed
6c
d0
64
cd
66
cb
5b
e7
69
63
5b
dc
63
e9
69
e2
33
e6
51
31
e8
69
57
81
e5
6a
6b
6a
d8
ed
6c
5f
e2
ee
69
5c
cd
e9
e5
67
80
65
16
65
ce
62
ca
e4
55
68
4c
55
19
d7
43
46
ec
e4
d6
e8
5f
e7
67
4d
eb
d9
2f
bd
df
2e
4a
ed
4b
d9
34
65
69
ed
8b
f1
4
e3
5c
da
d3
56
6f
ed
dd
67
1e
61
3c
66
dc
9d
62
93
dd
db
45
d7
db
be
ac
46
40
80
96
ac
80
e2
e7
3c
3b
6c
27
3e
6c
cd
22
4f
5e
51
e0
5e
e3
9
e4
58
eb
e6
6a
56
e1
dc
e7
ec
67
56
5c
a8
da
4f
ee
69
43
67
dc
39
5b
df
ce
d5
65
33
6a
b8
67
4b
69
5e
e0
ce
53
64
22
64
ee
e6
b8
56
f2
44
69
69
6d
e9
83
e1
e5
e9
c8
55
4b
d4
bf
52
dd
36
55
8d
ea
65
c1
d4
4f
50
5c
6b
51
2c
16
5f
ec
e9
e2
5b
63
59
e9
ed
df
e2
65
b6
5f
9e
ea
6c
e0
6c
ea
ba
ce
df
ee
eb
6b
a
39
cd
5c
53
a4
5f
43
80
ea
5d
d3
47
64
cb
d4
3d
ee
eb
6c
f0
67
36
5d
32
67
e1
56
45
4e
97
d9
f1
3e
e8
af
65
eb
ec
5b
e7
ed
e8
ee
68
64
eb
e2
44
6c
ee
ef
e9
d7
2f
dc
51
d5
5f
4b
5c
65
6b
d8
6c
da
68
5a
66
6b
b1
66
31
59
36
ec
53
bd
53
e5
67
6e
e5
eb
6e
e2
6c
e2
e3
d2
d5
5b
32
d4
e0
1a
56
b4
dd
e5
65
eb
ed
33
d5
bf
ec
92
6a
d3
6c
65
e2
e2
63
54
dd
56
56
6a
4b
6b
61
6c
b1
6d
71
d3
4a
66
c9
d3
4f
e7
e5
d3
64
4b
1e
cf
d0
de
b2
66
5c
51
51
b9
9f
71
6c
aa
c2
6b
2d
f0
3d
58
ed
63
a4
da
dd
c8
64
e6
56
64
e8
e7
e4
d1
d5
eb
dd
d5
e1
60
49
e1
66
e6
63
be
db
6c
60
ea
ee
58
eb
e4
4b
4c
d7
ac
e5
29
6c
68
df
90
e3
d4
be
ea
35
ec
e3
64
ea
62
ea
31
c0
c7
cd
db
63
6d
47
51
e5
c0
67
5f
4f
6c
e8
dc
ca
3e
ea
da
c8
da
e4
e5
b4
4c
e1
bc
4c
5b
c5
3b
d8
d9
63
65
e6
da
d3
e9
eb
37
d8
67
66
c3
54
bb
61
11
e4
53
67
33
dd
6d
3a
ed
e8
e6
e8
4f
5d
eb
e6
94
6a
67
d5
59
62
5a
e5
64
6c
62
d3
e9
bf
c9
51
68
65
33
e8
63
58
d1
d9
e4
6a
9c
d6
5f
32
6a
de
be
eb
64
5c
ee
ed
52
e9
47
e7
1f
b4
c8
da
36
2e
e5
d7
c9
61
ec
eb
ed
19
3c
e8
cc
57
ae
b6
57
68
d2
6c
d3
d7
b0
6d
eb
58
5f
c7
61
c8
68
19
52
61
80
58
6a
64
9a
51
ed
af
94
cc
54
42
e5
eb
6a
60
64
6b
d8
e2
cf
68
ca
4b
ed
35
1c
e6
43
6d
69
5d
eb
64
e9
62
dd
61
5b
d2
e5
e1
5c
dc
c0
cc
6b
1f
62
59
51
6a
64
df
e2
6a
ac
33
47
6e
5f
b3
c6
e2
cd
e2
5b
48
db
e0
d2
ea
6b
63
68
c7
d1
62
34
9f
d7
66
66
e6
e5
1b
63
ea
db
e9
d9
5e
6c
e4
41
e5
ba
ec
6c
60
50
4c
6d
e6
56
e9
b2
c3
39
49
ec
e7
c4
e9
6c
4d
43
80
e8
56
50
33
c6
5c
6a
5a
e8
56
e7
b4
4e
4f
69
4c
82
e1
50
df
e6
27
5c
60
50
63
bb
2d
67
6a
e8
d8
cc
ca
6b
ec
33
68
c5
62
e0
ec
cc
6b
61
ee
57
4a
a6
53
dc
d7
b6
4f
e9
e6
6d
d3
61
ee
ea
b7
58
c6
c6
c3
6d
6b
e4
66
da
45
e7
61
62
5d
4a
54
c9
c3
61
6e
ea
ec
e7
0
d7
6b
6b
db
48
67
55
e9
d5
51
64
69
52
4b
63
66
e4
ed
2f
47
e8
5c
6d
e3
c5
4b
ec
64
67
50
6d
5f
e7
e2
55
5a
4e
e8
e8
66
6d
e8
ee
68
e7
33
57
ce
da
6c
d8
e0
c9
66
59
95
6a
65
d7
6e
57
da
55
e7
6d
19
61
eb
67
e8
d0
e0
a6
c5
43
e4
64
14
e3
ea
3e
6c
5e
cc
e0
39
ea
dc
66
e3
e9
e5
3b
5b
eb
28
da
5e
d4
e6
65
cc
b3
d7
e3
6b
e0
c5
dc
6d
e1
60
35
cc
c8
c9
5d
6c
5d
6c
e5
d8
e8
ec
5b
e8
6d
64
22
da
52
d7
5c
5a
d4
ce
de
13
e8
bf
de
ed
e1
56
38
64
e9
eb
c7
e6
5a
6b
60
4b
cd
68
d7
e5
df
56
ea
e8
58
4e
ea
63
51
e7
c3
e9
e7
62
6d
56
86
cb
e6
ae
61
48
55
a7
d2
6c
e8
dd
d7
e2
53
e5
bd
ce
b3
e4
6a
d9
6a
dc
5c
ed
df
46
d0
d8
e9
e4
e9
ed
d2
2a
69
d5
da
b5
3d
60
a2
da
5f
69
ea
33
66
a7
cd
db
48
61
6b
6c
b8
ed
94
c2
e5
58
e3
e
5d
54
a
ee
d9
5f
59
b6
cc
ea
e7
df
d9
b7
e5
41
e8
6c
4e
6a
d1
62
22
ed
d1
e3
6b
57
6c
65
5c
e2
51
14
66
ab
eb
67
e0
68
a3
cc
da
65
53
d8
58
c0
4d
65
4b
ad
66
88
4c
5f
67
67
ec
b1
e3
5b
69
64
64
67
d9
dc
6c
6a
6b
5d
6e
2b
62
d6
81
d4
0
d7
6e
62
6e
ea
5e
ec
51
d5
59
60
a4
b9
cd
80
36
28
ee
c1
e2
4d
eb
32
ea
5f
57
ea
c7
5f
61
ca
ed
68
6b
ea
5b
e0
ea
ed
ef
34
6d
3d
73
6d
be
6f
6d
d4
e9
ec
ef
da
67
48
f0
ef
e7
68
e1
62
5c
63
d8
e2
cd
de
dc
d3
31
23
62
63
68
64
d7
70
60
4f
e1
de
ea
a4
c1
d1
a6
5e
62
cb
d3
6b
69
66
e8
e3
51
cf
66
5a
e7
5e
5a
b1
e2
c3
bd
6e
cd
6d
4f
cf
ec
e5
59
ed
d0
3d
60
cb
a9
e4
70
dc
69
58
42
67
73
6e
61
66
50
eb
ef
e0
e9
e5
be
d9
e5
68
d3
d2
67
e9
6a
81
df
ea
6b
5b
e4
44
c9
d4
67
56
c7
1c
6a
ee
ed
6b
4c
55
58
c2
d4
eb
cf
66
dd
ec
e8
65
45
db
ea
5c
55
69
ea
6b
64
e2
d9
e2
60
5d
d7
6b
5e
69
6c
57
d0
c3
d3
36
e6
3e
ec
ca
e1
e6
6c
6a
51
e2
64
45
6e
cd
ea
4e
45
5b
5c
6d
60
3e
23
6
64
4a
e4
ea
d9
67
69
d4
cc
5a
e3
eb
d3
c4
ed
52
df
56
4a
5c
50
cf
72
6e
5f
e4
de
65
49
68
cd
66
42
6a
69
ec
e6
d2
61
59
3d
da
cd
c0
ba
63
e5
e0
d5
e1
ec
64
6b
51
4d
66
69
64
d8
62
68
60
2d
9f
63
e3
67
47
65
e0
66
5c
2c
18
5a
57
dd
6b
d5
e0
63
70
e6
68
5f
6d
e7
be
5c
3f
c
e8
62
c1
f0
e9
65
68
ca
63
2b
de
63
df
67
b7
e7
e8
36
e7
2e
61
68
e2
c3
63
e8
5e
5d
d2
ec
ae
c8
52
d3
46
e4
6a
66
6f
e2
cd
eb
e5
e1
ce
52
de
62
61
ca
56
ec
d8
e3
d0
69
dd
5a
4d
69
66
62
e2
d3
e4
5b
d5
dc
e1
5c
26
4a
e9
4e
40
46
bb
c3
e0
e6
8d
da
e3
d8
5b
5c
ed
5b
59
67
ee
60
81
68
6e
eb
5a
4b
da
e2
c8
d7
69
68
67
6c
d8
5e
68
e5
4e
df
62
d6
e8
da
e3
da
eb
5c
44
dd
b8
66
4a
52
d7
ea
5a
e6
e1
53
39
1f
34
61
d4
cd
e5
58
e9
3d
6c
5c
65
5c
dc
d3
df
e0
58
df
e8
36
ee
69
cc
eb
da
60
c0
ea
58
4b
e1
6f
de
6a
bc
52
63
4b
42
e8
4e
81
e6
4a
3d
65
6a
dc
6b
43
ce
66
63
4f
eb
ea
59
6d
28
d3
d9
cd
e6
ce
eb
db
6b
e8
b7
e4
2c
66
da
39
e8
6a
63
54
3c
36
ed
5f
60
ed
e0
34
64
ad
68
6b
3a
ab
e0
d7
e8
59
5f
69
b3
6e
d5
66
43
e0
c1
3d
e1
31
da
aa
62
67
b0
ec
61
5a
e1
c6
73
e6
62
0
6c
e6
71
34
6c
d5
cc
4e
c6
61
6b
df
55
c3
60
73
67
63
70
e7
55
69
65
e4
e6
ee
e9
e5
ed
62
56
67
da
ea
e1
eb
6a
ea
58
6a
e2
e4
62
34
5
b6
0
5b
e7
a6
de
e0
e4
93
2f
c2
63
e1
6e
6b
57
d4
61
70
66
e7
62
51
60
cb
61
6c
5b
6b
e3
c
52
d8
af
ec
db
ed
66
df
d3
ca
4a
64
de
c9
e1
ea
5b
5d
dc
5b
55
de
68
e1
d7
db
cf
58
c0
5f
6f
49
c0
5d
ea
cd
28
5f
63
6d
48
61
18
68
10
6e
b7
5b
de
54
55
57
48
55
39
b6
65
e3
ea
e0
66
80
4a
e4
b7
6b
ed
4e
ec
df
64
e8
58
62
dd
6b
c8
e7
dc
6c
d3
4f
47
e6
de
db
e2
cf
65
21
e7
6e
de
4f
69
e4
e7
62
60
6d
cd
e8
16
64
eb
eb
e1
58
e9
eb
d8
e2
6d
4f
ed
3a
e1
61
c8
5a
61
39
c8
d2
68
ee
6d
e1
e6
6b
e9
df
c5
de
ed
e2
68
67
67
e9
4f
e8
c9
dc
e3
c8
f0
e0
dc
ed
d6
ea
5b
d9
d9
6c
65
61
3e
6a
6b
df
e0
e8
6a
e9
cf
5c
e0
d5
d8
5e
5f
70
60
75
cf
47
6e
e3
6d
e6
5e
e5
67
5f
37
25
37
68
60
e6
ed
d9
eb
e6
67
52
44
db
da
4f
6a
96
a9
4b
1b
cb
5a
5e
69
db
55
4c
6c
4c
a3
e0
b7
6d
64
69
63
d3
ea
cc
d4
b5
e7
cf
5f
d9
62
c2
51
6b
d6
66
c5
2a
55
6d
5d
63
48
57
db
64
66
65
61
db
eb
56
dc
98
ab
66
cc
67
3e
72
e7
e0
5c
5f
65
69
37
5a
c7
d9
e7
e5
5a
cc
4c
67
d
e9
e6
6b
5c
61
62
db
e5
30
6e
44
57
5d
ea
e4
da
6e
ea
e0
6d
bf
40
d1
d8
4f
32
60
ca
58
65
65
d4
e0
59
68
60
de
5f
e7
6e
ca
66
24
6a
d6
a5
e3
20
6e
6a
6c
6c
e7
60
e4
50
2d
df
6d
d2
92
ec
e9
6b
6d
e3
e3
41
cd
de
46
ee
ed
e5
e4
eb
cc
69
5b
d5
c6
e4
69
e8
cf
e6
5c
59
6d
48
ed
5e
da
c6
ec
66
d3
db
db
69
c3
70
6d
6b
6a
d2
42
6c
ed
ee
e1
b0
cc
eb
df
6d
d8
ea
dc
d1
14
ed
de
4c
56
a4
b4
6c
5c
c4
61
d4
37
2e
e6
eb
5f
c6
6a
eb
e8
5d
d3
51
dd
63
e1
66
cc
5e
38
de
6d
68
6e
5e
e2
ae
e7
81
41
e6
e6
6b
e9
66
5e
c6
bc
e8
69
d1
e3
53
62
5b
26
ea
b0
ba
e2
e7
e6
eb
45
65
4b
49
eb
47
6c
e8
61
ed
dd
e1
be
d9
c0
5b
c4
6c
44
ee
6c
e6
ec
69
e1
65
db
ec
6e
66
65
de
e0
eb
de
e5
d2
a7
61
57
15
67
ed
42
d2
e4
63
69
c5
71
6f
63
70
67
2d
4f
5c
51
69
a1
6b
c5
4a
54
eb
bf
d5
6b
ed
e3
57
60
50
d0
e3
e7
6b
3e
d6
89
49
80
c6
5a
ae
e3
47
df
47
cb
65
6e
5d
e1
35
e8
6f
c7
57
55
5b
5d
61
df
6e
dd
c1
61
59
35
32
db
49
37
6b
50
63
69
6e
ea
6d
61
60
d5
4d
ef
1c
cc
e5
e5
e4
34
e2
5f
eb
cb
e6
d6
65
60
68
eb
b9
6c
34
cd
eb
53
0
cf
36
4b
cc
5b
ca
64
dd
18
d4
e5
c8
d2
e8
6b
dc
2c
e8
e8
d8
e8
47
d0
ef
57
ce
c5
db
d4
ef
e1
d8
ee
d6
57
66
62
5d
5b
ee
63
65
ee
e8
de
60
e0
e3
64
eb
d0
ed
57
65
e5
61
6d
6d
3a
d1
eb
ed
6e
80
a2
6e
56
37
d9
d7
58
5d
26
6d
5e
e3
67
bb
59
ec
61
90
6a
e2
dc
a3
d8
64
66
71
dd
3c
6d
d7
6c
46
b8
66
40
dc
e1
de
ed
e8
e3
6b
4d
60
ef
cf
e7
e9
f4
f2
4c
68
69
68
e4
d9
e8
2b
c4
60
6b
6e
c3
61
60
b1
d2
d2
df
de
d7
c3
3b
72
bd
68
c9
6d
67
69
4f
44
4a
ed
6b
d8
3b
e8
e3
99
e4
e0
bb
54
0
c9
6a
63
e3
d2
c4
41
c5
e1
59
61
41
3e
e9
6b
5c
5a
1d
57
e7
d2
5a
e4
60
c7
af
43
61
6c
42
ed
af
6b
61
ed
37
e1
ca
d4
51
6d
df
ef
6a
ac
e9
6f
b6
6b
5b
67
de
56
80
e2
69
e4
ec
e7
e4
ae
d2
66
48
db
6c
e1
ca
df
5e
50
af
4d
69
68
59
59
ae
64
5e
ca
6b
5c
50
da
69
71
de
eb
71
3a
ca
c7
63
d5
d9
ec
36
62
da
69
3d
24
db
e9
67
c6
54
68
d0
65
b7
45
67
e0
68
c0
eb
5c
6a
6d
43
66
e8
dd
6c
e6
69
3f
63
51
bb
60
58
df
6e
5a
5a
5a
df
9c
ed
68
de
e6
65
d3
d5
e7
6b
d5
64
28
ea
d7
ec
6b
5c
ec
6a
b7
4d
c9
6e
6c
ea
65
36
ed
ec
c0
d9
67
ab
ec
dd
61
5e
6d
1f
eb
bf
6c
e2
d7
72
e3
4c
4e
be
c1
e5
eb
bd
dd
6b
dd
d4
59
e9
ed
6a
de
d2
48
e3
c6
e8
ed
5f
54
e4
e9
55
e5
ed
ee
3d
c4
63
48
5f
4d
d5
d7
ec
e8
d5
d5
aa
69
e2
62
e6
ee
cc
df
1e
66
d0
69
eb
5d
ab
dc
ec
67
db
e8
9d
60
5f
36
d4
e9
e1
d3
6a
63
58
ca
df
80
52
69
ed
52
68
4b
21
49
ad
4f
21
2c
c7
e8
dc
67
4e
d1
63
48
4f
a
61
27
d3
dc
c7
5f
11
30
66
4e
c6
e6
e1
4b
58
6e
d7
da
3a
63
69
59
58
52
df
4e
da
ed
6b
3d
6c
5a
e6
c3
e1
69
ec
f
ee
b5
56
de
69
ea
5f
e6
65
66
e6
33
d0
68
6b
3e
c2
ea
47
3b
ec
32
e2
ed
60
e9
67
ea
ea
e8
ea
e1
e6
b4
5d
57
6d
eb
e9
db
62
ed
eb
aa
4c
eb
38
be
68
ec
d5
d3
51
5b
6c
cf
e9
68
d1
d1
47
63
dd
58
6d
e6
e6
e2
e0
e
62
68
ec
ad
5c
b5
e5
ec
cf
22
4d
cd
b7
27
cf
45
d3
ed
dd
c2
ea
68
68
dd
db
d9
ed
d7
29
68
20
d7
ee
66
6a
4a
d2
dd
c1
81
c7
c9
c3
e6
55
6b
63
dd
5e
da
68
ca
da
a8
a8
5c
55
be
e5
98
aa
5e
c2
e9
54
e7
e8
ee
6d
e2
c0
6d
4a
6c
5b
b0
5d
e5
60
69
d9
df
4e
68
6d
64
5d
de
62
68
56
ed
e3
c6
42
63
60
51
e5
5b
e0
67
33
84
d1
58
60
de
e5
54
5f
6a
64
69
e4
53
62
b8
e7
e6
39
5c
ea
a5
64
cd
49
c8
48
c9
ec
22
c7
41
d1
67
cd
6d
6b
cd
5a
62
bc
c8
96
a6
46
e9
c3
58
69
64
5d
5a
6b
66
e8
ea
ca
47
c5
ea
b4
e8
62
eb
e3
6a
cb
83
9f
6b
59
5b
9d
4b
e1
4b
59
cd
18
6b
46
64
61
61
58
1b
ea
db
e2
3d
ee
62
e6
56
40
d8
62
46
b7
e0
e0
80
4a
48
e9
69
e3
b9
57
ed
df
5d
51
e2
e9
ed
e5
e9
e1
ad
db
47
e
ea
df
b2
e4
ea
68
60
e7
d8
eb
62
ea
ed
da
80
cb
ce
d6
63
e9
69
dd
eb
6a
eb
ec
38
43
63
65
69
4d
4d
b3
63
51
e5
6a
4d
67
e6
e0
51
6a
d5
d0
e7
c2
51
ed
de
e5
e9
63
e4
ce
5e
60
e8
59
4d
6a
e8
ed
e6
6a
6b
e9
6a
e7
cc
50
51
57
56
c7
eb
5c
6e
ed
6e
4c
6a
dc
49
b4
65
45
65
dc
c8
e7
bd
e8
54
4d
67
60
ea
5b
53
ed
80
6a
6c
6b
bd
47
43
d6
b9
dd
6d
e7
54
ce
d7
64
d7
d6
5e
d9
eb
56
d1
eb
64
e7
4a
5a
e3
65
41
52
ec
da
ec
ed
c8
d1
e0
ea
65
8c
54
69
45
51
61
5a
69
da
e5
e4
68
e1
b1
c9
67
b4
e9
d6
e4
0
63
ba
44
6a
4e
dc
50
ec
e6
47
66
c3
ed
ed
60
e0
e9
ee
ed
ed
6a
cd
54
64
25
36
4f
e9
6c
c6
9e
99
5b
e6
da
d3
4b
d3
e6
e1
d8
bf
ca
e2
ee
66
ea
e6
c2
68
4d
ed
df
6c
6c
5d
3a
ce
db
bb
ef
d7
dc
c7
6c
dd
57
d9
ea
66
ee
63
64
e2
e0
e7
68
53
ee
c2
64
52
67
6c
ce
56
e4
66
d2
cc
cc
ab
e7
65
5e
ed
d4
9e
e2
ef
5b
68
6d
d5
e7
bc
63
d4
d7
8
b7
ea
2b
f6
d1
d3
e8
f5
37
52
30
eb
db
5b
dd
de
8d
d3
ed
65
d3
6b
e9
be
e1
ec
6b
6b
ea
67
ea
39
dc
62
68
69
c0
69
6f
e4
57
68
6e
6a
5f
b2
e5
60
66
d8
db
f0
3e
53
de
61
d6
ec
eb
5d
b8
63
85
5f
62
ee
52
35
6a
ee
e5
69
42
b6
51
b5
e4
5d
e6
4e
5a
6d
66
ed
e5
ed
5f
d9
e9
e9
e6
46
ef
50
e7
e5
d6
5f
d7
e6
27
5a
5b
ee
c3
e2
b7
54
cf
c0
e9
6c
c0
ed
6d
51
e4
e2
da
6c
e0
6e
69
ce
62
5c
e7
57
60
6a
e8
ae
6a
40
65
d3
df
c1
25
e9
5e
bd
54
e3
df
e9
ec
4f
38
5b
55
67
da
eb
df
64
eb
b8
6b
5d
5a
33
ec
5d
47
6b
29
ee
45
6a
3a
4f
63
c3
3f
de
66
13
c9
56
d3
e6
6d
c7
dd
70
df
5e
54
d1
da
3e
20
af
e2
e2
6b
65
df
e8
6b
d5
6e
e3
68
db
77
ce
7a
78
73
79
6d
7b
7f
c6
50
c8
a4
5e
39
ec
e8
59
5c
bd
56
19
6b
da
e7
6a
60
e8
64
da
e7
f2
dc
ed
da
45
ea
4e
d2
dd
ef
ef
a3
2a
28
9b
49
d3
db
5d
ed
c1
d9
55
65
60
ba
53
69
64
6c
66
a9
62
ca
ba
f
40
59
92
e9
69
e8
d4
b8
d8
de
5b
3c
eb
d9
ea
6d
d9
c4
56
68
6d
c4
6d
3d
e4
47
6f
68
6a
48
e3
d0
ae
47
56
68
67
e9
94
9f
eb
66
61
62
4c
56
e1
6e
46
2e
5a
66
cd
62
42
e9
4b
5d
56
53
e1
db
cd
d0
ee
ea
65
58
68
6e
6c
6f
17
69
c0
68
e7
5e
66
c9
32
cf
e5
34
55
eb
44
6c
60
c4
e9
68
66
ce
b6
ed
60
a8
6d
27
31
91
b3
5c
da
e8
6c
eb
e6
6a
53
38
4a
6f
58
57
59
bf
66
6e
5d
a5
68
c7
ec
d7
b8
d4
6e
d3
e6
48
dc
db
6a
d8
b7
52
ef
9
dd
df
db
d1
b3
d9
f1
5c
ef
bd
65
ea
6b
d0
2e
d2
dd
4d
c4
df
2c
4e
ec
d9
e2
e2
eb
a5
ec
a0
34
e9
cb
ad
58
46
62
62
df
58
c2
1e
6d
66
e7
55
6d
53
5e
30
d9
66
47
db
69
ec
d3
6b
4d
c8
e4
6f
45
e8
5f
65
e8
6a
eb
58
dc
e6
ca
45
ec
6a
d7
df
ed
36
6c
51
47
da
ee
e1
50
df
63
e0
df
67
ba
e8
33
e1
6c
65
ce
69
dc
df
6d
ea
e5
64
be
6a
54
ed
60
6b
ea
6c
eb
6d
c8
68
6d
e1
b1
6d
e5
68
df
6c
b1
a0
c9
68
e4
40
ea
65
61
67
65
5e
63
e4
c2
a7
ca
b2
ed
69
ec
54
cf
6d
4c
6e
61
42
6e
e7
6b
d9
39
88
71
bf
ab
af
6f
60
5f
64
63
53
5e
ea
e5
36
d6
44
60
e7
da
e6
56
5b
d8
68
68
ed
59
e8
dc
40
cd
e5
5f
e1
5e
6b
14
db
ea
99
b7
83
e1
d3
54
ec
ed
99
6e
97
de
37
e4
42
60
d2
39
48
3c
e7
63
11
5c
66
5b
5b
23
63
e6
ba
db
6b
e8
57
45
51
dd
4b
c3
50
57
e5
e8
dd
69
be
e7
4d
69
4f
d7
6c
e2
6d
4
61
69
56
e8
58
69
5d
b7
e1
dd
6b
ea
de
51
6a
5c
ed
38
eb
bf
b3
3d
df
69
68
63
df
5b
51
67
6b
68
47
31
65
66
de
ee
55
36
5c
51
81
d1
e1
dc
d
ec
69
ec
e9
5f
24
67
e8
8f
dc
4d
cd
45
46
cb
61
6b
e6
c4
e4
43
e0
e9
58
60
de
6c
55
da
6d
c5
eb
ba
c2
d1
d0
6c
55
cf
e4
64
69
eb
de
e3
65
64
e0
e7
d7
3e
ce
e7
c6
ea
4f
eb
d3
c7
63
5e
ce
59
d8
a8
5e
ce
64
27
67
dd
5c
55
43
5c
57
6a
55
21
53
cc
ea
dc
a
69
d6
68
69
5f
58
e3
60
df
c8
a4
64
5e
6a
67
59
ee
d5
e5
d1
eb
67
bb
6b
e8
6a
ea
68
63
14
68
ec
b6
e8
6c
bf
cc
e6
5b
4b
66
e5
e7
db
5a
6c
e1
6d
eb
6f
64
e4
4d
ed
5f
dc
6a
b5
65
98
64
e3
4d
a5
56
6a
eb
e5
be
5c
e3
d4
db
63
c4
49
41
e4
e4
e3
67
e8
ee
d5
38
e5
ea
d2
6c
5d
e1
b4
de
ec
cb
de
67
e3
b9
60
bc
df
37
62
6d
89
eb
e2
f0
65
dd
6e
e4
e3
c5
37
ec
eb
6a
67
c9
66
bf
e0
6d
dd
65
69
e6
56
c2
be
6d
da
68
c1
6c
e8
6c
43
80
e1
67
e7
d5
c0
e5
c0
5c
e5
a5
5e
a1
6d
68
ec
6e
36
e9
eb
46
34
44
6c
bc
2e
e9
5f
e5
64
e4
5c
d1
4d
0
70
5d
d4
dc
43
65
3d
6b
58
a8
e5
ea
8d
59
da
e9
66
df
f0
68
de
5c
13
e9
57
73
58
e1
64
5a
80
72
40
df
b9
62
66
66
ed
e6
bf
e9
6c
51
ee
68
ea
55
c2
5f
56
ef
ea
6d
f0
e0
55
51
ea
6a
57
ae
ea
15
e4
6c
65
20
e8
ca
6c
d7
46
de
51
5c
b1
6b
55
dc
e0
50
db
ee
ee
54
4d
53
68
60
53
62
ee
57
dc
5c
dd
de
57
6a
6a
57
e0
6d
5b
b1
6e
ed
3f
65
3c
e8
61
ab
ea
e3
d9
df
de
45
e9
d0
67
cd
e8
b8
69
e9
e3
55
65
4f
5a
b2
4e
53
9e
5a
cf
69
6c
d7
65
cb
6b
ce
d3
e0
6d
68
60
5c
df
6d
cb
df
cb
e7
a6
eb
e1
62
f1
e3
f3
de
5f
aa
e7
55
69
bb
70
6d
e4
70
48
ef
e9
df
f
ed
f0
eb
fa
e8
eb
da
b3
67
69
aa
53
55
2e
d0
6c
47
cd
38
5d
3a
6e
54
65
60
e1
61
61
e9
56
e6
e0
51
6e
c0
69
bf
51
6c
20
66
de
66
f1
62
4e
68
ea
e5
e3
44
6b
d9
ba
9a
ef
4c
c0
5b
5e
40
eb
60
58
5f
b5
b5
59
69
e4
6d
6a
59
73
41
71
6d
d6
c1
a3
66
c8
e1
ea
6a
6d
5d
e2
70
e1
db
4a
ec
66
66
5f
ec
eb
64
5d
5c
5f
54
be
c7
d3
e1
ed
53
e7
db
e9
6c
71
c3
70
4d
e6
72
e0
e0
5b
52
63
5c
6b
65
49
d7
e3
52
51
72
e2
e2
56
da
6e
5a
e5
ca
5d
e4
b2
c4
5a
da
44
5e
4f
6b
23
ea
53
ed
ed
85
41
2f
69
56
a0
de
ea
cb
37
66
6b
be
51
c4
27
6b
5c
5e
53
38
71
e4
71
1f
e3
6d
61
44
6f
54
46
67
5e
f0
66
ea
cb
63
ea
39
d2
5d
81
83
5f
69
7b
70
6d
77
79
37
55
7a
5a
28
41
b
69
d9
59
5e
62
d4
db
ca
d0
61
e7
dd
e7
6b
3a
6d
69
d8
d1
b6
59
c5
de
f0
81
eb
62
f0
d1
d0
d8
d5
dd
6b
ea
ed
eb
41
ec
67
d3
de
6d
ec
80
48
d5
db
c2
d7
ed
54
e1
bc
2e
e6
d8
dc
34
c9
e8
5c
ec
38
d8
50
e1
56
eb
5a
6d
e4
ca
69
e2
d3
6f
ca
3c
26
d9
99
db
6b
b5
2
f0
f0
cd
4b
f0
f0
db
cd
4d
ea
69
6c
eb
57
6d
5f
66
57
e9
ae
66
67
69
47
df
40
58
da
68
6c
e2
dc
e1
ae
5e
d6
61
e8
6c
d9
54
dd
91
6f
52
4f
ba
69
5e
60
df
65
d8
64
c7
28
e6
38
4d
4e
5c
ba
d8
61
cf
e1
61
6b
ea
e1
5c
e0
e3
5b
b5
32
59
e2
4c
6c
d5
c1
da
e5
6a
51
dd
de
e1
cb
5d
a6
5c
67
65
4a
64
70
5d
59
e1
cd
e8
90
41
3e
e5
5d
5f
ad
dd
df
68
e9
3d
f2
29
d6
ad
d8
df
5d
e8
dc
65
cc
cc
d6
58
45
d8
e5
e9
e5
30
ed
c8
ba
e7
62
f0
db
44
bd
eb
1b
e6
27
e0
e2
d6
36
4c
61
3
a7
e3
c3
d2
cd
d9
6b
dd
e9
ec
da
eb
45
df
0
5c
6c
bd
c9
ed
bb
6d
ba
e0
6d
d3
69
ad
e2
dd
6c
66
e1
e8
dc
84
db
c2
6c
69
e2
e6
67
ed
e9
33
66
9f
63
49
62
61
2a
64
5d
43
6e
4d
52
62
40
ee
e7
41
65
d2
3f
e3
ec
68
53
6d
65
c4
46
64
e2
64
81
4b
ec
eb
63
d8
40
6d
ee
49
e2
6c
56
e3
69
68
64
58
c9
58
56
e8
6c
e7
27
58
61
e4
3f
dc
2b
98
0
e2
df
5e
54
5e
ed
55
e7
df
dd
ba
d6
5f
ea
d8
64
55
4e
36
c7
c9
e8
cb
67
47
e3
66
de
2d
42
d3
db
de
37
58
da
c5
e0
61
d3
aa
e2
de
ce
eb
42
eb
5d
63
e5
6a
68
d9
6c
5d
d1
23
4f
e3
d3
d2
e3
5f
5f
e1
d9
5f
e6
67
cf
4a
ae
47
b4
e5
67
ec
da
ed
ef
c8
52
56
cd
20
c4
65
55
e7
de
5c
69
ea
65
bd
cc
df
6c
50
5e
d1
3a
2f
63
dd
db
39
30
31
4d
66
ec
eb
e4
5c
e1
87
8
eb
6d
57
63
e8
e8
4e
69
3a
b3
d2
6b
cf
e9
b8
6c
65
cb
db
c1
bf
68
66
e4
db
cb
56
66
69
46
cb
e4
56
42
62
de
5a
d7
cf
e9
23
80
5b
60
69
59
db
6a
e8
28
c9
6e
6a
68
5a
57
b1
e6
d
34
5f
69
67
e
62
c6
d5
6a
4c
d6
68
51
a9
ca
6e
56
6d
c4
dc
3e
65
67
54
e2
ef
66
32
65
69
6d
9a
cc
54
e6
54
bb
ee
b3
70
c9
e3
c6
2a
5d
d9
53
68
6a
63
be
58
51
63
61
cb
d9
44
de
6b
60
e9
be
d8
70
e9
5f
d6
61
6b
6b
de
88
d7
d6
52
e9
e3
3d
69
66
6b
42
e3
dc
e8
3f
e2
dd
e2
58
d8
56
e2
e7
ea
c7
e5
4d
63
69
a2
61
d4
eb
c5
e9
3e
63
bb
3d
a
4e
52
ed
6c
df
4
da
66
3f
3b
59
a7
d7
e1
e4
5c
6b
62
d9
66
cb
f1
9f
65
54
3a
e4
64
c4
de
68
d7
cf
d2
a8
3e
68
5e
62
68
72
6a
62
6c
e9
50
70
67
6a
6c
d3
d2
6d
69
ec
6a
e2
d3
6b
e6
41
41
cf
aa
e9
61
3b
b5
42
cc
ec
dd
5e
41
40
5b
6c
5a
b3
51
5f
69
e8
37
64
ec
5e
5a
5c
b3
68
6d
c5
66
81
e2
51
60
51
68
e0
5f
42
cd
e9
ba
e9
61
e7
e8
ec
d4
69
ef
68
6d
eb
53
e9
d1
5d
d2
de
39
69
bc
ea
4d
6b
de
5f
2c
6e
cd
80
e3
e8
6a
c5
dd
61
da
9d
68
ea
71
e6
eb
4a
66
41
e6
ec
42
da
6b
4e
e1
49
5f
e5
d3
cd
e2
ec
3b
69
d4
4e
ec
43
3c
e1
c8
5c
b3
5e
19
d1
db
dd
46
ed
eb
d4
69
ea
44
ea
66
e6
60
e9
ec
63
d0
63
dd
64
e2
eb
e8
dc
ba
e3
e9
e3
6c
3c
5f
80
c9
89
5
65
e5
ea
4e
5b
4d
67
65
55
6b
53
6a
aa
ce
e2
66
b4
b7
60
eb
6c
69
5f
6b
64
6d
de
c4
6b
67
6b
e7
ea
cd
39
6a
6c
64
d7
bd
52
ed
62
2b
c1
6a
c4
da
d7
c9
e6
c1
31
64
e3
c7
80
52
3b
e3
4f
eb
3f
58
c9
6a
53
e6
d5
d5
41
6a
e0
6d
6f
eb
b7
2b
6b
e9
d4
bc
54
e7
4e
74
b0
4f
eb
96
6d
e8
68
bd
81
65
6c
6c
41
5a
67
5b
55
49
e5
46
58
b0
e7
e8
37
5b
6c
e8
59
37
5d
7
e0
5e
ed
d4
e3
5c
59
6e
64
d0
e3
e8
e6
6b
da
65
de
d7
59
d7
cb
ea
3a
e1
60
39
da
60
cd
6e
61
eb
c9
e5
52
55
5e
e8
ed
5f
5c
40
ca
d7
eb
b6
ec
46
e3
40
d0
61
3d
5a
46
3f
e6
d4
eb
e2
e3
63
68
6c
60
4f
6e
67
d0
d2
d4
e7
eb
5b
3b
61
dc
3b
59
d1
d8
5f
5e
d5
ec
68
d9
4d
67
68
30
cf
57
e2
e1
5a
eb
ec
cb
63
da
e6
6c
ed
4a
54
e7
46
54
67
46
bc
d5
e6
69
be
ec
c9
c5
af
cd
dc
ac
67
af
4d
bf
61
eb
e9
6a
be
63
de
ee
e3
ec
e6
c9
40
5e
e8
62
3a
56
56
e8
5b
d7
ec
e9
e5
e6
e8
e2
ee
80
59
e8
d3
ed
a
49
68
5c
35
e0
14
d3
e1
d1
e5
ca
dd
ec
5b
65
80
5a
54
a5
4f
db
50
5a
e4
11
e7
b3
6b
c8
e5
62
1b
9d
50
d4
69
bc
dd
e5
70
61
64
db
d5
d8
e1
eb
e2
2d
c7
d6
ec
6b
67
42
47
97
3a
ea
dd
64
eb
6c
68
df
d4
6e
5d
3b
5d
e9
6c
6c
e6
64
c9
aa
66
db
65
e8
4b
6a
e5
5e
df
68
d0
e6
21
ac
3b
40
40
6c
b0
51
d2
c5
37
6b
ec
6e
66
ba
6b
35
19
6b
19
e8
5a
6a
ec
e6
44
6d
db
be
3d
58
ea
61
d5
d9
46
6c
d1
68
da
60
5f
6c
66
5e
67
51
e1
67
69
5f
60
66
65
ea
a7
10
dc
b2
e7
67
5f
df
ed
3f
81
65
56
e9
45
ea
c9
56
6c
e1
d7
e4
ea
5e
53
56
eb
de
6b
61
60
5d
e7
6d
63
e7
67
ed
5b
55
59
66
d2
6e
70
e9
d6
70
6f
68
56
de
e8
5f
68
57
cb
49
6e
6a
df
3b
d7
5a
1c
6a
6a
52
28
ea
b9
6e
eb
ef
e6
5b
61
46
d5
d8
de
e7
3b
4c
63
5e
ee
c0
6c
db
61
60
d1
4c
58
6b
ed
4f
66
58
a8
d3
6e
e4
68
e5
e7
5d
e2
9c
6b
5b
e0
e0
1b
e4
3d
5a
da
bf
d2
39
6d
e6
db
34
e5
d0
40
5a
df
ec
cb
cb
e4
e3
e0
65
5f
52
69
6d
6b
68
ea
6c
66
e6
32
64
cf
68
d3
e9
6b
63
6b
c5
d5
e8
55
6a
67
e5
d8
e7
c2
4e
6a
df
69
e4
66
27
60
68
dc
e5
5b
e1
59
65
4e
54
ec
e7
d6
e8
a4
62
eb
e4
41
4e
62
6e
5e
6c
65
26
61
66
38
59
e5
df
52
58
6a
e8
ea
5f
66
ec
e2
6b
20
e6
d4
e4
26
4c
0
e0
68
4d
db
5c
e3
55
65
6b
e2
d1
51
ea
6b
ac
e4
68
eb
dd
66
5f
ce
26
bf
c4
d4
5b
d2
e5
63
e6
54
6a
bf
6c
66
e8
52
55
ca
65
de
52
43
e8
ed
61
f
6d
e7
6d
6b
4b
62
14
c7
88
a0
62
68
dd
5e
39
32
d4
e7
50
5e
4a
18
36
e4
68
6c
68
d3
b6
5d
c7
71
6f
c8
e0
ce
eb
71
69
35
dc
ec
5c
d4
e5
66
ed
cf
69
dc
cb
c4
6e
d5
e2
66
70
c8
57
c9
6e
54
dc
55
65
e5
3f
e8
6d
6c
ee
d9
e4
66
e4
6b
6d
6c
4
67
e7
66
c5
e0
51
63
66
51
5c
2b
e4
6c
50
c9
e8
e2
5d
e3
e9
d3
e2
d1
5e
69
ea
be
e5
6a
6a
ea
4b
6c
56
dc
d2
bf
68
e3
da
42
59
5f
d3
e4
6e
65
e5
61
d9
58
e4
e5
d1
b7
6c
d9
5f
61
da
47
d4
bd
e2
28
e6
ed
58
62
e5
5f
d9
5f
54
d9
34
d1
5a
c2
52
d8
ea
c8
6a
66
15
e5
6d
69
67
72
6f
c9
5b
69
e8
b8
e2
e9
5e
e2
60
e0
5d
b1
b1
d4
62
e0
3d
e2
56
5b
56
e0
81
5e
43
de
ee
52
e4
5a
6e
ed
25
65
68
d9
eb
50
5c
da
c0
c4
63
45
ea
5f
65
ee
d7
65
64
ea
6d
5f
63
65
c8
53
e9
5e
a8
e0
e4
5e
c3
e2
68
e1
d9
9
db
ce
e9
e4
6e
64
4e
de
60
e3
e1
66
e5
ac
5e
c1
d3
40
41
c8
48
59
d6
af
5d
5f
67
43
cd
b0
d8
62
5d
40
e6
4e
6d
40
b8
68
d0
e6
d4
57
d9
69
97
3b
30
15
6e
49
64
2e
d1
69
57
df
eb
6a
d8
56
e8
45
e9
bc
ed
e3
6c
66
e3
a6
59
4b
ee
c5
b7
e2
60
df
d7
4d
5a
ec
5f
6a
de
b6
ec
be
e8
b9
c8
d2
65
e9
6f
d1
e7
ec
6a
de
51
3d
eb
62
50
cd
6f
56
eb
6b
6a
e3
36
e4
c8
53
63
dd
69
6a
62
37
d1
6b
cc
e3
e0
cf
6a
a4
62
dc
64
e8
e3
e5
f1
73
5a
40
73
5f
71
5b
4b
e4
5d
da
37
d2
69
3a
e7
e0
68
32
94
24
c8
51
ef
e6
d1
66
6e
b6
59
63
66
6b
67
5a
68
62
e9
eb
64
62
6a
ea
69
e1
55
4e
6e
e1
63
6b
4b
6a
49
d9
e1
5d
59
6a
6c
50
df
61
64
37
8e
4a
c7
bf
52
df
1e
61
45
ea
ec
db
56
db
c9
6c
d8
cc
de
b5
bc
ec
e3
da
dc
6d
ea
4d
e7
e4
df
b2
d2
d8
6a
6d
d2
6d
50
eb
65
e0
cd
58
61
6d
65
6e
d5
e5
63
ce
53
40
29
d2
cf
e9
5b
56
45
e1
d9
d7
d8
63
d7
cd
d1
3a
55
ea
b9
c9
28
ba
ef
c1
4f
62
d6
e7
e5
6c
d9
5c
d0
d8
16
6b
39
5e
2c
46
92
c3
50
39
bf
df
6d
ec
d7
60
56
48
dc
d3
d6
7
c7
c2
d4
56
42
ee
27
9f
ea
68
36
d6
5a
5f
67
4c
e9
df
60
e1
6a
e9
64
4f
df
e9
e3
e0
51
6d
69
dd
21
67
a2
c8
35
d3
a6
57
63
ed
68
6e
cf
e6
56
48
31
eb
e5
55
6d
e6
d7
a6
ee
63
52
33
e4
63
d1
dc
64
61
e4
ee
e6
d7
d9
d7
6
67
e7
69
5a
d2
d2
57
dc
e6
eb
57
ed
db
80
bf
66
68
68
e6
b6
cc
5a
eb
bb
e0
68
6b
e4
5e
dd
6d
ec
d6
68
67
ce
d2
60
e4
d8
e4
6b
bf
e6
66
67
dc
e4
2a
3d
e1
5a
48
6a
e7
6d
92
6c
be
67
45
d3
5c
5b
4e
e5
69
de
6e
64
ec
66
c4
e5
6d
d6
49
de
dd
e9
68
26
59
66
c8
e4
50
cf
5c
e7
c1
36
d7
d9
6b
66
e0
d7
df
d8
be
eb
ed
6e
6c
60
67
c3
ea
4a
6b
6b
cb
37
e1
23
45
5c
6c
e7
60
60
d3
e6
ca
51
6b
3b
ed
eb
e9
a1
eb
ce
69
51
5d
64
69
58
c5
ec
63
67
32
ef
e2
c9
65
64
e4
50
e2
6b
ed
64
52
5c
66
e4
dc
64
df
c5
68
69
36
4e
5c
ce
e2
d1
2d
df
e2
63
e8
42
ec
5b
e6
e5
de
4d
e4
53
e7
d4
e1
db
d7
68
63
59
69
e6
8e
eb
eb
65
54
d3
de
68
4c
e0
b8
38
4e
ec
ea
59
eb
c3
e5
23
da
6b
e5
6c
d9
c8
df
e6
be
6d
91
e0
d0
df
e8
65
98
a9
47
21
5c
e8
da
3f
4a
cf
6b
dd
57
42
67
60
6b
21
56
a9
42
5c
66
e8
d6
e0
e7
5f
62
63
ec
57
5d
e7
6d
45
dd
96
67
6c
cb
d5
e1
55
d7
66
dd
6a
5e
d6
5e
3a
d0
69
ec
62
d9
dd
80
67
ee
ec
da
4b
d7
db
5d
dc
65
de
ea
eb
64
e3
ea
52
56
5e
3a
e9
37
e3
62
42
3f
50
e0
e1
5c
6a
5a
de
3e
66
e5
d6
ed
e4
d1
d7
6c
98
1a
cf
e9
e0
df
da
6a
66
ea
ed
a4
e0
64
81
6b
d3
69
e3
d1
ee
64
e0
e1
4f
c8
61
eb
bd
33
6d
db
e3
62
6b
d5
eb
cf
67
d5
6b
ca
67
d7
eb
5c
6c
cf
56
6e
64
81
5f
e2
93
5d
d1
eb
db
e6
cf
40
4b
eb
5b
e4
11
3a
e0
68
d2
e7
66
bf
c5
e2
0
e8
5c
e4
59
e9
5f
64
e7
eb
45
5c
e0
d3
db
63
6d
6a
6b
1e
eb
e7
54
69
2e
e1
6f
4e
ec
d1
da
59
bf
c9
b6
1d
30
49
61
d3
e1
43
46
d1
65
d6
33
dd
5c
9
e3
58
b0
6e
db
ca
e1
df
cd
70
d1
6f
cc
50
ca
54
cc
d7
d1
17
65
51
4a
ca
65
da
6d
3f
65
69
71
e1
68
c6
3e
6c
5e
c2
d9
a6
27
30
ed
53
e6
61
63
69
32
cd
e3
e9
5a
d8
ca
e5
53
e7
cb
f1
c0
5e
e3
be
56
44
e7
d5
4d
61
eb
69
ee
4a
c3
46
65
6b
a5
4b
56
4c
e6
4b
61
e4
e6
e3
4a
d9
e9
d7
c6
66
55
3a
e3
ec
4c
4b
5e
59
5c
5f
46
de
e9
62
ec
ed
e1
4f
b4
e9
df
61
6b
ed
5d
64
5f
4a
3e
ee
d7
55
e0
49
d6
d9
6e
d2
4e
e7
6a
d8
d3
db
67
c3
e4
53
cc
11
bd
42
64
61
da
80
50
1a
3e
3c
80
2f
ed
ab
65
5f
e3
ed
5a
ed
48
e5
65
ea
e1
a7
63
96
ea
c7
5d
5f
c3
c9
b8
4f
5e
61
6d
de
57
66
d5
e5
30
de
41
d3
68
eb
60
46
ed
9b
6c
5b
61
65
e1
bb
5b
64
dd
be
6d
6b
4e
55
67
e9
4c
6b
e2
4c
ed
68
61
69
14
4e
bc
50
44
e9
ea
bc
ca
e6
cb
ea
d0
2e
4f
4d
69
6c
5a
59
68
3e
6e
e9
d6
57
e5
6b
5a
6a
5f
53
3d
ea
5d
42
69
c6
67
b8
5d
ec
5b
5b
6d
6c
6d
bf
4b
67
63
6a
6d
c3
6c
6d
da
e3
62
cb
d5
5c
59
c5
6b
5c
50
5f
5f
a4
e5
f0
5e
5e
69
ea
65
ef
cc
be
e6
ea
58
ed
c0
65
0
dd
34
4e
69
e2
6d
d1
e4
52
e1
e2
d6
f2
b2
ed
5b
b0
46
e8
6f
c4
41
d4
ec
47
62
d9
6f
96
66
df
62
64
e5
df
57
aa
61
ce
bf
ed
4c
66
e5
c7
d5
e2
50
e8
6c
5b
51
eb
d2
5a
5d
60
6b
e8
ed
68
e0
a8
ea
6a
e8
4f
d7
5a
6b
e6
de
ec
4c
e5
cc
80
4f
6d
68
57
ed
d8
d8
5a
ea
ea
5e
3f
b6
60
e
3e
36
66
c3
5c
6d
dd
e7
ec
b0
68
58
e9
e1
d1
9b
df
d5
d9
dd
e5
56
da
e4
4c
3c
d6
ab
5d
65
69
e9
52
4e
71
e9
6a
b5
5f
6c
e1
66
db
67
de
59
6b
9f
64
e1
b2
e1
d1
dc
d2
67
3c
e6
2e
46
d5
db
e2
df
e9
e6
6a
ee
e7
e5
e7
68
68
71
55
c9
e7
19
e6
6f
c9
ea
dc
58
60
a8
64
50
5
dc
c4
ef
d6
e6
e6
d2
ef
2d
e8
de
61
59
52
eb
4c
a3
4
af
69
5f
6c
45
cc
59
b2
e1
66
8c
6a
61
e1
eb
5d
68
d7
e0
64
6a
6b
69
e6
e0
59
67
e6
d4
c9
6e
e6
cc
95
e8
4e
51
e6
4e
6d
bc
51
69
cb
66
bc
b5
db
de
e2
d7
64
b3
54
62
59
ee
c8
d9
6b
68
6d
6b
81
67
5d
2c
eb
d9
ed
d5
98
62
ec
ba
be
c5
6b
e5
44
e2
6c
a3
b3
b5
6a
6d
6d
d1
4f
ea
db
b3
6f
55
49
60
56
34
e1
e1
6b
e3
e9
a8
25
9e
3f
ec
c6
c1
64
de
dd
4f
6b
62
44
48
c5
22
5b
58
e4
e7
4a
d3
d6
ed
db
6a
56
5d
57
e4
a2
e4
6f
25
6c
b4
de
eb
ad
61
cd
da
54
d9
66
6e
66
da
52
d6
32
e5
47
62
ea
d9
41
da
65
5c
69
6f
37
45
6e
66
3a
65
ea
e4
45
d6
cf
57
4f
d0
e5
46
e0
5c
58
4b
6c
bc
6d
dd
3d
c6
3f
57
38
cf
d6
cc
ad
52
6b
ce
40
58
e5
62
4e
4e
39
6d
5d
64
e6
61
dd
e6
e3
3a
ee
9e
6e
e4
41
6e
42
cc
61
2c
ce
cc
e8
df
e7
d9
cc
64
12
43
64
be
eb
5f
ec
de
67
b3
50
6b
62
67
e7
e4
d0
67
eb
ed
6a
d7
e0
a3
6b
e6
ea
e5
67
6e
68
60
60
c1
cb
e2
62
ef
c5
62
66
6c
e6
6a
69
d3
cb
a1
6c
59
21
ed
e9
5b
e7
22
22
dd
e9
ee
1a
e7
51
d9
ce
65
e4
de
5f
d3
c3
e3
6c
57
df
59
e2
61
5b
5a
46
5d
d4
c5
2a
b8
65
63
d2
29
c1
a6
40
6a
e1
e5
44
81
3c
6e
ea
c7
4f
e5
d3
6a
80
3d
bc
6a
4c
4b
e7
64
d5
ec
d6
df
50
c1
ea
61
50
6d
64
46
6e
5b
4a
6f
5b
0
e8
da
cf
4f
e0
eb
4a
35
5a
eb
68
e7
ed
6d
d2
97
6e
64
6d
67
eb
5c
32
9
de
de
2f
dd
69
6b
c
5b
35
54
36
4e
d1
b8
d5
a7
eb
df
64
59
3a
ea
e9
4d
60
53
eb
3a
c9
60
ed
6b
65
dd
66
e4
c9
e4
5f
3f
66
df
e0
64
3c
46
c9
6f
6c
de
e1
63
ed
6c
57
de
dd
65
ea
cb
e9
4b
46
d7
e8
57
6a
5f
2a
dd
e3
52
63
e7
6d
48
62
d5
e7
da
66
ec
c9
da
ea
eb
5a
e3
6a
6e
5c
8c
67
e0
65
eb
e5
d4
d9
38
a0
5a
43
58
ea
6d
67
b0
66
d6
e0
e5
81
69
e4
d3
6d
6a
c4
e2
70
d3
20
52
e4
5a
e7
ec
30
e8
66
47
e8
57
de
62
d8
e5
5e
db
4d
eb
df
e9
69
70
e8
52
c2
52
e9
ef
eb
69
61
d9
6d
c0
ec
ed
54
d4
bc
5f
d5
68
d6
e4
53
ea
d0
60
e9
db
65
cc
6a
e3
db
4d
6d
ec
e5
6a
63
4d
e6
61
5e
d5
60
bf
ea
dc
56
e1
57
ec
ed
5d
40
59
e7
d4
db
80
52
6a
ec
c7
dc
d6
65
57
6c
49
ea
68
57
33
60
c8
ee
c6
ea
ec
e8
eb
ed
61
c8
e5
d8
69
bc
cf
cc
b9
40
e5
db
20
5e
61
d6
41
67
e2
13
65
da
eb
67
6e
66
dd
6e
64
2d
e4
6d
6b
b8
6a
3d
62
e4
e8
e8
5f
ee
69
69
4c
60
6c
ea
62
a5
a4
6f
ad
ec
63
de
6d
53
54
67
4a
66
56
2d
e5
6d
4c
5b
e7
68
4e
dd
54
56
5c
68
b8
5a
cc
e5
64
ec
ce
e8
bd
e0
e8
d8
dc
e9
37
6c
85
a9
6a
22
9f
d7
66
ed
db
4e
e4
e7
ed
e6
a0
69
68
55
1e
e7
da
6c
66
e9
29
ec
ec
4e
5e
e7
c8
6c
96
66
e9
96
57
17
5c
65
d5
ba
e4
68
e6
b7
bf
d6
d9
3e
d1
64
62
be
68
6c
e9
6b
e6
c2
e0
e7
ae
e8
b9
e0
6a
47
61
66
67
e3
e7
38
c2
4e
e9
38
50
38
67
60
e8
de
eb
ec
d2
c8
ed
e4
e7
e3
51
db
55
5d
e1
db
e7
e9
db
dc
62
63
e6
d9
69
6e
cc
57
ea
ec
e1
5e
e1
d0
e0
ce
de
9e
ed
45
cf
dd
59
36
55
4b
d6
e1
3a
4f
26
6d
6d
5e
6a
69
dc
68
61
4e
e3
d5
bf
5d
d0
e5
4e
cb
d6
46
e6
a6
ec
e3
da
ce
6a
ec
55
64
d9
69
6b
d3
63
10
ed
69
e3
e3
d9
e0
c8
54
56
57
d6
c5
e4
46
b6
5b
cf
59
e7
e7
e0
55
e2
24
57
71
6e
d1
57
4f
60
5f
5e
b3
59
58
3b
50
e9
dc
5f
9e
53
e0
98
c1
56
bf
e9
e5
59
dd
d8
59
ec
48
e7
ec
59
6a
69
60
6e
5b
8d
18
e7
df
6c
a3
66
6b
f
60
6d
5d
5a
da
3d
6e
5e
c2
3f
e6
e2
e5
e2
c9
d9
e0
e3
68
5e
68
e1
61
e5
4f
a2
5d
ec
c9
55
e6
ee
dc
66
48
67
e0
39
63
58
b2
ab
51
e5
6b
6c
59
a
61
c9
ec
66
ba
e3
ec
e4
ec
eb
e0
65
5a
6e
df
b9
e9
63
ed
5d
ec
55
ea
ec
51
65
e2
e6
e4
62
b4
ba
c8
ee
dc
67
ab
60
0
e5
64
dc
6d
c9
a6
6b
ee
e5
e5
e4
68
6a
68
66
66
d2
12
c7
d3
d7
e0
ec
69
ea
4b
d7
d9
63
db
b7
be
d3
63
c0
e5
e6
ba
5e
56
c6
41
6d
e7
ed
d8
5e
ed
e6
6c
67
e6
d7
ca
c4
45
2c
60
26
45
6b
d9
6c
5d
da
6a
60
dd
c0
b3
e8
64
6c
38
60
57
63
e8
98
d1
6c
ea
e6
de
51
e1
d9
e7
54
d8
e2
d9
64
6c
63
67
e1
48
ed
5e
6c
80
61
5a
c6
db
6b
db
ea
e6
61
80
c2
51
48
bc
e8
89
5f
dc
6d
e1
58
bd
6a
b4
e3
d6
4d
4b
6c
eb
d3
be
e9
e0
50
e6
59
dd
61
6f
65
58
80
65
6a
6d
60
6d
63
1e
e2
e9
4a
e0
cb
ec
63
dc
56
d4
52
6b
41
3a
5e
ec
ae
63
d5
c9
ce
6d
c0
cf
df
dc
ed
df
1c
e2
81
56
6e
e9
60
53
4d
73
3f
6b
69
68
c8
71
52
e2
69
6c
5c
6f
c4
e7
cb
5c
d3
c2
74
e9
bd
e3
c1
b8
e2
c6
68
68
80
59
cd
63
ae
4f
60
d7
6c
52
67
6a
ca
e8
dd
9a
14
db
af
e7
bc
4a
68
e5
5e
c9
67
d6
a8
56
68
eb
55
5f
bb
6b
58
65
db
ee
68
df
6b
3b
e2
2b
49
64
6a
e9
69
32
e2
c3
df
ea
e5
ec
c6
d0
b2
64
d7
e4
e0
e0
61
e7
60
e2
5a
68
3e
e4
c8
60
ec
e8
4b
d4
71
e1
5a
44
d6
56
58
59
e1
ec
67
64
58
5c
6a
6c
64
62
c3
69
60
55
39
df
49
3e
cb
66
56
4c
5d
cb
cb
c6
6b
e5
dd
46
e4
de
c5
3f
23
94
d2
2d
53
e8
92
5c
91
db
ea
69
ec
63
64
c1
6d
eb
52
6a
d0
d8
c2
6a
4d
eb
da
cc
66
e4
4e
e5
eb
d4
3a
e5
bf
c5
d2
62
57
cb
61
d5
e1
be
37
5f
e2
3
61
c5
36
54
eb
e1
56
69
6b
b3
d6
2a
43
62
6b
6b
69
ec
53
d6
ed
d7
e9
d8
e7
e7
d6
c7
5c
da
d3
5a
4e
c9
e8
e9
ee
dd
e0
dc
af
db
6c
1c
cb
d4
5f
4c
52
ce
e5
64
72
6b
65
3d
6b
e8
6f
bc
6a
de
e7
e4
6e
eb
34
e6
ea
6e
5c
58
97
d0
5e
d8
db
db
60
5f
ea
e1
ea
de
c8
d8
46
4f
ed
e0
69
63
6c
58
6e
e6
e1
6b
9f
c5
cf
ee
46
61
5a
ce
5b
ae
59
50
69
9a
ce
5a
5b
e2
e2
dd
69
e3
4a
67
6c
6c
d4
4b
d9
6c
da
ca
61
c3
49
ec
42
e8
5d
b2
69
50
6e
4f
62
62
57
6c
b3
d3
14
6b
cb
5f
de
54
6b
5d
4f
6d
4f
b2
18
e7
d2
66
6d
6c
b1
eb
d4
63
e2
5e
44
d7
e9
5f
be
e6
87
e4
9c
ea
52
6c
5d
67
d8
55
4b
41
4d
48
90
a6
43
2b
5f
5b
5d
dc
69
69
6e
ea
d8
db
66
55
6b
cf
df
dd
de
55
5f
e2
5e
d1
62
63
72
68
80
73
e6
67
e2
e8
6f
e1
df
c0
70
20
62
6d
38
5c
60
df
5a
de
5b
42
69
c4
57
5b
ba
63
65
57
56
6b
d7
e9
ec
5d
68
d1
e3
ed
ec
bf
d9
6a
5e
54
d2
57
59
63
64
61
ac
54
68
e8
69
64
6d
c6
64
e7
bd
48
4d
ee
e9
de
67
3b
c0
3c
d3
ec
3b
1a
59
6a
ce
2e
e1
4f
55
ca
68
e8
3a
3e
dd
ed
58
d8
63
63
6e
ec
ed
60
e8
c6
50
50
6a
65
ea
e8
d9
62
cb
de
ec
6d
39
c2
d9
4c
5c
62
dd
59
51
d0
58
65
5f
6b
e7
66
eb
56
6c
6d
6c
d4
e4
66
62
59
69
65
c1
4a
e9
5b
69
e7
c5
e6
5b
ed
6c
e4
cd
ec
ee
e5
e6
60
de
e0
4c
c3
56
67
52
e0
ef
66
f0
f0
80
3c
d8
d6
d8
bb
dd
59
69
e9
5a
ee
e1
a9
cb
ed
e8
b8
61
ec
36
61
6b
5b
de
95
65
68
d3
48
d9
62
e0
4f
a3
c8
ae
d4
eb
d5
2d
d1
12
ea
d9
ec
6a
d3
c4
e3
df
60
5c
66
bc
2d
d2
e3
62
d6
4d
66
6d
53
50
d8
63
51
66
de
4a
56
e8
aa
5b
64
e7
69
67
c1
c7
51
50
c0
6e
ad
6a
67
52
65
e2
ea
c1
67
e3
e5
de
4c
cd
5f
e2
e8
82
da
eb
e8
56
64
56
6b
ea
e9
56
eb
c8
e5
6b
e4
e5
6b
5e
b5
6b
69
e3
5f
dd
63
6c
57
e0
35
d4
dc
4d
df
e1
62
bb
54
d3
e4
68
56
5c
51
62
e9
68
3f
22
e5
c
d0
c7
4c
62
6a
bf
66
67
60
bd
ed
b7
0
d7
b0
e8
c0
dc
e3
e8
55
62
2c
5d
be
7
cd
ed
66
6c
5d
66
69
ed
d8
6d
4f
b4
50
5b
68
68
6e
61
66
2a
c9
6c
bd
4e
65
d0
66
71
65
73
3c
ea
ec
d6
50
61
dc
e2
45
ed
d8
d7
53
62
e2
de
e5
d8
cb
c9
ea
d5
bd
d5
ea
4e
64
64
37
af
57
61
1
c2
30
56
6d
cf
df
dc
65
69
62
bd
c8
e2
4a
51
61
6b
5a
13
5e
e3
ec
4c
dd
41
54
c1
57
66
6b
6d
2c
63
34
cd
48
80
53
58
54
3b
e3
d2
68
4e
e1
15
6d
eb
d3
83
4c
e7
c9
80
17
32
48
ea
53
67
4d
de
69
e8
c6
3e
cb
44
dd
d
5f
de
c7
2b
6a
53
6c
6a
26
6c
6d
d1
eb
d1
dd
ba
d9
e8
b5
da
6d
4e
4d
69
ca
e2
e3
ea
d8
cc
e8
5d
66
d2
6a
e9
67
48
81
6d
6c
e1
51
6c
e9
b6
65
5c
5c
6c
53
e4
56
e2
c6
ee
61
2a
eb
69
68
6c
66
5a
61
eb
df
63
66
e7
d5
e8
41
ea
eb
d6
59
6a
68
c6
4c
cc
de
e5
57
5f
6a
4f
68
43
5b
e4
e3
b9
b7
4e
5e
1a
ea
63
6c
df
be
eb
44
5a
ec
5c
e2
4e
b8
e9
57
6a
69
e9
4d
62
e0
dd
58
47
6b
e9
e8
e9
56
45
e9
cf
44
e8
dd
69
66
5b
6b
6c
40
60
ee
64
db
2a
e3
cc
e7
c8
ea
ea
9b
60
eb
68
54
e1
4a
65
c7
52
66
cb
69
6d
cb
5f
3e
e9
e4
ec
61
ee
ec
e8
3b
de
6a
62
54
e9
e3
80
6c
6d
42
cc
54
6c
e5
59
62
51
4e
e5
9
49
e7
e4
37
51
6d
ec
49
b1
46
d2
c6
e4
6b
e7
d3
c9
d8
66
d5
56
69
59
d6
64
69
64
eb
68
b1
46
45
e9
6c
df
ca
b8
69
dc
57
e6
5b
49
68
dd
4f
6c
e5
d9
cb
a3
51
e7
5a
54
3f
b2
eb
59
e2
d8
60
d4
70
36
49
72
5e
5b
69
5f
eb
cb
df
d7
ed
d3
d6
52
55
21
5e
d8
ca
b4
55
db
5b
56
ea
6b
e4
e0
66
6d
5e
56
5d
d1
d9
65
d8
b1
c0
f3
f0
e7
1c
ec
e8
db
e2
51
60
cf
d1
55
da
63
cb
aa
e4
5d
69
ed
43
63
8d
50
de
2a
52
4f
4c
f4
63
c4
e3
57
ec
60
64
a6
c3
c0
0
c3
e5
e9
67
62
c8
60
4b
51
4d
e5
43
ec
57
62
d1
36
6a
ed
e8
6d
62
cc
51
41
67
ce
d9
5b
c6
bc
c9
57
b9
e6
e3
ec
d6
e0
d3
63
6b
d3
56
65
eb
6a
2d
5d
c5
cf
b2
6a
52
e9
6e
e5
d6
41
5d
e7
e9
67
61
ee
4b
5d
e8
c4
68
6c
69
e1
6d
60
e9
63
c9
cf
67
4d
eb
6a
5b
cf
d0
e5
6a
dd
d1
de
ba
6a
c2
6e
4a
55
61
d7
d9
3a
d0
4c
dd
5a
d7
e3
64
58
4d
eb
f2
62
63
59
52
eb
4e
6e
6a
d2
d6
6c
f1
49
f2
da
62
68
d5
6a
5e
c2
da
6c
61
4d
48
49
5f
64
b1
5c
d8
5e
db
df
6f
5d
eb
8d
6c
55
5e
48
cc
64
5b
a1
a9
35
c8
65
d4
6b
67
3f
da
63
61
57
48
c2
4d
6a
3b
d3
47
e3
44
60
67
68
dd
21
6c
e2
47
d7
5c
3a
66
4d
6c
d3
ed
68
6a
b8
6d
db
69
d0
c1
dd
e8
eb
e3
cd
ea
e2
6f
56
ee
e9
50
eb
db
6c
26
6f
d8
4a
ed
e6
6a
d0
66
62
e1
e7
c6
e1
cf
e6
6c
c5
e2
39
61
ec
66
1f
6b
5b
69
58
74
77
e9
e7
ed
5c
e9
e5
6d
68
e1
cc
3c
cd
e7
64
6f
81
d4
6f
c2
dc
43
e8
6e
d7
c8
5f
e6
e4
6c
f0
de
5e
ef
e5
68
54
69
9c
66
48
65
b4
63
61
ed
da
6b
4b
b
30
e1
6a
68
e7
63
d9
ec
69
56
5a
e3
63
51
e5
54
37
71
5d
e2
5e
20
2a
71
67
72
73
69
6e
73
49
68
62
71
d4
44
64
6f
de
5f
d8
e5
67
51
2e
cb
5f
6f
63
d7
ca
e9
5c
2d
ec
6b
ec
6b
61
4d
0
24
4f
51
da
d2
80
e0
ce
49
63
50
da
6b
18
af
d9
eb
5c
5f
e5
60
52
e1
d9
e4
e8
d9
5a
3b
3d
e4
ee
df
cb
1f
58
e7
80
d9
41
9d
57
5c
e5
e0
60
d9
eb
a6
4b
67
ec
22
5e
42
e4
ed
3c
60
e1
4d
e3
3e
da
e2
d1
eb
b5
d4
dd
60
d2
6a
e6
e3
66
dc
ec
e3
5c
ee
e0
ee
b7
2
d5
e7
51
ea
67
47
e1
ea
54
e4
d0
dd
ea
d8
6c
5b
9a
60
e2
cf
cb
dd
b6
63
c1
db
39
6d
e7
6b
dd
67
db
70
64
68
eb
e1
5c
d3
d7
da
68
39
e7
5c
1b
e9
62
61
67
e1
68
5c
6e
e5
55
57
e0
65
4c
e8
e5
ec
67
e6
ca
6d
c2
ea
5d
e6
e8
63
e0
d5
5c
6b
50
ce
e6
53
0
6b
4f
5d
65
6b
b5
dc
6d
5c
ea
e5
db
3e
da
cc
6c
eb
df
b5
60
52
db
6c
6c
5e
e5
52
53
e3
ee
d8
51
6d
ed
ef
c5
5
5f
32
6e
6e
46
c7
d0
e2
d0
e6
57
63
e9
e6
ce
61
d1
e5
62
4e
e1
ec
d3
5c
4a
ea
cd
5f
b2
eb
c4
4a
55
c5
64
43
5e
67
d6
56
e2
e7
18
dd
46
2e
6e
52
4e
ea
6b
0
ca
67
5b
e2
dc
65
ec
ea
d6
ee
4a
6d
6a
cb
52
da
d0
69
cf
e7
62
ec
e8
65
68
3e
cb
66
ce
67
80
3a
da
4f
d6
e6
e5
e9
e8
e6
db
ad
64
a4
dd
cc
6a
58
db
d9
4b
5e
d0
e0
ec
d9
d9
ab
68
e7
e6
b3
4e
e6
e7
e8
e6
70
ae
cf
59
df
e9
d6
dd
80
d5
d4
52
d4
c3
e4
5b
d7
e1
47
16
58
37
bf
60
d4
c5
ec
63
24
40
60
61
dc
c8
c6
e2
d6
e2
e9
6c
65
80
df
c4
cc
6d
61
c6
71
e0
ca
3d
d4
27
41
ec
69
de
68
6b
6a
65
5a
6a
e5
de
c0
65
db
6a
aa
62
ed
59
58
6d
d6
e9
67
4f
ea
6f
c1
55
55
5a
d9
cc
de
4e
e4
d9
4a
69
1a
d2
3b
be
de
e0
ea
e2
56
d1
d1
6c
5a
4d
c3
67
c9
46
df
db
63
60
55
eb
db
56
bb
d8
cf
54
c6
cc
ce
65
61
5d
e1
5e
e9
5c
6c
46
cb
66
8a
4f
e2
72
9a
ce
ce
66
de
ed
dd
ea
c7
6d
6f
6e
6b
6c
e2
45
1e
5f
d9
de
e8
6e
4e
b9
c9
66
a3
e9
da
eb
6c
eb
66
dc
54
e1
e9
63
5d
d6
61
61
6b
54
db
69
c1
e4
d8
67
13
b3
81
db
6a
e1
eb
e0
ba
58
df
61
eb
6d
5c
2b
d3
62
61
2c
cc
4e
64
e2
b3
e6
a0
5e
3e
5b
cc
e8
cb
b9
ee
62
68
66
67
e5
50
e3
ce
62
d8
e2
cf
6b
68
b2
5d
e8
22
68
df
6a
5e
ea
6c
c7
65
68
2c
c0
bd
63
6d
e7
c9
e2
ee
5b
ec
6b
e1
ee
cb
d4
b5
62
5a
2b
e0
68
60
70
2d
da
5a
66
dd
36
c2
a2
ea
ec
62
ec
3c
9c
e9
de
64
6c
50
59
4d
e2
ee
36
dd
63
26
30
97
68
64
67
4b
65
5c
e8
e3
e6
2f
e1
6a
5a
e0
e4
64
ea
62
64
69
60
51
6d
ec
ec
e9
68
50
67
aa
ee
c8
d3
ec
62
63
e6
65
e0
4c
67
4b
e3
e6
63
61
52
15
5f
64
c6
e5
44
4a
5a
54
6b
db
0
d8
67
5e
51
b1
52
bb
6a
e0
76
6c
6f
e4
e8
9f
32
6f
67
df
64
6f
68
3f
74
67
62
77
79
da
e9
e1
59
6a
6e
d3
6c
cc
6c
57
67
da
e5
5e
48
d2
5e
db
65
6d
64
e8
e2
34
57
df
d9
25
44
c3
a7
c7
6d
5f
6b
60
71
69
5d
5c
72
60
6d
63
65
e1
e4
41
d9
4d
ea
ea
6b
d7
50
6b
61
6f
e9
60
e6
dc
6b
65
6a
e7
c6
ed
60
68
2a
ee
e6
4b
61
80
eb
6b
5d
6c
e5
59
5d
55
61
6e
d3
c7
63
4d
c8
6d
4f
e6
c6
51
d3
e5
62
6b
c7
6b
68
ea
69
d8
e0
c8
6c
45
47
b9
c8
68
ed
61
ee
50
52
61
ee
48
6c
66
e2
4a
50
e1
e9
e9
d4
e2
6c
d9
4e
c0
65
c2
6b
d5
4c
59
69
e2
eb
2a
e9
6b
dd
57
68
ec
eb
ed
2a
ed
ea
39
65
5d
2b
69
61
e8
5a
61
60
68
6d
6d
d8
da
ea
65
ef
f1
eb
ef
f3
eb
e3
5f
5c
c4
e1
4b
6b
bb
49
42
dd
d4
d0
e7
e3
67
3c
55
d9
64
4a
e1
58
cf
d3
d9
cc
62
2b
d0
4b
54
66
ef
ee
d8
61
ce
5d
dd
6f
c2
e7
ce
5c
c5
6b
d8
6d
dd
71
5e
76
6d
cd
55
e7
50
90
eb
2d
d7
29
ee
e3
65
e4
bb
6a
53
cf
d9
5c
dc
55
6e
c7
e9
67
3d
67
d8
62
49
36
d8
d5
cb
6a
30
51
6c
d9
cf
b9
a9
6a
6c
e2
6c
58
df
ea
b6
da
91
d8
e0
dd
bb
4b
6b
6c
62
e7
56
5a
e7
c3
e1
db
57
5e
80
e5
c1
67
bc
6b
6c
56
4c
60
e3
e4
e4
91
c4
e9
dd
6f
6f
e1
e7
6b
eb
e7
e3
e
68
e6
49
df
67
6f
5f
70
65
c5
6a
5e
53
69
ed
e4
65
e5
54
6a
52
66
69
ed
eb
db
65
bc
69
da
46
46
cc
d5
de
65
60
68
ed
dc
89
5c
66
6d
34
ea
c4
cc
e0
48
ed
68
4b
3a
4c
67
70
50
6d
e4
c3
6f
68
e1
70
67
25
6a
dc
e4
64
e5
5f
6c
b7
eb
ef
51
ed
ec
6d
4f
d2
e3
53
71
6c
c0
47
6a
49
3a
64
c6
ec
51
59
46
54
c6
62
54
6f
27
b0
e7
d5
cd
6e
2b
d1
52
e2
d2
ef
e3
27
dd
cf
5b
5d
c2
6c
6d
bb
42
5d
4b
6b
e7
d6
5e
4e
de
51
6c
ba
cf
e9
6c
ce
46
1a
67
cf
3f
5a
37
e9
eb
61
dc
42
b5
dc
e5
60
80
d1
53
d4
e3
5c
81
e5
68
5f
4f
c4
c6
4f
49
65
68
b1
e2
a8
e4
59
3f
21
c0
e8
68
9d
c1
2e
dc
de
3c
dc
34
e5
e2
5f
69
e0
61
a3
a7
84
21
44
69
6d
ae
b3
e2
e1
e9
66
60
ea
c1
4a
e1
ed
6d
44
3c
e8
e8
eb
60
9d
5e
ec
5f
60
62
50
b3
e5
6c
de
5e
ea
2c
d3
e0
dc
6b
4f
9e
ea
6c
e9
dc
52
4d
da
6d
eb
62
e3
d4
a1
41
5b
66
50
68
63
da
5d
df
64
23
58
81
e1
5d
db
ad
db
c5
6d
40
5d
69
64
5b
6f
e4
dc
da
e6
4a
e0
6f
66
39
50
c6
d9
46
57
e7
64
da
49
6a
69
5c
30
6a
e1
54
d8
ce
eb
e5
6d
d3
5f
65
ed
68
43
80
9f
50
bd
5e
e0
6e
e9
6c
df
69
65
d9
6c
6c
ec
23
d9
6c
6b
46
49
ed
ec
ea
c7
67
cf
69
65
dc
60
45
e9
b7
d2
e9
4f
54
e6
63
eb
c2
c7
cc
a2
e0
5b
de
e3
eb
a2
64
6e
68
bd
db
d3
ed
6b
e6
50
eb
e9
db
5a
ed
e6
e3
24
62
67
54
69
46
52
52
ec
96
64
c
61
4b
5d
d9
64
e3
3a
dd
bf
6b
46
d8
3e
e6
e0
db
5b
eb
3a
ed
e8
c8
e9
8e
3a
12
ce
e8
d8
6e
df
6f
ce
59
6f
6a
b6
6b
e8
bb
e7
67
ea
5b
6d
6a
e0
c0
e7
c6
30
ee
c4
e7
24
d0
10
cd
61
57
67
de
eb
61
bc
d
50
3f
d4
60
55
48
e2
67
e3
6e
68
81
6b
e4
4a
5e
40
69
e3
eb
65
e1
65
62
b3
59
e3
66
55
68
55
6b
c8
e5
46
ec
d6
b6
d3
68
6d
46
6a
6f
66
cd
48
37
4a
4e
53
4e
d5
61
42
dc
eb
6e
6d
ca
eb
dd
d9
5e
64
cd
60
5d
66
ca
70
4f
e1
6a
dd
6a
61
db
2f
5b
68
4d
44
4f
ec
4f
59
4f
ea
e8
ed
ee
dc
d9
ed
54
e0
6c
e7
e3
44
d4
70
e3
57
db
2b
ce
bc
99
58
5e
ea
c4
62
e9
66
67
81
6d
ea
c1
e5
58
50
e9
ba
64
e4
c9
d3
ed
4c
2d
59
60
6e
6d
5d
ce
6b
e8
5a
31
e0
6b
d2
53
67
61
e9
d2
5e
65
6a
ad
5b
e5
49
d1
de
ec
e4
3d
e6
6c
d2
e3
54
e7
5e
69
e9
66
dc
c8
3c
6d
e6
60
5e
62
38
c9
dd
65
da
dc
5a
48
64
ec
53
e5
61
3a
c1
61
c0
e8
e4
e5
eb
3f
e9
5f
eb
5f
4e
d6
e2
42
37
b4
e0
ea
6b
1a
5b
23
4b
f0
49
6b
e2
4f
48
6a
e7
3d
db
6b
ec
6b
e9
da
e5
eb
ab
6b
c9
af
ea
dc
6d
46
4d
6d
cb
ea
df
64
59
2b
69
4b
5b
e7
b3
d1
e6
6e
ea
e4
e0
68
51
c2
d8
52
e9
cc
e9
29
ed
e2
ee
6b
e3
e9
24
ed
d1
dd
56
3f
64
a5
6e
56
4c
e8
e0
e2
c4
e6
ed
6b
c5
e7
e4
aa
da
68
61
3e
6a
ed
5f
c9
e8
eb
4c
6c
51
56
de
e4
6e
b0
47
66
b9
b7
ee
dd
d8
5e
e6
dc
b0
69
c2
a9
70
5d
6f
6e
48
80
e5
6f
66
b5
6d
ea
cd
c3
c4
1c
e4
14
63
e7
60
e3
d1
e3
43
64
40
56
64
49
6e
e0
6c
53
c9
62
4b
dc
cd
64
6c
6c
6c
4f
bf
ee
ac
58
e7
72
d7
c7
56
d0
6f
6f
6c
6c
b2
42
c1
6b
e8
66
6e
70
c0
92
54
5d
6c
69
aa
65
57
c6
52
64
27
69
ea
52
65
6a
e7
1
61
d7
60
5f
e8
d8
b9
da
cd
c5
d2
6b
eb
61
5a
5f
e4
ea
d4
4e
e4
49
de
59
e4
e2
52
e6
65
62
e1
5c
60
66
dc
ee
ce
69
ec
bb
5a
e0
49
d4
6c
45
6f
61
df
6b
df
48
27
43
ed
d9
6b
4a
9f
61
66
dc
64
4a
b8
60
de
eb
6b
e0
c8
69
44
d4
6d
69
e5
b9
58
62
d8
63
ed
6d
68
e4
ec
6a
60
68
e0
e1
d5
5f
67
95
e7
2b
6a
d3
65
61
d2
6a
6c
5b
11
49
6d
f0
3d
ea
eb
e7
f0
43
e5
d8
6a
62
56
5f
6a
70
6b
ca
4f
6c
e7
d8
32
64
65
d7
ca
72
4f
6e
63
45
60
6f
6f
bc
d6
b5
5e
ed
ca
5c
e4
dd
e8
62
cc
be
ea
60
e7
e6
de
62
70
50
d9
55
6e
e5
e0
e7
f
b2
e2
16
6d
64
50
eb
4f
eb
6b
5c
4f
e2
63
eb
de
d2
da
ee
6c
e8
56
ed
68
5a
6c
6f
60
70
67
70
6f
c5
5e
62
ed
68
58
df
e5
4c
80
d2
3e
6c
e6
6e
d7
ed
6a
46
db
d8
68
51
68
5a
d7
72
73
86
75
e5
e8
e2
cd
67
63
ea
e5
eb
45
9e
5c
d0
52
c1
ec
e0
e9
57
8a
6f
68
be
63
c
54
48
ea
5c
6b
d9
6a
5f
ee
ec
25
68
62
5c
1e
e8
5d
e4
a0
76
e8
d6
ea
ea
65
be
ca
1b
5a
6c
6b
40
db
cf
91
34
4c
ec
3f
15
ec
e1
38
1e
52
58
cd
d1
4d
4b
c1
e6
e5
e1
ee
dd
dd
6d
e8
e6
de
61
e2
ea
e7
4a
cc
65
ed
37
e9
d7
e6
b8
dd
e3
a4
e0
64
61
c2
ec
6a
2f
e8
dc
ac
5d
ce
e9
26
e6
de
d1
6c
3e
6d
6b
c8
5f
48
80
e3
ed
e4
c1
69
d2
d1
64
ee
50
5c
60
67
3e
e0
da
d5
69
54
66
e1
db
5c
57
e3
5a
df
5a
63
e0
e0
65
60
b6
68
55
2d
5d
5a
bf
53
d5
d7
29
e8
30
e7
43
ee
cf
b5
68
4e
55
d8
d7
6d
b6
3b
60
5b
c9
68
d8
df
e4
6b
68
de
64
65
d4
64
57
2f
a3
59
6b
e4
6b
ca
53
63
5d
5d
da
c3
ea
e1
d4
65
c5
65
ca
e6
64
e2
e7
6c
c4
99
ec
85
e1
5c
2c
60
59
6b
df
e2
5e
cf
64
5f
6b
59
49
62
51
5f
dc
ed
ec
47
3a
d1
df
ea
69
e6
69
64
68
d0
cf
5a
55
e0
54
b2
3e
67
bb
ea
e0
d7
60
e9
df
d1
40
ec
5e
e5
eb
6b
2e
ca
eb
5e
6b
67
e4
d7
d1
d6
cc
e7
6d
32
6c
e2
d8
d2
30
b8
44
53
ca
5b
5e
6c
34
6e
6d
d9
5e
df
56
50
55
5a
ed
e1
69
ad
6d
e0
e2
5f
e6
de
5e
64
e3
6a
68
69
62
c3
e2
2b
be
5b
67
61
db
c5
1d
e5
e3
6c
6c
d6
e6
62
e7
64
6c
e9
e0
e9
5d
db
d3
de
ca
4b
4b
55
3f
d4
69
69
ea
2c
cd
e1
ea
c2
a1
d7
42
d7
6e
6c
a2
4e
6b
67
51
d8
69
61
32
64
26
6a
eb
ee
c5
5f
6a
bd
46
e4
e7
c1
2f
ef
63
69
e1
63
5f
51
11
e8
eb
e6
e7
d2
44
6a
a2
e1
e5
54
1a
ec
c
43
e9
e6
d9
63
6a
b1
ed
bf
50
27
cb
63
e9
e5
d9
3f
56
eb
58
d5
e5
e2
ee
41
3c
ec
cc
de
d2
4d
6c
69
60
e3
5e
e9
65
5c
4f
ad
ce
bf
5a
df
e7
ec
58
e6
ea
e0
32
be
e1
cb
d6
e1
d7
ea
b2
5f
e2
e6
57
e8
5f
ed
1f
d6
e4
68
a5
6c
6d
62
63
4f
69
bf
de
cc
62
6b
ec
e1
d6
c2
52
67
ce
e0
54
d7
da
56
eb
31
e0
58
ea
eb
13
a0
ea
e8
ed
b4
64
9c
c8
69
d0
ba
dd
6d
e1
be
67
5b
66
63
25
eb
ea
d9
54
e1
4c
e6
5d
67
41
e3
62
d1
e8
49
9b
e6
5c
d5
e5
61
6b
3e
db
6a
69
e3
eb
c0
b5
e3
ca
e9
ef
67
d0
66
cf
63
5d
3f
df
61
69
d1
b1
69
5b
bc
63
ea
61
46
69
e8
df
5d
ed
57
63
5c
be
df
6d
ea
cf
ea
e8
aa
c7
4c
dd
d8
a5
68
e6
d8
5b
db
6b
6a
6a
5c
61
d6
68
63
ec
de
4d
55
57
5c
66
69
de
e0
0
eb
16
3c
e8
df
e4
e3
ea
ea
3d
e0
e8
3e
3d
d8
6c
ed
43
90
ce
6b
40
2f
55
e6
e2
61
d9
61
6c
4a
47
55
eb
a5
e3
67
71
31
a0
3e
5f
e2
6e
6d
95
dc
e1
af
c7
61
c9
ef
ed
51
62
e5
5b
dc
3c
d3
55
43
57
d5
68
38
48
ea
39
55
e2
53
53
2d
ea
61
e8
c0
a1
6c
e1
e0
4d
69
6b
ca
54
65
52
5a
62
62
d6
ed
65
59
c9
5b
d1
ea
d6
ca
6d
e3
e3
5c
e6
5c
eb
e2
40
ed
e8
df
d7
e6
4d
e8
6c
4a
e4
de
4d
ec
6c
3a
5f
52
e2
ec
df
da
e3
b8
b7
6c
64
4e
69
6b
e7
e6
80
d7
3b
cd
ea
ed
e1
ea
66
af
ad
ae
b6
cd
6b
d5
e6
c9
63
56
dd
37
6b
cd
ea
ea
e4
6b
65
1f
ed
ee
e0
e9
57
61
6b
61
66
dc
6
eb
e9
4c
d8
e9
5f
67
e9
44
d6
62
44
64
d1
3b
de
2f
51
6a
25
6a
dd
68
3f
ea
4d
d9
e7
eb
28
6a
ec
5d
e7
6c
6c
52
63
45
eb
67
dc
6d
e9
27
6c
ec
cb
5e
de
96
6c
e9
4f
ec
ab
4f
e8
4e
3c
eb
e8
69
da
64
30
5d
e1
e1
5a
65
5c
e3
ee
6c
d4
e2
37
e5
ea
dc
e5
69
68
cb
dd
15
6b
e3
d5
e6
66
60
5c
cf
e2
4e
e7
dc
4b
e4
e6
6a
c5
58
80
eb
cd
d5
ec
54
67
4e
59
6d
2f
4f
ec
69
e1
e6
6e
dc
6b
67
4a
54
cf
cd
62
df
e7
d8
eb
66
d0
61
eb
e2
6a
e6
5
62
eb
d7
5c
eb
d1
d6
d8
67
5f
e5
55
62
60
5f
e0
ee
6b
c2
99
e2
53
5a
4d
65
41
5c
55
2a
52
e7
c8
63
bb
32
57
62
ed
d3
e5
42
52
34
e3
33
51
c7
cd
86
68
e1
ad
e9
4e
e4
4a
df
90
d0
5b
b5
5e
cf
40
6b
35
4d
5b
b6
df
56
d5
d3
64
ec
e4
eb
6a
5a
5b
54
27
5e
ec
69
60
ec
65
e5
dc
ed
67
e6
e0
6b
e4
5d
6a
c7
e5
b9
5c
e7
e9
61
d6
6c
41
e8
ee
e3
e4
d5
e3
d4
b3
64
a5
4f
4e
55
61
dd
e2
65
69
e4
df
ee
ed
da
ea
60
69
6a
4b
cf
cd
ed
62
e4
5d
3d
e6
43
4b
e9
44
d5
57
57
35
3e
48
db
e6
64
d9
6a
ed
18
4b
6c
31
db
eb
61
d4
69
e0
c9
3e
b5
da
41
28
e4
68
69
6a
e6
63
dd
60
ed
4e
65
6e
b2
58
e4
81
52
25
5b
6d
ed
64
ed
e0
d1
de
cd
5a
54
42
57
65
d3
cc
ac
44
e9
ed
e5
56
5a
df
eb
6d
d0
58
d9
87
3d
63
67
a8
61
35
62
5f
67
5f
3a
da
65
41
e0
e3
6c
5e
a2
dd
6b
bc
e7
63
eb
6a
65
67
65
66
d4
6d
45
ce
4e
42
6a
56
52
68
dd
6d
bc
4b
60
4f
9
60
d6
ee
e3
36
dd
da
69
c8
46
4a
61
cd
5c
ea
dd
e7
69
bb
41
41
55
cf
e1
de
dd
e5
62
54
e5
53
e4
e8
e9
c0
c2
5e
69
66
e3
6a
61
da
40
5f
5d
d8
14
ea
db
c4
6b
d9
a1
5b
a4
62
e2
d6
df
eb
e6
64
ee
6b
c1
de
dc
64
6a
46
b8
ed
67
e0
eb
da
67
5a
c9
40
53
5a
dc
ea
5a
53
e5
6a
ed
c2
5c
62
3d
63
de
e0
c0
8e
29
6d
e2
5a
6e
d5
c1
64
cf
de
e3
e3
c9
6a
49
31
d3
e7
6e
2f
5c
c2
da
5d
65
ed
57
e6
4e
68
e5
48
5b
66
e1
ae
66
5f
86
4e
4a
64
6d
57
67
35
e9
4e
cb
5a
63
e7
45
e2
bd
65
60
81
e9
dd
d2
c5
d9
6c
dd
68
ca
63
de
bf
65
69
6b
ed
d4
bd
55
b0
f2
39
ec
5c
c8
5b
4f
6b
ec
51
e9
d8
e9
38
6b
bb
42
5f
eb
ea
dc
ba
68
60
eb
56
e8
e9
e6
db
62
ee
c0
ee
e8
d5
6b
e4
6e
62
63
e2
e8
68
3b
6a
55
ee
3f
50
b7
5a
3d
e8
df
0
d4
e0
cb
e8
4f
d6
e3
c8
67
59
37
58
d1
6b
c7
e6
45
5f
ea
db
5f
c7
e5
5f
65
dd
68
df
6e
e9
64
9e
6d
e2
ed
41
e1
d3
a6
6e
dc
c1
52
ea
cb
47
5a
3c
5a
eb
e7
bf
6c
26
67
29
ec
50
4a
6b
68
dd
e6
49
d2
ec
c0
b9
d4
bc
63
ea
d4
14
e5
5b
6c
67
e2
5f
da
dd
6e
cb
54
c2
d0
d9
c9
68
cd
e5
5b
55
60
e9
5f
ea
6b
c0
af
e6
eb
c4
df
e8
3f
54
e7
dd
63
e8
5a
e1
0
69
da
ec
6c
23
5d
a2
5e
dc
d7
d0
e9
e0
d1
57
e7
69
53
d8
d4
4f
63
6a
62
5e
61
6c
4c
a7
e6
44
5a
45
e2
ed
e1
e2
36
e8
a0
65
69
f2
d9
6a
6a
df
64
cc
ec
f0
52
dd
25
ef
e5
66
d8
5b
b0
66
66
64
34
e0
63
3e
55
53
32
74
2a
63
67
48
e6
6b
e7
4d
e5
6c
67
1f
6a
61
6a
61
63
e9
0
80
da
dd
55
41
6b
df
38
2e
dc
65
6e
a2
6d
71
54
5c
d1
ba
e8
c3
b7
25
e7
ba
6e
d1
67
eb
d9
e6
e4
ee
da
de
dd
62
d4
65
52
df
e0
6d
60
ee
60
f2
61
62
d5
1
55
5b
ea
d4
68
4f
49
ef
21
4f
56
5c
69
ec
cb
23
6e
4b
74
60
6a
c0
62
60
4d
68
e7
38
ec
e9
a6
67
59
63
74
b9
4b
10
eb
c2
b9
8d
ed
d5
62
6b
6e
6d
e2
65
68
5f
6a
bb
65
97
e4
ea
bc
5b
63
e4
ea
e0
94
e5
d7
e5
e2
d2
88
e0
c5
c3
21
d8
e3
6f
49
67
cf
e4
e8
ee
d7
eb
a2
da
c9
69
51
63
e5
3a
db
64
57
c6
ee
6e
59
5d
4a
ea
ce
6f
6e
6e
de
66
f1
f5
a7
f1
5e
f2
41
ef
6b
5f
de
d3
66
6c
ec
53
dd
e7
5e
68
d7
d7
36
5f
e5
62
66
e9
68
dd
5e
2f
ea
f0
80
df
22
59
d8
5a
54
44
52
ae
e3
e8
e0
54
53
8f
14
60
6a
57
e4
6c
6c
e5
ec
cd
96
5a
e8
58
df
e4
4b
67
80
6a
6a
e9
5f
e5
24
45
e0
d8
52
80
ec
54
d8
e0
6a
e2
d2
dd
61
e7
d2
62
6c
cc
37
e5
e2
46
ed
cc
13
ea
d3
ec
b8
65
59
6a
5e
c1
23
66
65
53
dc
e2
6c
55
db
5d
e5
6b
e4
e8
e6
ed
d6
ed
6e
db
dd
c2
ed
54
dc
0
6b
6a
e1
4f
ce
eb
e9
e9
6c
58
e5
2e
64
ab
be
b5
24
c0
6b
af
df
ea
e1
59
e7
66
e5
e7
4c
5c
4f
e8
5a
81
66
b1
6a
67
4c
59
67
e4
60
58
cb
48
52
ee
6b
d6
50
61
25
de
ea
ef
45
64
cc
60
e0
4e
66
69
3b
eb
42
58
ec
8
59
d4
e9
5d
e3
6b
4b
a8
be
5c
60
4f
5d
42
db
5a
d7
4c
6a
ed
d4
69
e0
69
6d
29
c7
64
6d
4b
de
c4
6c
6a
cc
6b
ce
63
d4
6b
de
62
65
c2
44
c4
65
e5
62
39
56
da
eb
55
65
69
65
e5
ee
5e
6d
32
59
4d
db
e4
bb
53
69
98
ee
4c
cb
da
ea
e2
e8
65
e9
d1
66
b5
e2
69
69
42
dd
eb
ee
39
60
6c
ce
5b
51
ec
34
a4
ec
42
de
cc
43
67
23
5d
e2
69
ed
4c
58
e7
ed
6a
e2
e5
d7
6b
e2
ea
dc
ea
e9
69
e5
6d
67
df
2c
cc
2b
6d
1e
64
63
65
5d
4a
50
e8
bf
5f
40
45
50
ec
e8
eb
e6
67
5e
ca
33
64
50
df
5c
ec
e3
e9
a3
ed
cd
6b
6c
6d
e4
66
63
6a
ed
d4
c2
ed
ea
c6
ee
ba
ef
53
61
4d
5b
e9
5a
68
0
1f
a7
6a
64
4d
ee
e4
da
43
6c
ea
52
66
dc
ec
67
e9
62
e6
6d
cb
67
6b
4e
e6
e2
e3
d9
6d
ed
57
ec
a3
29
e3
58
61
b2
ed
2c
3c
e8
66
e2
46
59
d2
5e
e9
6c
e5
2a
e3
e1
63
ec
62
eb
c7
66
60
e7
59
ed
a1
93
57
d1
da
44
4f
3b
2d
ce
6b
64
de
1c
d1
d0
61
6a
6c
5b
0
cf
e5
53
48
ec
d7
e0
67
ed
30
4f
e4
c2
69
d7
dc
c6
cd
52
60
5e
e8
55
6d
e6
6c
aa
ea
34
b5
ca
d2
5e
eb
6a
da
60
d8
69
55
e9
bf
3b
eb
d6
55
6b
db
d2
d9
5a
6d
ed
57
4a
5b
59
d9
d3
52
26
29
6b
df
ba
5d
e4
5e
e2
e3
ed
c5
6c
e5
3f
6c
dc
b3
66
4f
d6
cb
cf
df
36
d1
7
4e
68
cd
d5
d6
57
64
6c
ec
3c
e2
48
6b
63
ef
de
d8
e1
5a
ea
e4
59
6b
6a
4a
db
6a
5f
64
80
e8
bb
cf
cf
d3
ec
5e
2d
41
5f
53
61
e6
6d
d5
c3
6c
45
63
e6
42
e8
d1
cb
de
d1
e0
6d
5a
dc
64
ec
e5
ca
2f
5e
d4
e8
5a
4c
66
e7
66
c9
ee
df
25
ea
c0
e0
dc
dc
68
ab
5e
54
57
df
ee
c7
65
e6
4b
e4
cf
42
63
e6
65
5c
de
ec
5a
6b
e4
bc
3f
d5
6b
d4
4c
5d
3a
d7
e2
d1
57
eb
cb
60
eb
c0
d2
3f
10
6c
ed
ed
c3
54
6a
57
5f
db
5a
5e
ed
1e
cc
6d
4a
d2
68
68
26
c5
15
5e
6a
4a
6f
6a
e3
32
5e
bd
56
5c
a3
ea
d8
66
69
e9
62
da
66
52
ea
ca
d9
6a
b9
44
60
64
60
db
3e
6a
c3
59
de
ea
c5
3d
e6
ea
dc
e3
80
6d
66
64
b9
65
cb
58
50
68
70
61
e2
6b
66
4c
69
d7
5a
41
ea
a7
63
d3
41
dd
cb
5d
58
5a
b9
69
6e
67
da
5f
e9
8f
e5
e8
de
5e
db
69
6d
62
57
5e
64
6a
1a
61
c1
44
d3
62
68
d0
d9
54
51
44
3a
94
62
43
57
dc
d2
59
ea
65
5c
c3
5d
cb
eb
6c
68
e1
69
e2
ca
ea
64
ec
e6
5d
dd
cf
59
db
70
d3
5f
67
e5
6c
df
5c
48
50
e1
54
55
6a
5c
e6
5d
33
ed
db
ea
63
ea
4b
de
41
eb
67
6b
23
58
55
c0
e4
e1
66
1b
e5
e5
6b
e8
e1
c7
ee
4d
51
6c
43
6a
4d
ea
4d
52
db
de
d1
6a
ec
67
56
4c
1b
cf
6c
ec
6f
6b
4f
e6
28
63
61
d7
e5
c6
2e
ca
42
63
f0
68
57
ec
51
22
5d
d0
46
5a
6e
ed
e7
e8
42
b4
58
eb
f4
d6
6b
90
e7
dd
d1
d6
69
43
5c
d5
50
eb
5f
69
e5
31
e9
6f
3b
c8
e0
dd
eb
64
2e
ab
69
b7
62
66
dc
36
d7
cf
63
52
da
6e
eb
54
cf
4f
dc
9c
e8
d4
e1
6e
6a
d5
ea
21
d4
ec
54
ea
cf
cc
57
6c
56
e0
69
b5
6f
e8
5c
5f
5e
6b
e7
e9
67
2d
e5
c7
6a
ce
d1
eb
d1
e8
db
e4
e2
d5
4a
e5
dc
3c
ea
4c
e4
52
5a
c2
5a
5f
5c
e9
3e
5f
69
56
eb
e7
4d
60
e7
d1
e4
39
b3
5f
58
40
e8
d5
2a
9a
b1
5d
4c
6a
61
da
f2
56
db
e5
9f
3f
ea
56
33
68
d8
67
66
4c
af
ee
c7
dd
16
60
42
e4
db
e8
33
ed
ec
e8
d3
e9
40
5f
d6
d7
53
64
be
e5
63
4e
57
e6
d5
e5
62
63
49
e4
5c
52
bb
ec
3a
61
43
3d
6e
a9
d0
e6
6c
de
6d
54
6c
55
8e
e7
e1
6e
58
63
6d
e8
5d
d5
6b
ea
56
c8
eb
4b
e7
64
5b
e0
6d
d4
c8
ed
3e
5e
3e
46
50
56
c6
ee
a9
e6
64
e3
e3
e2
61
eb
b8
a4
df
d1
6f
c7
d3
4f
68
da
e1
da
61
c2
57
6d
eb
6c
31
4a
e3
50
eb
64
40
5b
dd
61
6e
c5
b9
4b
49
4e
49
98
5b
e3
66
45
6c
5e
e9
63
dd
d0
a0
51
58
cc
c1
68
57
d6
c5
5b
4b
e6
60
65
5d
cf
59
51
dc
80
ed
66
62
65
56
5d
dc
bd
62
c9
36
e0
ee
32
4a
e9
63
ed
de
cd
6c
b4
ec
6c
69
67
dc
54
65
eb
58
ec
af
d5
55
69
3d
e2
52
e7
c8
57
63
e1
b5
59
ea
e7
67
4a
52
eb
cf
65
4b
e3
ea
e4
67
68
49
66
65
5f
9c
68
61
eb
de
53
de
59
d3
d7
ec
c1
d5
61
6b
47
6b
dc
cb
eb
e0
ec
df
5d
ea
41
42
6c
e1
e4
49
df
48
54
e9
ea
ec
b5
e0
68
58
d7
e9
ba
62
4b
de
da
db
6d
e2
6a
41
d8
4f
cb
ed
c8
db
e9
bf
6b
ce
56
5f
63
d6
62
e5
62
54
ed
58
5b
69
ca
e6
d2
c0
5f
eb
2a
6e
ec
d4
90
e8
4c
5d
5e
cc
6c
d8
6a
e0
65
d6
e7
5f
c8
68
6c
57
bd
c2
47
5f
ec
90
ee
5a
47
42
80
e1
cc
dd
eb
e2
d7
c0
6d
da
6c
22
43
e4
dd
e0
d7
50
6b
eb
58
4f
6c
80
6b
d9
de
db
6c
6a
d7
65
e5
5
e6
63
e9
e0
9b
5e
ec
5f
c2
6b
1b
5e
67
52
ed
5d
b4
22
d1
ce
51
eb
67
6b
bc
ed
e6
4a
5a
e2
6b
e7
6b
6d
e6
2e
e2
5a
cc
60
e9
5a
db
59
c9
6b
0
d5
5f
d7
e4
c5
d0
39
4e
66
d8
cc
ec
66
b6
4d
db
70
6c
e1
ec
ce
61
64
e7
ed
6c
e6
e4
ee
d3
e7
38
68
db
65
6e
db
e9
6b
e3
68
4c
dc
68
e8
ed
cf
61
e4
c1
be
db
2b
50
e2
34
97
31
bb
be
c1
ec
6c
58
56
c1
e2
3f
2c
e7
e7
dd
5c
47
43
ce
ec
e6
c0
e7
4e
38
e4
41
5c
6b
b4
6e
5e
e0
5a
e5
d2
48
ea
6e
62
6e
6d
d4
41
6a
6d
5e
61
e5
e3
d4
eb
66
5c
cb
59
d7
6b
6c
58
ed
d0
69
1b
6c
5d
6b
d3
d7
61
6b
53
ec
5c
d9
dd
5c
cb
d9
60
b9
53
4c
e1
df
ea
67
4c
6e
e1
e4
c7
c4
52
6a
51
5f
0
d8
5f
6b
6b
4f
e5
6d
d1
ea
52
e8
16
da
ed
47
e3
b
c3
c6
cf
56
dc
42
e5
eb
62
cd
e2
55
d0
66
5f
d9
ec
68
51
63
e2
eb
6b
66
4f
ec
c3
65
5e
c0
4b
5c
dc
22
68
d1
eb
de
3c
e3
e6
69
eb
ed
ce
2c
5c
68
58
64
68
e9
d3
e5
ea
ec
eb
b2
d6
66
60
de
6d
e6
9d
b4
6a
6d
5f
eb
66
9e
e7
e4
2a
b1
e5
60
eb
6b
59
52
42
84
c1
e9
0
6a
67
cf
6b
ee
de
e4
e7
2e
5b
62
6a
5d
6e
de
db
65
66
ec
c1
6c
62
5f
25
69
eb
d6
b8
be
e8
56
ca
e9
66
e5
55
d5
58
e3
55
e6
19
6c
6a
d5
d5
46
ca
c8
69
5b
e2
c8
dd
92
eb
e8
b9
e2
68
5d
5b
d2
ea
d5
ee
e6
4d
2f
e8
52
65
36
d8
d5
6c
db
d8
57
68
e6
41
eb
4b
d6
53
ea
ad
b0
81
64
ca
ec
cf
3f
4f
bf
dd
c2
99
67
5e
e9
5e
e1
ec
5a
52
31
c9
f0
d4
b3
ed
6a
ca
57
6a
16
b5
64
66
58
cb
5c
be
ef
de
e8
6c
66
df
d5
6b
56
e4
55
48
4e
39
e3
55
ed
a0
e0
eb
5a
5
62
cb
c7
e3
61
cd
e0
39
d7
71
6a
c2
4c
6d
de
6d
49
3e
67
52
d8
61
aa
6d
4d
c6
e9
6e
5d
62
c6
ea
db
80
d0
e0
db
e5
3f
6d
6d
18
5c
e2
c8
57
5b
57
b6
54
43
46
b2
e9
e0
48
ed
65
e9
b0
24
c4
e6
e7
d6
dc
67
54
ee
19
d7
51
e2
e0
ed
59
e5
51
e0
57
4c
37
d7
3e
60
eb
cd
51
e6
e3
67
cb
34
cc
6b
66
55
cd
e2
eb
d5
69
61
a1
dd
5b
67
6f
60
de
66
0
6a
e7
e9
65
3c
ec
c2
6c
e3
db
3b
b8
47
df
c2
da
e6
e6
5d
ed
c9
d6
de
eb
3e
d8
d6
65
5c
5e
25
d9
6d
63
50
e5
52
56
a3
d3
d3
9c
d2
ea
b9
ed
db
c7
ea
ec
d6
68
6e
66
e3
4b
50
e2
cd
59
ec
55
c7
68
42
68
62
73
4c
d0
72
d4
67
6b
55
6c
27
97
a2
62
80
b1
b5
ba
5f
3e
e2
5d
6b
e3
d9
6c
4a
e3
d4
ec
68
eb
6b
26
27
e5
25
57
65
6b
d8
ea
46
67
e4
61
d5
6a
d0
5a
d9
dc
62
6b
dd
50
63
4f
52
2a
67
1b
e8
66
55
5b
49
e5
af
d5
6b
92
c0
da
4e
5d
ee
df
66
ec
58
a4
d8
69
c5
ea
67
da
da
6e
e7
e4
5c
70
63
e9
48
d3
e8
e5
d2
6e
69
30
35
dc
d8
ec
ec
63
61
da
e1
d0
13
69
44
10
e9
6f
42
65
dc
cb
ee
eb
69
6d
ea
ea
e3
47
45
e4
eb
ee
64
e9
ca
65
67
57
4c
0
61
e4
66
59
65
e2
68
bc
c9
e3
4b
60
69
e8
69
e5
ea
e4
6a
6b
de
46
68
dc
51
e8
49
c9
e7
6c
a8
e6
6c
eb
eb
d1
58
52
58
a5
38
dd
69
6b
37
d6
d8
d0
d9
37
c9
5b
5a
5f
6e
34
66
3b
eb
d3
60
58
aa
cc
49
6e
d3
56
db
4b
e1
33
ea
5f
be
e5
6e
cd
65
6b
67
65
cb
63
5c
b5
67
5c
63
61
d2
e5
59
61
66
ef
e1
eb
34
50
27
6e
ec
da
e5
5a
69
6e
61
ed
ed
e6
e9
6b
40
4f
59
e1
4b
60
53
a7
64
54
5a
e5
e8
d3
69
ec
6a
65
5f
41
d4
5e
6c
ed
e5
de
35
d1
e3
56
e0
d0
3f
6b
3d
e9
50
6d
24
59
6c
db
e4
d1
3c
6b
53
69
ea
d6
ed
4b
50
80
db
4e
65
50
68
e4
69
ba
d1
96
e4
62
67
65
69
db
e7
ea
6e
e7
50
df
68
6e
e9
da
1c
b4
ea
62
c1
6a
ce
1a
e4
68
dc
51
6e
62
64
4e
3
e3
71
5f
2f
52
63
74
66
ba
d2
e3
e9
18
cb
e7
ed
67
70
e2
42
68
6a
65
6c
39
dd
36
6a
de
ea
a2
e7
c7
eb
5e
d1
4c
dd
56
ed
d0
e7
db
e2
40
b7
e1
2b
ee
65
da
5e
e8
6d
6c
3c
58
3e
6e
b6
64
5f
6c
6c
6b
df
e2
c0
d1
ee
65
69
30
cc
64
69
d5
de
e9
6a
d9
67
62
e2
ed
34
e5
67
6e
e3
53
64
6a
5a
e0
2d
a0
52
e0
5b
ed
68
41
e9
49
e7
33
bc
69
e4
4a
69
cf
6f
67
6d
54
54
6d
cd
ed
67
69
e4
64
9f
da
60
54
69
e0
60
c5
71
d2
6e
6e
6e
62
59
e1
6d
b7
59
bd
54
eb
cf
ef
e6
6f
df
63
e1
b9
5f
52
dc
62
ed
6a
db
be
bd
6a
df
5b
6e
ea
80
ba
a7
61
69
d9
4c
ea
ed
e3
e0
6e
23
6a
ee
63
d7
e3
6e
b8
c4
e6
de
e2
10
54
6e
3d
6c
5e
58
f1
eb
4c
e8
ba
6a
65
6e
62
da
61
51
3e
60
e2
5d
ec
68
1a
d8
62
80
7a
72
c4
6f
65
db
4e
e4
17
65
35
5e
e9
e9
de
e2
df
d9
e0
e7
67
61
d8
80
d7
e5
45
d0
da
71
6b
66
bf
49
6c
4e
67
4f
e9
e2
ea
d5
68
5f
57
65
64
e4
df
e7
6a
c8
d2
81
4a
46
d3
5c
e5
c9
e8
67
5a
6f
69
4d
22
ea
61
d8
e9
4b
c8
e0
63
35
e1
d9
51
6e
6a
6d
e6
c2
36
bd
5b
5f
31
5d
46
aa
67
6d
5f
5e
e0
cd
ea
e8
de
67
44
6c
d9
df
e5
c4
34
d8
6e
6a
c9
cd
dc
df
67
6c
51
e7
6c
ec
68
d6
de
ec
66
ec
e1
e6
a2
de
6a
ce
b4
55
68
db
e4
de
49
ec
91
6a
e6
ec
5c
b5
4f
3b
d6
e3
d6
68
b3
e5
5b
6c
63
cb
52
c6
cd
58
d0
54
ec
e9
4b
5b
e7
6d
eb
2b
48
ce
5a
66
e2
ef
ed
6c
6b
b4
43
1d
5f
62
64
65
e2
51
aa
51
6c
2e
6e
e0
dc
e2
65
d5
9
d9
45
61
da
56
dd
e6
ec
d8
5f
ca
e2
b8
6e
5c
6c
e2
6d
44
6f
6a
9e
69
e2
86
ec
54
69
2f
64
e3
ed
6a
e4
be
6d
6b
6d
e2
ed
55
d9
2
5a
6d
e1
ac
4b
2b
e7
66
d8
67
5f
56
4f
66
5c
de
68
e9
5e
5b
54
c8
d0
ae
4f
e0
e8
b5
bf
ee
de
b1
64
e3
ed
e2
b2
41
3f
65
cf
2b
69
cb
e6
d3
c7
57
e4
19
ed
66
69
2c
59
68
e9
6a
e8
db
d7
66
40
2
ba
3e
e3
cc
25
e7
ed
67
d7
62
ec
54
54
49
5d
4c
5e
eb
6b
80
ec
e7
e3
6e
de
d8
66
d3
63
6d
e0
e0
ec
59
65
62
6d
63
6c
39
c7
e1
60
69
e0
6f
64
6e
61
4
6a
5d
67
d6
bf
60
64
6f
59
37
6a
df
59
6e
68
d6
5d
73
6c
e9
57
e9
c8
49
9
e4
e2
e2
d6
6a
ed
db
6c
80
e9
e6
57
e6
e7
cc
d0
ea
53
ed
d6
d8
62
66
cc
67
e1
dd
d0
d8
6c
64
b7
d7
d5
e4
cb
5a
2e
e5
b3
c8
ea
c7
ea
d5
6a
6c
e2
e7
df
eb
ce
4e
e0
e1
6c
52
d0
60
3d
ee
41
e6
cb
e3
6d
5e
e5
5d
dc
5a
dc
cd
20
e1
e9
c1
4e
ae
d3
d8
5a
e8
ec
d2
6d
66
92
56
c9
61
e9
58
b7
eb
d3
e1
65
5a
43
c9
ee
53
62
21
e4
c7
6b
60
dc
ef
59
2c
5c
59
2b
de
60
e2
5a
64
64
6d
5a
d7
e3
65
b6
5e
d3
60
5c
b1
27
e1
d4
3f
ed
dc
58
ed
54
ed
80
4b
e9
69
e1
df
cc
68
4d
68
ed
c6
62
cd
2a
6d
69
2a
e6
46
65
eb
66
61
ed
dd
3d
50
e5
ef
58
d2
4e
6c
eb
55
5b
e2
70
cc
63
62
3f
e8
e4
80
dd
d5
35
ce
ea
5c
e5
60
dc
f0
ea
b4
6a
ea
ed
5e
d9
dd
55
60
ec
48
6a
eb
4b
32
c7
e0
37
5b
55
5a
6e
da
e2
dd
73
6a
6c
e9
c3
e8
66
ab
69
69
49
e8
58
5e
e0
59
5e
50
d6
de
5f
ed
53
eb
cd
60
32
64
5a
ea
d6
d2
c2
c3
5a
34
eb
5b
c0
ec
6e
ed
64
3a
e1
da
4b
57
65
e3
44
d6
b2
62
dc
68
66
ea
70
eb
cb
b9
c9
57
c9
53
55
6c
5d
d5
c5
ee
9c
58
e9
e8
ed
c6
c1
e8
67
d2
62
bc
70
83
e5
21
62
6c
c5
30
4b
e9
40
64
d4
c6
ef
e3
66
bb
70
e8
62
48
58
60
6e
e1
3b
6c
44
6d
dc
d6
9d
ec
5d
ec
98
41
e9
5f
17
cf
5d
6a
66
ba
e0
d3
cb
eb
68
60
cf
9c
aa
64
69
17
e4
e2
ec
2e
d9
69
62
e7
67
3c
e3
52
cf
d7
61
5f
65
e8
e2
c0
ea
d2
df
53
6f
44
28
5b
61
d6
57
5a
66
58
5d
52
70
65
45
72
81
3e
e1
69
92
d7
10
e5
3b
62
d3
65
c2
69
d9
ea
e9
ca
6c
5d
d3
64
4b
67
eb
e3
4b
c2
ed
5b
2a
5d
58
f1
60
68
ae
6b
e8
b7
66
e7
e1
6b
55
5e
53
5b
e2
ec
4f
e9
d3
2b
eb
6d
cf
e9
40
d6
ba
e0
db
80
e9
d2
dd
e0
ec
e7
6d
e2
dc
66
38
67
61
eb
66
58
ec
67
6a
e6
4c
6c
df
ed
68
6b
66
df
66
43
da
5d
6b
6a
eb
e3
49
5f
4b
97
e2
cb
5b
de
69
0
26
d6
e7
ec
ed
ea
ec
5e
be
c2
ea
33
51
50
92
e7
53
83
60
65
a6
cf
d5
60
d6
ee
35
5f
e3
4b
6d
55
42
55
57
d5
b9
e6
d9
6c
d8
67
51
68
aa
5b
6d
ca
2d
d3
ea
6f
3a
ed
df
e8
c3
35
d9
ee
e6
d7
e8
e8
b0
ec
48
eb
54
6c
5a
6b
e3
b2
6a
14
b4
eb
67
66
d4
68
58
dc
34
ed
6f
68
c2
e0
6d
d1
6d
6c
cf
70
47
38
ea
68
48
6d
55
b7
d8
e3
b8
4f
e4
67
b7
5f
c4
ec
c8
6b
70
e7
e4
cd
dc
ca
b9
6e
66
17
ed
dc
f1
ec
4b
d7
3f
6b
e5
44
62
65
69
63
3a
6f
4c
56
db
61
53
62
ec
e2
e9
64
df
e2
c4
e8
ec
28
ea
56
67
72
52
4d
dc
5e
b2
61
db
e3
6e
d4
da
6b
61
d9
e7
52
ae
df
58
4d
c3
ef
e7
e9
db
49
6d
53
91
62
64
4f
c4
32
e8
ea
e5
db
3e
e4
d8
b6
e4
66
c9
6c
6e
68
48
35
5a
5a
ec
d2
eb
ea
55
63
e9
b3
e8
6a
58
54
e4
ea
dc
56
4c
51
cb
5d
53
67
ea
d5
5f
4c
66
5b
e7
62
c2
e2
e6
d4
e4
64
64
6d
62
5e
68
6b
d5
6d
ec
81
5b
a0
50
6f
53
49
d3
80
58
53
c1
92
1a
e6
4c
6d
31
47
e3
60
62
d3
60
6e
e8
e9
c8
26
b6
6e
d4
ee
6a
e8
e6
bd
ca
ce
c8
d9
49
d6
dd
4f
64
6d
ea
ed
de
e4
d1
53
c4
da
6c
4b
67
55
e9
ea
e2
a2
ed
d9
cc
50
da
68
c2
eb
d9
8f
d9
50
e9
db
55
e3
50
e7
bc
de
bf
5b
e1
cc
b4
e6
e6
63
d2
b3
e9
64
62
eb
4f
4e
6b
68
e6
6b
4f
e8
6b
68
cb
c9
4e
ea
ca
66
3c
dc
ec
e7
44
51
e6
a1
62
e5
e7
5f
86
64
cf
44
bd
e5
55
6c
5e
5e
de
5a
5c
62
e7
9f
e2
5a
65
62
e5
d9
d3
41
52
ec
d6
66
df
de
66
59
4f
e8
62
37
ea
ed
58
e7
c2
ae
e3
63
52
3d
c3
5a
6e
6e
6c
44
dc
de
69
d4
58
6c
6c
6c
4a
69
6a
6b
e1
35
34
29
6b
cb
4b
43
af
4a
45
d4
ba
67
ed
bc
de
da
70
d2
75
73
65
4e
e5
1a
65
e5
e8
55
57
e4
a7
67
e3
ea
ce
df
e5
cb
ee
5a
de
63
d8
d6
67
55
ec
3d
59
b6
13
35
6c
6d
56
ec
e5
dd
ee
bd
e5
ca
64
e0
e0
6e
d0
63
52
6a
c8
b6
db
0
cf
49
eb
57
5e
0
d8
e5
ea
e9
ec
42
df
d7
6c
d3
69
d5
6c
42
64
5a
54
4d
6c
e0
eb
d8
81
ad
3e
de
5c
5c
6d
e5
e6
5e
e2
ec
6b
26
e3
e7
c9
c0
d9
4b
53
35
6a
ee
47
dc
60
45
62
6e
62
6a
c2
55
54
ca
4e
55
62
db
dd
53
ee
6b
6b
45
8c
d0
2c
3a
58
e9
43
d0
70
5c
6b
60
70
44
ea
ce
5f
6b
e5
6e
e6
63
e0
66
92
e5
d5
df
d9
be
6b
c1
66
6d
ae
ed
66
46
69
d6
6b
66
ec
6b
d0
eb
b4
6d
5d
d3
e3
e9
dd
b4
e6
43
e7
68
b2
6e
6a
5a
e0
73
df
64
ad
d5
66
dc
bb
ee
e9
e7
ed
d7
5b
c7
37
f
62
2d
22
ed
e7
6b
4d
6d
e8
de
dd
e5
5a
4b
c0
ab
6a
69
69
5e
e6
d9
e4
53
68
6b
67
2d
65
6a
eb
a3
87
e2
47
d0
6a
de
c7
c9
ba
c7
e2
59
eb
5a
eb
63
53
4d
ea
b3
d0
5a
c9
e3
e3
dc
48
53
cb
c7
b7
d9
d9
71
d6
81
e8
ee
52
5c
48
bf
c6
68
e7
e1
4e
61
ee
da
66
ec
a3
e8
ca
6c
da
6d
d1
ec
cb
da
e0
6c
e7
5d
4c
db
6d
6d
67
e7
d8
6a
67
52
ec
d4
ad
ed
e2
6e
ea
e4
6c
56
40
d5
4d
e4
e9
ee
42
cf
5e
49
d0
d7
64
6c
64
d9
0
ed
b9
ed
d8
eb
ea
df
b3
ce
67
e3
e9
50
63
6f
5c
6e
60
8f
57
6e
65
6c
e5
48
58
e9
68
eb
5c
4f
44
d2
60
3f
6a
6a
c3
c1
ee
6e
cb
62
6a
66
60
df
bc
71
d3
4f
51
63
c9
e6
5f
56
e7
47
6b
57
d0
6a
b5
55
d5
db
68
e9
53
6a
63
ec
a5
e7
53
db
d2
cf
e8
64
e2
d8
6d
62
ec
b4
e2
47
cb
e8
3e
cb
64
e3
ed
de
b5
2f
cd
39
d5
6e
5c
e1
70
d8
56
56
d7
4f
39
63
e7
e0
9f
d8
eb
57
5c
69
44
80
df
b4
66
4d
0
67
58
b2
5d
df
6d
de
dd
46
6e
5a
e3
39
28
a6
c6
de
6d
ec
eb
5b
48
da
3c
5e
d6
e3
6e
60
ea
ed
e5
e7
68
6b
d8
66
cb
59
e5
5e
dd
e8
63
4b
6b
c8
6d
e3
e9
ec
59
c4
69
6b
56
65
a0
b9
57
4a
e8
68
ad
ed
ea
53
50
36
67
df
70
6c
62
6c
9b
ec
e1
e1
6c
e6
c2
67
b4
d3
62
ea
ea
de
3e
68
54
e0
58
54
52
65
e3
e4
66
cf
e3
63
6b
32
bf
6d
5a
58
67
d8
62
3e
d4
8f
67
6b
64
e4
5d
dd
dd
d4
ed
ef
59
6a
e9
cc
62
bf
41
e7
f0
2d
6b
ea
64
aa
47
59
66
cf
63
6b
e0
6f
5b
58
1f
ec
c0
b8
59
6e
dd
4a
e9
eb
33
6a
65
e7
65
66
58
5f
ec
3b
6d
6c
40
da
5a
ce
68
56
50
d3
b8
55
e0
e9
31
e7
62
4e
37
18
e1
50
c6
e6
ec
d7
cf
68
5d
61
e8
59
ec
61
6e
5d
66
d8
6c
ed
e6
da
6d
46
e7
59
4a
dc
df
e3
db
57
e1
50
31
d2
df
df
e5
c2
66
3f
ce
da
5b
da
54
68
6a
a2
6e
d4
e0
5a
4a
5c
50
ea
5d
5d
69
e2
85
69
e0
6c
eb
38
c8
6d
54
e6
ed
56
66
e2
68
43
e6
c1
5f
63
d4
df
ec
e0
d8
c9
53
e2
5c
d1
68
67
d0
ca
ea
a7
e9
86
e5
e9
49
c9
6a
67
cd
d2
41
51
cd
bb
df
4c
4c
37
d6
db
d0
d7
57
6c
35
ed
8f
b4
e6
67
e7
5b
e3
49
6d
e1
c8
32
d1
6d
4a
59
e5
c5
d8
d0
d1
1a
0
d0
67
32
68
eb
5a
d6
e4
66
61
ee
cd
5f
6b
65
6e
e8
e6
ec
53
51
55
e5
cf
32
e1
5c
e6
2f
6a
61
4f
67
e5
54
d8
d2
4c
e4
57
5a
d7
b8
ee
4b
e7
ea
e0
66
51
c6
67
24
e9
88
e4
e2
cb
6c
b3
d1
da
67
cb
6c
d7
e3
68
61
e3
e4
6e
59
69
b8
67
54
dc
e9
ec
2e
69
80
d9
a0
d8
cc
bb
e5
ed
6a
5a
ec
69
c0
ec
de
c5
63
5e
eb
6c
3f
b0
d8
e3
e3
60
50
6c
ce
6b
c9
6c
e4
e5
d0
60
e5
cc
bf
e1
eb
ea
eb
5c
5a
e7
ee
61
50
ea
e6
3d
dc
d3
5f
df
6c
e9
ec
eb
eb
ad
67
e7
e0
ea
6d
6e
44
db
ed
d9
e4
58
da
e4
c8
11
e8
57
ea
c5
df
6c
e8
ed
bc
6d
62
64
6c
6d
53
62
e9
46
db
db
c6
37
63
68
61
e9
d1
58
66
cd
56
59
e9
42
ed
5f
e3
6b
e8
68
45
62
ba
d9
e6
67
eb
4
53
b1
65
41
2b
64
6a
c4
e6
45
e3
2f
db
5f
26
46
1f
56
62
b7
5c
db
6d
5e
6a
3b
6d
eb
5e
6b
d1
3f
e9
c3
58
65
a8
44
e3
6b
e9
da
d6
c8
e6
b6
e0
68
61
5b
36
65
e8
d7
61
e5
67
e0
e2
19
d1
dd
e1
e5
61
cb
eb
d2
56
68
e6
58
e0
ea
c3
d4
51
59
4d
ce
e9
c9
6d
6d
e1
5f
65
c2
67
65
dc
56
50
60
db
df
58
66
e5
ed
e7
e4
ea
eb
e5
3e
b9
55
19
52
61
59
e5
de
eb
64
de
eb
4b
d9
51
c0
e2
61
d8
5c
6b
66
ee
ee
52
e4
d9
d8
e9
d9
bf
db
65
e7
58
e7
51
c0
61
d9
b5
c5
d8
12
d0
e4
ea
52
df
55
22
63
ea
e1
47
cb
5a
df
63
53
52
56
e9
c0
c8
4e
69
a6
b7
47
dd
65
e1
59
90
4d
80
e1
e9
5f
6e
62
24
2f
6b
d7
e7
52
e7
5f
6b
e4
5d
49
5b
52
54
5f
a6
5e
de
96
d3
49
94
33
e2
d2
a9
6b
66
65
20
65
6d
c9
6b
64
55
ec
45
e8
6d
eb
5b
50
3e
96
da
de
46
e8
6c
4c
50
69
3d
eb
5c
cc
49
c2
4e
48
e3
e0
58
ec
e2
6d
ae
e5
c9
3e
64
6b
d6
4e
6a
67
64
cd
e2
54
40
51
5f
42
72
6d
75
d9
df
65
d9
e4
67
60
52
ca
60
e9
ec
e5
d5
63
62
de
d4
ec
5f
e2
46
96
df
69
c9
d5
de
68
68
d3
68
3a
d1
6c
ea
63
c3
63
ec
ef
d5
e9
d3
6c
e0
c5
b7
d3
23
c7
67
6e
61
b3
ea
dc
c4
51
ee
a
60
d8
10
e3
e8
ea
1e
6e
57
4b
cd
6b
dc
6d
63
4d
cd
e9
d5
3f
4c
d8
ce
ea
ee
67
ec
5a
50
df
6b
63
e0
9c
d2
e2
eb
66
62
eb
49
df
5f
db
57
68
4d
68
c0
3c
53
a2
e3
6a
6d
5f
e4
be
6c
b5
e8
bd
c3
ec
e3
dd
e2
53
56
e9
e3
a0
66
5c
d8
64
6a
54
ee
64
44
68
c1
da
d7
4b
6d
59
61
65
56
5d
bb
ec
58
d1
6d
4f
68
0
36
e2
ca
5b
cc
54
6a
e6
19
ec
6d
69
69
63
d1
db
67
62
6d
d3
5b
e2
57
52
e9
e8
62
de
e2
d9
48
68
ef
e3
e6
e3
5c
6a
e8
ba
d7
e7
f0
46
32
d9
6b
9b
42
60
e9
67
5d
5e
4d
3e
ef
e9
63
d0
ee
53
be
68
ec
e0
55
ac
27
dc
4d
d1
4
1b
e4
c1
63
e4
62
ee
e0
63
70
b9
6e
43
db
74
d5
77
74
6a
e9
e0
cb
d0
50
5d
e5
44
c4
67
cc
5e
69
1f
ee
41
2e
66
e0
42
6a
b5
64
e2
e0
ca
eb
d4
3b
4a
67
81
e2
37
dc
6c
e1
e2
b9
bb
49
5e
6b
de
d6
4b
ee
ec
c8
ea
64
6c
6f
e3
c8
62
ea
e2
d1
df
69
e5
cf
cb
54
4c
5b
46
cd
66
55
ef
24
de
67
63
ea
b3
6a
cb
d6
67
6e
dd
55
74
69
6c
63
ea
6d
5a
eb
45
ec
ec
c0
e5
6a
6b
52
da
9b
5e
c0
e2
4f
e9
b7
20
e3
e8
d6
ea
df
5e
eb
48
64
ca
ea
5e
5f
5f
e7
e9
bd
cd
6a
67
47
4a
49
dd
e8
65
58
ec
42
6d
4f
57
66
e2
5e
57
54
6f
5f
df
97
1f
ec
d4
e9
69
ce
ed
6b
6a
d0
c5
52
eb
66
73
58
71
db
d9
c4
50
5d
68
69
d5
6e
59
2f
ed
d0
44
e5
f2
ee
5f
bd
d6
6a
5e
e9
c5
ea
eb
66
4f
6c
c3
80
3a
e0
e9
e8
c6
e3
62
ee
c5
db
e4
20
29
e2
58
68
cf
cb
56
65
62
cd
6b
52
e5
48
ed
67
9e
57
d3
d7
57
eb
ec
41
3b
69
54
b2
87
e4
ed
e9
e0
61
d7
65
3d
df
63
6a
ea
d2
dd
6a
e9
e2
59
ba
d3
b8
eb
67
dd
e7
ea
e2
4e
ec
b7
eb
63
5a
6d
c0
e7
c8
5b
e4
d3
5f
ae
58
5f
32
67
67
e8
58
5b
de
e2
d4
e6
cf
68
c9
ed
48
3f
db
e0
e7
e1
66
d0
ce
8e
d7
6c
bf
e9
61
b2
db
70
d8
29
5c
6d
71
e1
2e
eb
66
41
3c
64
44
57
f3
da
65
70
b6
76
11
c4
73
75
51
e2
66
45
c8
6a
5c
50
5f
da
e7
6c
55
6b
eb
36
4a
17
e6
b2
68
6c
c4
dd
ce
55
49
60
e1
ec
49
41
c8
ee
cb
d
9c
6b
e2
db
70
69
6c
c9
55
e1
20
35
5d
3b
bf
6f
5a
61
db
de
ca
5f
69
ea
e6
ea
d3
4f
60
df
e2
c4
e0
eb
eb
52
57
62
e5
ee
ef
d5
67
ce
e1
c5
ec
6e
55
e6
e5
d5
6c
40
47
df
ae
db
57
69
ca
ac
40
5d
e9
64
ca
df
69
69
13
ce
36
47
68
60
df
4a
df
80
58
de
4c
6a
55
c4
69
62
bf
b2
51
eb
f1
5f
b2
ee
e6
f4
f4
52
c4
c4
cf
6b
dc
59
47
eb
3a
57
dd
43
5c
6b
69
ea
e8
66
53
4d
e8
64
21
6b
62
65
ea
61
5c
67
2e
81
66
e8
6a
e9
e7
eb
c0
ef
ed
c6
c5
63
ee
e8
ee
3a
97
e2
bf
ee
5c
6a
bd
2c
2d
98
68
ea
dd
55
36
f4
d6
be
ef
f2
df
d0
f8
9c
6a
34
70
70
70
63
e1
81
59
e6
e9
64
62
6a
d1
2f
d8
4c
6e
65
d5
db
45
1
0
67
66
ed
ea
80
6c
65
59
e6
b2
c1
65
dd
58
d1
d2
d1
4f
dc
8a
dc
6a
e8
36
6c
4d
eb
56
cc
e6
e0
c1
d9
62
ec
5a
54
50
e5
d2
5f
ea
51
4e
5c
d9
d5
cd
24
e4
eb
6c
6d
5f
ef
c3
f2
f0
69
c9
63
3e
df
eb
ee
c0
80
d0
0
45
d9
66
cf
68
8d
bc
57
39
4b
5c
ed
e4
69
d8
e5
e8
54
61
69
cc
ef
5c
69
55
5c
e9
bf
df
92
e5
2
ce
dd
e8
f1
d8
c8
44
e4
d9
93
5f
6d
ed
de
6b
59
60
5e
cd
b3
5a
59
eb
d0
61
68
62
6d
e4
b5
6c
ec
ea
ee
6a
54
1d
e4
5f
f0
4e
db
53
5e
c6
6c
43
63
4b
f
eb
6c
69
63
6c
4f
e4
43
e2
e6
5c
e2
6c
e5
67
3b
6e
dd
e6
a8
62
69
71
6b
df
6c
df
9b
65
e3
4b
ea
e0
da
6e
51
56
a7
e3
64
ec
62
ca
66
61
59
5a
e4
61
69
ec
55
c2
f0
e7
e7
5e
da
6f
3e
6d
67
4c
69
13
64
67
3b
b5
4f
6c
62
ec
80
cd
61
68
ea
c4
ea
62
2b
cd
55
5e
62
dd
d1
e8
4d
15
c4
db
ec
e5
ea
6d
de
13
67
e6
ea
3d
e0
3f
1
6d
69
de
df
68
e8
68
65
c9
e4
5b
58
51
69
cc
3c
af
ee
6a
2b
61
56
6d
60
69
c7
66
e2
44
54
d7
e4
86
4e
dd
e6
6a
e4
54
56
c9
55
c7
6d
6d
b0
46
df
5e
6c
db
ee
d0
e3
5d
4c
68
e2
e1
8a
50
e0
52
ea
da
50
4e
bb
e8
d2
df
5d
80
d7
61
ee
c2
6b
25
ba
1b
80
5f
5e
60
cc
da
eb
e9
5b
6d
ea
cc
e6
da
c2
e2
e8
5c
69
d0
de
67
66
ed
eb
e6
6b
d1
ee
e1
69
ea
4b
da
e6
c2
e5
ed
68
55
47
c6
64
4c
ec
5b
ea
10
58
5c
ed
1f
52
cc
c0
d3
ce
d3
e5
c6
e1
5b
5f
53
6d
d2
68
e2
4b
da
6c
6d
c8
6b
df
ed
4f
c2
c1
bb
e5
de
50
ec
cb
33
6a
c8
e9
c5
b3
e4
3f
5c
e9
49
e4
b5
ec
60
e6
d
96
e3
ec
e0
69
95
5d
e
50
eb
60
e9
dc
e3
e8
6a
ea
5c
36
6c
41
3a
67
21
e9
4b
69
dd
61
68
d8
2b
57
69
e3
6f
f0
d5
5b
50
ed
64
cf
df
6a
59
d9
28
ca
66
56
47
59
e3
58
bd
6d
6b
df
6b
48
dd
e4
cd
ec
ea
dd
3c
d7
58
df
6c
bf
50
57
e8
90
99
d9
d0
c8
26
e7
59
d8
e4
35
e9
e6
d6
ec
6b
5a
ed
db
5d
61
46
e4
d9
ec
60
54
a3
31
c7
e6
6a
63
da
73
66
da
cd
50
64
55
6d
e1
e2
dc
db
43
e8
98
60
d5
58
c7
65
a7
4f
d7
6c
6a
69
d7
de
cd
e9
3f
2d
50
c8
ec
6a
57
66
d7
5d
5d
bd
eb
6c
ea
4a
63
da
6a
67
d8
40
d3
38
c7
66
66
61
45
61
de
c5
e9
53
5f
65
ec
56
e3
57
e5
5f
de
cc
5b
d4
57
e6
6f
41
69
65
53
bc
66
e3
3a
d9
c9
e0
cf
59
69
62
d4
58
5d
2f
4d
ca
dd
6c
47
4f
62
5b
e8
d8
a2
50
98
54
e1
e4
e1
e3
5d
67
ed
64
67
ed
68
68
df
c5
61
5a
ea
c6
6b
e6
e6
6a
56
c4
e9
5c
41
dc
60
d0
58
6e
d7
48
92
cc
e3
eb
61
45
af
b5
d5
b9
6a
d5
81
b4
d6
6a
6a
6c
d4
e0
df
6d
dd
6a
ed
ca
5b
ba
e1
51
27
b1
46
e0
80
cc
59
6d
80
c9
d9
bc
6c
a4
d4
60
e8
a4
da
62
ba
58
1a
5f
80
dd
59
ef
4c
de
bf
ec
6b
56
5a
60
66
55
e9
3f
65
e0
6a
5d
e8
64
d0
d5
e8
e1
cd
cf
40
e5
41
e3
22
46
5b
ed
2b
d7
cf
4a
ec
50
58
e2
cf
e9
d3
c3
56
56
58
27
d6
41
63
5b
cb
b7
4d
52
51
eb
ea
e9
a1
b0
cd
64
65
d4
d1
63
ea
68
3d
ea
52
e0
62
43
5e
27
ed
5f
5d
58
cc
6a
59
e1
5e
60
4a
e9
e1
d8
6b
5f
e7
6b
6b
57
49
e1
4d
e4
b6
ca
df
54
e7
b9
2e
cb
ed
c9
b8
67
5d
e3
5d
65
d6
e8
ec
a4
df
4e
d0
df
ee
b2
e4
6e
e7
61
98
ed
5b
df
db
6b
e4
e2
d2
bc
4c
e2
3d
dc
e3
ed
6a
9d
e1
ca
41
63
54
58
61
cf
6c
67
5a
49
e4
b7
4e
e5
38
e2
e5
ea
9b
e1
55
3b
64
69
61
60
5e
87
dc
6a
ec
ab
60
6c
be
ec
4e
23
eb
d4
ee
69
6a
ec
b5
ea
da
aa
b2
e7
68
ed
e2
5c
e5
ea
66
d9
df
ed
6d
eb
af
21
e0
4a
e0
5c
e7
1a
68
e7
6b
d0
c2
a7
d3
ed
6
61
6b
e8
6e
d4
bd
ec
66
56
4c
52
ce
d6
64
e6
65
e7
4f
e3
df
34
e9
67
4c
c0
8c
d5
d3
64
c4
66
ca
d6
6d
e6
6d
bb
17
e5
53
e2
ea
65
c8
5d
e7
e7
44
a4
de
65
4d
4c
4d
2a
df
d9
1e
e4
cf
b0
5c
4
c1
ed
9f
31
6d
eb
5e
45
ed
6c
e4
dd
68
5b
dc
da
62
53
d2
6b
b0
5c
e6
5f
e2
e8
eb
15
62
df
c5
d0
eb
5c
43
e2
eb
eb
b9
5c
e1
e3
27
67
65
e5
58
36
ca
b7
ed
57
5f
6d
ed
5e
e2
e7
60
b4
cf
c3
62
61
3f
a9
bb
d1
c3
ed
e3
e2
b9
5b
5b
e6
61
66
4c
ee
63
cd
e6
2e
67
e1
6d
54
d7
ea
3f
e8
66
c8
49
d9
ed
e7
62
58
5b
27
ed
57
ed
6b
6b
62
53
2a
c0
60
c7
63
6c
df
ec
d1
c2
e3
33
56
e4
66
6d
5c
e0
d4
68
e2
67
ec
6d
d7
5f
5b
d5
e0
9e
d0
4d
6c
e6
e9
6a
e7
ed
6b
ba
e5
80
80
df
e8
e8
bc
2c
5a
3b
54
df
e9
ed
cc
5a
26
54
67
cc
63
e6
d4
5b
50
dd
de
e3
6c
64
4f
6b
25
63
e4
c1
39
ea
ed
dc
eb
ec
52
ea
de
d9
e5
62
e5
67
5c
5d
6b
ed
40
6d
37
61
6b
57
dd
45
62
60
dd
67
6b
ee
59
dd
6a
e8
84
6a
c2
ee
54
cb
d8
6d
6d
5b
d7
df
68
e4
ee
57
45
48
6a
6d
6a
65
c8
ea
cf
d4
dc
6b
df
49
6c
d4
3d
68
2a
5e
6d
95
53
d2
cc
5a
6b
c9
ed
da
41
d3
ea
4b
58
65
cc
da
66
d3
eb
da
e4
d5
5d
b6
cc
66
e0
57
eb
6c
54
5f
d1
65
5e
ec
e4
61
6a
5f
c8
6c
e6
5a
22
6d
6c
e3
51
b9
cf
d1
69
ce
ed
ec
6b
e0
63
c8
e2
e5
ed
60
b0
bd
6b
65
c8
66
50
6b
6c
3b
ec
d6
e8
cb
e6
6b
5f
d5
68
1e
9f
d1
40
6c
e3
6d
39
be
dd
53
5a
df
46
c
ed
da
68
cb
18
ea
5e
d7
18
e3
