d8
48
52
5e
73
dc
67
56
6b
87
e0
ed
d8
d7
ca
e8
cb
33
6a
c4
68
d8
62
df
de
2e
4a
69
d1
45
6c
2e
e0
eb
d0
16
69
5a
53
6b
76
67
de
4b
6c
6d
dd
c0
ba
e1
58
ea
67
56
ed
5a
53
df
ee
54
dd
e6
e3
51
6d
24
a2
68
73
de
ec
e7
e2
a7
ee
66
66
62
e2
6b
e6
2b
ee
2b
56
62
e5
58
6a
77
6d
6c
ec
56
68
d6
60
5f
69
e4
33
65
ac
dc
6a
72
e7
6a
e6
c3
e9
4b
c5
e2
5d
53
e6
dc
ea
4a
e4
2b
e5
ed
b4
d5
69
2e
67
e3
5f
d1
73
44
64
c2
d2
ed
59
da
cf
6c
eb
bb
65
e0
62
49
19
68
70
ee
e9
3e
cf
57
6a
dd
f3
e1
5f
f1
d4
ec
64
f0
e4
c0
ea
db
d4
5a
3d
4f
e9
63
20
6a
e1
60
67
52
cf
d1
eb
6d
e3
6b
e9
55
e1
d8
72
73
ed
5e
70
61
2e
ee
6a
64
47
5c
61
63
42
dd
70
64
46
18
5e
ce
70
c0
3e
e9
de
eb
71
db
f2
69
5a
71
28
eb
25
ba
d1
5e
d6
60
a
b9
31
62
e3
26
3b
da
6b
d2
6e
c3
ed
b7
dd
68
67
d1
bd
f2
ea
ee
60
eb
71
6d
57
ce
ba
d2
ee
53
6d
df
66
cd
b9
e4
e2
6a
cc
31
ea
71
6e
b9
50
6c
73
ec
cd
46
e0
6d
bf
6a
60
be
e8
f0
d4
3e
e2
15
c2
bc
e4
54
67
e2
61
64
51
40
56
6e
bb
e4
d2
62
6c
d7
c7
50
4f
5a
ee
62
b5
52
66
ee
6d
5b
ce
e1
ca
e9
64
e7
e8
6d
64
e0
17
58
d9
e4
47
0
ec
58
52
71
6d
e4
5f
3c
68
5b
36
6d
57
e6
dc
db
ea
a3
dd
e4
cb
e5
e9
50
51
eb
61
d2
e5
ee
41
41
49
e7
e5
54
dd
dc
dd
57
eb
5c
aa
b6
c5
e6
5f
5f
63
3b
6d
ef
6e
9c
df
34
3f
67
c4
67
5d
d2
c9
20
5f
d4
e5
59
d9
db
4a
e6
e6
c2
3
59
6c
d3
70
5f
d4
2c
3e
68
6e
62
48
ec
e4
30
c8
40
12
33
6f
61
ed
63
e4
c9
6e
ef
40
6f
dc
ef
d7
4b
d3
5a
3e
e2
50
dd
5d
be
68
52
42
66
d9
6a
dd
56
d9
81
0
71
cc
6f
b4
d2
6c
e8
cd
e5
54
59
50
a4
6d
6d
d7
bf
71
dd
6c
ee
64
e1
4f
39
64
ab
e2
48
66
ea
5d
25
ed
5a
a6
71
53
6f
ec
66
e5
da
d7
58
e3
e8
dd
d4
5c
e0
5f
ca
6f
ca
60
2c
69
ce
de
ee
bd
6e
de
b0
e7
4f
e7
bb
61
56
ed
5b
ee
ee
4d
ea
1f
6c
65
6
65
e9
b1
c9
6b
5b
ed
ca
e1
ee
67
5d
e3
6c
67
eb
ed
6b
41
de
eb
6e
57
e2
52
ec
58
6b
ea
6d
ec
5f
d8
60
bd
6b
ea
6d
54
ba
e9
ae
41
cd
50
eb
71
56
4b
e9
ea
e0
9a
64
6b
cc
e7
41
5d
4b
5f
cf
43
e3
6a
53
69
e4
e2
63
eb
43
4c
5b
5c
be
4a
6b
e8
ea
68
ac
87
60
6f
5f
73
ec
e0
4c
5b
6f
74
d0
45
45
6e
4a
ef
45
70
e4
29
ea
da
14
bc
e8
e0
73
13
e3
5a
71
d9
e5
54
63
5c
63
47
69
59
45
ed
e3
4b
6e
e3
e7
e6
d7
e5
59
6d
50
c5
6e
54
e7
3a
e1
6b
ef
db
4d
6b
d7
ae
60
6a
ad
66
56
ca
87
ee
6a
55
c1
e9
b6
5e
45
ac
cd
d0
df
34
de
cc
45
a6
67
41
75
c
64
60
e6
dd
d7
ce
f0
e7
58
67
d6
ed
e8
e4
c5
70
e0
5a
6b
b2
cc
d7
d6
5b
35
6a
5b
eb
6e
69
48
a2
d7
4e
61
da
57
df
58
cb
da
e6
ec
81
d8
6c
5a
ec
6a
e0
5d
46
5d
52
5c
6a
bc
66
68
50
65
2f
6e
62
db
5d
2b
6e
e6
e2
c1
e1
ed
6e
dc
6a
40
53
ee
bf
63
6c
47
5e
54
b9
e2
d3
d8
cc
34
e9
ac
e5
ed
dc
5d
6f
46
d5
56
e7
48
52
66
6a
65
e6
d8
4f
68
6b
ec
de
68
4c
62
4e
45
d7
66
63
1c
4e
6a
63
62
e3
6a
e5
d0
6a
4f
d9
4d
b2
65
59
63
e4
2b
6c
6c
e4
e2
61
ec
4e
d2
6d
dd
e1
36
5d
4a
41
d4
e6
ae
e8
da
be
a2
eb
53
60
d0
eb
ea
dc
65
60
d5
e3
34
e3
dc
3b
69
e7
d3
ed
ee
5d
e9
3d
d4
49
35
3b
45
ee
ba
ea
60
d7
55
ee
e3
d2
61
6d
0
ee
46
6f
ed
58
66
d8
b5
d3
e0
6d
5a
ea
e5
6d
df
4e
d9
eb
dd
d6
d0
4f
cc
6e
6b
69
57
41
2d
d7
6a
58
e8
61
6d
e9
60
e0
49
ea
dd
ec
41
6d
61
e5
c1
65
ed
41
5b
dd
ea
6a
6d
e6
5f
d7
34
6a
eb
66
38
b8
c5
50
e2
b7
e7
a7
c6
e0
6a
c0
cb
6e
6b
55
dd
60
d9
65
d4
e8
3b
57
42
e3
61
66
bd
48
68
67
10
b8
e3
ea
60
4b
e3
cb
59
e7
3e
eb
18
df
69
d1
cc
58
b9
6a
e8
4a
ed
bf
30
5d
e2
d1
cc
64
bf
6d
cb
ee
c0
d4
38
42
53
dc
ec
e5
ed
c2
cd
aa
e5
cd
d8
b8
ca
81
b6
d1
65
ed
e4
4c
ee
6a
4a
61
d2
6a
ed
66
de
2d
2d
5a
69
d3
d4
6e
bf
89
ce
e2
cd
ee
ea
5a
e4
68
80
69
2b
dd
e4
5d
49
68
ec
6e
5a
5d
ed
e1
6b
d7
be
52
e7
e3
ec
38
d8
60
68
65
a3
61
ca
60
e8
e5
d9
a5
60
ee
5d
53
69
d5
e3
55
80
cf
eb
ee
63
56
60
e8
de
52
e0
e3
d8
6d
5e
cc
ea
d1
d2
5b
69
ed
81
6b
66
e9
6a
ec
e9
e8
bb
bb
de
e5
6e
c8
69
db
e4
cd
ed
51
e6
6b
cb
c5
b4
dd
67
68
e8
64
61
da
e1
d7
4f
33
6b
6c
cb
b3
d2
6a
61
e5
ea
e5
65
48
c0
41
e1
de
50
dd
cd
68
e8
cf
64
6a
4a
e0
66
6c
e4
6d
d3
db
e7
ec
36
e2
57
4e
df
ee
b9
e2
ed
66
63
e3
ad
57
88
6e
d3
4a
e5
46
63
e4
66
38
1e
e0
b2
e5
dc
69
6e
d7
c6
6b
45
ec
2b
c0
d7
6c
67
61
59
dc
eb
ce
66
da
57
6c
eb
63
65
e3
e7
53
70
6e
4c
ed
62
35
e6
4f
a4
d9
60
c1
34
d1
52
ea
6d
d
6d
e7
ed
e4
ad
e3
69
df
d1
63
6a
d7
e7
c8
3b
cb
60
4d
64
ea
97
59
cf
eb
e2
5e
e8
ca
68
d0
4f
69
e0
af
ee
c5
ee
35
de
e1
ea
5e
e4
5a
5c
bd
31
44
e6
ec
69
6a
59
eb
c5
62
34
e3
ed
e0
d9
52
66
65
5f
8c
26
d9
69
e7
ec
c2
5d
eb
43
9a
ea
a6
43
1e
dd
e8
3f
b0
66
ca
c7
6e
5b
10
ec
58
e6
e7
d4
e2
65
57
69
b7
b9
e8
80
65
da
30
63
56
eb
6b
6c
d8
df
e7
de
62
d7
41
6e
ec
a5
64
6f
ee
58
ec
b7
d5
5c
e0
5d
ca
a6
62
dd
1e
6e
6f
30
6a
3a
a8
60
3f
63
ea
5b
e1
e
e5
6a
53
6d
65
eb
c6
5d
44
68
69
be
68
d1
e3
db
e4
5c
e0
3c
4d
b9
ed
40
6d
52
da
ec
e5
6c
ec
9e
44
38
64
ea
62
b7
5b
4a
d9
d7
67
ee
85
e6
68
ed
6e
d6
30
59
d0
ed
67
3f
bf
e1
66
5d
3d
db
e4
4c
e0
62
d2
eb
64
e5
d4
e2
68
91
e6
6b
d
5e
65
6a
3c
e2
d4
42
9e
51
71
bf
62
73
6d
85
5f
57
59
d7
f1
55
a8
d1
5b
52
cd
69
54
b3
ca
b0
ed
e7
ca
d7
68
2a
ea
5b
68
5a
c5
6c
63
18
d2
70
69
42
65
eb
d1
c5
9d
e1
eb
1
dd
dc
cd
f1
56
6b
67
e8
d8
d8
6e
64
60
69
c3
dc
e5
ee
3d
6c
da
bd
e4
d6
e1
e6
55
66
6c
6f
6e
45
f6
37
e6
e3
e7
65
d9
5f
de
57
a7
4b
4e
3c
c0
67
6b
6f
d5
de
2d
58
eb
63
5e
65
69
c5
48
70
c
63
cf
35
67
ee
cd
43
da
dc
dc
87
6d
6a
e1
df
e0
e6
4d
6d
3e
61
ec
f0
f2
75
3d
2b
ce
e1
65
e4
81
db
e8
cb
5b
c7
21
6f
5c
5d
e0
69
d5
e0
d4
de
cf
d7
ed
b3
6b
51
6c
d8
66
5f
da
c7
5f
60
c7
ca
db
55
e3
ee
dd
4f
63
d8
e4
dd
e2
e3
6b
81
d4
5a
50
d3
e7
5d
eb
ec
4d
c8
e2
53
48
bf
81
61
d9
71
55
e2
e1
c3
43
e9
c9
e9
68
81
a3
63
69
63
6c
5a
6f
bb
eb
dc
53
4c
e8
da
f1
e7
dd
64
e7
df
69
ed
6d
c3
df
e7
6d
6b
da
ce
62
db
e3
ee
cf
e4
eb
63
e1
d1
69
cf
58
a5
38
e0
e1
4b
e2
2a
eb
dc
ea
da
6c
ce
dd
bf
e4
66
5d
db
e8
38
5f
53
69
91
68
be
63
60
6a
c9
6a
b7
65
8f
64
ea
a8
6c
3b
6c
4c
e6
ee
2e
d4
32
cc
e6
43
c3
de
5e
d2
6d
50
e3
6b
5d
ee
53
5e
e5
63
ea
e8
69
51
e3
6e
d4
51
ed
28
dd
ba
65
5d
c5
23
b9
e6
d7
da
e8
6e
65
6c
4f
68
64
e3
d0
d0
65
48
d8
eb
5e
57
d8
70
6e
4c
5e
68
d3
8b
d1
32
91
59
cb
56
6a
68
d5
e7
64
ef
dd
6a
e0
51
e6
56
ea
da
5e
d5
e2
e4
59
de
6b
36
c7
71
c5
65
6d
41
67
cc
35
70
e5
b8
b2
a2
57
58
6a
3b
da
58
6c
49
e0
49
3a
6b
6f
e0
d1
b0
5e
e3
53
6a
6f
62
63
e7
cd
47
e1
6a
a8
b8
e0
24
6d
ed
ed
e1
6c
55
e2
d1
d9
df
61
5c
d3
5d
df
df
ae
43
57
94
66
73
68
65
ec
df
4c
6b
ee
cd
cc
6b
32
5f
ea
e0
b5
d3
6b
dc
5a
6e
b6
d4
56
e8
ec
63
72
e8
39
dd
56
b5
55
68
9a
5e
d5
ed
d8
e3
de
df
da
ec
4e
6e
d8
c4
e5
c1
5d
24
e4
52
cf
4a
5b
dd
5c
e9
63
da
69
6f
2d
c3
5d
62
69
db
be
45
53
da
de
cd
34
ab
56
cb
ea
bc
70
41
5b
c7
ec
6d
5f
6c
cb
4a
55
68
34
5c
6f
c4
40
e7
59
e8
6d
e3
cb
55
48
21
55
63
69
23
1c
d8
bf
6d
ed
6a
33
dd
cf
e9
6a
c4
c6
5e
76
5e
81
73
71
6c
5c
c0
e9
50
c3
5b
c7
69
e0
64
eb
39
e5
e4
6f
6c
6e
d4
cd
6b
c1
6c
0
c8
d8
66
41
cc
b7
e2
d6
f0
66
64
e7
6f
50
67
f0
66
72
5d
d0
64
ab
68
e3
4e
de
e8
57
eb
cc
e1
e1
61
76
5a
67
29
d9
c3
cb
e0
31
c7
dc
83
68
ec
df
ec
62
80
e9
5b
4d
6f
69
2c
db
61
55
36
6a
59
e1
e1
dc
dd
ec
dd
63
6c
57
dc
6f
63
52
ec
e0
2a
ee
e5
d9
9b
80
eb
45
59
92
b6
71
6f
ed
67
66
ee
5e
b9
e0
cc
d7
59
5f
72
e8
69
8e
24
b2
50
6c
6c
e2
6c
6e
51
c4
d7
e7
a1
61
5b
4d
65
d9
c5
d1
9f
dd
e0
e6
6d
6c
5c
ee
2c
ad
69
72
64
ef
c7
e6
67
eb
54
ec
65
4b
6c
5d
66
c9
a3
c9
ad
d4
54
e4
d9
6c
69
b3
ec
d4
e1
44
ed
40
50
5d
e6
67
36
5f
c9
71
69
df
d5
31
5d
dc
61
2e
e1
e1
d4
58
c4
ba
e3
ec
65
6a
3d
69
69
5a
ce
6d
e8
56
ea
4c
eb
70
e2
c2
d0
54
e9
cc
ec
e9
e4
e8
e6
e9
2b
98
6d
6a
d8
ed
d8
ee
ce
ea
e9
c4
e3
da
d9
70
ad
57
cc
5b
ea
6c
2c
ee
d5
e6
e8
20
67
e8
5c
3c
e8
ce
5c
ec
5d
ca
4d
d7
e8
ec
5f
3f
6b
6d
bd
de
4a
dc
32
45
da
62
3a
3a
c2
6c
69
23
51
e3
e9
ea
d2
55
73
39
5d
e7
69
e8
ea
df
5a
e6
5c
dc
68
e7
e4
dd
50
63
e7
66
4c
28
c6
67
61
6a
e9
ec
68
9d
61
e6
4f
df
3d
e8
5e
65
58
c0
66
e6
69
d1
67
c0
af
34
f0
bc
64
eb
dd
c2
62
d3
bb
67
ec
b5
cb
40
81
62
6a
ae
6b
46
da
6b
e1
ee
4b
b9
d1
71
46
6a
73
bf
e3
b2
49
5a
5d
dd
ed
c5
c8
69
55
e6
e1
51
63
e7
4c
65
67
d
cc
70
67
ec
ec
55
81
6b
57
5d
e7
45
ef
e0
69
e5
ec
d7
d0
ec
d1
db
67
df
ec
71
e4
e3
58
62
39
5d
0
48
61
68
db
eb
c3
e1
b2
e7
64
60
44
64
cd
ed
e4
e1
d4
5f
cc
e0
72
e9
5d
59
62
cf
71
6a
c9
60
55
cb
61
e1
52
e9
60
bc
6d
60
e7
60
6a
e9
64
c8
5b
72
c6
de
b7
c2
e6
ec
5a
d6
6b
65
41
6b
35
5b
a4
4b
34
f2
59
e5
47
36
ed
e4
16
28
ce
f1
61
58
6d
6b
47
74
e1
67
6b
e0
68
ee
4f
67
4d
e9
ec
ee
6f
64
6a
c0
5e
d5
da
e5
70
e1
e4
dd
6a
71
c1
dd
42
f2
69
56
95
de
af
e8
e4
e7
67
f3
eb
65
5a
e3
af
2a
46
db
49
66
4c
67
d5
ef
d0
6d
d1
bc
65
71
5a
d4
6c
c7
55
ef
67
69
d1
ec
cd
70
67
d9
5b
6a
dd
e9
ec
6f
71
5a
6e
5d
de
6d
65
54
59
59
e6
d9
6d
5b
0
ec
b6
56
67
e7
ee
5c
83
71
59
e0
e2
d2
f2
51
d0
58
6f
71
e1
c8
c9
3d
73
a4
48
5f
ea
47
5e
67
68
69
d6
89
ae
9f
4b
5e
ed
37
bc
e0
e9
cb
ee
53
6b
6d
66
ee
e2
56
da
d6
ea
5e
59
e9
51
1f
61
80
5f
e0
e9
df
f3
ef
5e
59
e
5a
e8
c8
71
b1
14
ec
c4
e8
e9
6b
35
e7
53
e9
69
d3
70
e7
66
ea
ba
63
69
e8
f1
e4
74
66
dd
67
b6
e8
5f
e2
67
d3
b6
c
4b
e5
ca
6f
e8
4c
f1
b6
e6
ec
e3
69
5c
41
64
b8
6c
74
db
64
6a
50
6c
dd
e6
ec
c4
60
c8
65
6a
65
e4
56
4c
69
da
e4
e7
b6
5d
53
e0
59
81
eb
d1
ee
1e
6d
6a
e2
d5
e7
70
eb
8f
52
60
de
6f
d3
e6
6a
6e
d5
e9
72
22
6a
6c
68
50
47
e5
68
3f
dd
ec
df
e3
e6
6e
5a
69
5a
8a
e1
60
6c
ee
e7
2b
65
66
40
6a
e6
e4
25
d1
6d
6c
ca
61
67
75
db
dd
e8
cc
b6
e5
e2
6d
ef
ec
6e
53
d6
44
62
e0
f0
61
6b
eb
c9
58
6a
5e
81
d1
e9
5e
ed
d5
2c
ec
e6
e4
66
5a
df
4c
2f
2c
e9
30
6d
e0
e2
b
9c
6e
b9
68
d9
6a
6d
67
d8
23
6d
ec
d5
64
6e
37
ec
48
ed
55
5c
d7
e2
e1
69
e9
4f
e1
4f
80
5c
49
29
16
8a
d9
e3
61
68
dd
d3
35
5a
64
c8
e4
a6
23
cf
6b
65
69
48
eb
b1
e3
e1
db
c9
ea
e8
43
67
67
52
d4
f0
c9
4a
68
d5
52
b4
6e
5b
dc
ef
6c
f2
6a
95
e0
d6
3e
5d
5a
ed
62
e9
f6
88
55
ab
55
e8
e6
68
b4
6a
e0
55
d5
64
46
a4
cf
d6
e9
ba
bb
c0
67
4c
4e
2f
53
e0
bc
d1
eb
69
d8
5e
34
66
51
40
56
da
67
51
f6
d3
4d
54
c7
60
9d
d2
67
eb
c6
d5
dc
e2
e7
54
75
4d
3f
40
da
6a
bc
eb
df
55
e1
c9
ec
6f
9e
6e
63
b0
48
6d
92
67
e1
22
6e
db
7c
52
e2
ac
63
70
d7
f5
5a
b5
5d
31
36
be
b0
71
50
a8
5e
4f
eb
6f
e2
6b
62
f3
bc
49
e8
cd
1c
da
eb
e2
db
4a
6e
1a
5e
6b
0
6b
ef
dc
cd
ec
57
80
5b
56
29
66
a4
b1
5c
6a
d6
b7
68
67
ed
e2
cc
66
6d
69
e6
d9
72
d8
cf
6f
d8
cb
e3
d3
5f
61
df
73
f2
f0
f0
73
69
87
68
da
5c
cc
76
e2
c9
65
f0
44
5f
80
dd
54
75
ed
64
f0
e1
f1
e5
e1
17
38
6b
f2
64
be
f4
66
54
aa
e4
e7
2f
d3
d2
6c
67
6c
b2
57
58
30
6b
5c
dd
66
19
59
d1
d1
47
5d
6c
59
4b
ee
66
cd
5e
db
69
5c
ea
eb
63
6a
ee
50
d1
e4
e4
5a
81
e1
d3
c9
5f
ed
35
6d
61
e0
d1
dd
5a
da
5b
12
e7
e7
60
e8
e5
dc
d3
eb
55
46
61
d5
e3
61
df
56
ea
6b
e2
e0
ed
70
59
67
db
56
5d
bf
e3
65
5c
e0
d0
ec
51
53
e4
e3
6f
68
bf
52
3a
e6
48
99
bc
e4
de
61
e5
a4
4a
e2
6a
ef
5a
df
e4
e4
cf
6b
30
55
e5
41
db
ee
15
dc
e5
c3
db
bd
4a
54
6b
91
67
d6
66
6c
de
6c
d6
e4
57
e8
e5
4f
da
49
6c
67
b9
5e
59
ec
e4
d8
5d
70
e9
6b
5e
6a
ec
25
61
c4
eb
5d
ee
ed
de
44
22
59
eb
67
e5
19
6b
69
4a
e5
d5
61
61
6e
e1
d6
ce
d7
e8
5a
1e
e5
ec
ed
eb
64
b8
d5
b4
42
5e
5b
e8
60
e0
eb
df
6e
6e
92
a4
e9
b6
e8
ea
4c
66
60
e6
df
ec
e9
4c
5d
57
5f
36
e8
e2
d7
18
6a
5b
62
42
d7
41
56
c5
4b
cb
cd
e6
c9
68
6c
c2
4f
d4
d3
6c
b8
ec
56
a
ec
cd
b3
6c
d9
55
e0
54
bc
d6
45
e8
42
62
e2
6f
ea
d1
55
cf
6a
cb
ec
6d
f0
80
d2
e1
67
6a
43
55
2e
65
6d
e4
df
61
e8
60
1
66
bc
63
57
9c
6e
66
6a
cc
8
ce
e1
c8
68
55
ec
4f
50
68
ed
d8
65
62
ec
c9
db
68
d2
ce
63
70
d2
e4
67
4e
6a
e1
db
3f
db
60
72
e8
c4
36
c1
71
e6
c1
d5
6e
2f
76
eb
f3
ea
ec
40
ee
dc
6b
60
e0
6b
2c
2d
e1
ef
ef
e5
e7
81
a5
51
e2
d4
e4
6b
5e
e1
eb
49
e0
58
74
df
4a
6e
e2
ef
6b
65
cb
60
de
4c
66
72
3d
65
cf
e2
69
da
6f
e2
68
ed
c3
da
ea
de
de
62
96
da
5f
c0
e0
54
55
ec
3f
41
66
c8
ca
66
10
e4
ce
c8
d9
97
6d
55
d0
6c
5b
6e
d1
92
e0
6f
1d
ec
6d
6d
e8
0
4c
65
dd
6c
6a
57
c6
6e
4e
ea
6c
57
ef
e5
6a
50
e8
6c
d9
6b
eb
40
d6
de
28
e5
6a
64
22
e8
ea
c6
dd
cf
61
65
d7
ed
5e
16
41
24
66
d1
d0
67
ed
e3
3a
c6
b1
4e
a1
da
e6
cd
dd
6a
4e
ea
df
6c
e2
3a
44
66
69
e3
d0
6a
69
ea
ea
6e
e4
ba
6d
56
d7
e8
54
5d
d1
81
63
54
e2
de
56
70
ef
5e
ee
4a
58
ea
e8
66
6c
e0
e3
68
eb
c3
ed
ee
62
e4
6e
ea
4b
ec
65
cb
ed
ec
69
d7
66
5f
4e
c4
e7
4c
ef
4b
f0
a2
df
68
60
e3
6e
45
d8
e7
61
5a
35
c4
eb
df
e2
49
ed
61
d1
e4
e9
60
ed
61
58
d5
36
65
49
e5
e2
ea
f0
e1
ea
cf
c8
65
63
c4
6c
3d
e3
da
49
e0
6f
d8
db
4c
e2
ed
4c
e1
66
6a
4e
6b
61
66
e5
d0
dd
cd
e1
4f
cc
57
6c
ea
4d
dc
6f
dc
e9
69
6d
de
ea
e2
66
cb
ed
ef
50
df
e5
5a
b0
e5
70
67
70
6e
d0
ea
b8
ea
e2
ed
6c
65
3e
69
e3
6d
ef
59
e1
cd
8d
65
a7
53
61
db
65
6d
53
44
55
69
e7
6b
e5
e7
ed
d1
da
71
d8
6b
c4
e9
25
31
e7
e2
40
49
41
d9
e7
73
68
6e
c8
5a
eb
42
e1
3c
61
df
65
df
59
65
e8
e0
4c
1c
e5
ed
51
dd
d8
57
e0
67
e2
eb
72
bb
6a
59
44
6b
e7
cf
6a
5f
58
95
f2
e6
6a
6d
24
da
6a
62
5b
1c
4
d6
d8
66
e5
3c
61
b3
a3
e1
ea
aa
e7
d0
c8
6d
e0
b0
32
66
54
e4
81
e4
80
e2
bc
58
e5
e2
e5
6c
56
60
dc
56
e6
e5
5c
5e
e7
e0
6d
6b
69
4a
e6
e9
bb
d6
4b
ea
ba
69
1d
ee
bd
de
be
e1
c1
e0
bd
e8
66
5d
3b
50
67
eb
35
e7
6d
db
cc
ed
6d
44
53
6d
66
54
d3
61
eb
c5
e8
ea
e2
d2
df
69
bf
b5
e5
bb
e3
6b
50
61
e7
d9
d5
47
6e
68
ec
53
bb
c2
36
e7
66
eb
38
be
da
4f
dd
c3
6e
4d
6c
5c
d5
6e
6c
53
47
64
5c
e9
63
ec
3b
63
e9
dd
6
e0
57
cc
6d
ba
ed
a9
67
ed
6b
e9
59
6e
cd
2a
c8
ca
e9
6e
52
ea
3e
e0
d7
6e
b6
42
c2
ed
65
e5
5f
a3
e8
dc
d0
66
ed
d5
e6
6a
44
61
64
b0
81
e6
d3
5d
d0
e3
6b
ce
6a
56
24
52
5e
b7
d9
d1
49
da
e3
d6
63
69
62
de
e6
dd
ee
50
5e
dd
5b
45
5d
61
eb
67
b6
ed
3c
e0
d8
e5
5f
6b
2b
1e
46
62
57
d0
37
1c
ec
e2
d8
46
56
bf
db
d8
e5
3b
a3
ed
5d
65
6b
6a
eb
df
da
ee
ea
c3
54
2e
d9
f0
c1
c8
58
67
53
c3
6c
e6
66
ad
e9
f3
65
67
35
e8
61
71
5c
40
cc
e6
6f
e1
ea
e9
55
64
cd
6d
b3
d7
52
d0
db
6a
6f
3c
e7
52
68
c5
66
bd
3a
e9
d1
da
64
65
4d
56
6e
d0
dd
46
91
55
e7
b2
6c
d6
49
ed
e2
d3
d8
9e
cd
6e
e8
5c
a5
dd
33
8a
59
d8
cf
47
e1
ee
dd
e4
c4
72
d5
d8
42
dd
5c
66
69
d6
61
53
57
e9
4e
cc
d7
3c
e7
e8
69
eb
e8
d4
5d
58
6d
35
5a
b
e4
5c
dd
ed
6d
6c
53
66
68
69
63
e5
4c
e8
e0
c9
c6
e4
40
c5
e2
61
e9
e4
e2
e0
4f
6a
64
c5
c5
5f
73
5b
6a
2f
57
e4
6a
53
d2
ed
65
e3
c5
cf
cc
4e
df
6b
ed
65
ea
e6
6a
e8
db
e4
b7
3c
57
72
c1
66
5b
44
63
73
5d
68
c2
6f
ea
ed
5b
68
5a
5e
63
c7
57
80
dd
e4
d8
60
31
4a
dd
63
ee
6c
c1
6d
52
65
e2
6c
60
e8
63
58
43
5c
ef
e4
51
d5
63
6b
6b
3c
66
54
39
81
63
e8
6d
d6
d8
37
dd
6c
66
6e
60
31
ea
e1
e5
cc
69
da
d6
f2
e0
ee
e9
6a
d4
4f
56
65
6c
e7
41
59
80
a8
e8
e3
70
6d
67
d3
66
e2
e5
67
e8
f1
dd
dd
3b
5a
e6
56
5f
61
b5
b5
e9
61
dd
c9
eb
ea
54
60
b4
e9
e6
58
ed
e5
c3
eb
5d
4a
e7
6a
e7
60
65
6b
60
e2
db
53
3c
66
e8
6d
66
e6
e4
62
c6
80
cb
e8
e9
e6
4f
6b
3c
d0
63
e9
d3
df
61
55
6c
e3
6a
e7
dc
6d
64
36
6c
6a
62
6e
ec
57
e3
e6
51
65
66
68
46
2e
e8
9d
bc
be
5b
6c
dc
d0
e7
bc
5c
e4
6d
eb
e6
dd
d9
d2
eb
65
53
6a
5d
68
b8
5a
55
c8
c7
ec
2d
ea
66
6f
e8
6b
e7
47
14
6c
d2
c5
67
e3
d6
d2
57
c3
a2
e5
85
e5
61
19
bf
63
ea
e8
51
47
a0
c9
6b
f0
ea
9d
70
b7
52
69
1d
64
b3
70
be
df
e9
6e
62
5c
56
6c
ea
de
69
6c
ae
91
c3
50
f
60
39
53
62
c4
65
e5
d2
d2
bc
66
e0
eb
55
9f
ea
60
85
e3
5f
65
d1
3f
ef
e2
eb
68
e8
9d
dd
66
ec
54
d5
70
61
65
49
6f
e3
6a
d8
68
ac
ec
5c
62
81
e2
6c
10
69
ec
da
ef
13
ec
5b
4b
eb
6a
b3
5f
68
c3
cc
56
54
47
9c
cc
e4
e3
68
6b
19
a
e0
53
ed
bb
62
5a
6f
6b
ed
ea
6e
57
5d
6e
4b
ef
59
56
46
34
ea
e9
6f
60
ed
5b
62
70
42
a8
63
62
62
5d
50
e0
eb
e6
5e
dc
e4
64
c0
de
e9
4f
2f
d4
29
ee
d9
65
e8
c8
6b
ea
66
55
6a
74
d4
e9
50
67
c3
63
eb
64
62
40
e6
f0
6b
ec
e7
e6
50
dc
d8
f1
57
5c
52
72
f0
61
44
d3
e9
ea
55
e8
e7
df
eb
6c
3f
36
d6
e8
cb
2a
5e
6a
e5
57
43
6f
38
28
6f
5d
6e
3d
61
66
c0
63
a8
64
74
60
6e
5e
68
6e
df
e4
14
e3
d1
67
67
78
de
e0
e7
8c
d8
6e
61
c8
61
e3
bd
3d
62
dc
6c
6e
af
6b
c7
4b
67
6d
e1
f8
59
bd
ef
e2
ac
ec
1f
df
54
db
49
6b
e6
59
6b
e9
56
98
df
6d
5c
56
e6
70
64
ba
6e
d7
58
e2
a
68
63
5a
ec
e3
df
48
6a
3c
66
e8
a8
3e
bc
3f
dc
e1
ee
ed
de
46
61
a7
5b
e7
9c
d0
6d
5e
b2
55
da
e3
ec
cd
60
cd
ec
ed
de
e8
4c
4a
e6
af
d7
e1
2f
4e
66
60
66
e9
68
56
db
d7
28
66
81
31
eb
61
6a
63
3d
4f
67
63
67
55
e3
cd
5f
67
de
d0
6d
67
6c
e0
43
69
e4
60
da
4a
dc
69
69
e7
ed
ed
4d
2f
e5
6b
52
64
eb
b8
63
51
e5
6d
61
3f
dd
e8
62
4a
68
30
37
6a
70
e3
65
ea
65
62
68
d9
42
de
40
cd
68
4c
d7
c7
5b
5c
e5
68
d5
d2
13
c5
df
e1
d5
58
e1
56
d5
e0
d4
e7
e2
a6
62
67
af
69
e2
5f
df
e0
5d
c6
6b
e1
40
67
24
6e
64
59
e5
68
63
60
ea
67
5a
e2
eb
e1
58
5d
6c
e6
ab
69
6b
3b
b6
d5
e1
69
bb
c7
55
da
69
6a
cb
e9
5e
c9
b5
4e
5c
71
cd
e8
28
52
e5
ca
d7
6b
5e
ef
1f
e3
69
45
43
bc
39
b7
61
69
cc
ed
6d
cb
64
6b
e1
6c
d3
d0
69
e1
4b
e3
51
51
60
64
2d
e2
50
ca
ed
d2
a2
aa
66
c0
6e
5f
e6
5f
e4
d0
39
13
68
40
ab
63
57
ec
ea
dc
d9
5b
e7
dc
64
55
6e
df
6f
dd
30
4a
2e
e0
6b
52
ed
e9
df
6c
68
60
d3
6d
63
b5
54
61
34
61
d1
ec
69
4e
49
b2
f1
d3
70
e4
67
d0
10
dc
61
69
6f
6b
89
da
db
4f
4f
6e
e7
7b
5c
de
b7
ea
3e
4e
d7
43
4a
6b
b3
c8
37
68
b2
d4
2f
1a
ea
3d
b1
42
0
b6
d1
ca
ee
e6
73
68
6a
c3
52
5a
63
13
e7
e6
70
67
72
13
50
e8
5c
5c
3e
ee
45
c6
56
2e
66
57
ed
71
e4
71
dd
e0
ec
55
6b
df
ec
1d
73
4e
eb
5a
74
83
76
ed
69
db
e9
dd
e3
e4
69
d4
3d
9a
75
65
ef
62
6e
6c
68
4e
68
d0
62
6b
60
5f
ec
49
ed
d5
e1
5f
2f
e5
e1
e0
ee
68
7f
dc
68
2b
a
dd
63
e8
52
73
df
52
4a
e9
ca
2c
e4
5e
62
ec
be
5d
69
45
75
5e
e1
50
de
f0
5d
de
4c
f6
eb
67
64
c8
72
5e
e3
58
68
cd
e9
e5
e4
e5
98
e5
b7
f0
ea
52
df
a5
6d
e0
d9
68
67
e5
d5
63
6d
4f
cb
4d
e2
50
c5
6c
40
d8
6b
46
ef
da
6c
d8
e0
6c
ef
5f
d3
e3
ee
3c
69
e5
d3
53
f3
75
58
e9
52
df
55
ed
73
70
b8
6b
ee
64
e8
5d
5d
67
5c
40
66
ee
ef
66
ee
c6
c6
dc
b2
dc
5c
56
6b
59
e1
11
e4
49
de
ea
d9
ec
6e
40
e4
cf
33
69
d4
ed
d1
b6
ed
4e
23
dd
cf
66
6a
61
5e
c2
e4
5d
5f
44
ea
5b
48
e3
dd
ec
ea
dd
ea
6b
41
c7
e9
e6
ca
64
c1
56
da
d9
ea
30
5e
dd
2f
2d
ec
c8
d4
b5
0
62
ea
70
51
54
62
52
64
66
e9
54
ed
bc
e2
e8
6d
e9
52
dd
d8
eb
ed
cc
43
e3
6c
cf
5c
df
d3
55
de
b5
d3
4b
57
ad
60
ea
90
5d
e5
e6
69
6e
6d
d6
e6
2a
5f
e4
41
c7
6f
28
ea
34
6d
4c
5d
4f
70
60
98
d6
55
6c
dd
39
36
dc
6a
4c
5e
56
c7
58
c7
44
52
56
b6
e7
60
46
4d
6f
b4
1f
6c
e3
6d
e8
d4
bb
de
3e
e0
61
db
68
50
81
8c
2b
e1
5c
ba
6d
eb
6c
60
ac
e9
d9
4e
d3
66
ea
47
52
69
e4
65
66
6d
3f
72
e6
e4
25
cd
62
45
66
e4
6c
e5
67
59
cf
56
e6
62
65
61
dc
bc
48
bb
b9
c7
5f
5d
6a
e2
db
ed
60
51
bf
e3
e7
e5
e9
d7
59
d8
5e
e4
5f
56
59
4c
cd
21
e0
4e
62
47
de
40
60
44
5c
e2
49
6a
e4
5a
62
6f
e2
d3
6a
d0
d5
41
e8
6e
d3
e4
e9
c9
6a
4e
ce
d4
ec
ec
ec
e8
56
6e
e0
60
da
6c
60
d3
5a
6b
de
64
42
c2
5a
c2
31
61
e0
2d
ec
bc
e3
64
ec
6b
e6
5e
6a
e9
63
44
cc
db
d3
6e
c2
6e
66
3a
63
ad
64
e4
e5
db
c6
ec
eb
57
cb
d2
57
ed
e4
6b
d7
e4
70
5a
da
d1
67
dd
c6
6b
30
57
5d
ea
65
df
e0
cc
38
6b
59
ea
e0
eb
eb
55
57
b5
65
ec
cf
ed
dd
57
c9
e9
e9
ee
58
e6
2b
6e
e6
dc
cb
65
ee
69
5b
6f
6f
b1
57
65
ea
50
df
db
38
d4
59
5f
3a
b3
ed
ec
d7
1
33
d5
6e
e4
dc
d6
e7
6b
e4
6c
6f
39
e5
e7
6b
e1
d
df
6e
53
ec
e1
d2
47
4e
ee
69
ec
55
ca
50
ab
5f
80
66
d8
e3
67
68
dd
63
eb
70
d2
66
5c
ed
da
da
ea
ea
8c
69
56
e3
d5
e9
de
6b
db
c2
6d
d9
65
66
d9
60
5a
5c
67
d1
60
c5
e5
54
39
46
e3
e5
d9
bd
ec
53
e9
ce
71
63
4e
80
61
54
cb
ea
e8
32
ca
20
5a
81
60
60
71
4
ba
e4
67
c2
e3
61
c7
67
55
5c
4d
80
d5
bd
ea
da
db
22
d4
e9
c8
bd
6c
1d
eb
34
6b
64
57
6a
5f
5b
4d
b5
49
e2
d8
23
c6
54
e6
16
cd
e0
6b
69
5d
e8
cb
e4
e1
61
68
63
e2
e5
de
61
3f
6b
ee
5a
e2
57
6d
bf
e9
e3
ed
4b
58
c5
e6
47
c
4d
cf
6b
2d
64
eb
5a
ab
5b
56
e3
65
dc
4e
eb
e0
64
2c
e9
ea
66
5f
6d
d7
46
d6
ed
df
4a
df
6a
69
d7
d5
cd
e4
e0
d9
ba
83
c0
c1
2d
cf
6e
57
dd
5e
69
bc
69
86
e8
69
44
65
4c
e3
64
e5
5c
64
ee
67
69
51
61
6e
40
e2
d2
43
5b
da
c5
c3
52
de
69
62
d0
36
e8
32
ed
e1
87
e2
ec
61
de
6d
d5
cc
e2
64
d3
e1
47
e0
27
67
40
c4
6e
4f
ae
50
6b
ea
cd
eb
ed
c5
ed
5c
6a
50
52
ce
d1
5f
d9
c7
e3
ec
dd
e6
43
67
2b
c9
44
ec
c2
ce
eb
ee
bf
36
81
63
da
e1
cb
de
2e
cf
69
5a
36
69
ce
43
ed
4b
6d
56
eb
da
5c
6d
6d
eb
3f
62
e8
66
43
df
68
ee
ed
ec
66
dd
a5
45
5
4c
4b
34
dc
d7
cb
6a
e9
36
4f
d9
e9
c2
f0
ec
e5
62
c5
13
16
63
6f
6c
38
68
5a
ea
dd
cf
c7
5b
65
58
b
ea
e6
e0
d9
ed
6b
2f
cb
e7
4c
d2
6d
56
ad
6c
ea
c7
ee
b
c9
cb
33
ea
ed
ec
6c
6d
e6
e6
5f
ce
e4
33
a3
df
ed
3c
3d
62
6a
c1
ac
62
62
d6
bd
50
ea
ed
d3
dd
e1
e5
e8
ea
17
46
d7
3f
dc
6c
5d
e9
1f
ec
67
ed
70
69
e7
bb
5d
ec
5e
46
e5
6f
6c
2d
e5
f1
70
63
6e
71
e8
47
6c
22
6d
5d
67
e8
ad
dc
73
e5
71
d8
da
e3
c0
65
5a
e6
c3
e6
69
77
3a
e9
e4
ce
76
62
d4
c0
74
cd
df
61
64
bf
69
5c
47
ec
ec
d4
74
e2
33
4f
d6
65
e1
2f
5e
6b
dc
61
a
6c
40
ec
e8
e8
5a
d6
58
63
37
db
3e
da
e7
5a
d5
46
e3
6c
be
3f
d6
6b
ea
ee
6e
e3
5f
5e
29
69
69
eb
6f
58
e6
e9
41
63
ee
60
a7
ea
5e
6f
71
5c
62
e3
6e
ce
69
6a
d5
db
68
d5
df
bc
b6
62
3b
54
b1
ac
e7
d7
6e
1f
53
ef
5a
5b
e9
b1
6b
e4
ed
76
59
37
3e
cc
e2
6e
60
e5
6e
52
ee
de
5d
dd
b5
6e
13
a7
43
6b
dc
d0
44
6d
cb
dd
64
65
43
e6
4d
66
26
eb
46
dc
d1
d4
58
68
ec
e3
65
59
cb
ed
ea
d8
4f
e0
da
e3
ee
eb
3e
ec
d8
46
68
6d
d1
e7
6b
47
e4
4e
6c
ed
67
ed
61
eb
6b
33
8e
67
62
b2
d5
65
67
e8
22
6c
64
2e
dd
c2
6e
c2
3a
5e
da
ec
c4
6f
ee
d8
6e
e7
e7
bf
d6
d8
e4
60
e7
e5
6d
4c
ba
e4
50
d5
5c
68
67
c0
ca
6f
60
c6
d7
62
6e
de
df
e9
ed
d3
dd
6d
e3
65
dd
e0
e7
5c
6d
25
2f
33
6e
e7
0
67
68
6d
67
49
df
65
39
d3
36
80
5d
67
3b
67
6a
eb
5a
e7
70
a
e6
5a
d1
be
20
95
6d
e4
47
eb
eb
52
dc
5b
bf
64
4e
3f
43
36
ec
58
c1
53
d7
69
54
ee
68
43
9e
ea
63
65
62
45
5a
58
d8
81
ea
b3
c0
5c
d5
d9
da
65
e0
cc
de
67
45
bb
e8
d6
ec
3b
68
5b
ec
de
eb
61
6b
30
5f
c6
d7
3e
5d
e2
d6
52
31
62
64
6c
5f
65
25
d4
94
6c
ee
d8
e4
d6
e6
e8
5a
65
62
6b
6c
6a
d8
e7
e9
d1
d2
0
64
ed
e3
ed
be
d2
67
e6
6c
53
65
6e
63
51
46
d8
53
e4
e6
e3
bf
e2
c6
6b
37
68
8e
e2
21
61
e4
d9
66
49
47
5b
0
ed
6d
c3
6c
53
e4
1c
e0
e1
64
ad
ee
27
6f
e9
ed
27
5a
e7
d2
d3
5e
63
69
e6
e9
aa
58
30
ed
ed
ed
5f
70
63
df
6d
3c
5f
31
5f
3e
67
e4
c9
e3
e1
46
48
5a
dd
2c
68
58
6d
4e
d6
6b
c0
59
68
c3
e1
4d
56
a3
db
40
53
d3
55
54
68
64
66
6d
d9
6d
c7
e3
67
eb
d9
6f
56
d7
51
58
e2
df
0
31
92
52
6b
60
63
4b
21
db
d6
ea
e6
e8
5d
d8
e3
51
66
6b
64
61
5d
6e
cf
de
5b
4a
61
52
65
6d
65
bc
6e
61
31
63
be
e6
56
ec
ca
5f
e4
54
d9
53
ed
e6
6e
e1
de
da
e1
d2
5d
db
5a
3a
33
ce
ea
cb
e7
4e
b3
5f
d7
ec
e1
da
eb
65
dc
de
67
ec
e2
d8
57
e2
93
2a
df
43
c7
63
14
53
52
df
cd
ea
e9
64
eb
6f
d6
d9
d8
dc
41
e9
e2
61
d5
de
db
df
d4
6a
0
61
d6
24
5f
b7
b7
6a
21
41
6c
6d
67
6e
49
54
6c
69
e6
4c
27
53
69
6a
db
53
6f
31
66
4e
5d
b2
5d
b6
6d
e4
d2
43
36
e5
b7
e5
6b
3f
b0
4a
e8
bb
db
40
64
db
6f
62
6c
57
68
54
db
de
c4
6e
6b
d7
d2
65
e4
4f
eb
53
e5
5b
ea
e7
d9
e4
8d
61
df
cf
6d
81
65
80
c7
d4
ed
67
ed
ec
9d
e9
6b
c8
65
ed
e0
e4
63
c3
ec
6a
b1
61
27
e7
44
45
66
6c
66
ea
6d
d7
ef
69
ef
60
5e
58
2b
6f
ce
60
62
df
dc
e7
6b
c2
5e
6b
a7
6e
e9
65
69
e7
67
55
ea
0
59
66
dd
6b
4e
d3
e1
b0
44
5f
db
ea
6c
6b
e3
d2
67
67
64
ed
a0
9f
6a
6b
e3
37
eb
eb
a4
e1
33
62
c6
eb
cf
be
60
eb
eb
5b
85
ea
e6
de
68
64
69
e0
99
de
65
4f
f0
d6
eb
dd
6d
e0
2a
6d
ed
59
cf
e7
8c
de
65
bd
67
e7
69
6a
ed
e9
81
c9
6c
37
ed
5e
71
e8
54
4e
5f
e3
e4
68
c7
68
48
3f
62
ce
69
b6
b8
dc
66
67
cd
70
58
ed
38
ee
59
65
e9
4e
e7
cc
18
6c
df
c4
55
d6
eb
d3
5b
e7
ea
5f
3d
69
c9
4d
66
c1
6b
54
55
59
55
f2
66
e1
4c
0
3e
56
5f
c8
64
c3
70
68
69
ee
6f
60
6e
55
6c
b6
26
ce
46
5b
54
41
e0
e7
58
e8
71
e7
42
be
cf
c9
6d
5d
e5
80
64
64
67
70
69
6d
c7
c0
ed
67
68
d8
85
69
62
e8
e9
d0
e4
61
61
53
e1
ed
33
ed
d9
d6
57
66
6b
e1
57
71
6e
52
cd
4f
e7
ec
cf
dc
8d
e4
e6
f1
d3
e0
a5
46
6c
a1
3b
59
57
de
5c
38
d9
b6
de
61
5f
53
6e
e2
e9
ea
69
80
d4
6a
69
b3
65
73
6a
58
6e
e5
e6
6a
da
c1
27
56
59
51
6b
e9
a9
d2
25
b0
e2
e8
c3
3f
ba
69
37
da
c8
d3
bd
4f
72
69
6c
e4
4c
ed
5d
cf
68
24
6b
dd
d0
e4
dc
e8
68
3f
2c
65
68
0
6b
bd
69
f3
f1
de
e7
6a
de
70
61
eb
25
36
c6
ec
6b
a5
de
62
a5
c1
3d
69
ec
d3
b5
4c
e2
cb
2e
68
72
6f
cf
69
c8
6b
57
53
d4
6b
6a
60
bf
c9
35
ee
6b
5b
6c
6f
db
34
58
5e
d6
65
44
6a
d1
62
cb
6e
e2
19
58
d5
5c
e9
6c
e2
ec
b5
3b
58
4e
f1
43
ec
58
60
ec
e3
ec
d6
b3
6c
69
63
6a
5b
65
6c
6c
68
63
e3
ed
72
6a
ef
ea
80
65
ee
1b
6e
be
9
e9
e2
e5
df
e9
14
df
5a
3b
64
5a
e9
6c
6e
ee
e8
34
df
6a
dc
60
e9
df
6f
6b
ec
5c
56
ed
e6
62
80
ce
83
ec
4c
6d
e8
c7
4e
63
6b
e5
60
70
d2
5e
ed
d3
6e
6e
6d
e6
4f
ea
c0
6d
67
75
d4
62
66
68
db
60
58
e7
e8
e5
67
70
e3
ea
d4
4e
ed
6e
ed
5d
e0
d5
6b
b7
ed
dc
3d
da
dd
d8
4a
5f
59
e1
d7
64
4e
70
c2
6b
46
dc
c1
6f
d3
f2
51
ed
5d
32
ed
48
6b
e7
d1
e1
e7
57
31
e6
f0
66
ca
71
ce
3b
67
b8
da
ee
9d
70
eb
64
6b
68
d3
d8
63
66
5d
c3
de
c9
e1
53
5f
c0
46
69
d6
31
69
6c
43
f3
60
6a
eb
37
d6
5b
e8
56
66
30
47
6a
60
66
56
ba
2e
e5
6e
e6
4d
58
6e
80
d2
ac
69
ed
ed
d0
e0
6a
da
6c
d1
b5
5d
dd
81
e1
ea
d2
57
67
70
6e
6d
69
6e
33
e1
e5
cc
73
6d
e0
2c
58
e4
6b
5a
d3
61
6f
6d
6f
6a
44
40
e2
6c
ed
cc
6f
60
6e
33
41
6e
6c
e2
5f
4b
dd
af
6f
55
51
4e
3a
59
62
6f
6d
de
bb
6b
eb
5f
d3
b5
29
62
54
ba
6b
c2
68
65
40
e7
34
e3
d2
d5
ba
50
62
61
6a
e6
e9
e6
e7
e9
50
e6
57
ef
4f
63
e9
21
62
ed
e3
ba
67
57
b5
e8
71
c2
dd
70
4c
ea
66
da
4d
e5
60
51
51
e0
53
ef
63
d6
4e
ed
58
c9
6e
dc
ef
6c
db
45
c4
ed
6a
64
b1
70
65
e7
2c
0
56
e7
62
2e
5e
c8
2b
e3
68
d2
ed
5c
b4
e2
a9
5d
6b
ac
5a
6e
eb
60
d5
ee
eb
e6
e5
66
bc
49
4e
6b
39
62
e2
6a
55
80
d5
e6
e6
6a
65
70
6d
bc
dc
f2
6d
e7
b3
dc
53
60
6c
6c
3f
69
cc
4e
e0
4e
e6
cd
bc
da
e0
60
cf
6c
e9
c7
80
ed
b7
5c
6b
6c
48
5c
e0
61
48
58
6c
cb
6d
e3
3e
e7
6c
56
6c
e8
56
cf
6d
eb
ec
62
50
b9
92
62
da
e8
76
dd
6d
ac
38
de
66
e7
6b
63
c1
eb
b8
4c
3f
dd
cd
c2
6e
55
66
69
65
69
48
4c
db
65
db
aa
6e
48
71
4e
ea
cc
bf
ee
e8
db
e2
bf
e5
5f
5b
e4
68
ce
64
a7
d2
ea
ed
5f
1f
e9
e6
ee
64
c6
d6
c4
dd
6a
5b
6b
38
5c
68
40
e7
d5
6e
e4
6a
d4
eb
57
5d
b9
67
28
8
d4
49
ad
5c
d7
88
36
6c
e9
ed
4c
b6
ac
44
54
66
62
57
57
ec
5e
59
62
55
d9
ea
ee
5e
d4
5e
5f
9f
5c
c7
68
59
ea
6e
45
4d
64
6c
e8
a8
42
eb
d3
6b
eb
5d
8a
5b
6d
df
bc
44
e8
e6
d8
44
db
d8
5f
ea
5e
e2
66
43
e9
43
d2
e6
db
5d
54
d6
c3
69
e6
52
a5
67
57
5c
61
e4
2d
ec
ed
ae
eb
e2
ed
68
ed
5a
e6
d9
20
e4
e1
50
d0
5f
64
cb
43
d8
69
49
dc
eb
b2
ad
c8
67
6c
9f
5d
cf
67
67
e4
db
44
64
58
46
40
c7
ea
54
e9
db
d9
c9
3c
d4
ee
60
cf
d6
16
6c
ec
d8
eb
5f
e1
29
69
41
5a
dc
67
de
eb
81
34
4e
b6
e2
c4
26
6b
ea
67
6e
50
dc
50
c1
5e
e4
eb
c4
c5
e6
45
63
5d
e9
45
ea
e9
ce
69
c8
5a
e0
c2
6b
dc
e9
42
d4
b7
e9
e5
6b
ba
3e
48
3d
64
6d
ee
6b
39
ea
69
e4
60
d7
e2
64
ed
68
d2
d2
6b
bb
65
52
e9
eb
e2
25
60
e5
d9
ea
5d
ee
ee
5a
5a
e0
3e
ed
ef
64
6d
c6
6e
6e
66
e0
63
0
eb
a4
6f
cb
a6
68
56
a6
ed
65
69
65
d9
c2
e9
dc
ec
62
70
ec
6d
ee
bc
61
c2
6b
4f
ec
6a
e4
66
81
e6
ee
d9
94
58
df
61
ed
e7
63
5d
ce
ea
e7
d2
1e
2c
ae
64
66
61
cd
ed
ca
e9
69
6f
14
e9
29
3d
63
31
d9
60
64
be
52
de
3e
5f
a2
60
6b
df
46
6a
6a
e1
e0
b8
e8
ee
63
e9
6b
65
70
6f
48
da
c7
59
67
80
dc
3b
d6
e1
d4
c7
67
45
e8
69
d9
e3
3f
4a
e0
eb
5e
eb
12
69
e7
69
4e
6a
e1
45
52
49
e5
eb
54
dc
eb
d3
6e
cf
67
d3
4d
bf
df
f0
d5
ec
ea
e5
ee
6d
68
a1
82
5e
2a
df
63
bf
d8
4f
e5
cc
5a
6c
a8
6e
dc
be
5f
6b
65
e8
66
6c
ec
54
68
34
16
e3
3f
68
55
67
67
48
eb
d4
da
69
57
e1
64
63
6e
5d
43
54
63
e2
d2
c8
60
ec
5a
e8
51
e2
e7
6b
c7
ec
e5
e6
62
e1
69
61
52
68
e5
ed
e5
6b
ec
d6
56
5d
f0
55
ad
ea
3d
df
44
38
5b
76
ee
60
d8
6c
72
73
d9
58
e4
5b
d3
75
6e
59
c3
63
d1
e7
e1
ee
cd
40
47
d5
69
6f
54
61
56
ba
72
c4
6a
e2
9
6a
56
42
b7
c8
20
de
68
db
ef
e8
73
37
c7
f0
d5
55
73
4d
e0
69
44
e2
68
15
ec
59
64
52
ee
5a
66
b1
6d
71
eb
64
25
5f
d9
62
59
c1
e5
6d
f0
55
75
e7
d7
6e
da
bb
c4
0
6e
4d
d6
72
6e
6f
72
c3
6e
6e
b9
50
34
ea
b0
e4
6e
6e
52
65
61
55
e2
5f
eb
d0
bd
61
6d
c0
cb
55
60
eb
65
5d
d6
68
ed
ed
65
6e
c4
e7
6c
e3
eb
42
e9
69
50
43
4b
7b
73
eb
56
76
ef
d5
db
e2
9e
46
4a
29
cc
e1
c3
98
e4
18
62
7b
b5
80
dc
de
45
cf
f0
76
5a
cf
dd
d1
ed
dd
5f
6d
67
3c
59
e4
6b
ed
d9
dd
ca
d0
6c
ef
e3
6c
ed
b2
44
d7
61
64
6b
ee
61
5e
5f
6f
e4
e6
b5
6a
64
64
5c
4f
59
e5
e2
ec
6a
56
f1
6a
d7
e4
d3
57
d9
67
ea
e8
3b
6b
b4
ef
70
64
db
4c
5a
e8
d4
ec
d3
ea
ed
37
df
da
61
cc
1e
f3
5b
5c
e6
5e
6c
2f
ec
ec
b2
53
74
60
f4
5f
d9
6f
d7
70
81
45
72
cf
a9
e8
e4
1c
e9
65
ce
40
64
60
b3
cf
69
56
5f
68
c5
6e
cf
5f
f0
dc
6d
d5
9d
56
d1
eb
6f
6e
61
ee
40
db
48
ed
6c
81
c2
2
d0
f3
ea
3d
e8
dc
e4
ed
24
58
db
d1
54
64
de
6b
6f
69
e6
e4
d4
61
4a
bc
73
5f
6b
e7
33
51
cd
eb
e3
42
67
6e
eb
78
df
bd
c4
d7
de
77
53
6c
2f
c4
eb
65
d8
6a
5b
66
e1
b0
e2
de
64
4a
38
ef
b4
f5
6a
4a
d8
5a
5a
df
e0
f4
49
6e
5d
dd
a7
e0
60
51
ee
e2
e2
d4
54
46
a6
ed
df
f0
67
e6
de
c8
6c
ca
e1
c5
e7
70
76
54
ea
45
6a
dc
6d
ed
5a
f9
f1
70
b8
71
0
62
6e
ee
df
6b
ec
c3
eb
c2
dc
6b
32
e9
cb
dd
cf
5a
da
5f
35
6f
dc
35
3e
49
dd
5d
a8
68
f6
6a
65
61
61
ce
5a
cb
75
e1
72
d8
ee
72
ee
5d
d2
b0
54
d6
c9
d3
dc
e7
d9
6a
e4
53
cc
53
f7
df
7a
dc
5b
5d
fc
cb
c8
b4
d5
e9
67
4f
df
e7
53
d7
c7
69
63
6d
73
d8
b0
58
64
55
e1
ef
69
d2
65
ea
52
1b
e2
d5
d8
e4
e4
ea
cc
32
e9
ec
e4
e6
e6
65
de
71
1f
61
60
ec
2f
d8
6d
6b
61
ed
5e
a7
62
69
b8
59
5e
67
d0
6d
c8
d4
67
48
49
e6
66
e2
5e
e4
52
56
4f
e1
d8
6d
db
e2
67
d2
67
2f
ed
e9
ec
dd
e0
e1
6d
41
4e
e9
e4
cf
ca
df
ca
61
e2
cf
3c
69
71
d7
db
71
71
67
60
65
d5
ec
61
e6
e7
e3
6e
6a
59
66
e8
5c
55
d8
f0
43
61
ea
0
ec
9f
61
ec
63
60
60
df
f0
dc
be
e9
e0
60
66
c8
51
e3
2a
e0
df
e3
70
ab
ef
68
5f
64
e3
6c
ef
6a
2c
5f
54
63
58
55
3
c8
4c
dd
d8
48
59
e1
63
55
60
cf
ef
f1
af
d6
ea
e4
dd
55
5c
43
d3
6a
d4
e7
65
4c
4e
eb
5f
eb
6b
6b
6a
bc
6d
66
dd
64
6e
48
6c
d3
5d
e1
ed
3a
d9
e1
4c
57
71
db
cf
e5
55
73
66
6a
e2
de
f0
ed
b3
ee
6d
5a
ef
62
62
67
6d
ea
5c
80
ec
b4
df
d8
d0
b4
d8
66
d3
cf
dc
2f
e
e5
80
46
43
ea
2e
66
61
c6
e7
80
60
5b
53
cd
ec
e7
cc
d4
56
eb
eb
c6
61
60
df
49
6b
dd
dc
62
ba
c2
66
e3
6e
e3
56
ea
dc
c0
5c
4d
5d
e1
6c
43
58
30
6c
61
69
9c
dd
6b
6a
c5
ea
ec
ed
ea
d7
e4
ea
5e
5e
d0
cf
49
c9
d6
e4
d8
cc
67
51
ed
52
6f
23
6b
57
3e
6c
5a
6a
63
d0
e4
6e
52
6c
74
e9
e2
65
de
69
d1
6a
e4
ea
e1
d3
59
55
df
a1
e1
60
0
5f
5b
49
ee
ed
ec
6e
64
ec
43
c0
e7
ea
4a
4e
dc
61
71
cd
ee
69
45
5b
e6
54
46
70
6f
56
65
d6
d8
d9
6d
92
e7
e7
e3
e4
dc
b7
d3
70
6d
4d
38
d4
37
e6
60
5d
d9
ee
6c
6d
c8
6a
c2
61
70
37
df
53
e9
f2
c2
ed
47
bc
e7
e4
54
e7
69
54
50
65
db
6a
1e
e5
3b
65
e9
58
e7
6c
e7
5a
ed
e8
f1
41
64
60
54
5a
e6
b2
6c
ca
ed
71
49
f0
ec
a2
d8
c3
32
f0
54
3f
5b
60
70
41
5f
63
39
e7
6e
b6
d5
ec
df
ce
6e
e6
49
67
d2
80
d6
cf
ce
6e
8b
63
70
d7
6c
71
cc
66
e9
cf
53
c8
ea
ef
58
e0
5d
d6
75
75
59
62
95
bc
43
ed
e0
e5
c7
e8
ec
73
ed
e7
ea
d9
d1
e8
6c
56
6c
ec
6c
d0
6b
55
33
df
69
64
52
ed
70
b9
e5
36
e1
61
6a
55
6b
d8
5c
5c
24
b7
e7
dc
f0
ee
9d
55
da
e8
90
e3
6e
df
71
64
ce
ef
e3
87
67
cd
58
68
e9
db
e0
8a
51
db
71
4b
5e
5b
6e
ca
40
6b
70
ed
4b
67
6e
5e
6b
db
52
53
e8
5e
60
d5
6b
63
ce
ec
e6
55
60
da
ce
ee
df
52
6e
56
dc
36
f6
ec
69
65
6a
f2
6b
ee
56
71
e3
f2
60
61
80
e5
ab
59
79
71
2c
e6
eb
eb
c1
5d
5c
59
56
f3
70
6f
5a
34
74
4e
ed
5b
5f
e5
5c
40
0
6e
de
53
de
b7
75
e7
cb
7c
69
63
d8
31
eb
ed
ec
74
51
c6
62
4e
eb
e9
53
36
6d
f0
4c
ea
e4
ea
3a
67
2d
66
67
68
54
70
f
68
e9
69
c5
cd
de
5c
6c
6f
64
d7
d7
e3
93
57
75
52
dc
6c
f5
58
4d
f5
bb
5b
f1
e7
6f
67
64
6b
57
4f
e5
59
c8
6c
5e
e9
66
65
ca
6c
eb
df
cd
f4
43
57
d5
d5
e5
ec
8f
d9
bc
bd
6c
51
3
cb
dc
eb
d9
6a
38
1d
69
57
52
9f
e7
e5
65
63
5f
dd
e6
5c
5b
6d
cc
68
b4
5a
eb
59
65
5a
ec
e0
e5
ce
e2
e0
e6
47
5d
3f
64
e7
e5
6c
67
cf
bd
d0
f0
3d
57
db
eb
34
e1
68
eb
38
6e
67
49
6a
5b
d6
61
dd
26
6f
4e
3a
de
5f
6a
4a
72
6f
e9
67
6c
e9
57
6f
51
df
67
e7
c1
e1
e4
d5
4b
9b
6e
e8
1c
db
80
da
55
3b
e1
c6
66
45
51
5b
4b
6c
58
e8
47
63
d5
b8
57
6c
68
e9
41
e9
c6
64
66
75
28
80
39
f0
60
ea
a7
bf
63
e0
56
6d
34
df
d0
aa
65
cf
72
d7
5d
67
be
70
47
d3
cd
4a
53
e9
cb
6b
e0
65
d3
8d
ed
e7
67
66
5d
64
b7
d5
51
59
c8
64
da
5e
65
e1
67
e0
d4
d5
e9
69
ca
e9
eb
ea
62
58
ed
c7
eb
e1
d4
63
e7
38
db
70
5f
d8
64
57
47
57
6c
80
6c
de
e9
5f
4d
6b
db
5c
ab
ee
ee
6f
68
70
e9
6d
5c
65
73
da
93
ed
d2
c1
c8
e7
5a
4e
39
5f
5a
6b
eb
db
79
eb
5f
5b
20
6e
de
65
f0
ba
e7
37
d1
db
4a
d9
ed
55
56
cb
be
57
77
69
ce
e7
44
4b
51
67
d7
3e
69
60
de
66
ee
6c
bd
6b
62
6b
51
53
4c
e5
d4
dc
ae
b0
e1
e7
ed
eb
5a
e5
4e
39
6b
f1
6a
52
ed
dd
c6
5a
70
e7
ca
6d
5f
dd
52
5e
6d
ca
e6
6a
59
e9
5d
61
e4
6e
6f
6a
3c
73
ea
50
6a
52
79
d3
66
e5
74
3b
f0
3b
73
6b
60
63
6e
6b
e8
ed
71
5b
d2
e3
d8
cb
75
71
e3
ee
da
6c
5f
63
68
d6
df
47
47
6c
ee
66
e3
ea
d7
6c
6e
6b
d9
5f
c9
d6
67
56
e4
5b
dc
68
ea
f3
69
66
50
3f
65
80
69
61
5f
59
5e
f1
49
7b
40
d7
58
6d
d6
45
d4
ef
cc
e8
58
eb
dc
e2
54
6a
db
45
ef
76
4f
61
c4
4e
bd
d9
e5
52
cc
e9
eb
22
57
cf
6c
60
dd
f0
34
e5
6c
4a
17
72
53
2d
5a
a2
57
47
bb
ee
6a
a2
ce
d7
2f
59
3c
6b
2e
61
62
dc
41
d5
6f
67
55
e3
36
d4
68
f0
65
da
5a
cf
df
5f
e7
41
de
e3
e8
48
b0
e0
e1
6a
71
e4
73
53
e6
6d
27
e9
6d
eb
3a
e7
d7
e6
0
e8
41
c5
59
6e
6a
c6
4f
68
e0
58
e8
d4
e7
e7
54
41
61
59
6c
e8
61
69
68
5e
3d
e7
ed
1a
6b
55
92
bd
47
d5
c1
69
d4
39
6c
eb
64
61
50
d7
ea
51
7
4e
ea
de
54
2f
56
c1
ce
53
bd
ec
e3
cf
6e
49
64
e0
d4
e2
dd
e8
67
d0
e0
d4
e8
dd
5b
6a
80
e
e7
81
65
de
eb
ed
5d
eb
d8
d8
e7
69
ce
b4
69
bc
d3
65
df
dd
e5
51
5b
ac
24
47
6b
6b
68
39
ce
e6
59
63
43
de
51
5d
6c
e5
61
4c
59
68
e3
ee
d2
d0
66
d9
bb
e5
e4
5f
29
ea
69
df
5d
aa
d5
da
5a
e9
c8
e5
55
6a
5c
b5
d5
4d
66
e8
ed
d9
e3
81
6c
c7
6e
44
80
ed
e6
ec
d2
e1
e0
dd
a9
65
de
c5
e6
50
6a
63
a7
3b
69
6a
ea
d6
5d
6c
0
e1
59
e8
56
da
42
be
e4
e3
68
5d
e8
e6
8c
2d
5b
e9
6d
e4
54
e9
60
48
66
ea
d9
ec
66
e3
d8
66
5d
af
b3
d9
61
e0
5a
ed
d8
d6
e7
ee
33
5d
e6
ad
61
2d
6b
68
c1
e7
e0
58
15
ed
6b
e2
4e
cc
6d
56
e0
59
6c
69
52
5c
66
65
e6
5a
d0
c4
23
62
43
5f
d3
43
56
38
49
ec
d3
53
60
e1
ee
64
4b
eb
39
df
de
ee
6d
be
5b
60
6c
ee
e2
5b
ed
6a
df
ec
4c
d5
e5
10
68
54
60
5e
5e
ef
5a
65
d2
6a
d5
ca
70
5f
cb
1d
1b
ea
25
59
e6
e8
66
e5
69
b9
5b
50
ea
64
5d
68
e3
6a
66
6b
e4
b1
76
de
cb
6c
5a
47
56
df
6a
e6
e6
dc
69
e2
df
d7
de
32
5d
70
e9
54
6d
6f
61
69
e0
5a
dd
e1
34
32
61
e4
e9
67
65
65
37
63
f1
4f
41
4c
c8
62
d6
3a
f4
c4
5e
c7
cd
65
ec
45
69
6a
64
50
e1
d3
4d
e8
1a
56
58
70
cd
5f
6c
56
e1
d0
b1
55
81
6e
d7
d8
ee
60
e7
64
ca
6c
70
62
29
71
db
45
e8
98
51
e7
60
db
2a
eb
65
f2
51
6b
ea
45
e3
37
21
4a
e4
5b
e9
6d
66
69
e9
42
f0
aa
bd
6a
27
d2
ea
6a
63
69
d6
4f
ec
6f
c8
e1
38
ed
6c
6d
db
15
e7
e1
5b
de
6a
db
6b
5d
68
6b
62
cf
71
ab
d9
73
cc
e9
e3
e0
51
e5
73
d9
ef
e9
d7
8d
1f
42
6a
e2
64
e9
64
6d
e9
96
e0
18
e4
d4
f3
62
6a
62
61
73
6a
d5
13
eb
50
e4
e9
56
67
e2
b6
db
71
ed
ed
50
cf
d0
5d
61
14
6d
f0
68
52
59
cb
69
e0
ea
db
d8
70
cc
ec
59
6d
6d
6d
21
47
19
e3
c1
b2
6d
71
64
71
8b
61
e8
62
4d
3e
70
c0
e3
5d
61
eb
a6
6d
45
de
b3
ce
5c
55
61
da
68
5f
65
6b
dc
3b
42
90
72
ee
ed
d8
79
4d
e9
e6
40
68
72
80
63
c0
d1
ed
d9
67
c3
1f
e1
6d
e2
6c
eb
9
f3
77
dd
5d
e4
55
e1
8
c6
6e
db
fb
71
c4
bb
64
32
e6
68
ee
4f
df
6d
a6
dc
e4
eb
ca
bf
8e
6c
6a
fb
27
d8
27
65
72
e8
5f
e3
60
96
cc
6c
d3
ca
40
64
cf
d6
d6
62
4e
e1
ec
ab
74
6d
2e
5b
f1
53
2d
e9
6e
71
52
ca
4a
58
e9
6c
6c
5d
6f
4c
63
e6
3b
cf
ec
e4
e1
67
63
c7
9c
d5
2e
68
61
4e
52
b9
4b
67
9f
60
cb
e8
5a
50
cf
e5
65
74
eb
d1
69
d9
f2
6d
d5
64
69
61
70
78
ef
60
53
e3
67
ad
69
2b
37
6c
6a
73
62
74
c0
e9
d0
c0
dc
8e
56
55
59
60
d5
81
e3
e8
df
bc
42
d6
c0
5c
70
92
41
0
dd
67
67
e2
eb
c6
4e
5f
62
ed
e6
e7
62
cf
cb
52
5f
6e
96
4d
80
67
27
5f
d9
ab
41
65
4c
c7
ed
da
df
48
e1
d8
c8
67
67
d8
e9
42
71
bb
4a
e7
3e
5e
6d
e9
ef
c5
e2
ee
d9
c6
59
5c
7
62
e3
4f
4f
64
35
6a
e9
6e
65
62
52
e9
dd
6d
61
e1
68
e9
d8
c1
5d
da
6c
4f
68
eb
e8
c5
54
e
ee
5e
cd
eb
65
69
61
69
d2
6a
64
58
d1
da
6d
0
4e
d7
68
60
e5
5f
5a
cb
d2
ee
e9
c3
d4
6c
e3
67
62
53
ef
ed
d2
64
6b
67
e0
e7
3c
5e
63
e8
eb
8f
dd
e4
ef
c2
5a
e9
b0
dd
d8
db
c8
5c
6a
61
6d
3c
69
52
67
e4
5b
9b
69
68
5a
6f
53
72
55
df
6a
bd
e3
38
4e
32
67
c4
6c
64
5a
60
dc
6c
8c
ea
43
b3
6b
6a
dd
50
e2
d9
a6
df
e3
48
ad
55
48
c0
67
4e
db
e6
eb
35
ee
e5
d5
60
d7
dd
5e
e6
e7
6f
6b
3d
ef
40
6e
5e
69
5f
5c
cd
5
5a
e5
f0
d5
ab
60
57
3f
de
d0
5a
e1
ea
c8
6b
d3
6b
e7
ee
e8
57
d9
d5
e0
2c
63
54
e8
70
60
5c
6b
2d
f0
6d
c5
d6
e4
ee
d3
eb
93
67
6c
68
60
69
4c
2e
57
28
d1
4e
dc
d2
67
e5
dd
e3
51
e1
54
d6
e6
4d
ed
c5
e9
6a
50
63
6f
5e
d4
53
ae
71
6e
f0
e1
59
46
ee
dd
5e
40
cb
57
63
ec
66
e1
c8
6f
cd
bc
71
e4
5d
32
c9
64
5b
55
1b
d6
22
60
64
ef
e4
64
e5
6f
ed
66
bf
ee
f0
5b
6b
eb
4a
58
3c
ed
64
a8
ee
67
e4
69
b1
21
5f
ed
e3
e2
b2
da
69
41
5b
aa
63
ed
e8
68
cf
ea
65
6b
b8
5c
64
c4
91
d0
de
57
35
44
5f
31
69
de
6a
e7
6c
ec
dd
69
4e
59
66
e1
60
70
ed
6d
23
e1
e9
ec
77
6d
5a
62
43
e1
45
ea
69
ea
64
69
57
e4
61
6d
63
5e
df
e2
d1
d0
68
53
51
d9
e6
6a
2b
48
e7
45
2b
d0
e5
6f
73
bc
46
66
49
59
6d
5f
5c
d2
e5
92
4b
5b
6d
46
de
34
e6
6c
71
68
d6
df
41
6b
b6
eb
66
6a
bc
ed
81
51
69
6a
d0
ed
30
e1
ec
e1
db
e5
62
e5
5a
b4
97
5e
d9
df
da
36
ea
6c
eb
4a
65
20
e4
27
c2
60
dc
5f
41
e1
6a
23
e6
5e
cd
e6
67
60
44
dc
ab
e9
69
6c
65
6b
dc
5f
e3
e6
ea
55
41
d8
44
6a
6e
ec
58
d5
de
d8
d8
dd
5a
67
ec
dc
6a
4e
5
e2
dd
e5
c7
d0
69
6b
df
c3
5d
db
6c
69
59
d1
e9
db
ea
64
35
5f
36
d9
e6
ed
3b
57
eb
48
ab
d6
68
e5
5b
bd
b2
57
6b
ce
d5
73
30
46
e3
ed
e0
e7
44
59
d9
ea
e0
5e
ea
bc
6f
df
ea
65
56
e4
64
e2
ea
ec
64
80
dc
97
5e
db
63
d6
ca
6b
e7
e1
5b
c1
63
df
6d
5f
66
30
ec
8c
67
b6
64
6e
dc
eb
ea
c4
51
64
d7
5e
6a
64
a5
ce
e4
67
80
5a
eb
af
d6
a9
f0
b4
d7
68
d6
e1
eb
d4
6c
3a
4f
ec
ed
e5
5a
e9
e4
e0
dd
5f
50
e8
5c
46
c1
df
55
4f
67
4e
50
28
e8
65
39
68
e9
c2
c3
6c
57
dc
e6
b8
62
dc
60
2a
cf
69
32
4e
63
d0
4c
71
d3
dc
64
dd
c3
66
43
58
40
6d
e6
57
6c
dd
6b
59
b5
ee
63
66
e1
61
5e
3f
62
de
e9
64
d4
6c
db
c5
5b
d2
67
d8
56
e9
80
3f
6a
d5
67
e5
d2
e7
d5
dc
eb
e6
ec
6f
53
e4
cd
3b
43
e7
36
e9
e0
31
e9
d0
de
70
e2
67
5a
e4
43
e2
eb
dc
62
42
61
c0
8d
4f
e4
6e
b1
dd
ed
55
e6
29
d9
d9
c5
3f
6a
ea
63
59
ec
d1
e3
6d
e9
e3
c
6b
5c
ec
d9
99
63
6c
c7
e4
eb
f0
b1
70
d7
6e
65
71
6b
70
e3
6c
d7
5c
9e
65
68
a5
cc
34
66
69
ea
e0
ee
d7
d2
ea
ca
e7
5e
ee
64
f0
66
e0
65
de
6d
68
e7
63
57
51
61
2e
3c
b7
6b
24
6b
5a
5f
e5
4e
61
ea
57
52
54
0
bc
4c
4b
73
e7
df
6c
74
ab
5d
de
60
e3
4a
44
35
6d
56
e8
4d
6a
c0
df
59
b5
69
53
c7
b6
ea
9d
41
b9
54
5d
30
5e
b8
4a
63
db
e2
cf
ef
43
64
ea
58
6d
95
74
e9
dd
e3
e4
d4
dc
c8
e2
e5
33
df
69
b7
6a
bc
4b
ea
6c
d5
b2
3e
5e
ee
6a
cd
67
5c
e8
c9
80
db
80
52
4f
e6
f0
d6
e8
63
51
db
61
33
36
f0
d7
32
71
dc
d9
6e
58
f4
6e
ec
e7
c9
51
ec
d4
70
55
67
ee
ca
5e
60
65
eb
6d
d5
e9
e5
ea
6b
6d
e0
d6
33
6d
6c
e4
5b
d8
9e
6d
0
aa
53
53
6d
54
d3
e9
cf
62
58
59
cf
e8
e6
57
eb
d9
eb
ec
e6
6e
6c
ec
bb
e3
d1
69
c3
d1
ba
53
d8
69
2d
4f
c5
69
70
64
21
c2
71
ac
e1
6e
6e
62
ec
d5
d9
de
d5
49
65
25
d9
69
2f
cf
6b
d7
be
40
6b
39
5f
80
61
82
5b
8
65
c1
e8
5b
5c
58
5b
6d
52
61
6a
6b
e3
da
ec
67
dc
4a
3f
6d
ee
b2
0
6b
d7
cb
45
d7
80
ef
6f
49
e9
eb
d5
db
e7
ba
5f
dc
e3
61
6e
b8
d6
69
e2
d0
48
66
56
d1
6f
60
ca
c6
6b
68
e7
db
cd
62
70
e4
2f
69
58
6c
ea
dc
a7
ed
db
69
c3
e8
67
2c
b3
dc
df
de
de
d0
eb
43
d6
5e
d6
69
71
50
6f
67
e4
52
e3
ec
af
eb
ef
dc
df
e8
62
5e
6a
4c
52
cf
30
70
92
e7
40
51
ec
e6
6c
60
81
6b
5f
ba
5f
67
4e
e2
c0
9
66
6f
60
58
2f
de
68
e0
34
ea
5f
23
71
38
d9
dc
c9
59
de
4c
71
41
6e
de
d7
eb
d7
ea
be
53
ed
ea
d6
ec
e7
d9
df
ea
6a
ab
6a
66
b1
3d
4a
dc
e1
52
6a
22
5b
4e
59
ec
35
6d
57
ee
c8
e5
5e
d9
2a
d8
93
67
5f
55
e5
e4
58
67
e8
63
1a
4f
58
ee
d7
48
d5
51
ee
eb
4b
2b
38
6b
3c
49
60
51
d8
61
e4
dc
e9
de
be
6a
4b
5a
68
d2
e9
e3
c0
5c
cb
5a
ec
ec
af
dd
d5
c7
62
65
ec
59
eb
e5
56
e0
cf
56
ee
d4
e6
dd
e2
de
e0
d8
de
ed
6a
5b
60
d9
69
c2
5c
eb
e1
e8
bd
63
e8
e0
e9
d3
41
d8
48
da
c5
6b
43
46
d3
e7
e2
63
dd
e6
e7
e6
92
66
e9
e8
e8
59
ec
49
c8
34
ec
69
61
80
d7
55
38
ec
2e
c8
db
ce
d1
e4
c8
52
e3
60
5f
b5
67
30
6c
6e
b0
63
68
5b
be
d6
ca
53
4e
39
d8
0
59
d1
d6
62
61
cc
b5
ee
c3
69
30
b6
d7
35
d3
ea
25
ea
a8
af
5d
e8
e9
d6
6b
6d
5d
dd
66
6c
63
c7
5f
e5
63
60
68
68
67
d7
b4
6e
d7
ea
2e
60
56
4e
e
a5
5a
6a
69
ca
1d
4d
57
4d
62
54
5e
51
ee
5f
d7
40
d6
d1
42
6b
6c
dd
68
5c
dc
d2
d3
59
4b
d2
65
53
6f
5b
eb
dc
e9
58
e9
65
49
c9
3f
bf
6a
6c
e5
9f
c4
68
e5
ee
45
e5
e0
5f
b3
0
6c
bb
6e
6d
6a
9
6b
ea
58
3b
6d
3e
e8
dc
43
5a
6f
32
44
13
67
45
e5
60
71
57
6e
ec
e9
b7
d7
dc
df
55
53
bb
4b
68
5b
6e
d2
da
b5
e5
67
6f
52
71
e7
5e
65
de
60
ea
dd
6a
69
6b
ad
b2
60
ee
e8
6c
61
66
6d
48
e8
e4
51
6e
43
6c
e3
56
60
8c
35
e6
e9
35
64
6b
69
c0
67
e6
ec
6e
b9
67
63
33
e9
db
d6
d7
ed
6c
e3
d9
6c
6a
eb
c7
6c
24
e1
e5
73
d8
54
4f
e6
21
69
ea
1d
6d
68
65
c4
67
da
df
4d
db
68
5d
72
57
d4
56
ed
bb
a1
e2
c8
e6
d3
66
f3
63
5a
a3
28
56
eb
e9
db
69
d5
f0
66
68
6a
66
63
e9
a2
66
4a
d8
60
e1
3f
62
d8
b3
6d
68
6f
4e
e6
e9
d4
e6
6d
6f
67
6d
71
6c
d1
5e
c6
e9
4f
6c
e0
6b
dd
4d
5b
61
ec
d1
c7
da
d1
57
dd
2e
e7
65
48
bf
69
43
59
d3
d3
46
3b
60
c1
6f
71
d8
cd
67
e6
85
5b
c8
d9
54
48
5e
67
6f
eb
56
36
63
57
d8
c4
5f
a0
ea
dc
62
2f
5e
67
68
d7
66
e1
dc
54
a3
e2
e5
62
e9
db
51
cb
5a
df
4d
e5
40
6d
51
60
dd
cc
63
e9
ed
e8
ce
e6
d3
f2
af
cf
65
cb
5d
5c
45
65
80
e6
da
53
15
e0
5f
49
e5
64
65
eb
71
c6
6c
de
40
eb
dc
d0
66
6e
ed
67
cb
cb
55
30
68
e9
6b
69
58
ee
b1
e9
d0
ec
6d
31
d0
81
63
90
60
e5
49
61
ea
eb
5f
6e
d8
59
e6
d3
d4
66
65
6a
60
96
62
43
55
d1
57
d4
4a
e0
30
6b
ed
5b
e1
4c
59
63
59
eb
4c
e8
e6
d2
57
5e
ed
6f
50
e8
6d
e8
6d
61
6c
ba
e8
70
cd
e4
ea
6a
e2
45
e1
43
e6
df
51
26
d3
ec
c8
e6
5e
67
e8
71
60
cf
63
e1
e4
c6
60
60
db
d9
d3
71
52
c0
e0
da
db
b7
d8
63
5f
e5
db
6c
ad
c5
65
48
c1
bf
65
c5
5b
70
13
6c
e6
d6
65
e9
6f
53
55
45
64
6d
c9
ed
61
d3
df
e4
ec
e4
55
55
62
9f
aa
ac
68
4e
6a
60
bf
eb
ec
57
5a
76
d5
29
de
65
58
df
57
60
57
c4
d7
9b
6d
eb
66
f2
e9
a0
e7
6a
d8
cf
ec
4c
e9
1d
ee
d1
ee
eb
e1
73
5f
6a
68
5f
6d
70
41
b9
5b
5a
54
e1
60
62
e3
51
b3
0
eb
62
60
6d
63
e5
66
dd
81
66
c
d3
6f
68
6a
72
5c
6b
6c
2d
d8
c7
3e
45
d5
6d
69
5b
92
3f
d8
62
71
44
55
6d
61
4e
5a
54
ca
e5
66
ea
d9
56
cb
5a
51
af
e2
68
67
de
b0
50
53
51
c0
cb
5f
dc
e3
63
73
ef
6a
6e
ba
d0
d0
d7
63
6e
e2
6e
d9
62
5e
e6
6b
62
aa
76
5a
e5
6f
bd
6b
37
6d
c8
ee
c8
65
cc
e7
ef
e9
71
ef
1e
71
eb
ea
62
dc
a9
4c
80
44
db
e1
e2
36
31
6a
eb
d8
6b
da
df
e5
c0
e8
22
66
68
6c
de
71
6e
58
54
da
c9
2b
e2
50
59
b3
e8
e5
ea
65
3e
50
e2
a4
4e
67
6a
56
58
e6
cb
da
47
64
d8
cf
55
b3
eb
ed
d6
e7
6c
a7
6c
dc
e7
85
5c
6d
e4
5b
4b
26
60
5f
cc
64
6c
ea
2f
2
5b
c8
c9
5c
db
71
a1
6f
62
aa
df
db
db
b8
ec
f1
e4
60
6b
4a
ea
e4
65
e3
63
32
cc
6b
6f
5e
72
cf
cd
3f
eb
e9
31
e3
5e
5a
ee
53
c8
d8
ee
db
e5
69
48
de
5b
f4
69
f3
63
b8
37
ea
6a
a1
72
73
3a
e9
ec
ea
b9
e3
ea
e0
e4
e9
e4
b
c5
4c
e9
e0
ec
67
5e
e9
c1
54
68
ea
6f
6b
57
cc
6f
66
45
3a
cf
69
4e
6e
69
c9
dd
6e
5c
60
69
51
56
5f
b5
ed
59
6f
d8
6d
d0
56
67
76
6a
67
cc
f0
67
ab
e9
da
e7
5f
65
5e
69
69
6a
d2
d2
66
55
e6
6c
67
2b
42
ee
d6
c8
46
51
3a
f0
c9
ee
e6
6e
5a
cf
ca
52
87
65
b9
33
3f
3a
ad
5
65
3e
e8
ef
60
5a
6e
e6
67
d5
52
d6
d7
72
5b
55
6f
5f
65
5d
4e
5d
6c
b5
43
64
68
e0
43
d6
f1
53
e5
bd
70
cb
70
6c
e7
ef
6a
ba
69
65
e2
72
df
56
46
df
5a
69
c2
6f
f2
38
f1
e0
61
50
c2
cf
3b
d1
e5
e3
66
ea
ca
5a
66
ee
c1
42
d0
e7
de
50
e9
55
e7
6f
a3
ce
72
da
e6
6f
5f
de
67
5e
ca
64
68
cd
63
c1
e8
61
69
4c
e1
68
49
cd
e2
ef
6f
8c
42
cc
bf
66
92
c8
35
49
e0
b3
68
c
61
e8
60
e7
bb
56
ea
67
d1
4e
eb
56
67
e3
e7
eb
dd
ea
3c
5e
5d
4c
d7
6b
72
62
6b
d0
e7
ed
59
d9
3b
5d
31
ee
de
63
4f
e9
63
3e
3c
65
5e
e5
e9
e0
56
eb
de
aa
ed
d4
4d
6d
69
6a
e8
80
ec
6c
ce
3f
5d
3f
53
36
68
d6
e8
eb
e0
e0
de
61
40
b0
d0
d8
22
43
5e
df
e3
56
ce
1
46
d4
64
6a
39
e1
d5
b7
39
55
59
59
d7
63
31
ed
61
e7
6c
e4
50
e6
6b
ef
54
71
55
68
63
4a
ea
40
e7
69
e2
b7
d4
30
c0
e5
e1
d5
d6
49
47
6b
2e
66
dc
ec
57
4e
17
c4
46
d8
e5
dc
68
db
54
57
70
66
68
58
d7
2b
60
6d
4e
47
57
e9
ea
ee
e7
eb
4a
d7
ed
80
e4
5d
43
cf
6b
ae
67
66
51
6f
ae
3f
d1
68
f
70
ef
69
db
e4
d9
d8
e7
48
d8
6d
5a
df
4f
b0
6e
d8
65
db
b8
27
6a
6c
64
ea
e6
61
6b
59
a
5c
ca
5c
f2
4c
65
5f
58
56
6c
de
f2
5e
d5
5f
65
80
d1
cf
df
6b
e5
63
ed
e4
e1
e5
4e
5a
69
4a
71
70
9e
e6
d4
dc
d6
37
62
e0
71
eb
53
6a
ee
ef
ea
6a
41
d0
d8
5a
eb
6b
6d
de
6e
6b
64
5c
70
c9
be
da
d4
e3
6b
ec
2f
d8
a2
ce
e2
97
ea
4d
63
80
ee
d8
e0
db
a2
39
70
38
e0
e2
eb
37
e1
ee
d9
cc
e9
db
50
6d
3f
32
6b
e3
6d
62
db
d5
e4
df
6d
e7
dc
d8
64
e0
72
a1
dd
63
c4
ec
71
dd
b1
e5
52
6d
6c
6f
72
e6
70
6b
c9
53
68
60
5c
2b
5c
b8
4a
51
e9
c8
5b
e9
d6
2e
bc
41
6b
ed
6f
4e
44
cc
5a
ea
eb
9e
6a
5d
cd
2c
cc
71
69
6d
49
ea
58
d5
3a
ec
e8
72
39
e1
57
e2
2a
63
40
ec
d0
d9
47
db
a4
ec
e9
4a
e8
c5
5e
50
6c
50
66
74
cf
6b
64
e1
1e
b5
6c
66
5d
63
6f
5d
6a
66
f0
e5
53
e7
46
66
6a
e1
67
e6
5d
a5
ab
d1
69
dd
6c
6a
e3
6c
e8
73
ee
ec
66
62
6d
6c
de
4c
34
67
65
d3
67
ee
3a
6c
e6
48
81
2c
d0
69
45
72
e1
5b
6d
d7
4f
98
b8
e9
de
5f
59
62
e3
6a
9b
ec
5f
6c
73
68
4c
94
c3
dd
62
6c
67
d5
e2
6e
ea
ec
e9
5f
66
58
c7
60
53
f
6c
ec
eb
59
4f
68
a
71
aa
65
cf
64
64
d9
1f
60
68
49
cb
65
ee
80
e8
47
d8
48
4b
64
61
ed
59
d8
dd
5f
57
4b
d1
66
5f
61
f0
6b
df
39
ee
4b
eb
63
0
58
66
69
ee
6d
70
db
e7
63
6d
66
4a
63
6d
62
36
6a
6b
4d
6e
ec
68
68
69
ef
d3
e6
6c
e8
ac
c4
6c
dc
5e
df
27
dc
e8
eb
64
df
d1
b9
44
46
60
19
41
d6
64
e6
5d
b7
8e
6a
51
62
68
d6
1e
e8
ee
d0
d6
6a
e7
c2
e9
2c
e2
f0
b5
e7
56
5b
56
2a
ee
e1
33
62
e4
ed
0
46
9c
be
da
e4
4d
e3
62
e5
4c
5d
32
58
55
65
e7
c4
6a
dc
5d
5a
69
ec
61
dd
bb
4b
51
ed
51
e2
cb
5f
e9
53
cc
4a
6f
e4
eb
6d
e7
67
37
c7
ed
6a
d8
52
e3
20
14
d0
c9
de
e1
6e
d5
a9
55
ea
ed
e2
43
4b
e7
e7
6d
ca
d1
ec
6d
74
6e
43
6b
68
34
e9
c7
ed
6c
69
d2
b1
5a
6b
5c
31
64
bd
6e
ee
df
6e
6c
45
c7
71
60
d8
ec
82
e5
d8
af
62
37
e3
6b
df
c7
9a
2c
58
e5
51
e4
e8
e1
4e
e4
d9
b1
65
49
52
e4
4e
ea
d1
e2
48
d3
22
6b
6c
68
52
e1
d7
99
65
54
66
e8
69
69
46
de
5a
ec
37
db
dc
e6
6c
4f
3c
67
6b
e0
d0
db
d9
6b
df
55
66
64
d0
ea
e7
e1
e3
6d
66
c2
9a
48
e6
61
4e
e2
e4
e2
eb
61
ea
e2
e3
ed
51
6e
69
72
ce
6c
6b
dd
ca
66
5b
eb
e8
63
62
4d
6d
d7
e4
b9
4b
54
d6
e2
3c
6c
60
57
e3
6a
c4
ec
e3
ec
b9
d7
66
4d
48
68
d4
5d
67
5f
eb
e2
d0
6e
c6
e1
6a
da
e4
52
d1
e9
c1
6c
6c
48
ee
e7
5a
52
49
5f
cd
ea
82
52
6f
6b
e8
5c
63
e8
35
ec
ec
6b
db
32
d3
e6
ae
c5
37
45
6d
67
ea
5e
73
d9
5f
d4
54
5e
e0
6c
6e
65
23
68
d4
e9
e4
63
68
48
5f
e5
e2
4e
2c
4e
3f
51
56
e7
64
70
e0
be
e5
6a
68
6d
5b
61
6a
6c
f0
46
d7
df
ce
e0
47
ee
63
71
9a
ed
54
4f
31
d2
51
d5
cb
d1
5d
58
a7
62
cc
b2
4d
6b
ed
5e
c7
cf
b7
e4
68
c8
d3
68
65
cb
e9
73
cc
bf
4d
e1
61
67
ec
41
d6
6e
ee
63
72
66
6b
eb
e8
f0
e4
6a
68
44
cf
cb
6c
ba
51
ed
e2
71
eb
dd
6c
1a
4d
c4
52
2f
52
6f
53
6a
66
63
69
d1
55
ee
dd
5e
bb
d4
ea
6a
58
5c
59
ce
e6
5b
e5
62
e1
55
60
ea
6a
ef
e8
e9
4e
60
63
e8
ea
5b
ee
6d
69
ef
ec
f1
69
e0
a5
5d
6d
ee
ee
65
ef
64
a3
d1
43
6a
cd
72
2f
cd
62
29
d5
e6
46
36
66
5d
0
1d
44
e6
44
61
3f
73
50
6e
58
6c
50
df
74
71
b5
e7
52
66
c0
c1
67
b8
ae
5c
46
df
69
61
6c
80
63
3b
cf
d0
77
d1
5d
98
59
ed
63
40
5c
b3
bd
5c
b6
5c
db
6c
ed
ba
66
e3
d3
55
63
c2
59
51
6d
e4
c7
ed
e4
eb
d8
ba
5d
a2
6d
6a
dc
e3
d0
e9
4a
b5
73
6e
59
59
2d
1f
67
e8
4b
ea
e5
5b
c7
d2
e3
eb
6b
ef
44
64
e2
e5
f0
bc
60
6c
e8
e5
40
d5
ee
e4
6c
63
5a
64
cf
40
ed
e7
4c
e4
5b
70
6a
2e
64
f4
e9
d9
cc
62
63
44
cb
d4
5f
c1
56
5f
e6
42
bd
69
64
ee
c1
54
db
2a
47
d1
48
e9
da
d7
6f
ab
ec
3e
cd
d9
6d
ef
22
6f
67
6a
63
64
d3
d6
6a
e2
27
eb
67
80
5b
6c
e3
64
df
cd
6d
6b
d7
ec
c1
f2
9e
63
46
4e
dd
36
5d
64
6b
57
e6
53
6c
65
66
6a
66
d8
e8
ed
3f
56
64
56
ef
e7
6b
51
eb
e3
67
c4
ac
4a
63
d3
bf
d2
39
d3
4b
65
6d
5d
e8
e0
58
6f
60
df
be
6d
48
5e
e4
e0
6d
d2
e7
66
6a
58
ee
dd
ea
d7
cd
a9
c5
b2
25
4a
68
35
be
5e
69
ee
60
2b
4c
55
6f
ed
3e
57
f0
5d
4b
d1
e5
63
e6
58
61
53
df
ee
d2
6f
d5
40
d5
55
e0
61
e8
6d
5d
c8
6d
6e
e9
60
d5
ab
d2
5f
36
4e
66
6b
b4
40
9d
ea
d7
60
6f
6c
6a
f2
cd
d3
d6
e1
dc
6d
9e
63
5c
f0
eb
46
4b
67
67
c6
49
eb
3c
ca
6d
5f
61
ad
b2
c5
48
6d
e6
ab
e7
e4
d4
6a
53
5a
5a
ee
ea
5c
d3
66
6f
59
e3
55
56
d0
6f
6c
eb
2b
eb
67
e9
3b
c8
4a
6b
50
ea
44
c2
6a
6a
39
c2
e3
28
e8
e3
aa
c9
68
ce
35
60
d2
e5
c3
68
e6
6f
c9
bc
c2
4c
62
66
5c
5d
c3
6c
e6
5c
de
d6
62
54
db
59
e7
5
69
c0
6d
e4
e4
e1
6b
ca
46
d0
6c
dc
45
68
e1
df
6d
30
64
d2
69
e3
53
cb
ba
5b
68
63
60
6a
3b
6c
71
d6
e3
ec
65
5d
da
6f
d6
b4
61
b5
c8
e9
d7
64
54
6f
5b
70
71
5e
69
60
58
5c
66
65
ba
c1
e6
ed
36
70
4b
6b
70
d0
67
4e
e4
47
6f
e7
cc
bc
63
de
e9
dc
63
e6
3f
e3
62
51
d4
6e
4d
de
69
e8
eb
5e
69
5b
54
e9
6b
df
26
4b
d4
f1
69
60
6e
35
58
5d
db
50
e9
43
58
f1
e8
d2
e0
71
63
c8
ef
e6
ca
71
ee
de
ed
4f
e4
f2
38
65
6b
da
65
d0
e4
2d
65
75
4d
13
d0
5a
3f
88
39
c8
e7
db
61
35
58
5f
60
dd
55
50
5b
31
e8
3e
cf
e5
e3
5e
58
6d
e4
59
3e
c5
ee
da
dc
ea
b0
de
6c
73
6d
17
d
d0
c2
6d
70
61
6b
ec
ba
2f
69
52
3b
eb
e2
c6
e9
6e
df
51
de
de
2d
db
ee
55
72
6b
68
db
56
6d
9c
3b
e8
e3
dc
f0
5a
ad
1b
de
61
c1
e2
46
62
ef
5f
d7
c7
6c
56
96
58
60
ec
68
e3
6a
4c
93
5d
1
ed
ba
44
66
ab
6a
22
65
b7
6c
6c
e9
6e
ec
e3
43
e9
ee
de
ca
6a
ed
50
e9
c4
d8
5e
d8
6e
69
ea
66
22
ec
55
47
61
d7
6c
5f
42
b8
e3
c3
55
ce
6b
5f
9
c9
d7
35
5e
63
60
70
db
5f
46
6a
c9
5d
ea
6c
81
68
e6
e2
55
e0
58
60
c2
6a
c3
5a
e4
c0
c9
ea
41
60
70
5b
2a
35
5a
72
e2
53
eb
6a
62
e3
5f
6e
57
59
aa
c7
c2
6c
50
e7
c8
5f
ed
3a
72
d6
6a
d9
44
c8
dc
eb
eb
5f
d4
2f
6d
e7
55
e6
5e
9
f0
ed
f0
70
60
b2
60
e3
ad
98
62
e0
d7
ea
2d
e0
1c
6f
c8
66
ea
eb
d1
2e
e9
5b
67
54
61
34
6c
50
67
c8
db
4e
ed
56
dd
d7
e6
e6
eb
58
e7
e9
98
cb
bf
4d
5d
dc
3b
e0
33
d5
5e
eb
63
a8
45
6a
6a
cd
ef
72
3e
cd
6c
60
6d
ae
67
58
29
73
ee
58
6a
da
c4
ed
e8
c8
d5
e1
63
b7
e7
68
67
b8
60
69
52
dc
63
65
d8
5c
6d
d2
66
c7
52
ec
6b
5c
d9
ed
6c
4f
64
68
ca
64
e2
e5
e4
ea
69
69
e8
6b
cf
d6
1c
28
b6
53
e4
66
f0
66
3a
52
5c
ba
61
ee
cc
67
ea
cd
d2
5e
af
ec
da
9e
6c
6b
54
60
63
5d
50
6b
68
ec
70
22
67
e6
6e
b5
c1
c5
11
59
e2
55
45
68
e2
ea
4e
eb
d8
6c
5f
e7
e8
5a
60
62
ee
6b
b8
e3
62
3b
ea
c0
cb
91
e3
53
30
6a
29
e7
67
cc
6a
43
d3
e4
c6
bd
6a
59
e3
de
dc
e0
e1
ec
c2
5a
d0
e9
51
47
bd
67
6a
eb
c8
6b
ab
ec
6a
62
50
e1
de
27
f2
57
62
e9
e4
cd
4f
65
c
84
67
e2
be
3c
67
eb
34
68
eb
4e
5d
e5
cb
6a
cb
49
6f
e7
4e
e9
57
63
1f
59
62
d3
df
51
51
53
ee
ea
58
80
53
c7
d5
e4
de
df
ed
ba
6b
e4
a8
63
bd
dd
56
8c
63
de
6c
4c
5e
64
be
6c
49
e9
d1
63
56
64
e4
e0
60
6b
5d
c5
5c
dc
56
e6
56
65
4d
6f
47
6d
63
52
b5
e1
e2
cf
df
38
26
e7
3b
5e
ec
d0
5d
5e
eb
e4
ee
ed
6a
6f
ed
69
5c
67
c1
62
df
cb
eb
52
5e
5b
c2
5b
e7
27
a4
35
e7
d6
bb
cc
5c
dc
e3
60
64
58
a4
64
d2
36
57
e6
41
42
e2
a3
d3
ee
6e
68
d8
ee
60
69
b5
54
64
c6
dd
d5
de
38
8b
c6
55
6e
c
6d
e6
e9
5d
e8
dd
d8
50
ea
47
34
43
3e
82
23
db
61
bb
ec
ec
e7
e6
e9
e7
58
6b
60
6d
65
b2
e9
6b
dd
47
54
3f
ed
a0
64
46
d7
ec
45
ec
e5
e1
cb
34
e3
64
eb
59
5c
66
cd
ce
e1
6e
65
d3
6e
6b
68
ea
eb
e3
48
db
65
dd
6a
e1
5c
66
4a
dd
b3
b3
65
64
71
3b
6e
dc
b3
66
e1
67
6b
c1
70
6d
d2
59
b7
56
6c
ee
0
69
5c
e9
e5
6c
bf
e3
e7
65
e6
ee
60
67
57
80
61
e9
1a
1f
4e
ce
ec
d8
dc
33
36
e3
eb
3c
6e
bc
52
60
d6
bb
ec
dd
67
6a
55
e2
6c
6a
64
ca
65
29
46
6c
ec
5f
c5
6d
ae
da
b4
5c
52
5e
d9
b7
c7
6d
c5
a1
56
63
42
69
41
6f
5a
d5
45
f0
47
d1
d8
68
69
6c
23
ea
e7
6f
ea
69
3b
e5
49
6d
af
c6
d0
5d
9c
e9
3b
6b
e9
e8
ee
14
e9
b0
df
df
ad
6e
6a
33
a8
56
4a
e3
e4
63
eb
e3
6d
5d
5e
ec
e3
45
ee
de
6b
66
50
e3
6a
ec
cf
4a
ea
e6
6e
54
67
d8
6e
ee
e8
15
eb
d3
e6
5d
6b
62
de
49
d2
a9
68
63
69
e2
b1
6e
3a
ea
6e
c3
66
6e
ce
42
6b
68
9f
dd
63
b5
ec
4f
dd
e4
a5
a3
1c
cf
bd
ea
49
e1
d9
6f
e0
48
54
c2
6d
d0
ea
e5
dc
76
6b
e8
55
53
e8
55
60
e6
63
d2
e0
65
6d
ba
4c
be
e7
52
57
6c
eb
54
5a
ee
5e
56
eb
6c
d1
e9
d3
33
59
ea
ee
4b
6c
71
6f
df
ec
69
e2
43
62
6c
ea
d7
34
65
4f
5d
6f
32
ea
40
e6
66
c3
6d
52
e9
f0
62
79
eb
42
e9
f0
53
60
6e
6c
ce
3f
58
e9
56
67
6b
c5
70
cf
6a
68
59
e4
e1
e7
65
56
d2
6e
6a
b3
ea
ec
ee
c6
80
6c
52
ce
70
c0
ce
cf
e1
6a
e4
51
65
e5
46
70
e9
e8
53
c9
63
bb
ed
bd
cd
dc
df
dd
65
64
58
66
4f
d9
de
c4
18
e1
e9
cf
6d
2b
43
d4
28
61
5d
89
6b
e6
12
e7
62
e8
d8
93
a9
6d
46
b7
e3
2a
6d
ba
50
2c
d6
68
e0
5f
72
db
68
dc
63
6b
6a
d4
6b
43
e9
e8
df
ef
5b
4f
e4
e1
6a
dd
d3
4d
d3
e1
a9
c8
52
67
b7
a4
80
6a
c9
ec
e7
6b
66
6a
72
63
e8
56
cd
0
dd
72
6e
c4
c3
41
e9
e7
af
ec
6f
58
62
61
53
db
e9
eb
62
69
4e
d0
64
60
1b
d4
e2
73
be
e8
29
72
69
c8
d3
66
5c
55
5f
e5
59
b3
60
8c
b7
70
d4
a0
6f
58
80
6e
da
4f
62
40
54
c6
e8
6f
f1
5d
40
8c
5f
bb
e7
ce
61
eb
da
db
c5
d7
69
66
62
eb
eb
ec
e9
e2
68
a3
d4
ee
66
d8
dd
43
cf
e2
d3
60
e7
b9
ea
6a
54
51
e9
33
ae
d4
34
f1
ef
60
6f
43
3c
2c
d4
e3
cf
49
dc
e8
5f
e0
96
72
5f
6e
e8
da
46
43
69
c9
e2
6f
67
3f
95
63
6a
6c
e8
69
45
71
d6
6b
48
52
10
c7
5e
ee
c9
b5
4b
d1
df
56
d6
ef
60
60
6a
47
5e
65
ea
5c
d8
59
55
4e
5b
c8
6c
c0
5d
e5
ec
4b
5f
5e
ad
ee
e9
e4
53
5c
ee
e4
5f
5b
2b
e3
54
e8
2f
ec
3e
5b
4a
ca
6f
c5
5b
6a
eb
ec
3b
d0
ea
e8
ac
6d
47
ee
da
cc
60
e5
c1
61
ea
ec
d9
5d
62
4c
e5
d7
71
15
cc
72
61
65
e0
d3
65
60
ad
e5
39
34
aa
6d
3c
6c
5e
55
6d
bb
98
e9
82
47
ee
e5
6a
60
d7
64
cd
e9
cf
69
61
e9
e8
c7
8
ed
3e
3a
12
6b
40
eb
44
49
6a
e9
e8
e2
64
5a
b6
da
ed
c2
eb
e7
bc
46
e1
48
6d
45
90
5d
59
ee
e6
69
6c
32
c9
62
57
dc
5c
b1
6a
e7
dc
57
e5
60
5b
d3
ed
5a
a6
e5
6d
be
66
ed
67
2c
67
e1
5a
51
e0
5d
d5
41
c6
1f
54
47
60
e3
71
e6
52
e7
ab
6f
21
4b
df
6f
55
db
da
e2
b6
52
63
c8
e8
df
d3
63
e9
86
ea
4f
c7
ca
58
b7
e9
80
ec
c4
e2
d3
d9
cf
e5
61
ee
30
80
4b
d2
5b
3e
da
36
61
d6
10
53
6a
c5
d5
1b
e1
54
6d
c6
df
6d
d9
4f
3b
53
d8
df
cf
c1
ed
ea
6a
50
cb
4d
ec
d1
de
cf
c6
eb
25
af
70
6d
df
eb
40
ee
3f
59
4f
68
5f
cf
61
dc
c9
47
dc
5c
dd
e9
58
6d
db
b3
cc
e9
ee
6e
63
61
e5
25
e9
ec
cf
e5
33
e5
dd
50
54
63
f2
47
ee
69
e0
6f
67
61
4b
6e
d3
6b
f1
c6
3a
5f
d2
b1
dc
c8
ca
9e
e2
6b
6c
dd
69
63
d8
61
e3
ed
57
66
cf
6d
63
70
e9
cb
64
c7
e7
d9
59
e8
e8
c8
e4
61
ce
e5
63
40
db
31
39
5e
65
5f
36
80
5f
6b
d2
e0
6f
39
47
ed
61
dd
e7
d4
74
2e
6a
d4
b8
6b
67
3c
63
6e
6b
4c
66
69
56
6d
d3
51
d3
5d
e3
bf
c6
12
70
5a
de
9a
a2
d5
c4
ef
e6
2d
ec
e7
b4
ea
be
67
56
68
b
5b
5b
3b
62
d7
66
96
68
41
cf
b9
4a
80
df
b6
5e
f0
b9
6b
47
72
6a
b6
6e
59
e1
b9
64
5f
6f
48
df
59
ce
6c
71
5d
f2
f0
23
65
e4
54
eb
52
eb
b8
4d
6d
d9
5c
42
de
5a
b7
68
b0
64
ef
e3
68
6f
5b
cd
c3
52
0
b5
66
70
66
d8
d1
d0
ed
6b
df
6f
5e
e3
c4
ea
bb
6d
2f
ec
6e
6f
6d
57
64
35
ec
5f
36
69
ec
6b
66
29
6d
69
47
ed
6c
76
d
f1
98
63
de
df
6e
60
ee
70
f3
d9
e5
e3
e9
67
d7
b2
51
6b
d7
6d
62
5f
4f
f2
67
e5
e8
66
c6
e5
d6
ba
ea
69
5e
56
6b
42
60
6a
de
ea
61
71
52
e2
52
51
e5
6a
eb
65
d7
5f
e7
4e
e2
66
4d
4c
22
95
68
76
3a
de
6f
68
dd
6d
38
54
60
e6
ed
44
71
1b
4c
52
d7
50
54
65
d9
6a
6d
5c
11
e3
6c
b5
65
da
64
59
dc
eb
64
e5
6e
58
3f
6c
d3
69
ca
d7
e7
46
52
e0
6d
68
d1
e1
e6
e9
f1
de
43
45
5a
6e
42
56
71
65
4d
dd
db
67
61
66
62
d5
70
ed
66
3e
e8
e5
6b
65
48
44
64
cf
39
e4
d7
6d
2f
a2
ed
bd
5a
df
66
ec
67
61
61
54
59
dc
d0
da
6e
73
e0
58
59
5e
60
ef
61
de
d2
d5
e5
d3
e9
6c
4e
7b
ec
69
3b
e6
d8
d8
6a
6c
60
5d
e4
e6
e5
e9
e3
63
63
5b
ea
71
29
5d
e8
d8
e9
56
6b
e5
e1
e4
55
d5
da
e5
ba
e1
e8
6c
c2
d3
4a
56
e5
b5
e9
e9
cf
eb
c9
a7
63
80
6c
e4
41
4e
e2
e8
3d
59
ea
dc
d0
62
eb
6b
ee
e9
6f
ed
3e
c4
f3
69
d4
cb
de
eb
d9
3d
c5
ee
4e
da
4c
e1
cb
e3
6c
ea
68
e1
91
de
cb
56
68
6b
e0
4e
ef
33
eb
e4
be
1b
d0
c5
e2
5b
6e
4c
5a
d4
34
29
f1
ea
65
58
11
6b
2d
97
e9
66
80
59
b1
b9
ea
ee
4a
63
55
6e
5e
64
bc
6a
79
d6
ea
eb
ed
68
e6
1f
e9
dc
e2
5f
cc
3b
54
d6
5e
57
80
5f
6b
d0
d5
30
d2
60
d1
f3
67
72
e2
64
5a
60
22
5e
ed
38
69
d6
5d
40
c
67
e9
d5
e3
df
e5
a5
e7
6e
e5
ba
da
5a
df
6f
ec
9e
63
68
61
74
5d
e5
e0
d3
e9
3e
1f
c7
de
ed
0
eb
66
71
62
70
70
68
45
6f
5c
ef
6b
e8
5e
e7
d1
0
3a
d2
32
6e
68
15
ac
6f
5e
68
ec
db
6c
e7
43
e4
52
63
62
59
65
da
4f
4d
62
c1
9c
69
6d
25
62
51
64
cd
6e
ca
6e
ee
70
78
dc
61
e8
f1
d1
69
6d
5f
62
6a
ec
c9
6b
34
21
c3
b3
cb
ed
ed
36
6d
76
72
c2
54
2a
d0
6b
76
e0
c6
e2
49
dd
d1
e9
b3
65
e4
46
5e
e8
eb
65
67
49
6a
c6
45
6f
6d
3b
e9
df
6a
eb
dc
68
6d
9f
69
43
ea
56
c9
e4
d5
aa
d1
e1
5c
6d
da
f4
a3
65
3d
c7
5
64
56
bf
c9
52
eb
54
ed
dd
6c
da
5f
84
64
4e
5c
2d
80
b2
66
b0
6d
5c
5c
4c
e9
8c
d4
74
6d
43
54
5a
3b
65
53
d3
ed
e4
61
ea
b5
37
c5
53
bf
c5
df
de
6e
65
31
69
e3
46
e5
e0
e9
67
e5
e5
55
e0
5f
d1
eb
6f
e5
ca
5f
b1
a5
56
70
44
16
d1
52
6b
6d
bb
56
ee
0
ed
3c
eb
d5
0
52
b6
4f
e1
d8
55
dc
6a
a7
ea
60
e3
eb
e9
b6
c6
6d
e1
5b
c9
40
3c
3f
5e
65
d3
5b
48
ba
c7
5c
eb
24
de
4c
e2
e3
1b
eb
c1
2d
da
c6
6d
d3
da
c2
e0
6e
ec
73
cc
e1
d6
e8
4c
d7
bf
63
e1
c6
ea
64
c6
dc
c5
3d
cb
81
e0
e9
66
80
5b
33
d6
4d
d6
3c
71
66
60
58
6f
6f
63
5f
56
b2
e
eb
a6
c5
b8
41
57
6b
80
d6
e7
12
69
1d
67
e0
e9
e9
4f
ef
d5
4a
ce
59
64
68
ea
42
cc
dd
66
e1
69
68
c4
a6
e2
e2
cc
70
4f
54
55
bc
60
38
73
6d
58
ac
5e
e9
4e
c7
e3
60
61
eb
36
ed
e7
e2
56
6f
70
68
e3
e2
54
5b
e6
68
3f
47
61
6e
dc
72
e4
e9
db
80
6c
e9
63
54
d8
67
d4
69
e6
cc
e4
e1
ec
6c
6e
c2
d8
d7
d8
e5
60
ea
68
6e
e1
67
63
5b
c1
6d
66
dd
98
6b
d3
58
6a
48
70
cf
ec
70
69
c1
3e
b8
68
cd
65
eb
ea
64
6d
6e
e2
5b
ea
8
6e
db
23
6e
b7
60
27
d5
a2
d4
69
d2
65
6f
0
d1
d4
5b
eb
40
61
26
da
4d
6f
d4
d2
d4
6d
da
cc
64
d9
cd
6b
da
56
5d
5b
80
6e
b3
d5
ce
17
67
6f
a4
5c
ba
e8
e6
4e
c2
40
56
3a
65
c5
53
e9
68
e6
6b
5f
69
ea
6a
58
de
64
a0
63
ed
45
56
df
e7
59
61
52
dd
4f
5f
de
de
d6
59
c8
eb
6c
45
4e
61
c1
e6
cc
d9
e2
e5
64
c7
df
47
6d
db
e6
d2
e7
68
49
67
e5
56
ee
69
cc
cf
5a
dd
e6
d3
42
9d
df
60
ea
de
eb
47
de
22
bc
d3
ed
52
5c
e5
e4
e9
d6
e7
da
ec
ab
2f
eb
67
53
51
e5
b1
c0
6e
eb
eb
ec
49
6c
e4
6e
d6
cf
52
33
c6
4a
ec
bb
3f
6c
dd
4f
1b
c1
5c
60
ea
ed
64
c2
36
90
6f
e2
e5
55
dd
59
c6
68
49
4c
cf
da
68
c0
ab
53
e8
c0
d4
d9
3b
cc
e9
e2
61
6b
ed
57
55
64
dc
e9
5e
e0
dc
60
6b
ed
a8
be
ed
d2
62
d0
e2
dd
d0
68
66
da
67
ed
5a
62
64
a
e7
6a
45
35
6c
e8
0
e8
cd
49
ed
d9
5e
60
e7
e3
5e
66
54
70
39
d1
dd
e8
60
d7
59
6d
8b
e2
d5
aa
56
ec
69
61
c5
d0
6a
ed
c4
5f
db
ea
34
72
67
c9
4d
eb
58
de
ea
eb
e9
4e
63
70
e1
63
e4
c9
5e
27
d3
cb
e3
57
3d
ec
e5
e8
d9
de
10
dc
ec
69
55
f
16
59
62
51
33
53
30
cb
67
6a
ee
c8
49
ed
33
1d
ec
6e
73
5c
d8
50
65
68
3f
cd
c2
43
ec
61
6f
6d
c8
e5
d0
dc
b4
d6
ed
65
ef
e0
48
69
50
df
5c
72
d4
4c
61
dd
ec
e2
e5
e8
bf
d0
e2
ee
6a
ed
da
61
3c
69
53
35
ef
c0
3c
e1
c9
5f
71
34
5c
de
32
47
d8
47
69
ae
6e
e3
55
59
6e
5f
5d
5f
5b
55
ec
8c
e3
5a
4d
ec
d8
ee
bd
c0
b6
df
e7
e2
44
61
6f
5c
6f
dd
6d
da
ea
4c
d1
bc
e9
e5
e7
40
69
62
4b
cf
ea
e7
6b
d8
8c
67
22
43
5a
e6
5d
23
6c
3a
69
6b
53
e4
5a
e6
63
5f
ed
c8
ce
8f
dd
ee
e4
5b
62
e2
c3
49
8b
4d
5b
5b
3b
d7
80
63
e0
6e
68
e7
e3
ba
df
68
da
4b
e2
d5
eb
27
51
ed
ca
67
e8
68
e5
db
dd
57
d4
b3
de
cf
6b
67
64
5f
31
60
ed
ec
e8
e8
e2
e7
59
59
eb
dc
ce
e9
66
db
c8
68
46
da
d8
67
5d
98
e8
ec
d1
6a
e0
60
e9
e1
46
e9
d8
e7
cd
40
d6
26
e9
65
e5
52
56
55
e3
e3
61
ea
5f
6c
ea
6c
b5
e8
66
6c
e7
6a
5d
e8
e0
ea
62
ea
6d
d7
65
db
5c
d8
66
d2
c4
c9
d4
52
5e
ed
b6
5e
eb
69
a3
e5
4f
55
e4
c5
d6
40
2a
e8
61
4d
66
eb
c2
e6
da
6e
66
eb
d6
6a
5d
ee
58
de
6a
4a
df
62
da
dd
d5
54
d0
6a
eb
ed
db
5f
61
56
23
39
6f
e6
e5
e8
63
42
45
da
68
41
df
d9
e9
e0
e2
b9
42
64
b9
bd
d8
c8
5f
43
61
e9
d9
5d
de
ee
6f
ec
61
e2
cd
30
e6
e4
64
3c
59
d8
6b
57
5b
d7
db
cf
3a
64
cc
3c
cf
e0
58
59
6d
60
e8
5f
99
61
55
ed
5f
6d
d9
61
d9
68
d5
e9
c7
cf
df
d5
3c
ed
e1
62
51
67
b5
55
5c
3a
ec
ec
bf
b2
6c
60
60
6b
65
d1
0
ec
dd
df
46
6f
d5
ce
55
ea
64
e4
48
69
70
6a
6d
d7
6b
e4
51
ec
4e
6c
34
d7
53
7
55
e6
c3
e9
69
6b
d9
61
6a
5c
eb
dd
5c
61
5b
53
3b
50
5c
4f
aa
5d
e3
3a
6e
6e
65
ec
be
9a
c8
64
ca
da
ed
e7
68
59
6b
da
66
e0
6c
32
c6
5c
df
6c
47
e7
5f
54
e9
5a
37
6e
86
60
6c
73
e9
54
69
ea
d7
5e
aa
3c
e7
e7
e3
60
67
a3
ae
5f
6c
66
58
e6
47
ee
e4
6e
56
67
e6
b9
cf
5f
d1
de
e8
67
db
ee
33
6e
5f
a4
c4
61
da
e5
eb
d3
50
ec
69
c5
e4
e5
ee
32
64
e7
6a
56
f0
bf
6e
69
4a
ec
6f
6b
ce
5e
60
d8
5c
56
d9
b1
6b
ce
e3
c7
69
e6
e4
e9
eb
ea
52
65
3e
d1
c9
34
51
dd
e8
41
c2
3f
e3
4a
cd
12
6c
8c
d5
6d
ce
13
4f
43
e0
eb
23
6a
6a
e4
57
e3
4f
ed
e0
ee
63
e9
4a
52
6c
4b
ef
4b
d2
5b
4c
cc
c3
b9
ed
e2
63
c9
e4
d4
ea
65
e7
6f
de
69
eb
c8
ee
ce
d0
6b
5f
69
54
e2
a0
ee
61
60
e8
ed
68
56
4e
68
ec
66
ea
6c
65
df
67
e4
52
d3
5b
4d
58
c4
3b
26
59
d7
64
b3
24
de
df
5b
ca
d4
18
71
d6
ee
65
5f
69
d8
ee
de
ed
55
ec
63
6c
a2
d0
6c
65
e9
ec
58
d5
5a
e9
ed
43
61
e2
eb
62
55
40
e9
60
ed
68
5a
ed
e5
ea
d6
6f
6c
60
61
50
de
5f
53
e9
b8
63
e0
d2
68
e2
6a
51
ed
ed
eb
6d
6a
e4
df
96
e6
68
58
81
65
61
da
33
c8
6c
e4
ea
57
df
e7
5d
e0
ea
a9
57
1
4e
9c
e2
e9
e5
53
4e
67
6d
68
b4
65
69
36
be
50
42
db
59
48
56
d2
db
da
5c
6e
69
b4
50
e4
d9
35
bb
d0
ee
dd
ed
67
68
6a
6
39
ec
42
5f
66
eb
e1
b6
50
57
bd
e6
5f
48
ed
40
47
d9
2c
e9
68
d5
c4
62
eb
65
39
d5
50
ed
5d
c7
6f
5b
64
67
e7
53
64
ef
e6
e9
4f
51
44
e3
64
5c
6a
3f
ca
5d
5c
53
64
de
e6
c5
41
d1
6a
3c
5f
ec
de
a4
5d
5b
ed
6c
ea
c8
eb
33
69
e9
54
6b
ee
62
d7
d6
6c
eb
e6
60
0
da
e1
5f
56
dd
e0
4c
ee
3f
58
5f
62
e3
eb
ee
6b
d6
66
cd
dc
ee
69
55
6d
ca
d9
bb
63
c7
61
0
3b
37
65
e8
6e
ea
60
e8
6b
59
ea
6a
6a
6b
de
68
e6
1c
39
9e
e0
e6
bf
dd
25
c3
ed
cf
ec
65
e7
da
e9
4f
eb
ee
ea
e9
66
d9
30
b0
ee
ed
6c
6a
e1
d0
bf
60
e4
58
e2
ea
56
2c
14
ec
64
58
6c
e3
b7
47
e9
d4
d7
67
6b
ec
ed
82
68
e2
e2
d1
e2
e1
51
bb
49
81
2d
59
6d
db
66
a3
35
e3
e2
d4
ca
c2
50
5c
c0
51
a3
d9
a2
88
5a
56
a9
e8
48
ea
e8
54
d8
ea
dc
47
55
eb
de
40
3a
c9
4d
d1
1a
b2
8e
38
63
31
b6
c4
66
e6
e9
39
5b
56
66
d9
e4
cd
d4
e0
ee
52
64
47
e5
b7
61
3b
ea
e5
eb
61
3d
62
46
e7
e8
58
4e
6e
65
c7
6b
ec
6b
4e
c7
ed
59
e5
cb
52
a5
ed
e2
eb
db
ee
3b
51
e6
6e
62
8a
6d
eb
61
ee
e8
b3
ee
4e
6a
c4
c8
eb
63
cd
a0
e2
42
2d
e3
51
ea
d6
5f
db
c2
da
37
69
68
48
e6
e3
c5
63
c4
60
ee
70
e4
e7
55
99
e3
e0
66
e8
ec
67
6d
5d
61
da
63
48
58
63
aa
4e
dd
1d
5d
2c
ec
51
6f
70
3e
eb
e2
ba
58
d5
60
d4
71
5c
e4
63
e4
e0
4c
3c
1f
c0
ea
d3
f3
de
6e
df
47
e8
df
e8
eb
d8
80
76
2a
e6
da
6f
e2
dd
64
68
6b
e2
d4
bf
67
d5
ce
67
1
27
eb
43
de
d6
61
71
6f
56
e7
d8
b0
de
6c
47
63
64
b7
6d
ce
66
ee
5f
67
45
5c
d1
f1
ec
e7
e6
52
6a
5c
d9
66
2f
64
4f
e2
ec
df
59
6e
6b
6f
4e
2c
5c
df
81
4a
69
e8
71
63
6d
a4
dd
58
39
e4
6a
5b
e4
ca
de
2a
be
3b
68
59
6d
68
cd
e6
53
6e
5c
d5
34
4b
5c
e8
e7
6b
4d
bf
ea
e2
62
e5
e6
cc
d1
2f
da
ef
db
5c
65
bf
e3
58
5c
53
6e
e4
e8
66
69
25
5a
5c
67
b9
5e
5f
25
37
df
be
57
70
c6
b3
32
e6
e6
ec
62
e6
6c
ea
6d
c7
6e
68
d1
6e
6a
d7
e1
6e
e3
4f
6a
61
c7
6c
ec
be
44
4f
61
d9
67
50
59
97
5f
98
56
eb
d1
4e
55
4e
53
66
60
c3
ed
d1
e0
65
cf
34
58
6e
6b
63
e9
de
de
6c
5a
bc
e4
ee
dc
eb
ec
3b
66
d1
b5
54
db
5b
d0
4a
c6
0
5d
4c
c7
6d
68
c9
5c
50
60
d3
cb
27
ec
6d
6c
e2
ee
49
6e
d6
de
eb
61
63
57
e8
e7
cc
e8
6a
3c
cd
54
34
58
ed
5d
4b
e9
3f
e6
52
ca
6d
e9
cc
63
e0
46
72
5e
ea
e6
ef
b5
42
af
64
6f
ed
db
cb
ed
cc
68
5d
44
73
60
49
5e
ae
d3
c0
46
3b
60
ea
66
61
c0
e6
df
e0
62
32
b6
52
d8
6b
e2
e5
d7
81
ee
c9
36
e2
6e
ea
49
5b
31
5d
e7
ec
5e
4c
66
dc
2c
5e
70
4e
58
e3
65
23
20
52
68
73
60
65
e9
2c
67
dd
4a
6b
c8
48
ea
ca
52
69
e5
e8
bd
e4
58
e6
e9
6e
64
ec
70
64
dc
4a
e5
e9
e9
a7
de
db
eb
cf
50
6f
df
6d
57
6f
97
39
6a
d7
dc
6e
e9
6d
ca
68
69
57
69
6e
ea
44
43
6e
e3
69
ec
dc
0
6d
6b
ed
e6
44
d7
8e
32
3e
ae
ee
e2
25
ee
dc
1b
c5
d4
e5
cb
e5
ed
e8
23
ca
69
e7
d6
e2
3d
af
42
bc
6c
e1
53
d6
5c
62
e4
ec
4c
ec
61
61
d4
6e
65
9a
36
4a
d4
eb
c8
e0
e1
d5
64
cd
6e
cb
57
6b
e9
ed
80
22
e3
d2
68
ea
e7
cf
63
6e
51
5e
d7
44
5f
d4
ea
dd
de
3e
ad
63
d6
ce
ed
d9
63
e8
c3
df
32
60
e7
2a
ca
c8
e3
84
4a
e9
ed
df
80
52
4f
de
8f
65
6e
4d
bb
ea
32
6d
d0
45
5e
5e
ec
ec
64
ed
65
ea
4b
e0
da
e5
ee
2b
64
c6
ee
dd
3f
5b
38
eb
ec
e9
e1
e9
e9
52
cf
e2
66
c2
ec
d8
df
ee
b9
da
57
90
6c
ae
6d
4f
c4
65
34
e0
69
dc
66
66
6d
ec
e8
cd
48
e7
65
64
e6
bf
d1
65
e3
66
ec
d1
66
44
64
e2
d0
d3
bb
d3
d8
e7
68
54
b3
5b
d3
6a
c6
6b
ed
60
68
cf
6a
6c
b7
e1
61
68
3f
da
38
6e
2a
eb
3d
0
81
68
e5
ed
bb
64
44
6c
d6
6b
e9
e5
da
3f
58
a4
e5
4d
d7
d1
66
bd
e8
d8
d7
d4
6c
16
49
45
67
b3
ea
6e
e1
e1
81
e6
6b
67
60
3f
e3
80
e8
dd
ea
6c
5f
dd
ca
5d
d1
b5
91
dd
da
ce
43
47
ea
ca
27
de
6e
5d
e8
60
3a
e3
62
65
ee
e8
3e
4f
dd
6a
5f
c5
de
e5
5b
e8
4a
42
ec
69
e6
6b
42
da
ea
6c
ed
6b
e6
6f
ec
62
e1
33
45
e2
e0
dd
80
6a
dd
69
a2
64
c6
5d
df
63
2e
c7
51
e8
6b
63
31
62
62
e4
c1
62
98
10
66
db
6b
6a
5e
df
69
4c
d5
65
46
c3
5f
42
dc
68
59
71
64
d9
59
ea
64
ab
d1
5f
39
c9
65
63
70
e9
c7
45
d9
33
71
5d
e4
da
eb
56
e8
46
53
60
df
a4
ee
63
5f
80
4f
31
e0
e0
df
e2
52
54
a8
c4
72
50
ec
d9
70
c0
dd
13
e7
e1
66
4b
d2
c8
c8
8c
f0
e9
6b
5f
5b
6c
d4
e9
c
dd
35
59
67
41
69
b7
e4
e7
64
ea
63
d2
ec
cd
e5
da
ee
63
62
67
a9
d5
f1
aa
38
56
db
db
55
ed
d9
e7
ec
db
d8
e3
e5
4d
e7
2d
6a
dd
ee
45
ec
60
69
59
d9
d3
27
bc
58
e5
6d
da
66
70
b5
5c
5d
6a
70
e7
67
ee
e3
e9
d0
ef
e5
4e
6e
66
66
cb
63
80
e6
f0
59
6e
41
22
44
e6
ed
c2
5d
e9
73
af
56
5f
be
39
61
6f
dc
5d
60
68
55
e0
d8
51
5e
e1
c1
dd
dd
66
61
63
eb
c9
e3
54
5b
e7
e1
b5
63
ed
59
62
60
5f
71
ee
55
0
53
51
ec
e1
69
63
65
e7
5b
69
28
64
5c
e7
6
df
36
cc
66
45
56
60
cc
d8
6a
6f
81
61
ee
71
6d
c3
e1
e2
ac
5f
2b
eb
f
4f
a4
d9
cd
bc
8d
40
b8
66
69
49
c7
54
6a
4e
4b
e9
62
ec
33
be
60
49
4b
de
6b
b8
3c
d5
de
56
53
65
c5
81
0
ec
6c
dd
c9
e0
ec
da
5a
53
58
d1
51
e5
df
db
e9
5a
ed
d1
50
e8
60
69
56
b3
63
67
71
ec
65
51
dd
e0
ae
d5
67
e4
4f
62
ec
ce
ec
45
d9
c7
5b
3d
65
d6
66
db
ce
4d
61
59
69
73
d7
60
29
58
ec
e0
df
61
a0
cb
e2
67
ed
dc
70
60
6d
43
62
6b
6e
e6
57
de
5a
73
c6
d2
5d
d8
4f
eb
67
d4
bc
3d
6c
b0
e1
be
52
68
69
db
ec
cf
54
e9
e1
6a
69
e5
da
b3
66
6f
e5
5a
df
6c
60
52
23
e6
e6
f1
62
32
2d
e5
4a
ec
d9
5c
d5
57
56
6d
d4
ee
eb
ef
ab
ed
eb
d0
58
e4
ca
d5
53
e4
b2
12
1c
6d
6c
5a
d6
de
db
2d
cb
5e
ee
b5
5a
6c
d8
6a
ed
5f
e7
e2
55
e7
ec
68
50
e9
ec
d4
e3
4f
6b
d2
67
66
e9
6e
ea
cb
67
66
39
60
e9
6c
e3
6c
6a
2f
37
d4
69
dd
6c
be
d9
5a
5d
64
52
c0
6a
d2
70
6a
de
46
d1
63
cf
64
4e
69
da
bd
33
5a
e6
ec
e8
6d
4a
dd
eb
5f
af
57
e9
55
c9
55
4e
ec
ee
b2
6e
de
e8
27
68
73
64
5a
6e
bc
d1
60
d7
e9
2f
df
36
e9
70
cf
ed
c6
52
e7
65
57
6c
6d
69
d4
68
dc
d9
67
6f
51
ea
e9
5c
c0
e0
58
dc
6b
6a
d6
cb
d6
dd
58
6b
82
e2
5e
2c
72
6a
c4
ca
6b
60
4c
5e
65
dd
d1
70
4a
48
67
e2
5b
1e
0
eb
b5
e3
68
ee
63
61
6d
f1
c3
61
e8
ed
63
e7
eb
6a
6b
da
6d
6c
e7
5a
6a
a7
bd
e5
52
e3
eb
66
50
e7
ec
6b
64
cf
e1
51
df
48
64
ab
ed
de
6c
d5
e1
70
f0
f2
4b
e1
20
67
63
56
e4
43
e0
b3
9e
58
df
46
e5
5d
d7
c5
d7
36
52
87
e1
d7
6e
61
66
66
6e
dd
e3
6a
5b
d4
62
48
da
df
64
32
5e
55
58
50
5b
6f
e0
e6
4f
4f
59
62
db
ee
e6
3a
80
3f
df
c6
c7
e6
5f
e6
69
59
6a
61
eb
a7
60
55
b4
57
e5
59
ce
6b
55
32
ec
ec
e4
e2
14
b5
6c
69
cd
47
5f
81
d7
c2
63
d5
62
ee
46
48
5f
cc
63
5f
db
57
34
eb
c8
ed
6b
42
6d
cb
58
ea
ec
65
c2
e6
c5
e9
af
cb
e0
6a
67
57
6e
4b
e8
50
e6
e9
ca
ab
91
db
63
6c
58
c7
5a
e1
51
e5
0
66
62
55
ad
dd
32
48
e8
5e
67
e9
d0
6b
c5
dc
69
c4
d6
9f
e9
e9
60
d6
bc
4c
da
d7
d0
6f
ec
c0
c1
e2
e8
80
5e
61
f0
da
5f
13
6d
e2
1f
5b
63
67
4
57
df
62
6f
65
6c
50
cd
de
3f
6d
da
e1
dd
6d
e7
64
50
5d
66
52
c0
e8
6e
68
ea
62
68
ee
28
c4
67
e0
e8
ea
e3
dc
6c
d5
3c
d7
bf
cd
57
e5
e5
5e
67
5f
ed
64
69
e1
e9
db
6c
ea
6c
80
6d
ed
61
cb
6e
cf
c2
88
66
de
cc
d8
b5
5e
54
6b
6a
64
db
e7
ed
56
db
0
6b
ea
a2
63
50
e8
84
60
d3
e8
bb
71
66
3e
67
ed
e8
ee
46
6e
ec
3a
0
4e
34
e6
d9
cc
e4
55
4f
62
70
67
4f
e7
6c
e8
47
eb
b6
e7
89
d8
cf
69
53
69
e2
73
40
62
b2
d8
df
b
ef
ea
e6
e5
50
53
64
5c
5d
61
29
68
6b
d0
6c
f2
de
72
5a
bc
dd
6e
e3
b3
e9
64
65
26
e4
6b
e8
30
5e
ec
72
da
59
50
32
4c
6c
5e
c7
9
e2
6b
6c
0
d1
13
ec
23
48
ec
e7
d1
52
e1
66
56
dd
71
bc
67
e6
52
6f
67
61
65
5c
c8
6b
5e
6b
e9
dd
eb
64
67
e3
e9
f6
68
e5
d1
69
6a
16
20
d5
e0
69
ec
e7
99
d9
e1
6d
3a
43
77
65
e6
c0
e1
e5
d8
75
e1
da
65
ba
dd
db
68
5f
58
67
6c
aa
e7
62
e8
ba
6f
e1
de
c3
71
e5
6b
e4
bb
c4
d1
e5
72
ed
e9
e8
de
6a
63
45
5c
5e
6d
3d
37
e7
e3
de
71
c0
71
48
50
ea
eb
66
a7
6c
df
8e
eb
60
46
6b
be
67
8f
ba
0
77
52
6b
dd
5b
6c
6e
e5
ee
ba
68
6b
4c
b3
90
60
3f
55
6d
59
b0
6f
70
ab
e3
b4
65
57
cc
6b
df
e1
5d
dc
ec
66
59
6b
ea
de
2e
60
63
ee
c6
d9
e1
e2
f1
70
5f
6d
ea
5d
63
c8
56
d0
e1
dd
63
4f
69
d5
40
d8
d3
62
d8
69
e9
d8
cd
65
e8
40
ca
5e
d8
ec
e1
de
8e
ea
d5
dc
d9
3f
5a
ee
e1
6c
cf
dd
68
6a
42
4d
e7
70
67
55
4a
61
e3
68
4e
d5
6e
ca
6d
e0
5a
5c
56
da
d4
51
71
2d
6d
e1
71
c0
14
67
57
61
cd
68
61
60
6a
a1
dd
d8
e7
1f
65
de
f2
42
5b
54
de
e4
c8
6b
6a
5e
d1
dc
66
f2
e4
ee
64
ec
74
e2
d9
6c
dd
62
5a
cd
ed
80
c2
eb
ef
75
eb
eb
e4
ec
cd
5f
e0
c2
cf
65
5e
c9
c6
de
65
e2
df
f1
6f
3f
33
a0
e9
6e
6b
72
52
6b
eb
58
63
df
c3
e7
80
ee
ee
5e
48
65
66
64
61
70
3d
63
d8
e1
69
52
da
59
69
67
4b
6b
54
60
e0
db
eb
e8
ed
dc
c4
5f
ea
59
43
6d
4d
4d
73
dd
d1
4f
b3
56
d0
eb
e7
dd
48
64
5c
e7
3d
71
61
4f
d1
54
ec
52
d5
e5
78
46
6c
a3
5f
6c
73
73
ec
66
4b
e3
66
d2
64
65
ae
6e
64
43
d9
e4
de
d3
63
d0
b
de
82
b1
c6
d1
42
d1
e1
3c
e1
ec
6d
59
55
70
c2
d3
59
d3
ec
4d
d4
ca
eb
e4
60
4f
d9
db
66
c7
6c
db
5b
e5
3d
6e
e6
8c
45
67
53
ea
6c
4d
51
de
ec
dd
60
52
58
6e
63
4e
a3
43
a9
68
d7
55
6b
6c
50
46
db
c8
e1
e0
40
df
b4
c6
b0
e9
6c
ca
49
f
ed
eb
e1
e1
da
2c
d6
ca
45
70
e1
6d
6e
ec
cf
45
bc
e0
cf
57
e6
67
1e
e7
ed
6c
6d
ee
be
6e
e7
66
4d
63
62
35
23
ed
69
e5
54
6b
da
e0
61
e0
69
57
d8
ed
4f
50
b8
ba
46
75
d9
ea
61
d0
d0
cf
5d
5d
5a
53
f1
dc
e6
56
b3
e7
d8
e5
d1
bd
5b
67
b7
e1
32
6c
6b
58
c1
e1
5e
2f
e6
d2
6a
d6
ae
9f
e5
a8
3f
c1
e3
cd
64
d
e9
57
37
58
eb
ea
68
6e
44
54
e5
69
a6
58
39
68
5f
dc
de
67
0
3d
e5
d7
60
6b
6b
52
d1
63
57
43
d7
db
c0
e2
59
dd
cf
b1
6a
df
f0
dd
db
70
69
5f
dd
65
e2
c8
d7
53
62
e6
39
da
d3
d2
d7
6a
57
eb
e0
ef
65
9b
e4
ed
c3
eb
d1
ef
56
1b
d7
4f
df
eb
d0
69
60
cb
ee
57
63
3c
64
50
59
e6
e4
3e
2b
63
d9
ce
6b
e1
ec
ec
d0
69
58
d0
56
6c
e8
de
4b
c9
6b
cb
ea
dd
ec
df
6d
66
d6
42
b5
e9
e2
b9
37
da
d7
ed
6b
b5
ed
66
d2
6f
d4
d3
e0
e
97
58
47
de
f0
2a
65
68
40
df
59
5e
65
1e
f0
6e
48
3c
f5
dc
6a
b7
db
23
6b
66
f0
dd
6d
e4
6d
5a
2f
6a
6e
6e
e3
64
ec
70
e0
6c
55
d5
5a
66
4f
ec
62
53
db
ed
f2
e0
70
4d
e8
e5
69
5b
6f
40
4f
54
41
25
e3
f1
81
d6
ed
e9
6d
52
60
eb
d5
6a
63
66
50
69
48
f1
71
72
d0
cf
9f
62
6d
e3
69
96
91
70
53
64
e6
ee
de
54
e9
e5
c5
e3
64
e4
6d
65
cd
31
5d
69
ce
68
e0
6c
3f
e8
d0
ec
4f
c6
6a
5d
d2
eb
6d
e8
5f
71
6a
66
3a
d6
ca
28
c4
6f
5d
68
ef
46
57
57
ef
eb
59
d1
c8
68
59
53
6b
50
67
eb
59
bf
d2
e8
e5
66
6
e0
52
d9
d3
cc
9c
32
6a
63
dc
c5
f2
e8
59
e8
ef
68
d9
61
67
1f
57
e5
cb
c4
5e
59
ed
df
c
dd
63
de
71
58
e6
de
ac
32
65
d7
5f
4a
dd
68
e5
de
e9
61
41
e6
64
e7
4b
e6
ea
5d
1f
58
64
eb
60
c3
dc
ec
de
4a
e6
5d
ea
df
de
4c
e1
e8
6f
e7
e2
e6
69
44
bf
8e
73
f1
67
c6
70
5e
e6
43
af
66
e9
e7
c6
6a
16
69
e8
df
dc
ef
72
61
a8
ce
6c
75
59
52
58
bc
5a
e0
c8
ea
bd
dc
4b
d5
de
e2
66
6b
64
d1
e4
5a
62
c1
ea
ee
62
cb
5f
e0
5e
71
8c
65
cd
ee
e8
53
62
f2
ed
e9
67
bc
52
6b
64
da
e8
e9
40
f1
67
6b
b9
b5
b1
57
c2
aa
45
31
e6
70
e9
e5
d2
de
5c
df
a
e6
58
dd
43
e9
ee
6b
e9
71
e9
6d
72
ab
ed
3d
38
69
ef
ec
67
6a
8c
6d
ef
f2
51
6b
d3
7a
d1
75
38
66
6e
67
2a
8c
71
6c
d7
3d
b0
be
e8
5a
eb
d6
eb
d8
f2
60
67
e1
71
44
68
dd
6a
4c
6c
65
6d
56
dd
60
65
44
55
60
48
db
e7
41
cf
66
df
52
58
60
d4
d1
e4
ea
67
de
72
59
75
ee
c5
e0
d3
e0
69
63
b6
26
2f
ed
ed
69
b9
4c
d2
be
e7
e7
d9
dc
e9
e3
c9
c9
b0
6e
5d
d6
e5
55
c7
4e
e5
ed
ee
66
25
eb
d5
e9
58
ec
ca
dc
4f
69
b7
62
eb
e0
58
6a
bb
e7
6d
da
8e
bc
50
64
ec
e9
6a
61
63
e8
e5
d6
60
c9
e7
dd
5f
b7
60
65
d9
b4
2e
63
e5
e9
db
ed
c3
e7
40
64
58
e7
3d
68
d1
57
aa
ca
de
ed
b2
ec
4e
56
5c
65
99
e5
eb
c9
c2
5e
3f
bc
60
4b
e7
65
6a
65
63
e3
69
47
eb
c1
63
ce
e7
e0
1e
50
d7
57
e1
5d
e3
81
69
e9
5e
5d
43
e0
81
e3
e5
ec
5b
db
48
d9
67
64
d0
d7
d9
1d
d8
eb
ee
47
ce
e3
59
66
6b
59
c7
4d
61
e6
e1
dc
ea
3b
63
58
e1
c5
69
dc
37
ec
b7
62
4d
a6
d4
e8
ed
c8
dd
6c
57
6c
d7
e0
eb
55
5b
b5
e5
de
d3
3b
1f
1c
dc
6a
6e
e6
e3
55
5e
59
df
db
ec
e7
67
d6
d7
54
e7
ec
69
6b
67
eb
e3
ab
5a
63
ba
6a
e1
dd
da
e9
68
e1
e2
66
c9
e7
67
c8
e7
cb
e4
65
6e
d7
db
e2
e1
e8
49
47
62
6b
69
6b
e0
ee
46
ca
e6
69
b9
db
d4
d2
e7
6c
ec
64
da
60
e5
af
e7
8c
aa
bf
57
eb
56
e8
81
e6
de
5c
71
e2
e4
d5
6d
64
6c
e5
34
70
63
6b
34
66
73
6b
6a
53
d6
aa
cd
e9
ea
42
bd
ea
68
61
de
e8
6a
d7
e3
e7
c0
dd
df
5c
e6
6a
69
de
5d
6d
df
d5
65
e6
da
d3
dc
ed
68
1e
ea
4d
32
6c
cf
57
68
4b
a7
e1
ae
bd
67
70
66
59
72
57
64
bd
6c
66
75
99
e8
e6
4b
c1
59
e9
6c
6a
6c
81
5e
61
ea
ce
e9
ee
e2
65
40
6a
61
e6
6e
8a
d7
bb
e2
64
b6
47
eb
6d
1f
40
70
73
ee
2c
6e
60
56
6a
6d
6d
e9
67
e0
b6
6e
a5
e7
66
dd
5e
59
6f
52
58
d6
67
d6
f0
64
6f
53
68
c1
60
ea
6d
44
e2
a5
ec
36
51
e3
d3
ed
d1
c9
30
de
ea
e0
e7
54
e3
d4
80
6d
68
e7
e4
64
e6
dd
5d
ed
5e
4f
8c
1c
54
66
9e
e4
72
62
d6
3e
e7
e4
dd
cc
ec
6f
e4
de
df
66
d1
db
69
41
d6
cb
db
eb
df
d9
54
62
e2
5a
ea
d6
59
d6
e2
e0
58
c9
67
58
6f
e1
60
d9
55
d6
60
a0
4b
32
5c
29
40
e7
6a
ec
e9
70
33
5c
ed
e9
60
ea
6e
f0
d5
68
ee
d4
69
60
b
3b
ef
d7
e5
e7
c9
e7
d3
67
6f
ef
4f
e6
6c
6f
54
d8
c8
ed
63
f1
36
d9
3b
35
d7
5b
df
6b
c5
3c
57
b5
9c
e7
e0
d7
56
42
63
5d
70
a6
77
d0
ee
70
6a
ba
5f
a8
61
d6
52
5a
5c
50
d4
d5
d1
3a
42
e3
69
f3
eb
db
d8
eb
d2
68
72
51
cd
5c
bd
73
1c
ed
6b
28
62
6c
a0
dc
67
e9
d1
ed
6d
63
62
30
53
5d
e9
e7
6d
42
ee
ea
e0
c8
ec
e8
ed
dd
55
47
aa
b6
69
ef
73
de
50
ef
3d
e5
53
ea
50
64
77
cf
f9
64
5f
ef
e8
71
e7
6b
6f
b9
e0
51
78
d7
c8
6a
52
66
ef
73
cf
4a
e9
cc
c8
71
44
e9
64
d3
bb
60
57
2a
76
65
df
34
6f
62
cc
e7
e9
5a
77
ee
5e
6f
db
c8
72
dc
6b
e5
68
c7
e9
ce
e9
5f
ec
6b
65
d
63
de
22
6c
b2
e6
e7
6a
b8
80
4d
67
5e
e5
ed
df
e8
70
6f
db
6e
52
59
d5
a6
b3
dc
72
60
cc
6b
6e
39
40
e6
55
6c
e0
6a
d9
26
e8
5b
4c
6b
d8
e8
64
e9
36
6b
eb
e6
51
6a
6c
67
2c
35
d0
e7
ce
6a
67
c8
6b
67
e8
61
c7
6c
60
61
5c
80
d9
1
e7
5c
67
e6
43
e7
d2
1a
cb
5f
6b
58
e3
cc
b3
60
0
dd
ed
41
d7
e4
e2
6a
5f
61
3d
3f
eb
53
6c
c6
6b
4d
e5
4d
66
eb
44
cb
e9
a0
6b
ea
ec
e7
5c
66
ce
e4
e9
6f
60
6f
ea
e7
6c
ea
62
6b
48
6e
c9
39
de
ea
bd
c3
db
eb
5
61
ae
62
e8
ea
84
d7
6b
6d
60
48
49
66
4e
e4
6b
dc
e6
c8
6c
47
62
68
33
52
de
54
e9
e3
5f
ee
d9
5c
b9
6a
62
41
d1
5d
65
6e
e3
69
56
53
80
dd
65
59
e6
65
ea
e7
6d
62
6b
35
ee
54
40
41
6b
be
ee
cc
60
4e
b5
43
e1
d3
c9
d9
a2
e6
de
9b
eb
de
3d
80
d0
57
d2
65
d5
ee
ec
5f
4b
42
57
63
dd
67
6e
e8
b6
e0
e5
59
c5
6d
e4
6a
d4
4e
c9
e4
ee
5f
52
ec
ea
c8
d2
60
ea
ea
ce
e5
48
1e
1d
4d
43
6c
b4
e4
d0
dd
6d
d4
5a
5d
1e
dc
ed
e6
5f
ed
61
42
d2
d7
e8
d7
2e
e2
b0
ab
57
62
6c
6b
66
eb
57
eb
4f
e9
d0
6b
d9
da
1b
59
d9
6a
db
e8
c8
5c
eb
65
32
5e
62
b4
14
ed
ee
69
ea
cc
d1
ca
e6
e8
ed
cc
17
dc
df
4d
29
60
d0
66
56
cd
6b
df
66
58
9d
e6
9e
4f
65
e3
b0
66
20
e9
df
61
e3
66
65
e7
6b
e0
66
ea
0
ec
69
5f
66
65
61
de
da
57
ef
5d
56
66
e4
c2
d3
5e
6c
6b
e9
5a
f0
58
48
b9
ee
bd
c4
c3
18
df
d1
f0
62
32
65
df
cf
ee
db
ed
eb
69
ec
c6
61
df
bf
55
ec
ec
c8
6e
d1
d3
e3
6d
41
e9
dd
67
ec
d7
d8
12
63
5f
53
6c
e7
ea
ad
eb
6a
4f
52
34
63
e9
eb
6e
d3
e1
6a
68
b9
df
63
e5
5c
a5
56
5a
e9
4e
57
66
d0
6e
5b
6b
d7
5c
ee
6c
ee
67
d1
59
ec
66
bc
e5
27
65
ee
c8
cf
d2
e7
6b
e6
2d
61
52
6b
d9
df
a0
68
6b
cc
3a
70
4c
3f
e6
62
68
e4
64
5d
6d
5d
52
ca
ce
d7
68
51
b6
66
68
ea
54
d8
a0
eb
ec
48
1d
6e
e9
cc
67
e1
c2
4a
61
ee
6c
e6
6d
4
64
6d
c4
ea
ca
20
eb
d4
ec
6b
5b
de
68
c4
a8
d2
e7
55
3c
5d
6d
6b
d2
d8
47
e5
65
ea
dc
64
d6
e2
de
b2
64
41
c5
d8
a
5d
5f
cc
6a
bf
e9
33
d7
45
45
6d
e5
69
e9
15
63
b6
57
5c
3a
de
69
5e
c3
e9
e1
66
d7
e4
69
be
ea
6c
ec
67
61
5d
e7
5c
60
ed
63
df
60
6a
62
4d
3a
6a
65
e7
bd
ea
93
ce
71
d1
81
70
72
d3
6c
a3
d4
73
cc
ee
50
e3
6d
e8
db
5a
6b
e0
64
9b
e7
4c
e1
e8
69
db
d0
42
7
d9
dc
d2
58
59
e9
b9
68
e9
5b
61
59
e0
46
e4
71
60
ec
db
52
dc
41
60
80
4b
b7
6d
39
8c
58
68
d2
68
e6
d5
df
56
56
54
63
3f
5c
5c
c5
d9
29
e9
d9
d0
63
d9
6e
ca
58
eb
49
c1
54
57
ec
ec
1d
47
6d
d6
61
cc
65
e9
dc
67
e4
58
70
8b
da
e6
e4
e0
e1
b4
e6
3d
e2
d5
ea
d5
68
d2
6f
63
d8
5d
6b
71
eb
25
ee
ec
6e
55
b1
e7
68
57
61
ea
e3
e4
54
62
30
c8
ee
5a
6a
e0
6a
e5
6b
5f
ed
e4
47
dc
e0
ea
43
6a
dd
ee
36
57
6a
e7
41
4e
55
ea
61
c1
cf
69
bd
e4
ea
e3
b5
3b
db
66
c4
6f
bf
6e
e9
ed
46
d1
df
c4
65
eb
54
6d
cf
e4
6a
e8
ed
63
6e
bb
d9
57
6c
61
45
eb
c5
e4
e3
ec
e9
ce
71
69
dc
80
6b
e5
65
57
67
c8
b8
16
2d
ec
1d
c9
6e
1c
db
c3
6e
6e
6a
c7
df
3f
db
ea
e6
49
e0
ed
d1
e4
da
d3
4d
e6
72
db
e0
52
ee
ad
6e
69
ee
5d
e2
4a
62
ee
bc
d5
dd
e7
ef
62
eb
e3
e4
6a
d6
6c
5c
ea
ed
ca
67
e4
4b
80
51
5b
6c
44
4f
eb
d4
6b
6e
52
69
e5
5c
43
70
6c
5a
68
6f
e8
ea
6d
ee
de
6c
e5
57
6a
67
6c
a9
e4
4e
d8
70
6a
6e
de
5f
cf
6f
b4
6a
61
ea
ef
6e
69
65
ea
ec
69
c0
e2
dc
44
dc
da
5c
4f
60
e8
e2
ca
45
3b
4b
eb
70
6b
dc
cf
d6
64
59
e7
64
d2
61
e1
e7
dc
c1
ea
5
ad
69
2d
4a
65
2e
52
56
6f
c7
b2
54
61
6f
53
e4
6a
65
56
d2
bb
4c
61
70
60
c9
ed
ec
6b
61
4b
e2
e8
6b
56
44
ca
70
e3
65
52
b0
e5
54
5a
80
ea
55
ea
6b
ec
ed
65
db
65
d1
63
b0
a5
e2
c4
e3
ef
d9
aa
20
dc
4c
6b
46
68
d6
e0
67
eb
65
e6
69
ee
e3
64
55
e0
e0
e6
d3
67
6c
db
61
ba
59
b1
e0
eb
44
e6
db
59
e3
cd
e7
5a
3c
65
4b
ca
d7
e4
bc
dc
6a
5a
69
6c
63
5b
47
5c
4f
66
e7
6c
5c
e5
cf
42
ec
51
4a
5c
6b
d9
ca
6d
5e
5f
e4
bc
e5
56
80
df
5d
c2
b6
61
65
6c
65
6a
32
6d
5f
56
e5
e4
66
55
62
6f
ed
cf
6a
ee
ec
e7
6d
6d
55
bf
cb
3a
4b
5d
4e
4d
6d
c0
ec
e8
da
40
df
d4
66
3f
e4
bd
e4
e0
64
59
47
e1
e2
4a
1a
6d
e0
ea
5d
66
c9
da
df
b5
c2
cf
ea
6a
c9
b0
de
6f
da
4d
63
db
6a
e6
ec
66
e4
de
4f
cd
cb
61
4d
5d
4f
ea
c1
dc
e8
56
61
e8
6d
5f
ed
66
ed
96
6a
69
e4
ef
51
16
ef
52
eb
dc
d5
95
d0
6b
80
33
61
a2
dd
66
5b
54
4e
ba
6e
2e
e1
6d
c5
2c
23
21
6d
5d
9e
e8
ee
68
ea
47
4e
32
51
d9
22
ea
69
d5
6c
eb
df
ea
69
e3
12
ea
96
68
3c
36
5b
5f
ec
6d
ec
68
c0
75
a2
69
da
d3
59
ec
de
f0
c2
39
e7
e8
51
0
f1
50
58
d8
e1
c4
6b
9b
4f
63
6c
51
eb
3b
37
9c
c5
d7
e3
28
50
64
dd
68
36
b7
e8
52
e5
e9
e1
61
d6
ec
63
dc
55
69
a0
ce
c7
6f
52
d5
d1
72
e9
65
58
e3
70
4d
5e
5e
e4
eb
f0
de
dd
db
e5
48
47
a1
6d
57
70
58
50
c7
e5
67
77
1b
a0
32
e6
79
ec
62
4c
6b
e1
55
ec
ea
59
e8
ef
eb
27
66
d0
e7
d1
59
39
b4
54
5a
d7
73
6f
d5
ed
5a
e0
cf
70
e9
ee
ed
34
2a
ed
ee
6d
78
77
51
c5
b4
ca
5e
33
ee
e4
3b
c2
62
36
d5
4d
74
6b
df
ee
6a
56
5b
ec
3b
66
59
dd
66
b3
63
e0
e0
61
5c
5f
dc
73
ea
d5
68
e3
66
94
e4
4c
b5
70
48
6d
6a
54
16
5f
63
63
af
6e
69
e2
e7
44
de
6e
ec
46
ef
29
d6
e7
e9
e5
d3
d2
ee
e9
62
e7
56
dd
4f
65
eb
ea
e1
e7
43
d0
c7
ed
bb
6c
77
58
e5
5b
e2
68
62
64
ba
68
6a
54
c4
65
ef
e5
77
d7
60
69
36
e0
43
e7
c6
a8
c4
5e
cc
e0
d9
5e
21
eb
de
69
df
6e
eb
5a
eb
6f
5a
80
61
d0
ed
48
36
4c
69
ee
3b
e4
ee
3d
e0
56
d7
5b
5e
6a
dd
64
4b
67
44
6e
e6
d5
d1
47
62
65
6d
5f
ea
59
d9
4e
da
ea
da
6b
67
dd
5d
68
e0
e7
6d
4f
ea
df
63
61
cd
63
e4
43
ee
de
66
52
2d
ed
e8
e0
64
dc
55
57
ea
4c
5a
e3
6c
67
5f
39
dc
c4
6d
e2
57
a8
e9
6a
43
24
de
e4
df
6e
5c
dd
de
d4
3b
e6
cb
e2
e2
61
b4
62
6b
dc
e7
66
71
e4
6e
e7
5a
6a
6d
d5
e8
d9
68
6b
e4
31
d2
c2
e3
db
80
ea
d1
6c
d6
51
66
2d
80
61
eb
37
58
ea
d0
5d
de
cc
67
69
f
df
6b
57
e7
54
54
6b
e7
e5
ed
6f
af
ec
60
d9
6c
e2
e7
55
8c
3c
e4
e6
ed
5e
e0
dd
e0
eb
e3
67
cc
24
d0
cd
d5
45
6d
ee
b6
6e
ef
52
e7
de
ee
44
44
de
e8
2a
c9
68
eb
bd
d5
6e
54
e6
6e
5d
61
ea
81
d2
68
5e
71
3a
da
ef
db
ea
4a
af
5b
65
71
6c
f0
e2
eb
e5
1b
dd
63
48
4e
5f
4c
cf
de
6c
38
38
5f
54
63
5a
68
5e
ea
54
e5
68
ee
4c
0
e3
eb
65
6a
b8
23
4f
ea
e4
e9
ed
e8
63
3a
e5
86
e9
39
ed
4e
5e
dd
e0
62
60
69
e6
56
8
ee
4c
9a
5f
54
ed
68
dd
ea
ea
5d
ee
6b
e4
eb
e1
62
9d
5f
49
45
5a
68
51
e3
65
bb
48
e8
ea
6c
80
ec
40
23
3d
eb
63
69
51
59
aa
d9
dd
e3
f
f0
e4
d6
53
63
42
53
5f
68
b7
d6
3d
61
ea
66
45
e5
eb
ee
df
63
c2
dd
e4
eb
da
6c
2f
e2
2d
a9
dd
4f
4a
4d
e3
d6
dd
c5
63
e8
d9
16
4d
60
61
35
eb
54
e9
a4
69
e8
3a
c1
ee
dc
dd
63
ea
eb
61
ea
6c
ea
6e
69
40
d0
6e
67
35
ce
6f
d0
d8
59
a1
e9
68
34
da
38
dd
e3
5f
e4
29
6a
e7
67
e6
e
ec
eb
d3
45
59
65
ec
6a
6b
50
ed
66
51
e7
2a
4b
e1
e8
96
ed
63
e7
6c
b
66
c5
de
eb
ee
4d
55
dd
e8
6e
dc
cf
4b
d1
df
b0
bb
53
c0
98
5f
44
64
b7
dc
4f
4d
6c
de
3e
ea
5f
e6
3e
4a
5b
ea
51
e8
ed
c0
ec
e6
62
64
ee
6c
d6
44
b6
6b
6b
b6
e0
ce
5e
49
46
c3
58
e9
d6
70
d3
6e
d6
ec
6c
9f
ea
ef
cf
33
62
6b
6c
27
e6
64
5f
ee
4c
5b
c5
6f
d4
ea
4b
6b
d1
6a
6f
3d
6c
cb
53
e8
cf
ed
d8
ea
54
69
b6
62
53
4c
6c
db
eb
65
47
f3
66
6a
70
73
e0
67
6
6f
d5
61
af
44
ee
15
c4
3f
e5
da
6e
64
5e
5a
4d
6d
bb
d8
df
5d
c9
60
e4
60
b2
5b
e9
40
eb
5b
e5
ef
cb
ea
23
5f
e1
50
5c
8c
5d
64
5e
67
5d
c9
4c
d6
71
c1
cb
37
6f
e1
63
69
1e
63
b9
51
dc
e0
b8
ea
ec
6d
e9
c5
6e
3f
eb
b9
b4
eb
2f
56
e3
65
6f
e2
d5
5f
16
34
4e
cb
2b
e3
68
e7
6a
51
42
ba
5d
58
b7
e2
e0
60
ec
e9
5c
70
3e
dd
e3
6d
ed
55
e5
d2
80
63
e8
81
eb
e2
72
6f
60
6c
db
cd
67
3c
5c
52
d4
0
a5
dc
4b
ce
b8
64
e5
d5
61
cb
e3
e8
d5
1e
4f
65
b4
be
ee
df
33
68
3c
ec
ee
e6
58
ec
de
ea
e0
80
4e
6c
cb
6a
63
d6
71
72
63
64
6c
d9
cb
1d
c2
d8
e6
b5
e7
49
b3
6b
d3
a1
cd
d7
67
4e
df
71
73
4b
e5
37
de
ea
67
cd
de
e6
d8
d3
6e
68
6b
37
6e
ec
e9
65
e7
6e
62
5f
c3
42
cb
ca
68
4d
72
66
5c
56
dc
e3
db
5b
df
ee
ed
6a
be
5b
c4
d8
6d
a8
e2
69
3d
d8
59
e5
63
6
d8
e5
69
63
68
6b
eb
d9
52
d5
ce
56
e3
e0
49
e3
64
68
67
d1
e4
3e
e9
60
73
5d
e1
e7
53
4f
5b
61
63
e8
ee
62
6b
d5
66
74
e3
ba
67
69
e4
72
6d
de
68
42
3c
6c
c4
53
e3
df
6f
6b
5a
4d
e7
63
e3
9e
c4
23
c7
d6
65
73
c8
65
d2
66
da
72
46
69
d9
ed
eb
67
e4
d4
4a
67
41
67
c0
ea
e3
ed
61
cc
ea
e9
50
4a
5c
e9
eb
60
6e
26
44
ef
cb
de
dc
d7
e8
68
d0
cd
72
52
6a
61
ec
6c
53
44
e4
de
bb
e1
55
e1
5c
ed
65
e7
b3
c9
b3
e4
d0
e8
e3
e5
da
6e
5d
d3
5c
e8
e1
ae
80
5f
e4
e8
e7
4f
56
ef
e3
5b
63
cf
d3
d0
52
55
69
60
e6
a5
ec
6f
4a
cf
20
cb
11
6d
ed
5c
6d
60
6d
cd
82
57
df
66
d8
68
eb
31
e8
5a
5e
f2
e6
dd
69
56
e7
6f
e5
ed
6c
61
73
a5
67
2b
c3
bf
5b
63
d6
af
55
df
64
bf
b9
ec
e6
6c
d2
69
6c
4f
5b
ea
72
eb
e8
54
9b
e3
e8
40
6c
80
e5
cb
c5
6e
69
59
d7
ef
ae
66
60
c7
6c
e7
6e
5c
e7
76
c2
e0
57
db
d0
eb
42
d1
5e
db
e7
5b
dd
3f
5a
64
cb
55
59
80
f0
c8
67
25
5f
74
6d
62
72
dc
da
ea
0
5c
f2
e9
51
60
da
70
e9
48
6e
6b
5d
90
e8
d4
f0
53
c3
31
f0
cb
4b
72
d6
67
ef
cb
ee
5a
67
f4
5b
c2
7c
ef
5f
46
63
5e
57
cb
5e
7a
88
63
c0
c9
ef
50
ba
4a
e6
6f
f1
6e
73
f3
6a
74
8c
6b
3a
a9
70
57
64
69
f0
db
6c
4c
e8
35
4e
4b
6d
60
16
de
42
e6
72
65
61
22
ca
b
ef
6f
66
25
5b
d5
5d
e7
55
c5
64
3a
d3
d9
75
ee
61
66
ce
e8
ef
d2
e3
3c
e3
6f
6f
50
f1
70
9b
dd
d2
4d
6a
80
78
3f
2d
73
ed
63
ad
b8
de
ee
6f
66
dc
63
f6
98
66
f2
64
67
df
f3
66
3f
51
51
d0
56
df
61
37
49
ce
6e
a8
6e
d4
6f
4d
eb
ea
50
e3
d3
74
56
49
c9
df
e1
62
50
ee
56
b4
5c
eb
69
60
a
e3
5c
69
d9
57
62
e2
e9
cd
f2
52
e6
c7
6e
6e
52
5e
dc
52
d9
ec
6f
4f
a8
63
d5
d0
58
5d
67
65
57
d4
bd
3a
e5
e4
5a
6d
69
8d
59
6c
e5
e2
5f
d6
ce
d5
63
e5
e6
6d
72
4e
ed
d4
72
38
21
6c
61
6e
51
52
d4
67
57
f0
ea
5e
61
44
da
69
da
6a
5d
52
e8
56
dc
5c
e7
ed
5f
4f
60
e8
1d
5f
e4
16
51
2d
ab
63
b2
4f
67
74
6a
66
64
b7
c9
e0
e1
30
41
57
cf
4f
e1
6b
e8
ea
5f
ed
46
e2
da
5f
e5
59
f0
e1
72
5d
be
68
ec
c9
61
61
ae
55
5e
2f
d5
b5
70
6e
cb
e1
c0
48
64
c9
cf
ed
eb
ef
ea
ef
6b
6a
53
62
2a
e8
e3
67
c6
e9
ea
bf
f2
64
6a
eb
5e
3c
ec
e6
26
e4
d3
de
d4
b0
e7
55
1b
67
68
f2
e8
6e
35
49
6f
64
66
f0
18
6d
5c
51
9a
5d
ea
6c
e8
e6
6e
d0
ca
58
9e
6d
26
ee
80
71
e3
e7
67
e4
db
6b
e4
65
4d
bd
e0
a9
63
4c
6c
41
ec
e4
cf
4d
6b
e5
5b
c5
69
e7
e4
6c
6e
df
e4
d3
a3
e0
f0
e2
ee
e5
b5
e5
e2
d7
ed
d9
d1
43
e3
ed
63
e1
f0
5e
6f
ad
b3
48
e3
68
e8
4b
63
38
6d
f0
d0
ef
c1
55
61
61
df
b6
9c
c4
43
c5
a1
4f
61
c5
5c
dc
e0
71
d6
6e
5c
4f
20
81
ef
ec
65
5b
42
db
65
55
62
d9
61
a6
45
e1
6a
33
1
5f
5c
e6
5e
3b
e7
ec
e5
4b
46
d1
6f
d4
52
69
65
66
d7
d3
70
e9
66
66
e5
a7
aa
6b
6e
5e
62
e7
6d
b2
5a
df
e3
5f
61
61
e0
22
58
e5
64
71
48
5a
e1
66
db
6a
e3
e2
6c
69
70
5b
e9
d0
db
5e
db
df
53
e2
f1
6f
dc
5a
6e
cb
ed
df
a2
53
65
e5
d9
70
df
ca
6d
e8
e7
6d
e9
42
de
66
42
d7
53
41
b3
d9
60
60
df
1b
6d
cd
e2
5b
e3
6c
60
54
6a
e4
70
ec
68
80
d4
59
e2
d9
4a
ec
c4
55
81
e9
c6
64
ca
38
b2
db
4e
e2
db
62
70
61
57
df
e8
61
97
b8
5e
62
53
39
4d
b5
e3
e8
34
5f
ee
4f
eb
dc
1d
81
db
4f
e6
d7
5b
e5
6b
ee
61
eb
f0
e5
d7
e1
5f
d0
59
f0
b7
ed
d5
5a
d1
61
e6
69
3c
d7
73
5c
5c
e2
dd
9e
5c
39
5d
50
29
68
e5
5d
6c
e9
60
e3
6c
4e
eb
e3
66
67
ec
e7
57
69
68
25
e3
6a
dd
40
45
72
e5
de
53
60
d
4d
43
61
6d
69
64
ae
da
da
c9
5e
b1
60
b0
5d
55
bf
cf
68
6c
e8
e5
69
64
bf
55
68
5b
38
5c
68
5f
c3
71
72
5a
5a
5f
49
eb
cf
eb
64
9a
6d
23
63
e4
5b
f1
20
e6
cd
e6
68
65
d6
66
6c
5c
68
6f
81
cc
70
c7
62
e7
eb
64
f3
44
5a
65
81
d7
64
dc
63
70
62
d0
ec
37
ae
e4
6d
70
95
39
eb
67
51
64
68
5f
eb
67
52
5f
ee
c8
ed
60
47
e5
e1
cd
c5
d7
4e
73
69
66
57
d0
67
67
5e
50
6b
e5
bd
62
6a
e2
e4
63
49
62
49
63
5c
6c
e9
b4
da
68
57
6a
17
cd
3e
da
dc
dc
e8
cd
ae
83
74
6e
52
ed
dc
cf
e1
63
e4
49
e2
67
d1
3f
63
c5
ee
6d
5e
f0
f5
6a
e5
d5
73
6f
5f
d3
68
39
1c
72
65
59
75
2c
ee
bd
6b
63
68
52
6d
64
5a
5d
e6
ce
6f
ec
6d
a8
3d
b
3d
df
47
55
16
c4
d9
5b
41
ec
62
d9
da
cc
de
ee
64
e8
5d
ac
6d
47
54
58
4f
59
64
ed
dd
4f
52
4e
e3
c7
cf
6e
5e
64
5a
eb
7
e4
e7
6d
ce
b6
e4
be
dd
5d
5a
4f
5b
e8
51
ed
59
e9
e2
cc
68
d9
da
d3
d5
d0
48
c7
67
e6
63
ea
3f
6b
66
e6
59
eb
58
bf
eb
c4
4f
69
67
4f
6a
5c
dc
c8
69
5a
e4
3e
dd
dd
ce
c8
e4
c6
e7
6a
6e
4f
5f
59
5d
eb
4f
dd
63
c7
69
5a
d8
e1
61
e2
60
31
cd
d7
44
ee
63
f
68
5c
dd
d1
d0
e3
ce
62
ba
5c
66
62
ee
e0
e9
6e
4e
55
e5
4b
20
ea
36
45
65
e7
6d
e7
9d
cf
e2
dd
ee
ba
4d
4b
e4
e8
4a
e3
e9
52
c5
4a
eb
d2
31
60
c5
93
e8
6a
dd
5a
ce
80
de
6d
e8
6e
56
68
ee
e4
6a
57
33
ec
b2
a3
55
df
5c
53
4a
ed
3c
eb
92
59
66
c0
5a
57
5f
59
5d
65
38
e7
60
4e
69
5a
66
ea
5e
e0
56
e2
ed
c9
df
e9
aa
e4
ea
ec
eb
66
e0
10
e5
62
63
e5
d5
6a
ed
e2
37
65
5e
68
65
94
ed
5b
dc
62
e4
4d
e6
57
e9
6d
42
df
de
58
61
9e
47
ea
f
eb
b1
38
62
9a
57
62
df
60
5c
eb
ae
62
ee
e7
5a
3a
8c
2f
50
63
5e
e5
45
ea
68
50
67
e6
4b
6b
e7
d9
ce
ec
b6
63
64
e4
a5
de
3b
1e
69
47
a9
62
5a
4a
ef
64
5b
cb
3e
9
4d
5a
65
67
c5
de
42
80
6d
5f
d7
5b
5c
eb
52
72
e0
e6
f2
6a
e7
ed
eb
6c
de
70
6b
55
f
c4
65
57
e6
6a
5e
2e
db
b5
de
5e
f1
50
b9
e4
6a
57
68
eb
3e
68
58
e8
dd
80
54
ea
31
6d
eb
ca
58
7
d4
61
6d
5f
d8
ad
df
cd
5d
6f
ce
72
58
ea
3a
72
45
5f
ea
ec
5b
ec
6d
e7
d8
95
62
c6
67
c8
e6
cb
cc
63
e8
59
65
55
e8
62
63
e6
4a
5c
e9
e5
d5
63
ed
e5
b6
f1
df
a8
e2
c1
d2
5f
dc
d0
6a
4b
57
a9
68
69
68
ee
e8
ea
43
df
c5
be
cc
6e
e5
dc
71
e4
65
72
e5
ed
69
c4
e8
56
e6
6f
e2
52
6b
cf
65
b7
e2
57
69
6a
d3
c5
d3
ed
70
ca
54
2c
c3
55
c8
9f
e1
bd
58
d5
e9
ea
e9
6d
bb
dc
4b
61
ac
d5
88
ec
44
e3
b7
5d
de
f0
6e
d6
d4
a3
60
61
52
68
48
de
6c
64
c9
6e
5a
6a
d3
d6
39
da
ec
63
c2
3c
e8
d9
ae
ea
45
eb
5b
70
e5
e6
de
d9
54
ad
60
e1
60
5c
6e
d
5c
d4
5f
eb
db
dd
6c
ef
49
5e
56
d5
ce
df
3c
53
4e
6b
64
de
5b
55
61
d7
d5
e2
d3
4f
6b
d9
6c
6b
db
63
d9
e9
55
a1
57
65
67
60
cb
cd
e4
de
e4
6d
c1
ea
ec
e1
29
46
ec
4c
c9
e4
e5
32
70
2e
e0
51
6d
22
5c
64
db
6b
92
30
de
cc
e4
5f
ab
4f
67
57
ce
3a
6b
b2
5d
dc
5f
e8
75
6e
e4
cd
6a
5d
df
52
a3
c7
68
c5
6e
e6
6b
c9
60
63
69
65
a4
6c
e7
48
66
ed
56
9e
ed
bd
ee
5d
d0
e5
25
e5
e2
e3
6c
6b
69
66
6c
dc
c0
31
4d
da
a6
cb
6c
d2
55
d6
29
67
ed
f
68
38
e7
6e
5f
54
4a
6f
e6
eb
b4
6d
60
69
e2
e8
e9
de
50
63
c5
6c
52
d5
ef
6d
c3
4b
68
5a
be
e4
6a
10
cd
9f
44
d6
5d
49
dc
de
ec
6c
6d
44
eb
62
67
a6
71
e6
4c
45
b1
5e
5a
64
6e
49
d1
f2
ec
72
4f
47
df
5e
a1
5c
33
d4
6c
6a
e6
6a
3a
db
dc
54
45
a4
c8
4d
ce
65
78
de
c0
c5
46
5e
d6
c3
f0
68
53
e5
e7
2f
e2
42
ed
5f
52
cc
5d
6b
5d
c4
67
c0
66
c1
70
4e
4d
5d
5e
68
21
63
46
6b
e9
65
e7
42
68
cd
e5
62
66
eb
4b
6d
75
de
d1
d1
b8
f4
20
e5
e2
55
50
38
d2
ef
f4
ed
68
69
5d
e9
3f
6e
a
54
53
d9
43
1f
58
e6
e5
41
52
66
74
d8
ec
52
b2
dd
dd
ea
76
e9
6c
59
5f
4d
67
1d
e8
5c
40
b3
e4
ea
dc
eb
c8
d1
61
a1
5c
65
42
3a
10
eb
61
5d
da
58
ec
60
49
eb
de
74
61
c1
da
e3
ed
62
c9
67
61
bc
6e
63
3b
4a
d9
80
55
af
e8
4a
f0
36
55
a9
6f
d8
69
47
ef
dc
51
0
ea
cb
5c
29
6d
5a
e3
e1
bd
5f
62
61
d1
f2
67
db
6d
ea
68
6d
de
52
e3
69
52
6f
2e
6b
31
6f
74
56
71
3d
61
58
f0
55
50
6b
e6
d8
dd
e7
6b
dc
e5
4c
69
d4
62
81
d7
66
92
e7
6b
bc
2c
28
34
d1
59
67
e5
ed
e9
dc
60
de
e0
d2
59
60
5a
eb
d4
66
d3
47
4f
6a
d7
ea
6e
ea
52
ed
61
dd
51
c2
1b
88
e8
e6
3e
5e
ab
e9
6b
38
eb
e9
e7
c9
57
c9
53
52
ec
36
df
de
62
53
6b
dc
4d
eb
d6
ed
6a
dd
50
3f
e8
e9
de
cc
48
2c
e8
e1
58
c9
61
68
6c
6b
dd
e5
4c
d1
36
63
70
eb
e9
e4
60
c1
dc
61
c6
e5
c5
de
d2
46
ec
d9
32
1f
9a
2f
6c
5b
5d
d8
3e
58
31
b4
6e
51
e5
e6
0
ec
ee
c1
e9
aa
d1
69
60
d9
6b
5c
63
6e
0
60
ec
de
e9
62
d9
61
5e
60
64
e9
66
31
62
6a
55
db
81
23
44
57
cb
c7
b6
6a
ec
e2
ee
eb
62
e2
cd
dd
3a
65
81
58
d1
e2
34
35
bf
66
5c
e2
cd
dd
dd
e8
63
e5
db
4c
6e
44
63
68
66
ea
e3
20
d9
df
59
41
ee
5d
23
e1
6b
60
4e
68
68
94
6a
e7
3f
68
d5
6b
e3
6c
ac
ca
eb
62
4b
d7
95
5e
ec
95
6c
6c
68
42
d2
d8
e8
56
60
c3
b8
36
cd
c6
6a
ee
2e
6e
3e
80
66
ee
d9
67
ea
68
23
6b
5e
68
4b
6c
e6
43
54
d2
4e
63
e2
5f
44
cb
61
55
b4
22
51
5e
df
4a
69
36
d6
cd
cb
59
56
ee
da
55
df
d4
e4
ed
40
c1
cd
45
e6
68
eb
e3
ed
6a
d9
e5
71
ea
bd
5b
d3
eb
39
6c
eb
cb
64
a4
6e
b9
ea
5f
5a
6d
15
ec
e5
dc
e4
63
de
dd
b1
6d
e4
4f
db
e5
e2
b0
d2
e6
b2
5c
6b
e5
db
64
dc
c5
d9
d0
ea
b5
5c
6a
da
42
d0
63
e3
59
66
5c
d8
df
28
cd
31
53
e2
92
b1
d6
da
66
d0
58
55
e6
87
62
dd
d8
ca
ce
df
62
68
6d
da
d8
67
c2
5d
e6
58
4a
5e
e8
dc
cd
63
de
53
e2
db
c6
69
c6
eb
60
d4
66
d0
2e
e0
e5
ed
df
65
d1
e0
d7
39
5d
ed
e5
eb
6c
41
db
69
5a
a8
e4
d6
ea
52
db
5c
5a
6a
e0
9e
20
6c
5e
cb
6a
e3
5f
de
de
67
69
dc
dd
68
5b
ea
3c
c6
c2
db
49
e2
5c
ec
c2
43
54
71
d9
64
95
e3
4c
62
6a
43
dc
52
6c
40
dc
4b
e7
68
e8
5e
cb
5f
d2
c9
db
56
6a
5e
50
ec
32
ba
68
6e
67
69
68
d4
d7
e4
48
c0
e9
ef
5b
d7
e5
e5
63
64
ed
58
69
d8
bc
d4
d8
ea
dc
45
62
e3
c3
bc
d5
59
32
21
d2
e1
57
dc
e4
e3
e9
ed
5c
52
eb
eb
6a
54
54
60
52
d4
cf
cf
6e
40
55
6e
1d
ee
59
50
e5
e7
6b
68
69
e8
5f
6c
46
41
58
df
e0
b6
ae
48
69
d3
4f
de
da
6a
62
c8
e4
e0
ed
59
6d
e7
55
69
d0
3e
57
5f
dd
71
6c
80
5b
e0
e1
4b
d4
67
ef
ed
eb
53
b2
cb
a2
ee
5e
6d
71
6c
55
4f
e8
4e
c7
e6
e4
60
db
63
47
26
69
68
67
17
71
54
d5
51
61
df
c5
ba
6c
68
e1
5e
e2
70
ed
33
de
ba
57
64
2f
48
70
35
69
5d
46
f2
dc
74
d3
53
4c
e7
67
d4
d8
63
51
d5
48
de
e5
64
e5
6c
dc
e1
c5
b5
d9
51
de
80
d6
e7
c9
37
b6
dd
ee
5d
6e
c5
ac
e8
69
67
e4
df
ef
f1
6d
df
ed
e1
66
c8
65
66
6c
47
65
e4
e5
51
64
ec
ed
ee
63
e6
e3
e2
61
5a
c2
68
cb
b6
67
e0
e5
2a
6b
81
ed
cf
ec
65
0
db
4c
57
d8
ca
72
74
67
e5
be
c3
4f
65
97
ce
54
5d
ed
67
6a
e1
f1
e8
3a
ed
64
e5
6e
ee
d3
2e
73
5b
5b
26
5b
bb
68
6e
60
61
68
5b
eb
63
5c
62
dc
55
6a
5c
6d
e2
6e
ce
d3
6f
67
72
e0
68
ca
55
74
6e
58
72
61
5b
6c
c0
38
55
eb
6c
e0
6c
53
70
c8
65
74
ed
99
d0
da
5d
6d
e0
e2
d1
e1
68
d7
e9
b7
d7
ea
b7
0
53
43
e6
6d
70
ef
e2
3e
5a
e8
5e
75
64
d6
48
4f
6f
ae
e8
cc
64
32
cd
a3
66
54
45
be
ee
ea
65
ea
cd
70
5d
ca
cf
62
a9
6a
c8
63
e6
ef
5e
ee
f1
ea
28
65
b9
67
4e
d6
e7
e6
71
72
c7
c9
c6
c3
cf
56
cb
f3
16
cf
e3
65
62
ef
62
77
4f
e6
b3
da
6b
eb
cc
6e
e6
b4
69
6a
55
e4
33
76
b8
b3
ec
c9
62
5e
6e
af
66
63
e6
44
ec
d8
ea
e4
de
66
36
63
8e
69
5d
57
cd
d9
e5
5b
70
e8
ea
ee
ea
60
d7
63
d6
e9
f0
65
57
e1
f1
e7
56
5a
78
ed
43
6f
f3
59
e2
ec
5c
97
ef
60
38
6d
4d
66
e6
72
59
5b
c2
56
de
69
73
41
a0
ce
ee
6b
3a
69
cb
62
ec
55
d8
b8
ee
5e
6e
3b
cc
eb
62
c2
74
55
5f
dd
59
4e
4a
6a
42
51
52
65
df
5a
27
52
66
67
54
df
b5
80
ee
c6
2d
eb
5e
f0
71
56
ee
52
6a
ed
65
3f
eb
5f
4e
ca
76
e2
eb
ea
a1
cd
e3
5a
f0
d0
6c
c0
ed
eb
62
57
e7
6c
f0
bf
ed
5e
e8
ed
42
32
34
4e
5d
6d
d9
5d
f1
d8
68
56
19
6a
5b
56
ee
f0
2
50
62
5c
f0
df
e2
e2
de
db
2b
c8
d3
5b
67
96
d4
eb
39
5e
e8
df
ee
59
66
6d
62
c0
65
76
e9
de
d2
36
5b
c8
ca
da
cd
72
75
e2
6b
d7
d5
e9
5d
e3
5a
6a
61
ef
e5
63
ed
dc
e9
6f
e7
e6
55
6b
d9
d8
9d
e6
59
e3
a8
61
5e
70
de
bf
69
6e
d0
df
59
cf
38
6f
c6
5a
64
f1
5e
8f
eb
e4
ea
e9
1c
3f
f1
d5
c0
ef
57
6c
d9
d9
66
69
71
2c
c6
e6
6a
51
e6
66
63
e9
ed
68
d8
e6
d5
cd
f0
4b
e9
71
df
49
5a
b7
43
d7
6d
ce
47
74
e5
f3
64
69
d6
e4
bf
d1
bd
f2
5d
d7
50
65
6d
de
62
5b
90
3f
d2
c6
60
61
e9
58
c2
e0
5d
67
52
6e
cc
62
47
61
36
4d
6f
54
e8
67
38
6c
6b
ed
e5
d5
ea
e0
d4
71
d8
67
e8
d6
27
6a
60
e2
e5
ed
62
6d
58
d9
e8
e4
c2
6a
c3
c6
d6
b7
d0
e6
ee
45
eb
a7
6b
68
47
62
eb
3f
bc
e2
65
d8
e8
4d
6c
4
2d
df
3a
69
53
69
6e
ee
4f
bd
6f
dd
5e
58
dd
67
6a
e0
66
57
e1
6a
53
e1
d9
40
cc
54
70
e1
cf
27
65
e7
69
c1
6d
65
50
e5
6a
5d
70
ec
5f
ed
e8
e9
a9
68
47
e4
ba
e1
67
57
9
c6
e8
e5
89
db
71
21
68
44
3b
6b
e1
d4
55
13
e1
9f
55
ee
bf
d2
c5
3f
5e
43
69
60
ea
63
e0
4b
e8
5d
4f
ea
64
e0
e9
dd
ea
14
e8
6f
ec
e7
69
ec
de
54
b2
ea
6d
e7
e5
ea
ec
6e
ce
38
57
49
e3
de
66
48
4f
c1
3f
66
4a
ce
e8
d2
52
df
cf
e6
bb
d4
ec
54
5a
e9
50
3c
66
d6
ec
2d
e6
bc
61
62
da
5b
e7
5f
6a
32
e5
6d
cc
e9
a5
57
d7
a0
e6
e9
db
6f
bb
cf
63
6b
5c
5f
5b
ac
17
ea
80
5e
42
da
0
c4
da
69
3e
ca
6b
ed
51
dc
e7
6d
54
be
d0
e1
da
60
6b
c9
ea
a8
5c
cb
34
5a
d4
56
46
6d
54
6a
70
e3
10
5a
dd
50
13
32
ec
cf
e0
cf
e1
64
58
ed
45
64
47
c6
d4
c0
4a
d6
c7
ca
58
6a
e3
63
d0
ea
9f
e7
57
d5
62
d1
69
67
53
6d
71
ce
6c
6b
6a
e6
5c
62
54
eb
e8
bc
68
6b
5c
ed
66
63
ed
e6
d8
6c
d4
6b
9a
6c
66
69
e5
61
6e
59
8b
58
6f
61
ea
54
eb
da
5e
76
e7
6b
d5
63
64
e7
d0
e5
5c
29
99
6f
e9
e9
65
ee
e4
98
4e
4a
f3
e4
df
53
4
64
65
6b
e7
5d
5e
56
65
d8
ea
0
60
60
bb
e9
a6
e7
50
71
61
d5
e4
d3
72
6c
59
66
ee
5f
d9
b9
42
5d
d5
de
f2
6e
57
a9
db
e9
ec
50
6c
d5
f
6d
e0
6c
47
57
e6
53
ee
da
d2
6a
e1
b8
ee
55
5c
ce
68
2b
3b
46
e7
18
db
c6
e6
6d
f0
19
ea
2b
60
e6
ed
c4
5b
de
e8
66
c1
2c
e8
6e
73
54
e1
ce
68
c4
70
58
ea
62
de
ef
dc
c1
59
6c
da
68
e4
67
64
4f
5d
e2
69
3d
db
68
ed
e6
ed
ef
53
b5
c0
58
ed
6b
53
0
e1
80
e5
67
67
bb
e5
63
63
a6
69
5b
5e
e9
6d
69
4f
a4
6c
c2
ea
d8
41
c7
e6
ec
64
49
6d
e7
32
e7
c7
54
6a
80
64
53
e6
e5
66
ea
30
e4
5c
ec
37
6c
64
6a
cf
e5
ce
5e
5e
d8
62
62
72
4f
cf
d4
6a
6a
df
dc
6a
e7
4d
db
4c
db
6b
db
ef
69
da
67
5e
6a
16
4c
d9
60
eb
6c
6a
3e
e5
c5
57
d2
a
60
65
d9
75
e2
ec
6c
c8
e9
74
69
69
6c
e
c1
66
b7
c8
56
ec
6b
68
68
e3
e0
ea
e3
e0
ee
70
e2
68
c5
ea
dc
63
65
e5
d8
5f
a5
ec
e6
6e
cc
eb
e2
36
57
61
e4
d3
70
42
f0
51
5f
dc
62
53
6a
d2
a5
eb
4f
e6
de
64
6b
5e
e9
67
e1
e6
6a
3c
e4
d6
3c
ea
61
e4
cd
5d
3f
d3
e7
e0
3e
e2
d8
6a
c8
58
eb
e9
69
d7
c7
d2
4d
65
db
e7
e4
56
dd
d7
33
55
29
47
e9
54
d4
6b
70
6b
be
5b
50
d7
e7
3b
6a
e0
5e
d0
66
6f
6d
e7
db
eb
d6
cb
8b
48
eb
bb
3a
ee
49
cb
35
74
6a
5c
c7
a4
81
70
e8
64
64
6f
54
5e
da
e3
af
dc
f0
6b
4c
ec
d3
55
70
63
d8
5f
d6
92
e7
59
66
c9
e1
63
e9
5b
6c
66
c1
b0
ec
6b
eb
67
25
ec
5c
d0
e6
ee
e0
63
44
d6
6b
c7
4b
d1
1d
5d
66
eb
89
e1
de
da
ca
ed
cc
37
55
e6
52
68
44
b9
50
67
56
ea
c7
6e
66
68
d9
e8
5d
5a
b0
50
dc
ca
6b
6b
d1
ef
c1
67
d9
e7
e6
6d
d0
5d
67
71
51
c9
e9
3f
c2
58
41
6d
6d
67
42
e1
55
d8
99
4f
31
ea
6c
54
6d
6b
bb
40
b0
68
6b
68
b8
45
dc
d4
4b
ed
d2
c6
e3
58
ef
6b
59
dd
5c
50
e6
e0
63
c6
56
4d
63
6b
e9
e8
9a
5b
e6
4e
1f
cc
9f
6e
80
28
e3
57
c0
a3
6b
db
65
5e
e0
39
64
df
6a
5f
69
6c
70
51
de
68
55
5d
dd
69
55
80
db
5d
cc
61
5e
ee
5b
d7
e1
52
ec
eb
c4
d7
5c
41
5d
6e
12
38
4e
56
dd
d4
d8
42
cd
e3
2e
e5
46
e1
43
60
e0
eb
de
36
66
d9
67
d0
e6
bf
ee
d3
d7
12
de
6a
6f
51
80
62
ea
62
cd
61
67
eb
e1
6b
e6
df
e0
ef
66
64
d9
ec
a9
35
6c
6d
dc
68
63
d1
b6
d5
65
49
58
c1
d8
64
e7
71
52
1d
c2
e0
6c
89
67
6c
df
d1
ad
37
5c
c5
db
cf
a9
5f
57
36
60
eb
e4
c9
9a
62
67
76
d7
54
eb
5b
5c
ed
a4
f4
eb
af
db
64
63
dc
49
63
ec
eb
6a
6f
de
6f
61
eb
e6
65
d7
1a
51
36
4f
5a
d1
68
62
55
b9
3f
6a
cf
b9
46
e6
e9
ca
f0
60
64
73
e4
56
42
c5
65
e9
76
75
72
ef
e7
4b
6e
55
5a
5a
dc
de
c3
d0
ed
67
ef
50
dd
4f
df
6d
63
5a
5e
68
5a
6f
f5
e9
6a
eb
d5
e9
6e
5a
aa
e1
6f
4f
56
ec
ef
79
59
6d
ed
e9
5d
51
d6
e1
5d
5c
e0
df
60
eb
37
6c
6d
df
5d
e3
57
e5
65
e9
5e
e8
3c
df
75
dc
bc
de
df
ee
e1
64
a9
e4
71
31
d6
3a
e7
bc
e1
3a
ba
ce
ca
d0
44
71
6e
5e
75
5d
e5
ea
6f
65
e3
55
dd
dd
3f
6d
3b
e9
5d
df
e8
75
40
59
ea
56
e6
d7
67
d7
cc
e8
66
c4
6b
5a
4c
6c
d3
df
f1
71
e2
5e
f3
d2
60
e1
e6
e5
81
59
3e
54
66
45
e4
4a
e0
f3
5b
56
67
e8
ed
ec
60
e5
69
bb
d3
b
de
c5
4f
60
44
d1
e0
e7
3a
6a
60
6f
56
d2
dc
ee
e6
68
5d
e6
62
ea
69
6b
d7
e1
5b
dc
ed
b2
e2
c4
df
14
e6
ce
d5
67
6c
d7
c8
3e
ab
e3
67
60
50
ac
5a
eb
6a
ea
6
eb
e1
d9
ad
ed
68
5a
59
ee
6d
4c
52
27
e7
e0
d1
5a
e1
ed
5d
e2
67
e6
6f
d9
4a
6a
42
d8
e8
51
6f
c4
50
8c
e1
b9
ec
da
5a
7
6e
e5
61
58
6f
5e
60
4b
e3
50
56
4e
ed
d7
b4
5b
d5
4f
e5
63
70
5a
5e
67
d5
ed
eb
ea
69
e9
f0
67
de
67
59
df
68
6e
5e
d6
d9
c4
ca
6a
6c
e0
ec
ea
cd
66
e3
a
6e
ec
b8
4d
36
c6
64
e3
57
65
55
b0
42
d5
61
62
82
62
6b
6c
de
3c
ea
6b
68
63
ce
5c
cb
66
5f
ec
b4
69
d1
6e
56
da
65
61
59
e0
6a
c9
e7
d4
6a
6c
ec
63
47
52
2f
3b
b7
c2
e1
58
e3
d8
23
6d
e2
d2
63
5b
e9
e6
8d
e3
6a
eb
21
db
5f
e7
6a
ee
3a
67
b
5f
62
df
6e
dd
e5
e3
df
e8
6a
35
57
ec
69
ea
3a
59
e1
d3
d5
d4
68
d8
0
5f
52
6e
4c
0
ea
d8
d7
50
66
66
cf
70
f4
e3
ec
ee
69
61
d5
c8
6c
5c
4b
e1
58
e9
c5
81
da
46
45
cf
dd
1d
6a
6b
e8
6a
c2
59
5a
e3
b4
e3
59
41
e5
2e
41
e1
ce
6b
60
58
be
e7
49
ef
ed
6b
69
ea
50
a3
3a
ea
dc
63
6a
73
6d
eb
bc
d
68
dd
94
e2
69
6c
6c
67
51
e4
bf
c7
39
ea
44
5b
e1
61
d8
4b
65
58
98
3a
d8
d1
59
f0
3a
e3
3c
65
60
b2
eb
93
6f
56
20
ed
6f
58
a3
6c
ec
67
db
ed
4a
eb
e4
c4
ed
0
58
59
50
6c
c2
36
e0
5d
70
4e
1e
d3
56
6a
5d
c6
43
d1
e5
e5
70
68
68
68
e4
6e
50
6d
32
e9
70
6c
61
d0
af
cc
e0
eb
5c
b2
d2
96
e9
1c
61
e9
65
e1
6f
ec
e9
d9
53
5a
ed
b3
6a
61
69
4f
ec
bd
6e
5c
38
64
ea
dd
cf
6e
65
3b
9c
6c
d8
ed
68
d7
6d
5f
da
db
ea
e6
63
d0
4b
6c
6a
5b
e7
d8
54
70
eb
70
ed
6c
49
66
62
e8
d8
58
3d
d4
5e
65
6e
5c
ee
dc
66
5e
62
d7
cd
cf
83
74
df
80
d0
e7
5e
5d
cb
e0
57
53
ee
ea
ee
e6
57
5d
ef
5a
6e
64
64
5f
54
55
6c
b5
d0
dc
e4
6e
e5
c8
dd
eb
68
51
d0
5a
dc
d7
ec
69
ed
3b
63
dc
2e
5b
5c
e8
e2
e8
66
5c
66
52
34
db
ce
69
e2
d2
df
61
5c
ed
eb
69
df
df
e7
70
e4
dc
e7
dd
5c
cb
ec
d7
ec
84
63
6d
67
4b
de
68
db
6d
e5
e5
5c
ef
61
59
57
4c
dc
b1
62
6b
6e
6f
e0
69
d5
44
d2
da
81
e1
d7
6a
5e
b3
e8
e6
67
e4
d1
ee
e8
35
d1
eb
6d
3f
e2
b0
dd
f1
de
17
3d
53
e2
e5
54
e9
66
5e
dc
e3
e9
d9
8b
26
38
60
c1
c6
4e
6e
bd
60
de
43
e0
a9
d2
bd
ec
e8
46
68
96
4f
e3
65
ed
5b
e3
67
4f
62
ed
c4
d9
ea
e2
c0
6c
55
41
57
63
d9
4b
6d
b0
c7
6a
4f
ee
61
5b
5e
cd
5f
9a
e9
e6
cc
ea
61
a2
4c
6d
59
57
e1
e3
c4
24
80
5f
ee
e8
48
e5
63
ea
81
60
e7
5a
d8
5b
44
dd
45
ed
6c
b8
ce
2f
50
dd
52
72
34
b0
63
e6
d4
ec
e4
de
55
50
eb
e1
67
6b
6a
e9
6b
68
ec
e9
31
67
3a
6a
ea
de
16
e9
c6
6e
65
a8
eb
ea
68
d6
c4
e3
d0
3b
3f
d9
dc
ea
c9
61
1c
d6
6d
55
50
eb
51
e3
44
eb
e8
62
66
30
5c
e2
59
4f
31
67
60
c8
cd
18
c1
51
ab
e6
68
6f
4c
e7
50
64
e7
e4
dc
d9
dc
bc
e2
d1
5d
cc
5e
2c
e2
dc
e0
6c
35
ed
ea
e7
e8
5c
ec
d7
5e
a2
6d
64
d9
62
67
73
6a
de
dc
63
6c
51
ea
6f
67
e7
e7
47
b
6b
60
73
e9
e6
6e
5c
49
c9
d3
d2
43
4f
69
57
64
7
ba
d0
26
51
6d
c8
ce
6a
eb
d9
6b
6a
de
c3
c2
5a
b6
62
62
ba
b9
dd
d1
c3
da
e8
64
c5
70
e8
65
37
5b
ed
ea
43
6c
54
e2
6d
64
e7
68
52
68
e8
80
da
66
34
e6
de
6b
cc
5d
df
c6
6b
5e
69
63
63
e7
2b
66
d4
5a
df
52
3b
4b
e8
e8
e5
ea
c3
68
69
53
d9
ef
dd
6b
63
df
cf
69
d8
66
e0
51
5f
e8
bb
d3
6d
c7
e9
e1
ca
eb
6c
e2
bf
e2
66
de
d4
59
6b
28
ef
b0
5d
6c
24
5d
a8
56
6b
e7
59
6c
df
54
42
e6
a5
d3
ca
e9
ba
cb
27
da
e0
d9
e5
65
e7
6b
48
59
6d
62
59
b6
d5
6c
68
e6
c0
5a
53
e8
d7
45
ec
e2
e2
58
4b
da
69
5a
64
e5
6b
c5
cf
c6
60
d8
d7
4d
46
4f
c2
51
e9
67
cf
5a
ad
ea
6c
59
68
e2
e4
6c
ee
e7
6d
61
c8
ec
63
50
e1
5a
25
6d
5c
5d
6c
70
eb
6c
48
6f
bc
df
a2
c8
ef
df
dc
55
70
80
dd
6d
a0
3f
e2
ed
5f
70
e8
4c
64
cb
e5
3d
e0
e1
e2
25
e9
da
df
e9
56
5d
60
e1
ba
55
c8
5c
60
e9
6e
6b
6e
ee
5f
63
e6
67
d5
59
ed
57
36
3d
ea
6c
eb
69
1f
6e
80
b4
d5
34
cd
e6
62
b9
d3
ce
21
d6
6b
e6
de
68
16
65
ec
e6
57
2c
4c
da
a2
c9
65
6d
e3
e4
34
bb
eb
58
e3
c4
4b
67
6c
c9
e3
97
56
be
ed
67
64
5b
61
d5
4b
eb
e8
53
ea
dd
40
ac
bb
56
56
65
d4
5a
e8
52
55
6a
62
c8
e8
69
64
e8
ec
67
b0
5e
cf
46
66
42
64
4e
d9
5c
d5
6a
eb
e5
6a
d4
58
4b
ec
47
bf
57
98
31
90
63
b4
e5
96
cc
de
e3
e1
c0
ec
5e
50
38
54
0
49
e4
de
de
eb
e9
68
ec
68
6c
5c
34
51
4f
35
c2
63
c3
55
de
5d
ec
66
2d
ea
c5
22
e4
ea
45
4f
e9
64
e4
61
65
6b
eb
68
36
e3
68
34
d3
27
ee
d8
49
8e
6c
40
ea
d9
60
ac
67
ed
59
e3
c5
e9
ed
53
4d
68
5a
6a
da
d2
64
56
d6
c3
52
d4
59
e3
e3
9b
65
cb
ca
6d
a1
5f
df
5e
d8
55
3e
b2
e1
e7
ee
de
df
de
e0
e2
67
d1
22
5c
e4
67
d1
ea
a2
64
66
e1
df
ce
df
44
eb
ec
30
5d
58
e0
d9
4d
ee
66
40
e4
eb
62
35
ee
e0
55
bf
62
68
e4
b0
cf
e2
57
6e
66
65
e7
63
cd
e1
46
68
e5
eb
db
e4
e8
41
58
e0
ef
6b
60
c6
62
dd
e9
4b
ec
eb
4d
67
54
d7
4f
da
c7
e4
67
e9
e8
5b
f
19
5e
40
cd
65
6b
e7
68
6c
d5
5a
c4
ce
bc
e2
e7
e4
ea
17
64
5c
e6
c5
63
59
dc
68
49
b3
e5
63
3f
66
68
6b
a1
d3
e6
e9
68
3a
48
eb
6b
6f
e0
40
e2
59
e7
37
e3
dc
26
39
53
d1
6e
6a
69
df
64
e2
e3
5d
ea
54
60
4a
ed
ee
53
ed
47
48
e0
e3
e5
6e
53
ee
64
6f
53
6c
c9
2f
3f
da
d6
e8
ec
1d
57
e8
d6
d5
5f
54
43
18
d8
20
69
c6
60
eb
4a
4c
5b
cd
67
ec
3a
0
6b
de
de
63
db
56
ec
44
ba
d6
4c
6b
9e
34
e9
67
e4
6e
6c
eb
69
56
44
62
c5
6c
cd
49
59
e1
d8
2d
a1
eb
67
e9
e7
24
65
ed
da
6d
32
d3
5d
5a
65
ec
5d
3c
e2
60
e6
63
e6
9e
a3
5f
39
64
69
1c
61
d2
e5
59
6a
e3
6c
da
82
d6
69
e1
e3
6c
4d
52
2d
6c
e7
6e
e4
66
3f
c6
cf
e0
e9
e5
dc
c2
e6
2a
b0
6c
ec
e9
d1
c9
33
e9
e9
da
ee
35
6a
45
e3
54
b8
54
d8
54
dd
6d
59
53
5d
55
b2
dd
61
d3
5a
e2
41
c2
58
e3
dd
db
c3
65
c6
67
4a
c8
5e
e1
57
58
ed
e5
df
e6
6b
6e
d4
48
80
6d
6c
6b
e0
c3
67
c9
d4
64
59
cc
63
66
60
69
1d
56
eb
ea
6e
69
de
dc
f0
6b
ca
59
56
6c
ed
69
6a
d7
57
34
da
b0
ea
6a
c6
eb
e9
2a
d2
de
c2
ea
5f
6f
67
5a
5b
ed
56
cc
bb
d8
eb
ea
46
cc
4a
da
de
6e
eb
5b
4f
65
cb
68
56
2c
6d
55
6f
ed
48
ec
e5
be
cb
49
6e
5d
64
ea
e9
e3
cc
cd
eb
e8
4f
e3
ed
65
c3
50
62
67
52
bf
5d
48
54
d5
e1
71
e6
d3
58
56
71
69
d4
72
5d
d4
47
d1
6c
63
6c
55
5c
de
6a
e6
d5
ee
e5
ea
e7
66
56
d
c6
72
6e
d5
4c
ea
55
db
5d
5b
b5
d6
65
9d
6f
cb
6c
80
71
5d
d9
e9
51
6d
2f
e1
61
e6
e5
c7
d2
c6
4e
eb
5a
ea
42
e6
e5
f1
36
e6
64
6f
e5
e7
58
d0
ed
c4
16
6e
62
d7
6b
5a
c3
e1
ea
63
eb
5c
c1
6b
da
f0
c3
64
73
51
3c
59
64
4e
c3
e5
d9
74
30
e0
72
c9
dc
3e
e5
59
69
ec
eb
d4
d0
e2
dc
73
62
b7
f1
6a
5f
6e
37
43
d5
6d
67
57
d7
e0
67
65
e3
e9
5c
6e
70
e7
54
4e
56
c5
b2
94
59
b6
f0
3f
ec
df
a6
d5
ed
e3
6d
6c
e1
ee
6d
ee
ee
4f
cc
5a
c8
55
cb
67
cf
eb
0
67
dc
58
c5
b4
52
52
66
40
a7
6e
5e
42
63
da
59
e6
c9
dd
e4
d6
60
d2
98
70
49
dc
74
64
58
5a
47
47
44
5d
