8c1
3424
70f
740
3e3
5e96
2ec6
afcc
4
ffffff3a
25d5
672c
5b4b
2f49
1931
27f5
ffffffc0
d7c
341
ffffe4db
6441
ffffee97
3a76
3
886
bc
2f
ffffa4f0
8e9
199
6282
2b40
2841
8e79
124b
ffffe8a3
1e
4f2d
16c5
3c61
4df4
23b1
ffffed11
8262
fffff400
6098
ffffeae8
2c12
1260
129a
8344
3eb1
783f
6d77
46e8
5cc
fffff1cc
5c13
ffffffea
fffff23d
ffffebfa
fffffc80
fffff945
ffffec30
