a5
30
52
80
da
dc
d6
d4
cf
b9
39
63
e2
cc
b5
e1
e2
2b
e9
31
65
ed
ea
4b
f0
c3
6d
db
58
64
d5
56
65
e4
52
5f
20
36
d3
dc
5f
41
80
d5
2d
37
c1
e5
67
53
e2
69
c1
62
d9
ca
64
ea
57
76
e2
e6
79
db
4c
c7
cb
61
59
5d
5e
cb
dc
2e
60
e1
60
e0
30
58
e5
d2
9c
af
4e
4a
69
e1
5d
66
48
55
43
59
64
ed
3b
64
ed
e3
68
dd
b8
71
e1
e3
2f
e1
52
55
cb
d8
60
d6
d7
c6
c3
8b
c5
d9
38
db
57
4d
e2
c1
3c
cb
b3
d2
5d
59
e0
61
87
60
49
a1
a6
be
1
3c
e7
61
c0
e3
5f
f1
e2
23
d6
e7
c8
c9
5e
62
d6
26
c7
58
b1
96
da
2f
56
d9
5c
ce
4c
da
5d
3e
de
64
ee
d6
5e
cf
5e
d0
d6
5b
e1
60
57
3e
c3
52
3b
f1
cf
65
f6
e1
ae
f5
cd
d9
61
be
40
4f
d8
0
b8
df
52
cd
6e
47
56
78
d5
cf
6c
66
e0
dd
d2
da
63
2d
2f
de
62
23
67
d3
58
62
ee
d2
53
c9
e0
45
df
11
f2
b9
e8
ed
4a
d6
d3
d3
21
62
ef
e3
70
ea
db
4e
42
ab
5d
c3
d0
c3
3f
37
51
40
64
57
67
5b
5e
dd
97
d5
c7
61
59
32
65
4b
51
33
ce
5e
5d
df
ae
52
4c
e2
bd
d8
41
61
80
e9
59
68
e8
48
4b
4b
b7
de
4e
e0
80
65
4f
c6
42
dc
2e
46
63
aa
4f
d8
4c
53
e0
23
6c
c1
e5
d2
2e
dd
e0
6f
eb
48
6c
d3
54
c5
66
b8
b0
5f
6c
d9
ca
6e
e0
68
a9
ea
ce
54
cb
d9
66
4b
56
d6
df
5e
5a
e0
48
67
46
cb
55
58
d6
69
d2
60
cb
e6
54
6f
d6
3a
6f
f6
3c
75
e4
d6
d5
ed
49
3e
d6
e4
6d
c4
42
c9
37
4c
48
62
2e
e0
2d
37
d2
eb
63
4a
ce
60
6d
bc
cc
c8
d5
62
41
55
d8
aa
63
d7
e8
6a
f8
de
56
dc
4d
bd
2c
60
ce
58
de
d8
1f
da
cc
55
65
34
5f
c8
ec
64
54
29
e4
56
2c
b1
52
ed
dc
d3
e2
da
d9
de
e6
66
bb
d2
51
a6
d3
50
e1
a4
46
52
c5
e8
ea
c2
29
ea
37
6b
ef
df
64
d1
54
5d
ca
cd
57
e2
60
43
b5
e9
e0
e7
e3
cd
5d
c5
3b
47
65
f4
5a
72
ff
5b
5f
f7
51
d8
60
60
d2
4a
dc
d8
5a
61
47
d9
d0
4e
4a
e0
55
dc
b9
4d
36
5c
be
62
60
56
d1
58
d7
67
d8
ca
55
a5
c3
c7
30
4c
de
c7
bc
df
54
c0
d0
d1
3b
53
cf
42
71
56
d3
6e
58
65
c8
53
40
62
e4
d4
58
df
da
2f
33
de
da
5a
ce
4e
dd
60
5f
53
d3
bc
62
d8
3d
4a
45
ba
21
df
61
d1
e3
64
d5
df
1f
cf
2c
b6
ed
3d
46
3b
d6
9b
d1
55
d9
d8
dd
41
dd
52
38
51
d8
4c
e1
cf
24
e1
3f
68
eb
38
74
e9
dd
67
d6
58
58
63
42
5a
64
cf
6f
5f
52
35
d0
d7
e1
28
e3
cc
63
be
ec
6b
64
f1
47
6a
d4
b5
81
bf
5e
cb
80
61
57
e0
43
33
cc
5d
b9
33
dd
68
56
b7
56
51
de
d1
78
e4
59
79
d9
5b
66
d3
e3
69
5b
cd
61
4d
54
85
e1
61
20
43
6a
4e
49
8c
be
51
d7
67
36
b7
c8
b9
2d
67
8d
60
6e
27
70
61
dc
4c
49
e3
e3
65
55
4b
65
56
cf
30
e0
53
67
cb
66
5c
d8
cf
d4
de
60
d3
5c
a6
2a
e3
10
cb
df
e1
69
a9
d4
67
58
4e
b6
c0
cb
52
bb
d3
c5
ce
30
5f
c8
d3
d
d0
5f
c2
eb
54
60
d7
dc
c2
ad
e6
80
e9
d3
52
d0
ea
49
da
bc
c6
b8
e2
e1
e1
d0
4c
c4
c9
e1
cc
c3
66
5e
53
53
e4
46
54
59
66
e5
5f
6d
ed
a6
48
ea
41
cf
33
cf
40
44
c8
c3
62
a8
67
c0
c5
c2
e2
d4
dd
9d
e2
e3
42
27
9b
6c
56
5d
57
43
c9
d6
63
33
e1
6e
c4
c8
57
4f
de
5d
ce
e5
6d
e0
f4
eb
44
b5
f8
c5
56
fa
e7
82
4b
c7
88
df
4f
59
17
c9
43
5c
cf
59
62
54
e9
b7
5a
55
cc
61
59
31
58
e0
bb
cf
df
e4
e5
e8
45
e9
c9
e1
53
eb
5b
d9
c5
64
e1
69
60
54
aa
60
9c
c0
62
d9
e9
de
31
e3
b6
bb
34
51
96
5c
36
67
d5
5e
53
99
4e
5e
d6
c3
56
c7
cd
cd
ce
d2
45
5d
b1
df
5e
e4
2e
cc
9f
c9
ec
5d
c1
a3
dd
59
45
3e
d2
bf
25
66
57
a0
62
4c
32
4c
db
cb
64
e8
e0
b2
5c
4b
d0
ba
d1
b3
31
63
67
97
d9
11
6c
5b
5f
56
51
e7
dd
e9
ec
d8
e2
d0
d3
58
38
e5
53
d7
b3
d0
d1
e4
4b
5d
e1
5e
5e
d3
55
39
e4
5b
e2
9e
e0
a7
e7
e6
4f
e7
e1
d2
64
d0
b0
6d
e7
58
7e
92
1f
13
de
c5
e2
52
38
d0
c4
61
63
cb
51
62
dd
5e
c0
cc
60
79
da
5d
7a
cf
55
7b
bc
cf
eb
d1
d5
df
b4
db
e2
d7
3a
c0
cc
d6
5b
e9
c3
d1
64
c7
d9
58
58
dd
1c
8b
d8
66
56
d7
4a
da
dc
6a
5f
d1
4c
51
ac
50
e3
cf
d3
59
56
5b
dd
3b
be
5b
61
38
58
60
e6
5a
32
ea
eb
69
df
ce
77
eb
4b
ba
dc
d5
54
c8
ce
52
d8
e1
e2
57
5e
5a
43
c6
e3
c4
61
2f
53
e0
d8
5f
db
e2
80
da
c6
3c
3e
d7
d0
54
d1
d7
dd
ea
df
61
3e
72
70
68
47
5d
66
54
d8
c1
d6
50
d2
d1
4f
dd
53
5e
5e
63
c0
62
5b
26
d8
47
d4
45
c7
e4
dc
ef
ef
e9
b5
4a
5c
63
73
67
e1
e3
eb
d9
d5
be
81
cd
de
62
3d
50
66
6d
5e
5c
d5
49
da
2f
8a
63
53
67
2c
6f
61
d9
57
0
e1
d5
63
57
dd
e0
4d
54
d6
cc
57
bb
c0
da
e3
51
dc
c0
48
61
40
c0
db
60
3c
dc
4b
44
ce
5e
95
ce
6c
60
db
46
5a
60
dd
48
50
c3
35
e3
c0
59
50
51
67
97
dc
56
57
cd
47
4f
5c
c3
54
d7
cd
2d
4d
d1
5f
54
c0
ce
b5
d2
54
56
57
62
61
60
c7
59
1b
4c
81
cf
5b
5e
3a
70
70
db
5d
d2
3e
dc
4b
d6
e3
aa
46
3b
4a
b8
ca
c6
6c
75
74
e7
c4
bb
59
ac
3d
44
d4
3f
e2
d5
ce
e5
d3
a9
d7
e2
e1
e2
e0
5e
4f
5e
e3
62
60
c2
4d
54
e6
4b
40
b0
67
65
6f
d3
eb
ed
56
c7
eb
59
cb
54
dd
5a
63
46
1f
cd
6b
14
54
58
d5
6b
63
b
60
bc
d2
cd
b1
47
df
4c
95
d9
dd
dc
d5
9e
ef
d9
db
bb
e6
bd
e4
4b
d8
5d
5b
b3
d4
4c
dd
56
dc
5e
5f
5c
44
64
65
dd
41
60
2a
3f
e6
dd
b7
b4
30
a7
61
5f
da
5e
83
da
4d
4d
47
5a
d6
e1
d1
52
9c
37
56
5b
2c
ce
64
b9
5b
64
cb
51
4b
65
5f
5a
55
5e
3f
69
5b
6d
77
dc
d4
dd
c
df
c9
62
5c
c9
ee
fc
eb
d8
ce
f1
9a
6c
6a
e1
df
5a
5b
e4
52
53
d0
85
f2
f5
c7
80
d8
c1
54
89
4f
a6
d8
36
d2
42
e3
65
60
e5
5e
61
e0
a4
61
51
41
cc
5e
4c
65
58
d5
66
69
5a
30
63
de
7
5f
5d
d6
e2
ca
dd
c2
c7
c8
d4
d3
46
5c
e3
9b
46
3e
4e
60
1d
e0
d7
bf
e1
d8
c1
ea
e6
e1
cf
d0
28
b9
ad
ec
e9
f6
e1
ef
dc
37
b9
df
df
43
43
64
ce
69
e6
52
41
cb
f3
f0
ed
37
cc
40
39
ce
eb
da
d2
38
66
d3
63
71
6a
ad
57
d0
b4
46
2b
5d
49
58
ab
5a
43
6c
72
3c
43
78
75
5f
6f
cd
df
45
d2
3c
dc
46
55
c2
44
81
5f
5c
ac
60
3e
de
53
dd
50
38
55
e3
12
dd
da
3c
9d
d1
48
2c
4f
5e
c3
ca
46
1c
96
2e
da
4e
95
67
cb
d2
c3
c6
46
3a
d6
cc
5f
e5
e8
ee
16
d1
43
db
27
c7
99
b7
59
d8
d8
e1
42
51
27
b0
db
e5
58
e4
8c
e7
d9
c9
d4
82
2d
61
48
45
5d
4d
73
65
55
69
34
45
63
cc
47
6a
51
e4
59
de
e2
e0
c6
67
db
d0
d8
de
63
5c
32
58
60
81
e
d2
ba
5c
61
5c
3e
63
52
51
c7
e6
dc
4f
df
3d
de
d8
d5
5d
bf
5f
c7
38
e6
e1
5c
e2
d5
d1
5d
54
c2
44
bb
64
46
d6
f
c7
33
54
b5
cd
e4
cf
4a
d5
e2
e1
50
60
5d
52
64
57
dd
1f
cc
63
5e
68
80
d9
eb
e4
df
4a
da
b8
65
65
db
dc
59
c7
b6
58
dd
db
5d
cf
d7
55
80
e8
49
52
b0
63
4b
d0
b5
82
dd
d4
4f
c4
5a
cf
40
51
d7
a5
b1
2e
61
66
a8
37
48
45
51
e6
d6
53
61
e7
ea
e7
59
5b
cc
c5
63
6b
ca
aa
5b
ae
44
5d
9c
cd
2b
c5
a6
3b
ca
1c
55
dd
4c
60
4f
b7
46
44
b7
b9
5f
13
cf
4b
48
d7
cd
c1
dd
db
31
e0
5a
45
c6
47
d0
5e
62
60
68
47
20
e1
65
b3
5d
61
66
69
55
da
58
c3
e0
3d
d5
4e
47
2c
e0
c4
d6
c0
23
57
d3
36
3a
52
51
d4
42
dd
58
30
1d
50
e8
4a
d1
40
32
be
d9
c4
b3
60
58
5e
80
5c
d8
c7
4f
59
da
5b
81
61
5c
78
71
6c
b3
c7
e6
5a
c4
40
e0
52
d4
6f
5b
69
60
6a
6f
6e
6d
76
46
5e
61
58
b3
c7
6c
68
71
c6
4a
26
5a
3b
3f
4e
b9
57
4b
24
e3
5a
63
dd
d7
b0
bc
e3
56
bd
d7
dc
a4
d6
5b
ab
48
30
80
d6
e8
a5
23
50
dd
e3
c6
df
e5
2a
df
c7
e9
e6
d6
e2
5a
b
dc
bf
53
d7
33
5c
56
a2
4a
59
4e
55
58
5f
cc
5e
47
47
a8
d0
cc
c0
54
e2
d0
56
b9
c4
a2
15
b7
de
a4
53
d8
dd
5d
61
be
66
3c
44
d6
e8
ec
ec
d6
45
5c
d8
cf
47
31
d5
59
df
d3
a9
cb
5d
54
59
5d
5f
e2
d6
ce
48
e0
f4
df
55
e6
e7
de
63
5a
47
e4
f0
d3
d9
d8
b5
37
e0
41
5d
c1
d0
41
61
60
d5
bd
d7
f1
e8
8a
ee
d8
e4
e4
e2
dd
4f
80
58
de
d8
51
4d
5e
de
f3
f6
d3
99
59
6f
76
7d
e5
e0
bc
c0
25
40
ce
ea
36
80
ce
dc
3c
e0
80
cb
d6
be
59
5d
2f
3a
93
c1
72
73
74
e9
df
c3
7
cd
39
d9
3c
e2
e5
d9
ea
d3
c1
e2
60
41
47
32
e4
59
d8
ac
8d
d9
3
dc
1a
d8
5e
56
5d
2c
c1
61
4f
4f
2b
50
5f
4e
d5
ac
d7
4f
e1
df
ec
db
de
e3
51
4d
62
e7
f7
f9
e3
ec
d8
6f
6d
6a
d5
d2
ce
65
6c
69
64
6b
3e
c4
dc
e0
c6
d2
b4
af
c3
4b
95
d6
c6
22
aa
54
59
2f
a
3c
63
d5
46
9e
b9
83
4a
60
31
69
6f
5c
42
6a
64
53
68
35
5a
a
cd
37
df
51
c7
be
3b
55
9e
31
e0
e3
c6
5e
d6
ce
de
27
dd
e2
b2
d5
92
42
63
de
5b
67
ee
54
40
8c
aa
2d
d9
5c
e5
d6
a7
d5
a4
c9
c4
d6
2e
64
c4
61
90
cb
6d
df
ec
aa
ec
f0
e1
2
e1
d3
c2
3e
4d
e0
dc
d8
bb
bf
da
bf
e3
47
5f
ac
40
c1
e7
cd
d3
1e
ca
2d
dd
d7
93
5c
47
e8
eb
80
a2
5b
d8
eb
dc
e9
42
b9
80
d8
d8
51
22
44
de
4d
e6
57
e2
b9
e2
62
e3
e4
c6
dd
ec
4f
f5
e2
de
a3
49
d6
e1
d5
62
a8
ca
19
3e
5d
0
d8
4d
dc
d
5e
65
55
27
9e
0
18
db
ea
dc
e5
24
5d
cf
c0
51
43
d5
62
d8
89
cc
46
1a
62
a8
bb
32
61
5f
64
a7
df
43
ab
d0
e4
d5
cf
da
4d
0
ac
59
c7
4e
af
c5
e5
d0
32
da
e1
53
5d
cf
e0
ba
cc
ce
9a
5d
6e
70
67
64
71
de
44
cc
56
e5
e9
af
e6
ea
5d
df
e4
c6
80
ab
c4
55
3b
c2
43
de
dd
d5
da
3d
e5
e0
e1
e4
d3
d1
dc
e5
d0
d8
e6
59
54
4f
c1
e3
5b
c7
48
de
a5
31
c7
dd
33
c5
b5
5b
5d
40
dc
d3
5e
dd
66
b6
3b
5e
52
5c
69
dd
54
d0
49
54
64
d7
3d
d1
56
bf
df
5e
5e
a5
55
df
d0
cf
f5
ea
61
ec
2d
c0
e8
dd
e6
5d
5e
3c
90
e3
f1
f3
e5
eb
f4
e4
e0
ee
e8
56
5a
6a
3f
df
41
52
e0
56
80
3b
70
51
e7
ae
4e
e6
de
cf
49
da
64
80
c2
6a
63
67
75
64
66
6b
4a
5c
73
c5
75
ce
34
c5
63
63
ab
67
65
bf
da
df
21
dd
56
c9
c8
5e
40
68
58
c2
8a
50
4f
5e
62
9c
c9
cd
d9
61
4e
80
58
5a
52
c0
45
dc
50
e3
cc
e1
e9
e5
54
2f
c5
52
ca
1f
db
cb
dd
58
d9
cc
6c
db
5d
66
b8
62
69
3f
66
68
f0
bc
72
eb
60
60
e5
c0
5c
f1
18
3b
e0
55
48
e2
2c
c8
de
a8
2c
d5
ad
3a
da
97
6a
e1
54
65
96
ca
4c
b0
4c
b5
b2
3b
57
d2
5d
dc
e3
e6
e6
ee
e1
50
39
53
c6
db
e3
ca
60
0
be
4f
69
56
e4
60
dd
db
4a
c1
80
11
c4
4b
de
a6
5f
be
da
5b
5f
47
32
c5
62
d0
d9
50
e0
5f
d4
e8
55
3f
de
bf
69
eb
45
3d
3b
98
46
e0
4e
c1
47
bc
66
65
6d
bb
69
4b
69
72
6d
d7
dc
4d
d9
d0
56
56
e5
70
89
d1
cc
5a
b6
4e
2c
60
63
ea
eb
4b
eb
f6
d9
e8
f2
30
5e
20
32
2c
d8
cc
ab
d0
3e
4a
56
5c
4b
cb
47
41
41
b9
db
d8
62
59
df
c6
5b
58
b3
dd
38
ca
3b
d1
bb
5a
5c
e4
5c
63
93
36
6e
36
d4
1d
66
5b
3a
43
32
e9
5c
df
d1
81
e1
54
e0
e0
e5
4c
4e
dd
cc
d5
c2
d6
5f
ba
d8
58
4a
d4
46
a9
0
43
a7
52
d1
61
59
bc
3a
2c
c2
e6
cd
d2
f4
c6
d5
61
25
58
e2
dd
dd
25
4d
5c
d7
5c
63
69
6a
bf
69
53
50
e7
62
cc
a4
da
57
dd
e4
d8
dc
c1
d8
4c
d1
5d
e2
8
43
dc
dd
ce
e8
e0
a7
cc
66
56
5e
e0
c6
da
80
b1
48
5a
de
9e
64
dd
e2
66
d1
e5
73
5a
48
2a
56
cd
5c
c5
e1
e2
d6
68
6b
63
5f
4f
63
46
69
4d
d4
d3
61
49
61
5c
d3
31
4b
5b
58
c9
e1
5b
d2
30
5b
d9
d7
18
2d
ec
bb
5a
3e
5e
d0
e5
d1
50
e1
6c
66
e4
74
af
bb
b4
db
5a
33
36
ca
4c
4e
50
53
c0
44
be
45
58
d1
de
e3
61
39
3f
80
d4
51
d4
44
ed
5f
4d
37
50
55
dd
d3
d8
d3
57
49
dd
5f
62
d4
b4
db
46
54
c7
d2
e9
5c
ea
53
52
5b
cf
1c
d1
d8
57
c8
69
d3
f2
dc
4b
e2
c5
da
cb
c8
5c
be
ce
64
62
6c
6e
61
6c
25
ad
df
62
5b
51
d6
53
58
5c
56
cc
56
53
1e
c4
dc
60
44
59
b8
de
58
60
56
37
de
a2
e8
4c
da
89
b5
a6
e3
c0
7
62
51
4f
dc
e2
81
eb
e8
51
43
67
30
3d
61
53
39
66
55
48
58
60
cc
e0
35
5c
d0
c4
51
d7
d4
ce
e0
51
91
db
e0
53
3c
e2
de
48
cf
5e
c4
4d
e9
3e
0
eb
b4
5f
44
47
4d
45
da
4d
31
e3
d6
e5
bb
5e
d5
5c
9e
e1
e1
c7
cb
bb
57
63
d6
5a
50
dd
d5
44
dd
a9
ec
c3
d8
f1
bc
ec
f4
e4
46
47
c7
b7
e9
dc
c4
e9
de
df
5d
d6
48
5e
5c
69
4d
67
42
c6
4b
5d
e9
53
da
b6
db
d5
ad
e9
e9
c5
d1
cc
d3
df
d2
c2
4b
9a
f9
ed
da
e9
32
d5
e3
3c
45
dd
57
ca
80
c2
e0
df
55
d6
d7
53
56
32
4b
55
5f
62
5e
4b
43
4e
6e
7a
69
dc
5b
60
eb
bb
d8
dc
8a
5a
d4
d9
e5
f2
f5
e8
e2
d8
57
5d
d0
d3
44
c2
d8
5c
98
aa
ed
e9
3d
e6
f2
d3
f5
f1
0
60
51
5d
5d
c8
e0
55
db
5b
0
8f
d2
4e
6a
a1
ad
52
66
4a
62
68
da
67
50
81
6f
d4
d3
4c
c3
3e
6c
66
c5
68
3f
41
4f
ca
36
5a
de
61
5f
3c
dd
d0
5c
db
e0
5f
52
55
53
dd
39
48
52
e7
5b
45
52
c4
64
5b
2e
3d
ce
6f
58
6d
52
51
d7
4e
e1
c8
54
58
5c
c6
b3
df
3a
5f
5e
bc
3a
42
2a
61
bc
e2
5c
da
3c
d4
dc
68
6c
80
61
50
45
72
5c
68
da
d9
17
eb
eb
b8
eb
e5
e5
65
d4
53
66
cd
55
56
6c
6c
d7
59
d3
31
d9
ec
df
db
d9
66
b5
b7
d9
60
d8
60
c4
e7
c8
47
c4
42
e1
32
5c
e2
e8
5b
e2
9c
ce
38
2f
50
48
35
d6
bc
5a
93
cc
93
c3
db
99
40
c5
54
5d
b6
e2
64
61
80
da
62
4d
cb
e2
2d
3c
b4
5c
96
e7
e6
4d
cb
ed
3c
dc
32
9c
51
de
5c
5b
d2
ac
53
c6
59
5
5e
55
57
52
3d
47
ce
db
ca
da
1a
28
ee
62
b0
43
c6
dc
ce
a5
53
25
54
5e
cb
5c
5d
30
57
ca
3a
39
5f
56
57
da
61
b5
e7
df
ed
e2
c8
30
5b
54
e5
ad
e2
4a
cf
d8
49
da
62
d3
dc
40
37
de
58
97
51
67
58
44
69
6d
1d
6a
64
67
ae
62
ba
3f
c7
4f
e3
d0
b4
4e
4f
58
d7
4f
64
ca
e7
e5
e1
49
29
d4
62
e2
be
bf
de
66
d5
24
80
44
cd
d2
5e
60
5e
d0
5f
d2
4e
b0
bf
40
4f
d7
db
d7
e1
4b
e0
61
61
dd
49
55
d9
41
63
5f
58
51
51
60
d9
4e
ea
4e
4b
5a
e1
9e
da
4c
b2
34
62
d7
9d
c1
de
80
ca
f3
e0
22
c9
c0
e1
1c
5d
dd
63
ba
d0
3d
c1
44
4d
e7
b5
dd
e9
3b
5e
c8
cf
56
6c
58
b7
60
d3
62
65
50
88
69
d6
f3
d4
cd
18
5a
3a
5f
4a
b0
9a
cf
b6
d9
b0
66
41
59
bb
dd
66
4c
cc
6a
31
4d
e5
68
60
52
62
c9
51
62
da
4e
c2
5d
dd
39
e1
5e
96
b3
dd
d3
ca
e3
d6
5c
65
4f
5a
d5
3e
4a
ca
23
45
92
e3
97
db
d4
e9
d7
d8
db
4a
52
db
33
54
c9
2c
e0
58
cf
3d
67
25
ce
51
b3
3d
61
68
6b
65
3a
62
dd
d2
69
e8
dd
d6
52
5e
d7
e2
62
e1
52
db
2a
6a
54
5a
e3
e5
45
4e
55
68
dd
cb
51
4f
b1
4c
6b
65
dc
c5
c6
d9
d1
aa
d5
db
50
ca
d4
4b
e5
df
e1
4d
57
5f
ce
d3
5b
da
bf
cc
62
5e
67
c9
e2
31
e0
dc
62
d3
cc
cf
80
b7
ba
59
38
1a
cc
42
d1
49
c2
29
5f
5e
58
62
dd
4c
66
c0
5c
cf
4d
6a
6f
e1
61
5a
de
4b
5f
d5
b9
de
55
59
ca
84
bc
c0
5e
60
34
66
6c
5a
e1
ab
63
c1
64
4f
63
4e
69
cd
60
5d
e5
60
d1
4a
5f
c9
37
30
eb
ef
e7
bf
e5
8a
41
e5
e3
ea
f3
e0
54
15
c5
4e
e4
e0
cb
d3
ca
63
a3
de
80
dd
56
4b
e2
bd
bc
d0
d0
dc
d2
4
3a
3a
d3
63
4f
36
dd
df
df
d3
d4
e1
a8
dd
5a
3b
c7
b4
d9
4a
ab
55
36
c0
d4
50
61
e2
47
cd
5b
d0
48
5f
57
61
ae
59
63
4b
ce
61
54
5c
cd
a0
e2
1c
38
2e
df
45
db
80
ca
dc
39
db
a0
cd
66
57
62
be
db
56
20
5f
6f
51
2f
d5
d0
a9
be
c8
50
b4
63
d3
56
5f
e4
4e
51
e5
39
60
df
be
42
dc
d2
c3
d2
e5
d9
e3
22
ea
db
4f
d1
46
c9
c0
63
de
db
e2
e5
ba
5d
c6
53
dd
63
56
bc
d7
66
54
6b
ab
37
5a
df
c1
34
21
39
46
46
5a
67
54
d7
54
63
44
47
db
49
59
bc
45
d8
ca
9a
9e
46
5d
5e
45
a2
c6
3c
c1
58
46
e0
df
e3
48
b9
d1
30
62
51
2e
2d
af
dd
5f
55
d2
5d
e2
4f
d9
5d
e3
df
db
52
bd
da
e0
2a
d6
e0
33
c1
49
d2
8b
de
4f
e0
4f
64
4e
ce
cc
dc
4b
e3
e1
dd
dd
b1
e9
be
dc
e0
54
d2
5f
c6
5d
3e
23
52
45
b8
d3
55
60
c3
a7
6a
54
4a
4c
18
d6
df
59
da
5e
e8
ef
e4
df
d9
e1
c7
d6
a4
c9
50
57
50
5f
db
79
9d
3d
bf
a9
cf
5f
d7
d6
40
80
4b
cf
67
54
66
af
c6
4f
64
4c
58
5f
c0
36
52
c7
c3
47
37
5e
60
53
11
52
da
21
d7
c3
6d
65
5c
50
bc
7
ab
3d
cd
df
56
3a
55
54
33
3a
43
60
d9
80
4c
d3
e2
e6
37
c2
53
e0
d9
5a
da
5e
45
5c
4e
cc
e3
e2
d9
e1
c1
c1
5a
62
c7
5e
da
5e
59
57
54
53
dc
bf
ce
5e
d2
bb
c9
cc
de
4d
df
37
80
5c
a2
da
c9
41
63
e4
80
e2
da
62
4b
d4
55
60
3e
44
55
db
e5
db
e9
d0
e0
e9
53
bc
b9
36
e9
13
e3
d4
ef
d4
d7
53
62
de
d1
59
54
6c
a2
c1
d0
55
58
48
56
e7
dc
e5
e8
e0
ee
a9
f0
d1
e0
ec
ca
aa
64
c2
e1
d2
bd
d8
50
2f
5c
43
5c
55
b7
20
b6
8b
ce
1b
db
4f
d7
cd
5e
e0
40
cc
9b
60
5e
65
67
49
5f
71
4e
38
6a
1a
e5
40
d3
eb
d6
be
33
63
e6
f0
dc
e9
14
b0
c4
d7
c1
59
bf
5b
4a
e6
99
5b
ba
34
eb
8b
dc
4b
e5
52
e0
4c
5f
62
c0
54
d9
c3
c2
4f
5d
58
33
e1
d6
2b
59
d9
6a
67
6f
d9
e0
4a
67
5f
61
5e
44
65
bb
53
c6
cd
64
a2
5c
5d
bf
c8
5a
5f
c9
62
5b
