5d
27
3e
10
80
ce
cd
cd
3f
c4
cb
c8
3c
59
41
a1
26
b6
49
b3
c8
23
61
4f
c9
c1
49
30
c
23
80
4a
51
59
c9
a5
60
58
67
dc
4b
5b
28
cc
49
54
a4
e0
60
4c
db
5c
51
1d
d1
ad
d0
23
da
bb
a9
cd
c9
51
cf
ca
ac
50
ce
a0
46
4d
c3
d8
26
de
dd
9b
c3
5d
6a
c6
e1
5f
56
38
57
ba
5b
48
e3
e5
3d
d1
65
5a
55
6c
5b
4e
d5
e5
52
e7
ed
61
dd
c4
d5
c9
28
db
d4
cb
cb
4b
d2
c2
d1
d4
3e
42
d3
c6
45
32
0
4f
5e
3f
48
67
d6
52
c1
80
e4
da
3e
5f
61
e9
f0
d3
5c
4f
34
43
45
bb
ca
56
56
1d
e2
37
e3
da
e0
bc
c3
d6
d8
4d
d5
44
27
c6
40
54
ae
5a
e
d6
5f
cf
1f
54
ce
e6
d7
6
57
d2
4a
60
e4
c2
64
ce
a4
e7
4c
51
b5
cb
20
53
57
55
39
d0
4a
a5
cd
47
d5
6b
59
5f
c7
c4
e2
df
ef
e9
47
cb
81
25
c6
23
5a
58
c7
cf
80
e8
c1
9
df
b6
ce
e0
da
bf
54
d5
d7
dc
d7
e3
c8
5
b8
5b
d5
a5
62
dc
b9
3d
ce
50
cc
ac
d3
e2
0
c6
c3
52
3e
a0
34
56
3d
bc
53
c
4a
58
49
cf
d9
9b
16
c9
c7
41
c2
3d
46
c9
bc
56
c3
3c
2d
40
b9
d9
81
cf
da
bf
38
46
50
a6
5f
c3
cb
b3
d4
ea
bb
52
31
9d
50
94
59
50
1d
ad
d7
cb
82
15
e5
c8
21
ec
c7
9a
44
48
c3
b7
4d
b1
ca
e2
d5
ab
3d
d8
5b
ed
49
62
ea
c6
ce
e4
3b
c2
ec
c8
57
9b
db
56
4f
66
68
42
6a
6c
59
b2
d0
4a
68
c7
ca
5d
40
3d
a1
e6
bf
df
c7
43
cb
2e
5d
5c
51
64
5a
36
60
d4
4a
c8
d9
d6
62
3d
2a
34
62
25
b
54
c6
56
ca
b3
30
3f
aa
5d
5a
62
5c
62
65
be
db
a9
38
5b
d1
5e
48
cc
5f
26
51
b7
53
46
af
35
d9
3c
c5
80
64
e4
db
68
c7
ee
6d
5e
c5
ba
a0
cd
bb
bf
5c
9
af
b7
c5
30
cd
c0
58
c3
28
80
59
c4
9f
d0
4b
b3
c2
c9
e2
44
ca
d1
a5
4d
4a
60
50
4d
62
cd
ac
b2
e4
d8
cf
ed
42
35
37
d3
58
d9
ab
47
dc
d3
bb
c3
80
cc
50
49
af
5a
68
5d
e6
e3
55
eb
df
59
ee
e2
49
68
57
36
70
52
35
66
a7
b3
5b
5d
64
42
b8
49
31
44
5a
31
d4
d3
47
ad
52
c1
45
d1
bf
50
bc
57
59
d3
56
c8
bf
54
d3
d0
56
47
57
5c
be
39
55
72
6f
64
64
6b
51
81
3d
ba
cd
63
dc
cf
5b
ba
4b
6b
a7
c8
2f
bb
c6
58
12
56
37
cd
54
d1
43
38
d5
4d
d7
cc
e0
31
c6
e0
57
c9
d3
53
4b
36
59
50
52
d1
d5
62
58
dc
4b
af
53
d2
55
3e
c1
47
c4
cf
e6
b6
52
3a
44
5b
53
5c
9c
e4
0
e7
df
d9
e5
d3
de
6c
68
31
6f
5a
56
70
6e
45
df
d7
52
cc
2f
4b
cf
6e
63
69
e9
ee
ba
eb
f5
50
e7
f0
48
ae
52
47
51
ce
c6
52
a7
4
5e
58
46
d1
98
b5
9b
b1
60
46
8e
d9
f1
ec
e7
e4
ed
52
5c
41
58
d6
44
5f
3c
e0
c1
d0
d7
b8
c1
d1
63
80
d5
40
d8
49
50
4d
19
bc
5d
5e
1c
a2
d2
2e
e1
c0
49
38
4d
d
d1
4e
d3
53
5c
bb
5d
d9
56
66
22
3f
bf
45
ae
c8
de
6c
ca
d3
3c
bf
d3
43
59
da
5b
60
60
c7
ab
5d
e1
b3
40
51
52
9f
94
0
d5
e0
e0
dd
d1
56
a2
cb
b9
c7
52
d1
25
5e
60
a2
5f
8a
62
52
62
a8
42
22
b8
0
c5
45
5a
a1
b9
3f
d7
58
43
cb
4e
4d
53
23
52
d2
4e
ce
d6
ce
b8
47
cc
14
8b
36
c8
d2
17
45
b9
3d
cd
d8
ae
d1
c4
43
e4
de
d5
60
5a
53
45
54
c6
5e
ce
cf
a4
4
d0
e
df
ea
11
bb
d2
61
54
39
55
dc
d3
d7
bd
50
5d
41
de
4b
bd
e8
5a
bd
bb
4a
5c
cc
be
da
49
52
64
46
35
59
58
40
54
5c
d1
db
4b
50
61
5b
56
3b
b7
b0
ad
c6
e4
d1
ce
53
aa
25
5d
5a
5c
c7
1b
d3
57
5b
c9
6a
62
51
36
b7
58
5f
b0
36
1c
62
6f
64
53
b4
5e
9c
d1
58
d5
c5
33
bc
5f
cb
b7
44
dd
54
5a
4d
d7
d2
c5
3e
95
57
58
42
2e
3d
c0
3d
cb
cd
4d
59
b6
50
3a
80
5b
33
d9
c6
bc
d2
b7
d4
a9
56
cc
b3
c4
d5
51
e3
57
62
4f
49
cb
ce
d6
c1
df
30
ea
2c
55
4c
59
1d
d6
5a
58
be
2f
21
32
53
4d
4d
b4
49
60
a7
4c
e1
17
56
5e
e4
58
65
e7
f1
b9
f5
e4
ce
c5
62
db
d6
e5
da
55
d1
e4
4f
58
52
59
43
d4
9e
b1
d1
d2
57
54
3d
47
54
d7
e4
63
3e
d3
de
3d
4f
d8
26
47
e7
d0
d8
d3
c1
64
2c
e7
da
41
5a
5c
d6
c4
4d
c8
da
c2
ef
d9
40
c9
cd
c8
80
55
4e
4b
14
5c
ac
4f
de
d8
d7
e0
ae
37
e3
b8
e2
e1
ea
e9
eb
ee
db
e2
cd
1
4d
50
56
65
61
3a
56
cd
52
20
d0
40
2d
46
e3
46
4a
dc
ca
cb
96
24
b0
cd
8
aa
df
36
c6
43
46
52
3f
d5
d8
58
40
1f
d5
36
c3
e3
d8
d9
5e
67
3f
2d
d8
d8
80
59
69
de
52
5a
c7
5c
69
18
f3
f6
ea
ee
f5
cb
e7
f7
46
d2
d6
d1
50
d4
c0
44
c5
c9
5c
c7
39
ae
d3
5f
86
cf
59
3e
c0
0
a3
cd
81
3e
54
4c
65
31
5b
db
cc
c8
ee
eb
b1
c9
5d
dc
cb
4f
de
50
61
6b
6c
59
c4
2b
64
d9
e6
e2
40
43
dd
57
9b
d1
5d
d0
be
47
56
c4
87
d7
b7
51
59
5a
db
49
c0
3f
4b
49
a9
55
58
4c
c5
5b
57
3b
e1
e9
b4
e0
d6
cf
11
d7
5c
4c
22
47
5f
d5
47
97
40
68
30
d9
aa
ac
d4
54
63
e4
c8
5b
58
5c
3f
d2
bd
4a
e
4b
48
46
c4
cb
50
57
cd
5c
5a
5b
45
d2
3b
e1
bc
eb
e0
2f
c6
37
4
59
59
d2
50
1a
4e
cf
41
46
4c
e2
3f
44
3f
37
a6
d4
c7
c8
c4
c4
b4
13
4e
a7
34
81
cf
d6
c8
37
58
4a
ab
40
1
43
d6
e9
f3
e1
ea
ff
27
f1
fa
4c
64
55
bf
16
66
53
58
64
3b
55
91
65
db
cb
80
ca
cf
57
62
5f
4d
ca
d0
30
a5
5a
46
42
a
cf
c7
40
d7
d9
e7
b8
1a
3a
2c
89
4c
4d
53
bf
db
df
b0
d0
d1
e9
c3
db
b2
26
30
56
4a
c7
4e
c7
51
cd
a6
57
c6
bf
55
5d
d0
61
93
64
62
64
42
5c
80
4f
2a
98
15
bc
96
39
60
55
45
6a
38
d1
b6
5d
1f
bb
5c
c8
a0
d3
ca
ca
3a
3c
51
20
c7
5a
16
c1
dc
a9
42
cb
d2
be
29
5f
d9
36
c5
d7
48
43
4a
bb
27
81
57
ba
60
6c
5a
59
67
69
5b
3e
d2
31
4e
51
3b
ca
e9
c5
4b
59
d8
ac
ae
d3
4a
2d
4b
4f
cc
cf
d0
a9
51
4e
53
81
c6
d7
5b
49
55
59
42
50
5e
c5
c4
54
4c
4f
58
4d
9f
b3
46
d6
4e
e5
c2
5e
6b
52
36
d0
34
d4
c3
bf
99
29
50
58
27
bf
4b
3e
4a
8b
53
cb
d7
7
56
61
2f
62
37
64
59
c4
d9
27
ce
c0
be
ed
d7
62
c2
54
d2
51
81
cf
94
d2
45
81
3c
46
b0
a4
90
c5
e
2f
89
55
3d
d2
cc
45
30
c5
d2
de
57
e5
d7
b1
d8
e2
b2
e5
ca
d2
b1
c7
af
d5
53
c3
36
56
c8
3d
d1
3c
54
57
c9
28
58
57
4e
22
65
5e
db
b2
c7
aa
a4
c3
d2
50
4b
d8
c2
49
3a
de
49
da
3d
80
2d
44
d9
ca
d5
53
a5
46
c6
53
81
c2
bb
57
4b
4a
c3
d7
0
5f
54
42
5d
59
b5
da
b1
b8
56
44
d7
58
d7
54
4e
49
3d
c3
50
9e
2e
db
52
c8
a2
c3
59
84
d2
4e
b5
4a
c8
25
37
59
bc
57
d3
d6
d1
49
4d
c3
ac
96
57
58
6a
dd
46
50
3b
cb
50
57
1e
f
3f
64
5e
be
58
24
1b
50
5b
41
56
64
6b
57
5d
c5
41
54
d1
a3
41
2f
d1
47
b4
da
59
c6
56
59
4d
52
25
66
8
50
6e
51
3e
69
5c
4f
a1
21
55
3f
66
45
39
c5
4f
bb
11
80
29
d5
c0
c8
52
b6
65
52
65
b5
4e
c7
58
cf
60
35
42
3d
63
b9
1c
e0
eb
df
63
6a
68
5a
4c
3e
2c
d0
4f
c3
c6
5b
d8
dc
d8
e0
d1
ce
f0
f7
d3
f9
ed
df
e2
e4
6d
3f
60
5c
d0
44
59
d7
5f
23
b8
de
4f
5d
53
4b
60
6a
60
b9
cf
db
bd
bc
5f
5a
c3
4b
e7
bb
e5
93
e0
e3
2b
c1
d3
43
bb
d4
c7
d3
2b
40
d0
4d
cf
d8
e4
bd
cd
51
cd
15
d8
d2
a8
bf
d2
50
d5
a6
cc
3d
b6
49
d4
94
dc
be
cf
d4
cb
48
2c
9b
3b
3a
3f
44
33
d8
50
3d
d3
59
20
81
2a
55
bd
49
be
e9
42
2c
a
5b
3e
cc
51
53
d5
3e
d1
45
b4
d9
c6
98
d0
3a
d8
5e
27
b9
4a
3c
df
e5
dc
c3
41
ce
9f
4c
34
b9
31
e7
d0
cc
d4
57
49
e5
ca
d2
50
51
50
dc
cc
32
3e
24
a4
d7
42
4e
d7
e1
49
2c
f2
cd
e1
dd
d6
d0
e5
ee
cf
1e
5a
39
38
4d
4a
56
d5
4f
17
9f
44
c7
b4
c5
52
4b
d9
b2
b0
cc
ce
3e
db
57
d0
df
56
a0
5b
56
60
64
4f
52
55
67
b9
de
61
60
43
3
4c
a9
cf
47
3f
1d
36
50
36
b4
b6
48
54
d5
43
4e
b9
cb
3f
c6
44
ac
49
db
5d
19
c3
ce
b4
da
be
ed
db
36
52
40
cf
cb
f0
eb
66
ef
e1
c9
f2
b3
6b
ec
bb
c3
d7
5f
3c
33
56
a1
b8
d2
c8
d4
ae
43
df
4c
cb
af
66
60
38
3e
d1
3f
57
c2
bc
45
dd
29
9b
3b
bb
c4
54
a8
d0
56
4b
31
d2
ec
5a
2e
64
58
64
51
c4
5a
d0
4d
15
ca
e0
e2
5b
62
c8
af
59
47
d9
dc
19
e4
de
4b
e0
e5
ea
4f
a2
b0
d7
4c
c8
5a
64
ca
c6
bc
d3
45
50
d2
cf
29
5a
55
57
58
58
c9
56
63
cf
45
4e
ac
cb
c3
b8
d9
de
a1
d7
65
5d
59
b6
56
df
80
d4
eb
4b
c3
d3
5d
63
52
c0
5c
54
0
d6
cb
55
53
ad
5b
57
e1
da
e0
dd
b1
d9
c3
65
a4
49
eb
d0
58
df
c3
4d
cf
dd
4a
da
3f
46
d9
db
48
d3
d5
ca
d6
1d
42
58
5e
64
ae
5b
65
99
21
d4
55
d4
3
4c
53
ca
2a
80
e1
c1
60
d9
af
d5
e0
4f
55
6a
4a
39
c7
ed
d5
c9
d8
58
c5
d6
91
55
4f
50
4f
dd
d8
d8
57
dc
c1
51
bb
d7
45
4a
d4
d5
d5
38
51
d0
3f
41
d2
48
cf
dd
57
49
c9
59
ae
c8
ed
ab
e8
e4
4a
ca
dd
81
57
80
af
4e
55
dc
cd
15
d1
2f
55
26
a3
33
d0
d0
cc
d8
4f
bf
c9
37
9e
4e
cb
57
49
50
18
65
63
55
c9
c5
dc
61
62
c4
32
36
bd
d4
c9
e3
4e
66
62
ca
2f
bf
ac
ec
be
b6
47
4a
80
64
61
43
67
68
2a
54
d4
58
61
58
63
d3
57
53
41
52
3e
80
9d
bd
50
c6
9d
ce
d3
d4
e1
df
bd
e5
32
3d
62
58
50
b9
e0
55
6a
54
df
da
b5
34
be
3e
49
d9
dd
4c
66
a9
48
47
49
62
66
47
23
1d
d0
4f
38
23
aa
43
94
b7
d2
d5
d4
ce
5b
b1
57
66
63
d9
db
6d
e1
d3
60
d7
b7
1a
11
1b
80
d4
4d
4d
d3
cb
36
53
95
4c
51
60
56
cb
c3
e5
e0
e5
bd
5e
4e
a4
60
71
d2
b3
4d
1a
2b
c9
d0
d9
53
c8
b5
51
3a
65
3b
52
53
68
81
59
db
61
42
5c
68
41
4c
d5
9f
b5
bf
dc
dc
cd
55
4d
a2
81
57
c9
3e
6a
cf
68
42
55
d2
ac
a8
53
24
d5
ac
cd
b9
d4
b8
d6
56
5f
5f
59
97
98
d5
54
39
c8
cd
55
3b
4e
5e
d1
d6
55
59
3d
57
4f
2a
20
d0
db
ca
be
4d
59
5f
5b
59
c9
b4
d4
de
d0
53
dc
c8
dc
a0
45
cc
c7
64
44
b5
70
c2
cd
80
25
cc
29
b4
31
57
39
47
31
41
c9
dd
5e
a8
ef
6f
54
bc
6b
b3
bc
48
36
e7
41
5b
20
d8
e7
e1
cb
e3
d9
cf
c7
54
e7
e5
44
4c
ba
4d
16
59
3f
42
61
57
b9
aa
dc
e9
e5
23
e7
df
d6
e8
bf
42
4f
3c
26
df
4f
b7
b6
db
d6
58
d4
42
46
c8
54
d5
b7
43
d7
d7
e8
e4
e2
ec
b8
b
bf
db
c0
95
d8
cd
4c
c9
d4
de
4c
d9
10
50
d0
11
b7
cd
dc
ac
3f
72
e0
5d
67
e1
d0
53
f
e0
5a
d0
1f
db
a9
ce
62
49
53
d6
3b
dc
db
be
3c
d3
d2
52
29
48
cf
ba
5d
4a
c4
60
4e
d2
80
c3
d6
e2
d5
ee
68
67
d0
67
cf
d7
5f
59
d0
14
81
c4
47
d5
55
6c
63
4a
9d
d4
b5
c7
dd
50
d2
e4
46
6a
90
d5
64
32
18
5d
4f
d3
ce
c3
da
ed
e6
2f
e0
d3
54
29
ea
e5
cc
28
c4
35
45
e1
32
14
c9
27
47
4a
56
35
80
cb
b
d3
38
d5
3e
d0
4b
47
ce
80
c6
de
29
80
d2
a6
d8
ca
ed
f0
e2
e5
ed
80
cf
a3
28
c2
d1
44
0
33
d3
5a
e6
40
c4
4f
80
c7
49
b7
d8
c6
b6
b7
53
d7
3a
bd
4c
4e
c0
61
ce
c9
34
4c
d6
65
45
d1
d4
d3
d0
3e
5a
0
de
d3
4a
c7
45
d6
d1
57
52
bf
c4
d6
c5
49
2d
3b
4f
cd
e9
db
e8
aa
53
42
63
5b
62
60
4a
42
e7
d2
da
ee
ed
e1
f2
e7
43
5e
ba
38
4f
e3
c8
48
d7
b6
d0
6c
6d
40
71
75
cc
6e
78
cc
59
bc
4d
d8
50
46
c1
cd
dc
bd
c5
38
35
3a
21
5c
49
df
bf
b5
51
71
63
4c
70
51
1f
b5
a7
d6
58
c1
d4
e3
40
40
54
62
48
4e
23
dc
d4
4e
31
1b
40
c3
db
30
a8
c0
db
c1
9e
3e
45
4e
4a
2e
49
53
b8
d3
bd
b8
80
e3
bf
3c
bd
a9
e0
3a
d6
5c
1d
96
32
5f
e3
59
53
cf
80
cc
e2
b9
1a
df
e7
bf
5a
e0
e9
60
49
eb
22
da
d5
c7
2f
d2
56
4e
44
c9
cc
3c
57
2a
ac
46
c1
52
c3
e1
ca
e3
28
c2
e1
da
9a
bb
39
4f
d7
d6
c5
e1
c3
a1
d2
56
9a
21
58
3f
b9
40
c
ce
54
cd
52
52
4f
3c
b0
4d
d5
bd
3b
4e
34
29
cb
ac
4f
53
a0
32
48
54
3b
4e
60
3c
e6
d7
e5
db
92
de
e6
47
44
52
5d
29
39
53
57
42
61
a9
e0
e2
da
40
45
6a
c3
2c
d0
e1
54
4d
e0
5b
5d
e2
da
5d
d5
cd
4f
c9
cc
3c
e6
21
4c
c1
cb
a3
aa
de
bf
ab
3
cf
2b
c2
cd
c2
e2
4d
4e
a7
3e
63
16
60
54
ce
d1
39
b2
d5
9a
35
57
d1
ca
3a
dd
cf
dd
bf
49
c8
d8
d5
d6
bd
c6
df
e2
cf
36
d2
cc
5f
d2
5d
3c
3f
d4
d3
4f
bc
d0
65
38
49
a7
52
b2
57
3e
45
d3
56
c3
35
b6
ca
c4
38
cb
31
de
d5
d4
dd
e
c5
52
59
d5
56
58
47
57
56
4f
58
d5
95
4e
c8
5a
dc
dd
a9
22
db
24
52
62
32
43
61
b9
d9
dd
d2
d5
ce
35
0
ce
e1
da
41
df
cf
57
44
27
c8
c7
c5
2d
d7
86
d4
61
24
e3
59
69
ab
7b
66
60
4e
e3
3d
82
66
34
40
52
55
d9
d2
52
43
d8
4c
17
b5
61
60
9d
e1
59
bf
ce
5f
50
da
3e
b2
53
d3
51
a1
d8
d5
40
4a
0
4c
be
d6
c7
64
55
3f
52
80
5a
d0
bb
61
3f
3b
72
0
cd
cf
d2
d1
39
aa
98
d1
c1
d4
54
4c
58
39
57
36
4e
4c
66
cb
4f
6e
6f
64
69
71
5d
5b
5b
db
2f
4a
31
d1
cf
b3
20
36
24
d5
52
c1
50
c6
50
d6
da
55
cb
dc
47
3e
3d
62
43
af
47
40
48
3e
37
4e
9a
d8
a0
c4
cd
d5
ae
dd
5c
60
7
6a
1e
db
c9
38
b7
4f
d2
d4
d2
4c
50
c9
ca
26
dc
4d
6c
75
70
69
75
57
6b
74
a7
a1
54
d3
d8
b6
aa
30
4f
4f
cf
cd
cf
d1
1c
d8
54
3e
4b
4c
50
3c
a1
40
be
3d
2f
d4
de
d4
c3
4d
60
c6
5f
69
54
d9
d0
5d
c2
da
62
bc
ea
c3
f3
e6
1e
da
ea
55
54
67
ce
5b
34
46
c0
c7
e2
da
5c
e4
d4
dd
cb
9f
5f
e5
c1
d6
52
54
c6
b
2d
da
53
ce
4d
4c
c5
c2
e2
5c
37
5c
61
46
c4
4f
45
4f
e5
ca
43
2f
2b
38
56
e3
d2
e8
cc
c3
dc
d8
bb
dd
e5
45
48
db
4e
d0
d0
5f
93
14
50
c8
cd
d4
59
52
e0
d0
c4
d3
c5
dd
3f
cd
54
5d
2a
65
58
4e
5d
3d
db
9e
d2
46
cc
47
48
26
bc
d9
e1
62
86
44
5c
c9
42
ca
a0
50
a5
46
80
cb
4e
9c
d4
d5
9c
53
b6
52
ca
3f
d9
d7
d7
3b
55
72
76
63
74
7b
39
7a
7a
dc
cb
ea
44
df
e2
d7
dd
cd
b2
e2
db
dd
4c
51
be
64
80
e9
26
eb
e0
4e
86
c3
c8
ce
30
33
3f
bf
bd
4f
35
2a
5e
50
24
55
44
d1
4c
47
d7
bf
5b
33
5f
30
5c
5e
5a
66
54
4d
47
c8
4b
d9
ba
b0
3f
aa
d7
c0
b5
cf
d3
ca
dc
46
47
d3
e8
c3
ca
e2
3a
d6
db
d4
33
35
f
48
d5
e4
b1
e6
cb
c3
dc
df
d4
80
be
3a
4b
51
ce
43
46
22
2f
cd
47
c8
d6
b8
a3
92
c4
48
51
d9
61
e6
c8
cb
6
ca
b9
4f
58
c2
d9
cf
95
b2
dd
ed
e8
4b
e8
e8
e8
c4
52
c1
df
53
ce
cc
68
c5
57
d9
57
c9
2c
c6
d9
57
3b
b9
3d
50
d4
cd
30
d6
d8
58
43
1f
d7
df
29
e3
ca
44
bd
9c
5f
bd
cd
81
d0
eb
a2
4a
5f
c2
45
5
6
e3
d5
81
bd
ae
4c
c8
3f
55
48
c8
d1
48
ae
35
2f
d8
b1
55
4e
cf
d5
56
bd
d3
45
e1
d5
e6
cd
3c
55
3d
62
df
cd
62
61
e5
34
d4
51
cd
4e
51
d0
d5
bf
2b
37
81
c7
da
d0
9d
41
5a
3d
58
55
13
be
b7
cc
d5
ae
0
b5
2d
b9
b4
54
61
43
5c
12
1f
4f
4f
c3
36
dd
d7
d3
d2
c8
22
52
3e
c9
d0
52
bf
e0
4a
40
bb
cb
dd
59
54
5a
5c
3b
52
c7
dd
47
4e
90
4e
59
3c
41
80
ca
80
81
4a
5b
3f
56
50
ce
b7
d2
8c
d4
cf
96
c0
ce
9f
4e
c
a0
dd
2b
c5
aa
1c
bf
57
dd
c5
53
59
d0
55
b8
cb
d1
51
58
cc
cf
42
5a
4d
cf
95
b0
dd
b1
d0
d0
4c
d2
36
52
d4
b1
20
d3
4b
cb
45
96
bb
4f
ae
a3
ac
d3
9c
c8
52
4d
ae
5e
b8
cd
81
e5
3f
b8
ec
94
35
e4
b4
c0
c7
e4
e9
ea
ce
dc
bd
cc
da
d1
c5
d2
4a
24
52
3a
c6
44
a3
d2
48
1d
e0
4d
d7
49
eb
bf
58
eb
c2
3e
eb
cf
e8
32
28
dd
48
df
ca
58
0
d6
26
4c
52
46
2c
33
c8
3f
c0
db
df
d5
4a
ca
54
dc
ad
c5
36
df
4d
c0
b6
de
36
4f
69
e4
dd
eb
d4
46
bc
43
5a
d0
ca
3f
a2
4f
64
46
63
5b
51
78
76
c8
73
6d
53
6b
62
e4
da
e9
8b
56
37
a8
bf
2f
b7
56
b9
d6
da
ad
e2
e7
ee
2e
5a
4b
5a
d6
db
d5
d7
d4
4a
65
58
6a
c4
58
5f
34
d6
5a
4b
44
bb
cb
bf
81
a2
ca
41
54
99
6a
40
5d
c7
50
80
4c
cf
61
2e
51
d2
54
e2
31
bf
c3
de
4a
b
50
4e
34
5d
80
ce
3b
d5
db
d6
be
d7
bd
4b
d2
4c
2e
33
d7
4c
57
a3
56
42
5a
51
dc
4a
4b
cb
e3
53
92
4b
a7
3f
0
33
dd
5e
d6
41
3e
5c
b0
a6
46
68
32
3f
49
63
80
4b
b6
3f
c5
9a
e7
59
63
6a
5c
d2
bd
c9
54
4a
35
5b
4f
bb
38
cc
54
61
32
4a
d0
47
53
3b
5c
50
80
7
6e
68
4c
67
3d
5d
5c
6a
bb
db
d7
88
b5
dd
db
dc
b7
e8
4d
59
c7
b6
ce
af
e5
1a
5a
5a
bf
5a
61
cc
5e
55
af
5a
50
59
80
dd
e9
e8
e1
db
42
e0
df
65
ce
db
ac
c9
d9
cb
b7
3e
24
a3
cd
c9
43
5c
56
4b
4c
d5
c3
4f
ce
4d
c2
40
4c
58
c6
5c
c7
4e
d2
54
c2
b2
bf
72
a2
4b
58
56
3a
c2
6e
65
e9
6e
55
a8
7b
60
df
6c
3c
97
9c
29
ce
3d
cb
86
d4
3f
30
52
d2
de
81
ca
c8
bf
c6
83
d9
e5
d6
d7
43
80
46
9e
53
d6
40
47
2b
c2
d7
56
80
d8
39
c7
c5
5c
1f
3c
a9
e3
b7
45
d4
da
4d
d1
1a
56
5b
3f
2c
e1
af
dd
35
c5
5f
b0
3e
60
62
59
58
59
5b
53
15
a4
51
59
d3
3d
e0
cc
36
40
50
3c
38
ce
50
44
d2
44
b5
c9
c4
4d
49
e1
5f
2c
b2
c9
53
5a
59
49
66
5e
5d
d9
dc
c1
af
51
63
36
5b
6e
cb
b3
29
ad
df
bf
96
e1
db
c9
c3
61
bf
cf
28
dc
c4
5e
4b
52
5f
da
c2
66
e0
c6
52
6f
cf
cb
5d
4b
52
54
c2
d4
65
55
db
52
64
c2
6f
5a
d1
d3
93
cb
bb
b3
d9
d5
2d
e3
48
51
36
d7
45
95
4f
bb
57
c4
db
68
da
cd
65
5d
3c
59
d5
2b
d5
2b
2c
c1
6f
bb
c8
