cd
3a
c3
62
4e
5c
64
c2
61
e3
c4
59
4a
9b
30
d3
5a
d3
b6
e6
52
e8
d0
50
f2
e4
e8
62
42
b9
58
d4
80
62
5d
c7
df
c2
62
51
c2
dd
e4
60
d6
4a
32
4d
12
52
6b
49
48
c3
ee
d4
ed
e0
ee
c2
27
e0
e3
c5
4e
ab
6a
71
71
5b
68
c9
b1
e0
58
6a
d7
cc
70
2a
63
cd
48
d9
51
d1
6e
d0
46
6c
53
db
30
63
e3
ea
e0
e7
ec
c3
64
5f
52
5c
74
67
58
6b
d8
a3
c3
5b
32
11
63
cf
60
5f
e7
e6
d6
ef
de
ed
eb
d1
df
e1
65
d9
ca
da
ed
ec
c7
3a
1b
35
de
63
68
e4
c9
30
5b
b8
e5
6b
69
cd
74
7a
2d
e0
df
da
65
b8
4c
da
d6
98
5d
da
2a
46
50
da
9e
62
6c
d4
dd
1a
48
2e
d8
5b
d5
4b
d2
bf
60
a1
cc
e4
81
36
d6
a0
5a
b2
57
cd
c0
69
57
e6
c9
71
40
6c
79
64
c3
60
ad
4a
a6
df
41
64
6e
db
6c
61
de
e0
aa
56
28
35
52
e1
cb
ee
e5
f0
ec
f9
e6
f0
e0
e2
df
33
20
c7
5c
69
e
d0
55
50
f2
e6
28
f9
fe
56
df
fb
e3
d6
e9
d3
e6
65
61
52
54
57
d0
62
45
69
5d
d6
3f
c4
bf
66
1d
e9
ce
e9
e9
e5
f1
5e
c5
4c
de
cb
c9
ce
e2
c0
62
5c
e1
48
b3
cb
de
ae
e3
47
66
35
51
58
5f
e1
d2
55
56
53
4e
df
4d
4a
d4
57
37
de
c0
d7
62
6d
21
e2
4e
c5
51
55
e4
ec
ba
dd
2d
e7
58
f2
3f
3c
e8
af
45
b6
6a
b5
5a
51
1f
da
59
6a
cf
6f
52
50
3c
6a
6b
72
75
cc
5a
45
4f
d9
64
5d
aa
4b
cc
63
49
38
ae
dd
50
63
36
5c
f2
d4
e0
cd
3e
d4
d0
6a
b8
57
16
d6
4d
a8
d2
db
31
cd
e3
53
59
5b
dd
71
73
77
63
69
61
5c
52
56
51
62
e0
55
5f
de
60
c7
cc
e7
e2
ce
34
ea
e4
c4
de
db
9f
cf
20
e1
67
55
d7
da
e0
e3
3d
e5
ae
c2
dd
ae
5d
d7
60
6b
d0
48
e8
ea
e2
d3
d7
3d
73
70
55
74
4b
46
51
29
ee
33
b4
eb
e1
fc
5e
4c
e8
45
63
ed
58
ce
df
5f
e2
d3
e5
31
e3
80
2b
39
e0
c2
e1
46
70
6d
6a
74
4a
c4
59
e5
52
ef
f5
d1
29
c3
e1
67
69
17
c2
5c
e3
c4
b7
d6
d8
63
3f
cf
de
d5
e0
cf
5e
cd
a8
d9
b2
4f
d9
c9
e0
43
ec
e8
f2
d8
ee
da
e9
3d
45
de
27
25
d2
c6
5f
ce
dd
da
ca
dc
f2
c5
c7
f5
8e
ed
51
e2
cf
e0
35
b4
d9
d6
69
d4
63
48
50
57
60
47
65
e3
de
6c
61
34
71
6d
c8
47
56
a0
be
e0
6d
66
41
69
5d
43
52
51
e6
c0
27
df
6b
56
e7
67
58
e2
dd
de
56
b5
ce
5d
e2
c0
56
e3
52
48
47
3e
d9
48
da
ec
d4
de
d1
d8
91
e5
d3
9f
dc
e9
eb
e0
c5
53
e2
2e
de
2f
dc
d3
5a
dc
68
9a
60
c0
de
32
5f
ed
4c
d
e3
d2
5d
39
cf
d5
d7
5c
5d
e2
d0
53
e9
c5
6a
a5
c5
82
52
bc
eb
5d
52
5d
50
d6
d0
4f
4f
43
50
b1
d1
6e
5d
69
53
e3
e4
36
2e
cf
dd
e0
2d
ef
dd
5a
e2
62
e2
53
44
da
d9
ed
d8
e6
3f
da
ac
d3
51
70
59
d0
4b
5f
5c
6b
64
d5
6a
de
57
29
c4
62
80
ce
4b
5a
62
d2
4b
d6
dc
d8
4d
b5
45
da
d2
8e
41
5f
55
a5
d6
e3
9d
be
d8
e3
57
da
d1
69
59
64
68
d0
bc
38
db
54
38
4b
d8
80
bc
65
e8
61
a1
5d
66
5e
1f
cd
5b
68
d7
73
76
72
59
4b
40
d0
49
c1
cf
53
d6
ca
90
af
98
54
e1
3b
4e
e4
bb
e1
eb
cb
ec
c8
3e
4a
ee
63
5a
62
51
67
74
45
58
5f
5b
59
ab
db
61
d7
43
a5
4b
d6
2c
d0
c6
c8
4f
eb
e8
d0
ab
55
61
cb
e4
3c
e1
eb
d3
d4
e6
ea
47
60
d6
d9
d4
5f
e1
d2
f3
5b
e7
e4
d4
e7
e1
b5
41
be
d0
d8
dd
39
65
e3
dd
b4
4a
d0
0
b0
e1
e3
55
40
5b
22
0
41
4b
63
e3
5c
6f
3b
d0
5d
43
32
68
e2
d6
da
66
68
b5
e2
55
f5
cd
cc
d3
65
b5
db
62
57
56
4d
c1
c0
c7
95
51
72
60
e2
b1
53
b4
c6
37
d7
e0
a6
98
8a
b1
56
df
c5
4d
d5
c9
e1
ba
c7
d7
52
e0
48
cf
d7
d4
ca
ee
de
6d
70
60
77
77
d4
30
c7
d6
d2
ce
4b
2b
47
61
5e
d6
e0
5e
5b
65
55
62
51
41
5b
e5
65
45
65
79
63
eb
6e
5f
30
44
55
63
59
5d
e5
f1
fc
e3
d1
5b
af
a7
46
4c
58
66
ca
54
4b
61
44
d5
d5
4b
e3
e2
e0
53
5d
67
37
cf
58
bf
e2
e3
f2
d6
68
cc
cb
49
48
67
9d
80
c2
ef
52
8d
dd
f3
63
c7
da
c6
55
5e
dc
5b
e2
e7
d8
5d
e5
e5
ba
de
e9
e1
62
75
69
62
5b
61
65
3d
e2
4a
5c
bd
46
92
d8
da
3b
ec
5e
38
29
5a
41
a4
e3
d6
c4
e6
d4
12
e4
44
d6
ea
5e
c3
30
b1
e1
60
40
95
c2
e2
df
5a
6c
56
c7
78
5a
d6
e2
e8
55
e5
47
55
65
db
3f
d3
e8
dd
50
bd
5f
5e
6c
5f
3c
65
45
b1
63
57
56
cf
be
5f
dd
d5
5a
d7
20
65
5b
54
89
59
54
4f
61
8c
e3
5b
4a
5a
67
60
3c
4b
f
61
6d
73
74
61
65
59
d0
58
58
86
d7
da
dd
d2
da
bd
c0
d8
63
35
64
61
df
65
ec
58
55
ee
64
48
c4
6c
5d
68
5a
3d
72
6b
cf
5c
b0
cd
d7
d8
f8
e1
cb
db
db
f0
3e
4f
f0
63
52
e9
d6
ce
54
bc
5c
d9
df
41
e3
a6
b1
5b
59
80
55
73
75
c0
4b
3b
47
5a
d9
e9
f2
a8
e4
ce
ed
de
52
b3
e5
58
50
5d
5d
1f
61
65
cb
48
72
75
22
52
66
d6
55
dd
68
4e
4f
73
6e
d6
66
e3
dc
24
cd
53
4e
5a
d3
ec
dd
51
f4
f9
e3
e0
ed
e5
e2
60
62
62
5e
80
4c
48
ae
2b
d7
62
d7
51
c2
a8
45
cc
d6
56
a6
ea
df
d4
e2
4c
cb
61
e2
d5
5e
e1
c2
df
5f
e3
ec
33
c4
91
e7
54
d8
4d
64
2b
b7
e8
c3
fb
d5
e4
f0
c1
dc
57
47
e4
48
c5
e7
eb
ee
60
e1
5d
4e
c4
cc
e3
e2
d6
4c
80
74
61
78
79
44
73
72
59
32
4b
d9
47
59
6b
59
47
51
70
66
5f
7a
7f
5e
76
7b
48
45
67
46
ca
bd
e7
58
c4
31
58
5f
80
e6
b8
95
19
3c
d6
e7
41
20
56
5f
60
5d
6e
d2
56
5a
a0
51
4d
e2
5a
5d
45
cc
d5
5e
5e
dc
6a
46
60
cc
57
d3
d6
9
de
c8
c0
be
52
eb
ce
e4
4f
d8
5b
c7
66
af
c4
d3
96
f8
e9
be
f0
19
52
5f
e1
84
b2
66
c5
36
43
41
69
57
6c
c7
e7
69
e7
ee
e0
63
db
55
e1
d5
3b
e0
e4
e4
e1
dd
ec
f4
f2
4b
d7
6b
cc
62
ca
c9
f1
47
e0
e3
de
ce
d1
d9
4b
4b
e0
69
71
b3
ac
dc
58
ce
d9
b5
58
58
dc
ce
64
d1
61
64
da
5d
e5
dc
ce
eb
e5
f1
fd
f0
db
db
e3
44
5c
e2
5b
de
e0
5d
d6
e0
ca
e5
29
d8
53
2c
db
48
ca
e0
52
cb
d9
e1
5d
62
c4
60
67
67
59
6d
59
6f
5a
b5
4e
e8
59
22
e5
e8
4b
48
6d
63
58
ca
af
c8
b1
ec
21
c1
ee
51
e7
58
64
d8
46
71
71
69
d1
d9
63
5f
65
d0
9f
ce
66
63
5d
58
63
d9
df
41
42
4d
b7
d4
71
eb
ec
cb
e8
c4
19
dc
50
67
e2
63
77
b2
60
4e
57
3e
dd
37
56
e9
61
cd
e7
38
50
c0
d6
4e
53
59
bc
80
27
c2
5b
d5
e4
47
bf
be
98
4e
4b
4c
71
65
69
61
c7
68
56
c2
57
e8
60
a2
55
df
de
13
61
42
33
db
63
55
63
5a
5a
31
3f
66
68
6a
5d
59
a3
e1
d2
4e
99
4b
61
44
57
63
d7
ef
d3
bb
f5
f2
5c
e1
37
b3
90
49
d9
17
e6
e6
e4
c1
df
6c
43
98
9e
51
51
e4
c0
5b
80
7
dc
df
e7
5f
33
a9
37
a2
e5
b9
80
c5
0
e0
d4
d3
71
70
56
6d
43
5d
5a
60
b6
47
e3
55
40
5b
55
ce
5e
34
d6
5d
ae
56
a7
ac
e4
e2
e4
64
3a
58
5b
6c
cc
db
67
d0
bd
d0
48
35
da
e2
d4
b5
60
66
d5
e3
d7
d5
62
5c
dc
58
c8
24
b8
67
50
6a
6e
d5
d6
d5
dd
47
cb
dd
c6
e7
50
c4
b8
58
43
3f
bf
64
68
69
59
53
bb
ce
d0
eb
58
ce
4d
67
80
4d
5a
69
ec
6d
3a
e4
d0
de
c1
e6
e3
80
cf
46
ea
c0
18
60
d7
e7
d7
4b
4d
ee
bb
5a
e4
57
c4
5a
5e
62
c5
25
50
dc
6a
e4
d1
4f
cf
5d
33
c4
d3
63
55
d8
e4
e2
25
e1
44
e1
60
d5
38
5b
df
62
80
69
47
e8
dd
5f
e7
a2
47
41
62
67
c6
cf
e9
f1
e9
ef
3a
56
5f
5d
5b
e3
2e
60
49
62
dd
37
55
50
80
35
5d
63
19
69
6d
62
89
74
db
63
c1
5a
56
e0
ed
0
f4
62
e0
82
c9
e0
40
46
a6
5f
d8
df
e1
6b
69
5f
32
d2
62
5b
d2
56
55
64
c4
c9
23
94
56
47
5e
47
4e
63
af
eb
db
62
2c
b1
c5
4e
6a
cd
d6
61
ec
c8
69
5f
4d
d2
b2
63
55
db
41
5a
dc
52
e3
d0
29
dc
24
d7
30
d5
e5
3e
c7
11
d8
61
64
e0
ab
e5
60
ee
5e
60
eb
3b
56
5f
9d
50
5d
69
6a
62
6b
70
d6
e2
df
42
de
df
8f
29
c3
38
52
63
38
d8
93
c2
e8
e9
d5
e4
4d
e0
40
b8
c5
43
5d
d6
5b
e0
60
56
58
d5
52
2d
46
66
68
3d
db
bf
e4
62
63
e5
db
ed
ee
f5
f4
db
e2
5a
a9
d3
60
2b
50
67
5f
d1
dd
5c
42
9f
dc
d3
62
58
d4
df
40
df
5a
9c
f1
f3
ad
df
ce
d6
49
dc
dd
e0
a9
50
70
75
56
63
80
68
dc
5e
61
bd
54
c9
ec
e4
ca
52
e5
4b
52
64
58
dc
56
e2
e3
df
e5
40
d4
47
63
a
dc
cb
bf
62
e0
64
3f
c5
da
60
52
5c
c8
6a
72
63
39
d9
5d
4a
64
d5
5c
e3
71
70
e0
66
65
b2
69
6f
52
e3
f4
d9
e3
e2
c9
e2
58
68
5e
c7
45
54
cc
b7
d7
55
66
a5
54
c1
c7
32
eb
63
c6
4b
4f
d7
64
65
47
58
ba
50
30
33
e5
de
64
2a
4b
d4
bd
3e
d3
ef
c1
4e
f4
ef
df
d9
42
5f
60
43
e0
e1
f
63
c5
6e
65
67
63
df
db
3b
d1
49
f1
e3
57
81
5b
40
df
5b
63
5c
