ec
eb
6b
4b
ba
80
2f
da
86
2a
d4
6e
55
ba
5f
45
60
e7
8e
8a
71
4b
ed
da
d8
c0
43
52
da
66
bd
c9
66
da
ea
60
4f
da
68
45
e7
bd
bf
55
df
f
cf
68
5d
de
56
5c
3f
5a
f6
e9
51
e5
6b
58
e7
73
5f
f4
6b
69
f3
3e
27
91
6d
4c
f9
40
5a
f5
6b
62
ee
77
5b
5b
54
e6
40
cc
df
cd
0
cf
3d
db
4b
5e
50
e0
e0
48
d6
dd
61
4f
bf
62
54
d2
42
df
b7
5d
d5
58
62
5d
da
1c
e1
e2
c6
63
6a
6f
56
5c
65
ad
f2
f0
dc
59
4d
5c
d4
ec
e8
5e
65
64
5d
69
69
89
69
5d
ae
24
b8
50
6b
55
d8
58
46
a6
e0
f0
dc
ed
de
e6
df
f3
3d
e0
dd
34
e7
54
df
43
e6
63
39
45
80
36
64
de
5f
cd
e6
57
d0
d3
23
c1
61
3e
da
58
f2
b4
60
ee
56
6b
da
5d
77
f1
56
66
fa
63
6d
e9
df
79
e8
e2
72
f6
44
79
fb
b9
d8
1e
d9
dc
c2
50
d5
e2
ca
64
4d
d5
bb
e2
65
cf
af
d7
b5
d5
5f
4a
ca
d5
80
dd
cd
d4
5f
65
96
e8
b0
d2
ea
e0
58
e7
d6
9e
54
5b
e3
ca
e1
64
4a
6a
58
67
cc
c8
a7
cf
dd
e5
e6
22
c9
cc
75
64
46
c1
f0
ee
5f
59
dd
77
4a
37
f2
eb
df
5f
d7
e8
7f
6b
4d
e7
e1
e2
42
cc
cd
df
db
d0
80
81
e2
eb
b9
ea
db
e4
e8
56
64
6c
66
54
70
57
72
61
9e
dd
53
b5
5f
52
ba
e3
4f
e5
44
48
4d
59
d2
5e
e6
4d
b9
b1
6a
db
d9
de
e0
d9
ac
69
58
6c
5c
5a
4d
57
bf
65
e8
46
d7
e9
4e
d7
c1
40
da
22
df
e0
49
de
28
cf
da
ce
18
e3
da
d4
5b
38
55
46
62
d7
e6
5e
63
db
d8
81
b8
67
36
bd
b8
da
3b
e1
4c
80
cd
c0
56
c8
2e
e5
52
cf
d1
d6
55
d0
ba
c8
55
e2
d2
cb
dd
e5
d7
4a
dc
bc
cd
4e
d5
50
48
23
dd
5d
3c
cc
b0
50
de
77
56
ea
0
de
ab
d6
d5
4c
75
57
e0
99
ee
e3
8b
e5
6b
e9
c9
70
5e
ec
5c
51
ed
52
d6
c6
6b
b0
de
a0
62
e4
42
53
e7
c2
64
c1
dc
7a
e9
c1
67
52
65
d7
8e
4e
c6
f2
dc
67
6c
54
64
d7
4b
db
c0
ec
60
65
60
e3
51
e3
f2
d1
ea
f0
49
b6
60
d9
3c
66
d2
44
43
cc
de
45
64
60
56
72
69
f3
db
ef
9c
e9
e3
5f
b7
60
6f
c1
68
cd
f3
c0
72
ee
65
51
d5
5e
e7
df
dd
5f
52
2b
5d
61
ca
b1
e6
3e
57
1c
68
d3
80
e3
e3
b4
5d
61
4a
4e
d4
3b
f7
bd
4
5a
41
30
73
e6
e7
db
e2
dc
d5
73
4d
7b
6b
3b
31
5b
69
68
62
5b
58
cf
68
69
55
bb
c3
da
cb
61
e3
ee
ed
ee
dc
e4
cf
ca
ef
4a
61
72
f2
bf
35
db
d4
a2
5d
66
75
f3
38
64
e8
ee
ce
98
66
72
e3
f4
5b
59
e9
b3
46
4d
e3
5e
cd
f0
62
65
98
51
d9
f1
46
53
ed
c5
2f
55
67
54
f9
65
6d
56
37
6f
d0
eb
3d
5b
dd
e2
36
5a
50
58
ea
4c
dc
ce
d7
df
58
6a
67
c4
d1
59
e1
d8
68
d7
43
d3
dd
db
5a
e3
50
47
d7
53
b2
de
44
e3
54
c7
e2
e0
3c
46
60
db
5c
d2
e6
1f
e2
5c
b5
da
de
da
80
ce
41
54
a9
c5
bf
3e
40
cd
d4
52
d8
e1
df
55
de
9b
0
59
6
e1
11
35
e0
73
ec
b3
62
f2
65
76
f5
5c
70
ed
df
77
ee
61
5b
f5
bf
77
e6
ca
74
f6
5b
62
f6
52
c9
df
e5
e9
5f
ce
cc
af
dc
64
9d
54
58
d6
e8
df
e6
43
62
62
db
5a
52
e0
4a
e3
e5
e7
46
b3
c3
80
45
e8
28
dc
3c
4d
e1
e6
dc
e0
22
5a
30
5c
e1
dc
e0
4d
69
ca
6b
67
34
36
4a
37
cd
63
6a
66
70
50
69
c8
52
b4
69
ca
b3
cc
ea
24
ea
ef
ac
d6
ea
a3
61
cf
e4
61
60
c6
c1
df
3d
e4
d6
58
1e
e2
48
52
5c
c6
bc
59
53
de
e0
d0
81
e4
23
75
80
55
2c
a4
f0
5c
df
d7
6b
64
92
42
dc
ec
d9
ed
58
77
49
62
54
da
ef
4b
ea
81
3f
eb
5e
6c
31
70
d4
dc
f2
da
2a
e8
64
53
53
de
d0
dc
e9
e8
4a
6c
65
79
47
cc
d1
4f
b1
c8
cf
db
53
50
c2
4d
d4
35
34
e4
29
e3
d7
c7
18
d9
56
81
c8
5c
c3
e5
51
db
48
58
e5
62
98
d6
e3
e1
e3
d6
e3
4b
e5
ce
89
d9
55
d6
e0
44
64
b1
e3
aa
e3
da
3a
ed
d0
e5
cd
5f
c6
64
55
6d
f1
e9
d0
d3
5c
65
58
96
6d
f6
e5
59
2f
3b
29
5b
56
67
f4
6b
49
e8
67
96
ea
3d
67
ec
72
4c
f0
cd
64
ec
6a
5f
dd
74
c5
f4
68
59
f7
46
64
c0
d9
54
d6
c7
70
e7
bb
d8
dd
e3
5e
b6
5d
75
61
5c
ad
54
eb
d8
e8
42
2e
ab
53
4a
3b
f1
42
49
f1
71
72
f1
67
43
ea
72
53
d6
5b
de
f3
65
df
e5
7a
d9
f9
6d
65
e5
5f
73
6a
70
e7
ae
e4
eb
db
dc
65
6b
60
e4
e2
ed
81
f
42
72
71
6d
ea
f8
d6
4b
d7
da
68
d8
ec
6f
38
e5
c7
5d
df
3d
57
e5
70
69
ed
e4
67
80
4a
e6
e8
50
5d
f0
5a
5c
4b
eb
64
e4
34
df
c6
49
b7
e7
ed
9e
e1
2f
53
5f
9c
dc
3
dd
67
df
6e
6e
5c
db
54
60
b8
e6
94
5a
4e
e0
64
c8
e5
5f
e5
b8
d1
d7
5b
68
44
e3
6e
e7
68
2
b0
bc
5a
55
1
64
f3
48
d6
f3
6d
af
bc
70
78
ef
d0
64
f6
c2
d9
e1
76
5f
e7
56
e2
ee
60
d5
d1
7b
c2
4d
a
d5
c7
46
e3
e7
e4
38
df
d5
4e
df
40
e1
56
d0
80
e1
51
26
56
cb
6f
b8
6a
54
2f
6e
ea
ea
2a
40
ce
d4
58
4e
d7
ee
e1
e8
4e
b4
26
6f
6c
66
9d
6a
e9
cd
66
5a
6c
5e
36
67
40
68
fb
f1
da
71
da
3f
41
69
6f
f3
f1
8a
34
db
de
6f
69
6d
ed
1f
ea
38
63
d4
5b
0
6b
ed
de
e1
d4
d0
de
4e
42
57
f5
2b
d5
5c
52
59
1a
70
2f
f1
67
5e
0
ac
69
5f
cd
b7
d1
c6
e8
c9
ae
c6
c7
24
dd
5b
27
e6
6d
5b
21
65
71
6c
dd
d7
f2
df
de
4c
48
cd
5d
e4
64
58
62
5f
66
d3
af
5f
60
aa
8f
e6
e7
de
be
47
d3
31
50
da
df
c6
30
62
6e
53
f0
55
da
55
42
eb
51
1f
64
f2
5c
52
52
6d
8e
e2
6b
5d
f8
e7
cf
44
d7
6c
51
72
40
ea
19
fa
4e
6a
80
76
5a
36
c3
f4
f2
d3
d6
6f
70
5a
52
d1
e5
f6
6b
64
65
f5
e4
f6
56
67
51
56
5e
73
e7
f7
f1
51
55
54
5f
ba
63
f3
fa
e8
76
6f
58
af
cd
4f
5b
0
cc
4f
df
36
db
5f
66
d2
dc
62
e5
d2
56
cd
c0
ba
d6
d2
69
e3
e2
de
e6
e3
23
eb
d8
5d
59
56
71
de
f1
c0
d4
e1
5e
19
aa
50
e1
59
4c
59
54
2f
61
2e
70
dd
3c
5a
27
4f
62
48
d3
20
60
b9
68
b9
a4
6b
d2
57
51
4b
2c
95
d9
f5
8c
42
18
ca
da
e4
5e
5a
61
e2
57
2f
e5
d9
5b
54
e1
e0
5b
de
4e
4f
d9
e0
c0
60
c9
ce
f
0
e4
4e
cf
54
5d
3b
5c
d3
db
e2
37
48
d2
34
44
d6
d2
dd
ae
e6
4b
d7
5c
c8
d3
e6
dc
df
d3
51
de
34
58
60
e5
af
da
a1
e1
63
da
56
cf
a5
37
38
e1
d1
c5
5d
cf
db
cb
cd
64
80
f2
64
64
e2
4c
5f
5e
a1
38
df
ef
3f
ce
d3
42
ef
43
5e
ec
8e
69
e6
5c
68
d5
6d
59
58
1d
6f
6b
6d
4e
5e
56
ea
eb
e7
e9
e8
f0
f3
d3
f2
3d
60
5a
b5
b9
4f
64
c1
5c
ab
63
e3
d3
df
d1
b2
d8
93
5a
db
e1
2c
c1
46
67
c6
5c
a4
db
db
d8
2c
da
49
dd
31
