c3
d1e1
9b27
d39
1cdd
24b7
3691
6ea5
1222c
76e3
fffff699
4d8
5b0e
fffffcae
ffffcad8
453
5fc
fffff061
9841
26f1
fffffcd7
ffff84b9
ffffba54
253c
ffff94fb
4874
4849
57
2c6a
fffff927
11aa
ffffd3c9
34ba
be0d
2743
fd85
2894
ffffd602
4c73
25ab
3997
7e7f
ffff7e42
aeda
7229
ffff78c6
9074
fffffdc2
64e
2ce7
ffffa87b
ac8e
ffff75c5
28b0
d1
54b
4174
8ec
36c4
a08d
ffffe55f
3452
6510
1d4
fffff3e1
e71
183b
d23b
311f
63e2
4ddb
d11
1464
fffff7a4
ffffc42a
82f3
76c
109
32e8
7940
16e9
ffff8548
1e42
ffffad32
66a1
303e
ffffdcfe
5e0
fffff222
fffffbed
26eb
2956
fffff51e
1e3
1bea
ffffebb1
fffff83b
b0f
ffffc3fa
738e
283c
1fee
e3d2
fffffee4
ffffe4c2
ffff5c7c
3ff0
ffffee3a
19fc
ffffd282
fffff948
3470
fffff3d2
ffffff91
fffffb10
dff
aa66
fffffb3a
5720
ffff793e
6f14
ffffeae5
ec4e
ffffcf2b
fffed841
b8cc
ffffe5ac
668
fffff285
490
1852
33da
4633
edee
ffffd23b
2d69
3147
18ef
fffffe56
b9
173
ffffbf34
78b2
daf
1019
115b3
ffffff43
2642
84f3
1ab4
539a
6fd8
f0f5
ffffcfed
3f15
1fa2
34bd
fffffb62
fffff736
ffffd594
38c0
ffff7c2b
fffffb35
8461
fffffae9
82b2
997c
ffffed8a
ffffbcc0
8853
2fa4
4c5b
42cd
f1ce
27b
ffff75db
fffff5b7
98e6
205
ffffd84b
ffffb38f
142f4
6b91
fffffe7a
4ab6
36a1
6f2a
fffffbfa
a77f
912f
fffffd13
548a
ffffdea7
ffff014c
252d
2042
55d8
6a16
a988
3d48
ffffe04e
55ad
2c50
fffff523
ffffbaf1
308f
3acb
fffffc5b
18d8
48af
5e15
ffff9440
7e86
1933
a065
d0d
5310
7621
4e05
8e1
ffffe3ae
ffffed93
ae8
665b
acbc
9cdc
fffff9ca
fffffbb7
a56
765
3043
bc
5c0
499
27b8
ffffe8fd
254d
142a
7a0a
2060
79be
e78
2adc
ffffff5e
2c1a
fffff982
1df
fffff717
2ed5
19e5
aadd
81d
1f98
fffffb1e
4511
c6
