dd
b6
e1
b9
5c
bc
e2
cc
54
44
c0
a8
dc
18
52
c6
61
e0
5d
80
47
d0
e2
48
3a
e0
2f
cf
c9
2d
62
61
42
d5
5f
4e
dc
c6
52
c3
2e
df
19
dc
ce
40
d5
d8
d8
e2
45
4a
dd
54
b2
8
d3
c9
d8
ca
d9
dd
c8
bf
dd
d7
36
b9
62
df
47
3f
5b
cc
51
e2
e3
da
e0
dd
44
d4
c2
cd
dd
58
13
80
45
59
9d
e0
20
5d
61
51
51
b0
c8
d1
1d
db
da
44
5d
44
b1
5a
54
5d
61
d7
a1
d9
b6
3a
cf
62
d2
4d
e1
60
cb
ab
59
ca
61
ca
59
e1
60
4c
2b
df
c6
0
dc
5e
e2
dc
59
57
d5
d7
e2
5a
44
5c
e2
5a
4c
d9
61
62
a6
29
a0
61
d0
d6
bd
df
57
60
e0
5f
a2
e3
5a
dc
5a
58
58
ae
34
d0
df
ca
d8
dd
d4
5d
53
5e
e3
d9
df
c8
55
df
5e
5a
36
58
4e
45
3b
54
c8
3b
d6
e3
d8
81
c6
61
de
e3
3d
5b
3e
5c
4c
d2
61
e2
cc
cb
d4
5f
56
58
2f
e0
48
30
5d
dd
d7
e0
53
3d
8a
d4
62
df
49
52
3a
4c
ae
53
5a
51
d0
d5
0
15
c5
3e
4f
c8
5a
49
c9
d7
58
dc
4a
5b
dd
df
b2
5a
51
4a
d8
57
50
d2
4a
d3
2d
5e
55
e0
60
5d
4d
39
db
39
55
dd
56
36
af
61
58
35
54
da
56
ca
5b
da
5a
53
dc
c9
56
46
5d
e1
47
db
de
dc
5f
b2
4e
da
e3
d1
55
c3
4a
e1
5d
de
af
d6
5f
1f
db
52
1b
2e
ce
c8
63
dc
c5
d8
d7
da
d6
5a
42
aa
db
df
df
2c
58
61
ba
b5
d2
31
e2
38
43
5a
5e
d6
5e
51
df
e2
3f
3e
5d
e1
5c
c8
57
53
5e
bf
a6
db
53
e1
bc
60
c3
5e
5a
2c
4b
de
63
a4
e1
e0
b5
8f
4f
4a
cd
97
53
53
4e
53
d4
c9
d3
e2
48
45
5d
a5
d5
cb
4a
60
c7
4f
bb
b9
d0
d8
18
3f
da
d1
60
49
62
5e
81
e2
3b
d7
e0
43
ba
db
e3
51
c9
d9
62
94
d6
e2
5d
62
61
d9
c0
d9
5a
3e
44
cb
5f
de
db
d8
36
b
5c
61
c2
56
be
39
4c
60
9f
38
5a
23
62
e2
e0
e3
d4
e2
c8
de
5e
c7
d5
44
d1
88
5f
df
55
e2
5e
39
cc
de
cb
bf
32
47
d9
e0
a4
af
94
c9
63
f
4b
a8
cd
de
d5
80
e2
14
d0
dc
40
d8
55
5b
5d
5b
59
d6
5c
59
d1
51
d8
5a
43
dd
3b
c8
c7
a3
51
5b
e2
ac
de
d4
4b
da
d3
e2
ce
5e
56
dc
dc
de
d2
c4
56
d1
aa
62
29
52
d0
bf
61
cf
de
55
5b
40
80
d9
60
51
e0
e2
58
ce
62
df
62
5f
c2
cd
4a
51
33
23
58
d9
41
5e
5f
60
54
dd
56
d4
4f
bd
de
2b
d4
da
5c
62
dd
d8
5e
57
5b
5d
5e
b8
ce
e0
f
e2
42
40
52
e0
61
52
e0
d0
c8
2c
b6
ce
d6
59
df
51
5b
56
5c
bd
60
d4
60
c2
db
e3
df
d6
d4
b9
d8
cc
b5
d5
e0
e2
de
e2
d4
a1
36
5b
60
47
df
40
5e
61
2d
5f
da
e1
60
4e
d3
c9
51
e2
ce
37
4a
0
36
5f
d1
60
60
30
55
5d
60
5a
55
39
4b
13
c4
5c
37
48
17
47
52
c7
61
61
61
4e
4b
4a
b1
43
a2
55
cf
3e
50
4f
e0
4d
52
51
de
af
55
31
d4
60
61
d1
2a
e2
4f
58
5d
3e
50
b1
a7
ba
5f
b5
40
5d
d4
d3
4f
60
d4
56
c9
dd
3d
1d
80
4b
58
3c
40
9c
dd
8d
db
e1
53
cc
46
c3
e1
d4
ba
d7
5b
4d
d0
34
bc
40
d5
de
d0
d7
c2
60
2d
d1
16
d0
9d
61
87
52
29
33
62
d3
b1
4e
cf
5b
ca
5e
d9
44
c9
36
ce
db
62
15
5c
dd
5d
e3
e2
1c
e3
df
5c
c3
e1
54
d3
d4
b7
3d
50
60
e0
e2
39
cd
d4
4f
60
3e
b6
e2
4e
b2
44
df
e1
8e
b2
af
d9
50
b9
50
bf
4e
49
d2
12
54
dc
48
b1
e0
61
50
da
95
d1
57
d1
51
cb
4e
58
e1
d2
4c
51
5f
53
51
db
59
dd
80
d1
da
d3
e0
e1
dc
e0
56
49
60
e1
57
59
c5
e1
cc
46
db
d5
55
c2
1c
bb
d6
5b
db
4a
4a
5e
ba
de
cd
dd
cc
ca
c1
c3
de
5b
60
5d
44
80
2f
3a
60
2f
61
5b
c8
5c
5f
e1
3c
5d
df
5a
cf
5b
61
61
c7
dd
59
d1
d0
d1
cc
d6
4c
e0
dc
9b
4b
d2
de
e3
db
3a
e3
4e
c5
3a
e2
d8
da
c2
47
44
ce
d8
e1
e3
cb
dd
d7
61
c6
da
c3
5a
8
49
e
41
53
e2
ca
5c
4e
d9
dc
9c
bf
50
af
d6
aa
53
c1
bd
cb
dc
49
51
da
31
3d
e1
61
49
b
d4
c6
48
e2
4a
ae
d5
45
80
53
d8
2b
9a
4e
59
81
e1
54
36
5f
2a
4b
b9
4b
5d
40
37
80
db
b0
db
61
e2
50
c7
bf
d2
58
da
60
b1
d0
4f
23
e1
de
d4
47
53
56
f
3f
db
4a
d8
c2
57
c0
5e
ae
e0
54
5c
dc
df
60
ce
c5
41
d9
5e
cd
d8
1f
c5
df
d8
55
26
e2
d9
45
59
5a
4e
44
5b
ca
3f
e0
df
d5
b3
b0
3f
dc
e1
55
62
d3
51
dd
d9
cd
5d
df
5f
dc
db
dd
c9
d9
b4
5d
b8
d8
34
3d
d6
dc
91
29
cd
d5
5c
50
61
20
d2
5f
b9
48
54
d4
cc
59
8e
5e
c1
e1
5b
ce
cf
d6
60
58
50
81
cf
26
bc
c7
d2
e1
60
0
d7
cc
41
cb
b0
c0
d7
3d
dc
99
d8
2a
2e
c7
ac
36
51
be
db
49
98
ad
62
de
4e
50
d4
3e
db
e2
43
df
de
5e
b1
50
e2
d7
5a
e0
ab
5f
80
2b
e3
dc
c3
44
52
b4
bc
b3
57
d5
59
a0
9a
14
dc
5b
b9
3e
3e
c8
de
52
de
5b
e2
40
d7
ce
de
5e
38
da
5a
cb
ca
bb
cc
5b
e0
5d
3a
b9
55
da
d5
e0
4d
2b
9a
4d
61
5d
55
c7
46
cc
dc
62
53
1e
e2
aa
e1
d0
61
44
b1
c9
be
dd
58
61
9d
d4
d1
16
34
45
80
c6
d9
e1
52
e1
d8
5d
50
16
d3
41
d1
4c
e2
d6
54
54
e0
da
dd
e0
c0
e0
d2
5c
5b
b8
59
e2
c9
98
d6
ac
da
56
bc
5c
5e
d6
26
41
5d
d4
f
dc
52
2e
da
80
5d
47
3b
da
b1
4e
c6
5c
d4
4c
54
43
4e
e3
d8
44
3d
df
db
d3
3d
88
a8
14
dd
e0
5c
de
60
62
df
cf
80
e1
4a
cb
55
db
ce
45
cd
c5
d9
62
ce
c6
ca
a3
c9
29
51
61
dc
d6
e0
c7
d0
57
e3
de
80
63
4e
5e
dc
da
d5
d3
31
51
d0
cf
d5
60
5c
5b
5e
ba
d7
bf
cc
d6
d7
dd
52
e0
de
4a
5e
b7
59
4f
53
ca
5f
c4
39
a7
d6
59
dc
3e
5b
50
50
c0
d7
57
b1
54
dd
56
5a
dc
4d
b7
27
de
d8
48
53
d8
57
a5
55
61
e0
d8
d3
c2
35
e3
b1
d7
3a
4a
db
52
50
5c
55
3d
e0
45
49
61
df
5e
61
2b
e2
ca
b0
51
2e
e0
d0
49
dd
ce
4b
43
60
de
d6
62
19
d1
cd
d9
d5
5f
c5
e3
0
50
23
af
80
d2
cb
cf
d1
c3
db
46
af
df
da
2d
ce
d
4b
12
d0
61
cb
de
5f
e4
e1
40
61
38
d8
3c
da
4e
e3
49
4f
3f
4e
be
5a
d2
cb
e1
54
1f
cf
5e
e1
e3
e1
e2
61
5b
52
dc
3f
62
da
59
3d
61
1f
c7
58
5f
d7
53
4d
56
b7
de
61
59
33
b3
42
5f
e2
e0
57
cc
b9
2a
57
c0
45
d0
aa
d8
bf
d0
4d
2f
81
7
c5
c9
b0
bc
5d
ad
e1
3f
bf
db
c8
46
5b
3b
29
9f
5e
dd
af
af
e1
da
59
d8
c7
33
df
50
dc
55
b9
5c
d9
b
e3
b7
58
af
ca
d6
51
61
60
56
de
c8
3d
80
d2
df
48
de
c3
5b
c1
e0
53
d6
4f
d0
17
e3
dc
af
e1
45
d7
35
dd
cf
d2
d7
d2
98
cc
d3
d4
c8
5e
34
c5
d5
5c
dd
58
cb
cf
50
df
57
d2
b1
bb
e1
cf
4f
a9
d6
60
e0
be
cc
5a
da
5d
52
3c
e0
4b
da
cd
60
de
3d
de
59
42
57
60
9c
a5
e0
56
c5
35
5c
62
61
d9
dc
de
d7
4d
df
94
e2
47
5b
5a
dc
5d
61
4d
59
62
5c
9c
da
58
b3
53
5d
d6
cc
d3
b7
1c
e0
4f
54
b5
80
c8
5f
db
49
9
54
c0
d3
db
b2
dd
da
54
36
db
46
ce
d2
56
cf
28
5d
62
c3
56
44
c4
a5
b8
e0
e2
df
de
de
b0
57
59
58
4b
5e
dd
d8
60
db
e0
d7
62
bd
83
5e
51
d6
a9
c9
61
46
e0
49
38
e0
cb
44
d0
56
7
51
80
bf
5d
e2
b0
d1
de
e1
58
e2
62
42
b4
c4
81
e2
d7
dc
4c
c8
45
d6
4a
59
dd
ca
cf
61
4e
c2
dd
36
4a
df
56
c7
60
57
d7
56
ce
43
44
cd
50
62
b7
e1
b0
d2
c4
60
5b
de
4f
5c
56
ba
e1
56
5e
60
0
b0
dd
d8
ba
93
bd
54
5
51
37
2c
55
d0
43
c0
61
62
de
d6
dd
dd
41
e2
47
d5
60
2a
e2
d4
57
d7
50
b0
5f
c7
59
e1
dd
e2
df
db
5f
61
5b
d4
60
54
37
a4
5c
50
d1
e0
9f
b4
d8
c5
c8
4a
4f
d1
5c
4b
58
4d
48
54
60
5b
59
bf
e0
e2
a4
ce
59
5e
56
e3
4a
49
d5
35
50
4f
a8
c7
46
db
9b
cd
21
5c
d5
e1
de
d5
61
5a
56
4c
62
4f
61
d9
48
46
ab
13
c5
43
bc
aa
3c
bd
d1
db
3f
de
2
57
e2
54
e2
e2
1a
52
ab
d9
b9
5d
28
dd
da
5b
d2
4f
4d
5a
3c
32
47
da
e3
e1
cb
4b
52
e0
ce
db
5d
33
59
e2
ae
c1
61
d9
27
4f
b5
a9
43
e1
e0
d8
62
62
c3
df
2e
a2
e1
ca
4f
4f
ce
c4
3c
d6
47
d7
de
5a
55
62
96
bc
dc
d1
5f
d1
d8
3f
d8
ca
45
cb
a3
57
5b
cf
38
da
b2
5c
c2
e2
c6
58
e0
c5
d4
e2
17
5d
1e
42
d2
5a
10
c3
d4
25
dc
48
37
d1
bf
5a
d7
42
39
4c
61
80
46
34
b5
52
a3
e3
1b
cc
c4
5d
b4
dd
58
cf
c2
ac
63
d3
5d
5e
bc
b0
d7
e3
d1
36
45
49
8f
b1
c3
56
35
d0
b4
d2
e0
5e
36
be
17
c5
dc
5d
b8
d8
b9
60
c2
52
e3
45
51
50
5a
d3
c8
17
80
5a
62
e2
e0
d6
39
dd
db
d4
dd
cf
54
38
63
d4
dd
91
c8
58
80
2
d8
2a
ac
d4
49
5f
cc
50
b6
44
4d
d4
dc
cf
81
b5
4c
d9
aa
5f
d8
52
ba
d4
5f
61
d8
bd
82
2d
c9
54
ce
e4
56
57
42
e2
50
d9
5d
4b
32
d4
5e
b3
26
d7
43
ba
e3
46
5d
41
5c
5e
4e
3d
ca
62
bb
ce
dc
e0
e2
cf
5e
e2
d9
ce
b1
4d
57
d3
53
cf
5e
d9
58
52
d5
ca
53
5e
3b
61
bb
3f
cd
58
97
23
bb
c4
cb
c6
3d
5d
da
dc
60
53
ce
db
be
df
5e
db
db
31
d6
18
d1
59
cb
0
c8
a2
42
df
d2
a4
d3
d5
5f
5b
e0
54
dc
d5
e0
d8
e0
62
dd
62
df
60
80
bb
65
ca
4b
6f
b5
66
5d
4c
3c
be
b4
5e
5b
e4
dc
cb
47
26
8
58
d5
da
d8
5b
df
2d
ba
3c
6b
65
5b
7
6b
6a
67
b1
d2
da
9a
9c
64
5d
50
32
59
40
4c
d8
1e
3e
a9
c2
55
5d
dd
d5
b8
d9
bd
55
b8
c4
60
d7
dc
d6
d1
56
61
56
be
47
50
d5
ce
54
d9
e1
84
c5
59
4b
d3
4c
44
49
e7
d4
dd
81
2b
58
68
c9
dc
65
c7
bc
47
4c
e3
56
a
dd
34
ba
e4
62
c7
36
2a
4f
ba
ad
5b
d3
e3
dc
ea
b0
3b
b9
e8
59
27
59
9e
21
56
d0
bc
bf
24
5e
de
d1
3d
49
d3
81
4f
55
d2
f
39
5e
28
df
60
81
5d
e6
57
ad
dc
a8
3e
b1
57
60
e1
d3
ec
b7
ac
e7
50
43
d2
36
d3
e0
1e
9d
42
42
d1
4b
e0
55
cb
cf
bc
62
ca
6e
5f
2a
33
b9
52
d0
3c
64
5f
63
6a
bc
4f
d1
d7
da
df
c5
57
8c
30
67
d4
91
d8
65
49
ab
b2
ee
2a
45
c8
e0
5e
d8
3f
91
df
bc
32
d7
1a
0
be
58
52
d7
d8
1d
df
50
c1
de
48
b2
e2
4c
ec
30
57
d1
37
bb
4e
56
d6
e9
c6
e7
12
e3
bc
13
c8
d7
35
c8
55
57
58
cd
81
56
e0
65
d6
de
5f
9b
52
6c
dc
dd
d8
58
db
62
50
3f
68
30
53
c8
5d
4c
57
e3
61
e4
e3
e0
e3
35
c8
a4
dc
d0
d7
5d
54
55
0
3d
d2
5d
d3
5b
bf
3c
e3
dd
be
47
d0
c0
e4
dd
d0
52
dc
5e
4b
d2
e6
c
f0
cc
47
da
e4
ea
c9
ec
e2
53
c8
23
35
60
67
45
cc
ce
aa
58
d7
e3
3e
d2
b7
5b
81
d3
df
ea
e5
bb
43
55
d1
55
ea
b2
df
49
52
0
e8
51
51
44
54
47
ac
55
45
dd
a9
cb
4b
4b
5b
d6
9f
34
df
42
d7
3f
e2
e7
aa
de
ad
c5
e1
31
c1
42
4f
d8
c1
53
d7
4b
4e
cd
81
35
68
3c
53
d5
a4
d7
4a
67
47
68
ca
eb
55
e1
dc
a3
d0
b4
da
45
da
1c
c0
c3
3b
e9
2d
e5
87
af
d8
df
d3
dc
12
47
cf
4e
5f
c2
cc
48
e3
5b
20
12
2d
52
54
e3
c8
23
dc
d4
d3
d1
e0
55
47
d9
3d
5f
db
d9
5a
61
66
6a
65
45
52
58
54
bc
bd
53
e6
48
54
d0
e5
ad
52
47
2f
d1
41
e0
b5
48
cd
d7
d2
d2
df
e2
dd
e9
62
e8
d1
c6
37
c7
5e
4f
48
20
54
d7
62
d3
36
e2
5f
cb
69
3f
64
53
30
67
60
d5
d8
e4
dc
d9
4b
59
5e
56
5f
a9
3f
9f
64
5a
68
cf
4a
cc
e1
57
40
42
b4
5e
b6
dd
e5
d8
e4
c8
56
c6
22
61
4f
2a
db
b3
d3
c8
d5
c9
e1
48
45
df
64
b0
a3
5f
e1
5d
4b
65
4a
94
58
3a
5a
51
da
20
e7
be
36
57
da
cf
3d
e3
60
5e
5e
a2
3c
d9
4f
e0
51
17
ca
4c
a6
5c
50
57
5b
cf
59
80
d4
6d
67
b
53
d6
df
52
da
14
51
62
52
6b
a5
61
63
52
5d
51
cc
c8
d4
4e
cf
5b
a3
d4
d4
e3
cc
c6
d3
8
51
bc
5f
b4
69
59
41
da
da
50
ce
54
c8
b3
67
60
5a
5e
5d
52
80
5c
80
42
d7
3f
b6
80
4b
e4
ca
40
cf
e6
90
c1
23
e1
d5
b2
5f
64
d2
49
54
3f
c1
ac
4d
63
68
41
97
a8
68
57
3e
e0
5b
dd
cc
c9
49
bc
d0
c2
e0
81
46
99
5f
53
e1
c2
e3
60
62
dd
d9
b4
d2
e5
df
cb
c4
da
5d
57
aa
58
de
52
d9
63
d7
47
d9
49
5c
5f
35
4f
21
db
53
ab
dc
5e
4b
68
41
58
c4
65
ab
d5
57
dd
4b
d8
54
b9
de
cb
37
5c
c2
b1
62
da
e1
cc
5c
42
5f
5b
54
28
66
5e
43
cf
69
67
61
ea
6
80
c7
cd
c4
d4
b6
4f
df
67
4f
32
b7
6b
62
5f
c7
46
3c
cf
5d
68
a8
b8
5e
d4
ca
44
3a
d9
ab
d0
dd
3c
c0
e5
d9
da
47
e9
ed
e5
ec
d0
ae
57
4b
57
1c
d7
21
a8
d9
51
b4
e2
d1
42
4c
5b
cb
bf
60
db
40
4d
c8
55
5f
e1
cd
b3
47
44
5a
ce
2e
5e
cd
c9
d7
37
e1
cb
60
39
dd
da
e5
e6
50
dd
23
4d
57
e4
3
61
36
ae
e3
ae
e3
51
c1
db
e3
ae
d5
50
cb
e5
cd
db
b4
da
5f
e4
b6
57
48
45
dd
60
e4
d4
d6
4c
d8
e6
40
df
5e
d4
d9
c4
4b
dc
e4
59
46
52
53
80
80
e2
dd
53
ba
5a
56
80
5c
d6
42
4e
36
dc
e2
de
3c
be
c0
a1
65
33
cc
48
e0
2c
da
5a
5f
60
56
44
5b
de
d2
d7
b9
db
d2
bc
dc
cd
e4
5c
55
ad
cc
b5
54
4d
51
c7
db
e1
c9
cc
37
62
56
61
48
d4
e4
4d
66
c8
4b
cf
56
60
4e
d2
32
6a
d8
3e
6f
a9
d5
4f
d0
4b
d6
d6
b8
d5
40
e0
e2
d0
61
3a
5b
5d
a3
cd
52
df
ce
47
db
de
a6
34
51
54
4a
d1
63
54
8b
62
e2
dd
e4
56
2f
c0
d0
61
14
4a
d9
cc
3c
69
4b
55
8e
d0
d8
5d
bd
c
3f
57
4b
63
61
d4
4a
55
de
c7
d9
df
dc
df
e8
61
54
e6
ab
5e
53
69
62
0
ae
5d
6f
61
66
da
d6
cb
ea
bf
a9
da
f7
d9
de
cb
c2
d9
c9
b1
c6
d5
e5
dc
db
58
60
e6
ad
c1
41
48
42
a8
53
60
dc
dd
c0
eb
b9
5a
44
3a
47
32
6d
68
63
56
58
54
55
d3
3e
e0
57
c0
57
5a
66
5f
56
d3
e2
d4
c6
4d
e2
48
54
35
e5
54
de
ec
e7
3f
d7
5b
48
d6
2b
49
ce
d8
d6
61
be
b9
db
3d
ec
0
5b
26
6e
5f
5e
2b
1e
6d
ee
5b
e2
d2
60
67
65
56
d4
58
57
e6
26
ba
39
e4
e1
c5
5e
46
ae
c7
59
3
45
56
5f
47
cb
df
3e
65
6a
db
e2
64
56
25
d4
39
6e
d1
59
d6
47
71
63
61
60
45
cc
d8
e2
df
4b
53
39
dc
dd
58
31
55
40
64
ce
c0
69
8c
27
c7
d4
61
e4
b3
ed
a0
eb
ea
e8
f0
e7
dd
18
5b
d4
e4
41
57
55
e6
cd
c5
e9
49
bb
dc
e5
5b
5a
55
5e
9c
36
d0
22
b3
e2
e8
52
d6
2b
5c
53
1f
53
dc
5b
c9
80
52
58
44
ce
de
d9
9a
9e
53
4b
32
be
53
25
cb
cf
b0
c9
d5
4f
d7
c9
dd
de
31
e0
cb
ea
e1
e8
db
4c
e1
bd
d8
cc
c4
cc
de
c7
41
2a
ed
9a
44
66
e5
55
63
e6
e1
b2
e2
56
65
54
c7
64
b7
cc
63
dd
d5
52
5c
38
58
3f
53
e9
c5
43
57
28
57
e1
bc
2e
d0
e1
32
51
55
4b
dd
de
db
ca
3c
64
b1
50
dc
c3
a3
cc
5c
c8
64
5f
ce
2b
d8
ad
d4
b9
db
4c
4e
e0
cb
4d
dd
40
4c
3f
60
5c
55
c9
5f
45
d7
67
40
48
e8
50
c5
5a
80
4c
60
de
d2
f1
54
36
eb
eb
e0
c6
5d
e1
da
3d
ce
29
56
61
5d
e5
e8
da
eb
d8
54
c6
3d
41
45
d0
d3
d3
46
4f
f0
de
d2
5a
c6
ea
48
5b
dc
e6
ae
bc
bb
4a
ce
57
67
61
5a
d6
ce
61
da
5b
4a
45
3d
63
50
53
52
d1
5a
99
5c
53
dd
3f
15
bd
15
e5
c
31
e4
98
eb
d8
ea
c4
1e
e8
c2
62
33
24
6b
66
62
c2
61
28
57
6e
dd
e2
d2
5d
c0
b6
3b
d5
d8
df
41
59
49
e7
d6
e4
ec
93
4a
eb
3f
dd
ea
5b
60
38
62
5a
e5
ea
40
40
59
68
d3
56
60
bf
c8
d2
3e
41
57
33
e0
43
5a
bb
e1
b8
da
80
da
e3
e7
ca
56
cd
63
57
63
1d
4f
cb
59
e2
d7
5a
45
5f
4f
d5
41
5e
43
46
5e
dd
5c
5c
26
d5
cd
58
4f
6a
b3
57
74
72
61
61
64
50
48
2d
1a
d6
a4
61
d3
da
5b
b8
9d
bf
5a
4b
d1
6c
5f
3e
d8
a
e0
df
5a
53
e2
e3
4c
87
e1
8b
e3
cd
60
50
f7
aa
f4
da
cd
e2
d8
d5
d3
bb
cc
45
b9
cf
bb
28
d4
1e
41
5d
c8
d9
df
e9
4f
da
40
e3
ed
e8
af
4d
d1
6b
dd
e7
4d
56
62
ba
a6
52
4b
57
d4
5e
63
38
c3
2b
48
b4
4c
e8
c0
e6
c0
4a
dc
ec
c1
e4
e2
c9
36
67
50
4
60
63
46
58
6b
3f
6a
d6
cb
d3
d4
e3
45
49
a7
d5
cc
cd
d8
e3
d9
e5
55
3d
4d
3b
d8
43
dd
de
cf
db
5c
5c
db
be
d4
e3
d8
c4
e9
dc
d3
dc
e8
e0
da
ef
40
5b
c7
50
2
28
b0
5d
33
a7
68
c6
b5
6c
a0
38
5e
c9
30
ec
54
d5
5d
6f
3f
71
55
dd
f1
c3
ea
e2
43
eb
6b
e4
d5
e7
df
d1
ec
53
d4
e9
b3
d7
bf
eb
ce
45
19
d3
e7
de
62
1b
38
49
d0
1f
5c
ed
50
e5
c5
d3
40
96
c3
e1
e2
c4
47
31
b9
d9
72
58
54
48
56
3c
b3
e9
51
dd
4e
3e
e8
27
58
5f
cd
3e
de
db
de
5f
1b
c3
d2
d5
4c
3c
de
67
0
52
63
49
65
49
c0
60
a2
d0
4d
ef
d6
de
f6
54
5d
5b
cd
b2
64
4f
d7
e4
5a
c0
e4
e9
54
db
45
db
39
e1
d1
55
d5
58
53
59
c9
df
60
bf
3c
d4
5c
4f
c7
2e
4f
63
d3
c6
df
4e
cf
5a
df
d7
c2
23
45
5b
cb
e5
5b
d2
dc
db
d2
e2
e6
e5
e4
d9
5f
cc
3e
d5
d7
d9
41
b6
3d
3a
e1
e8
34
dd
cd
40
44
e8
cf
40
d9
44
31
4a
d5
e9
d3
dc
c7
e0
bf
49
bb
e6
80
0
b3
61
42
d6
d9
9b
de
4c
ce
58
b8
d6
64
80
e4
5d
e7
c3
61
28
52
49
36
1e
2d
55
f4
e8
8d
f0
38
4a
e9
cb
da
d6
d5
bc
c6
d0
86
e6
e5
dc
64
a3
d5
d4
8e
c5
b7
52
e7
de
69
64
c3
b5
62
dd
4e
51
45
be
c8
59
d7
1e
3a
61
56
63
5f
5f
c2
65
58
64
62
e4
3d
34
58
db
d1
da
c7
d7
ed
e3
e8
c8
d5
e1
d6
aa
a1
c2
90
64
b0
45
d8
d2
d7
ec
ba
ba
da
dc
cd
58
35
c6
d6
e6
e4
ca
45
be
a4
6a
5a
0
63
76
5c
cf
65
53
c6
39
38
e9
74
65
87
20
40
d5
5e
52
5c
64
41
e2
5f
cd
33
a6
e5
84
c6
5d
72
4c
45
6b
32
be
62
ea
3b
d9
be
2f
57
b0
26
55
5c
62
6f
58
ab
e7
54
b9
ee
e4
c8
ae
58
45
42
ca
df
23
61
3b
c6
ca
5d
af
d2
48
e2
2d
29
57
57
cb
62
e2
44
80
61
47
be
dc
4b
d8
dd
50
e3
e2
d8
5d
d3
5b
65
3a
d2
66
57
d5
2e
67
64
d1
6a
69
6a
5a
d2
2b
54
c3
ce
5c
80
cd
db
d5
c1
e4
e0
cf
28
60
e3
47
4e
5b
d9
4c
5b
3f
b6
45
5e
d8
5a
d7
dc
af
cc
d5
80
cd
c5
59
a
cf
dd
4d
5e
53
d9
de
4c
15
ce
e2
80
da
b0
60
64
95
5a
60
bf
e3
da
67
48
52
69
5f
e2
cf
50
e5
9f
4e
c6
5d
68
44
d4
62
b9
e3
da
48
0
df
60
55
c1
44
65
5e
80
58
60
5c
40
5d
e4
5b
d2
b9
c8
5a
62
33
d4
4d
52
3c
5f
5e
d5
e1
94
41
4e
44
4d
40
c4
64
67
bb
d5
5d
cd
de
5e
dd
58
46
e1
4e
47
47
4e
5b
59
63
d4
61
54
c2
5b
5d
db
61
4e
dd
bf
e6
df
43
c6
4c
2e
91
ae
1e
a9
d4
ce
e3
52
5c
42
e5
dd
d8
cf
e1
b7
bd
5c
36
5a
46
9e
1d
9f
2f
d7
3c
3e
d5
d7
d4
c8
56
cc
cd
de
5e
15
62
61
ca
e3
b7
4b
e2
e5
3b
43
d6
59
dc
e4
53
e2
59
d0
62
ce
3d
13
e0
36
e1
3f
54
2d
db
d1
cd
ca
4c
d8
56
5e
b6
54
40
52
c5
96
c3
65
c8
56
5c
d1
33
c5
4e
54
cf
5b
68
0
56
65
e2
dc
5a
b0
9c
5b
47
3a
61
df
2c
d8
a2
e6
b7
e4
41
e7
e0
bf
df
80
3e
15
61
e3
41
ce
cd
d3
df
46
54
dd
da
51
61
c0
da
59
5a
e2
cc
db
cb
da
cf
42
e2
4f
53
5f
55
e4
d8
d9
60
5a
d7
e2
4e
c2
5e
d0
cc
30
c4
e3
cb
5a
5b
bd
3
d4
5c
e2
26
e1
e6
cd
cb
db
d6
52
b5
42
c9
e2
de
d4
2d
bb
4b
af
38
dc
2d
d3
c7
5b
e6
d0
e0
5f
ce
11
5c
5c
e4
e0
55
da
a4
d3
54
dd
a7
db
aa
5b
e1
ce
e2
17
25
5d
3a
57
36
ab
c9
63
63
61
cb
ca
54
c8
4d
65
4e
4c
28
59
ba
d2
e0
52
d4
34
4a
5f
57
44
c5
5e
e1
5c
5a
d6
c1
da
50
b9
60
63
df
dc
5e
53
95
5a
d8
d5
52
61
cc
33
be
53
44
3f
bf
cb
e6
40
4c
30
da
cf
da
e0
dc
66
cf
38
e0
c1
db
ae
51
de
34
b2
32
e1
c0
c5
64
5d
3b
61
60
d2
52
c4
50
a1
a2
d6
e5
31
be
cb
61
50
da
32
c6
be
29
36
80
64
cf
2b
db
14
4b
22
d9
28
c8
3f
b
59
2e
a6
ce
45
b3
2a
5c
52
66
e2
e
44
4d
e1
52
90
dd
43
c1
38
36
4f
dd
4b
d8
37
62
4e
da
52
d5
5d
d1
c5
9d
d1
e2
57
d4
d6
cd
81
56
55
de
4d
ca
5a
d5
d1
3f
46
62
ca
f
d7
e1
39
df
db
c5
c1
e0
4d
c7
d0
ea
4a
39
5a
e3
5a
45
c2
1b
61
cc
d1
52
57
e9
cb
b7
e4
5d
66
46
c3
4c
4e
97
e0
b0
1f
e4
2c
b6
54
50
80
5c
dc
db
58
1f
4e
4f
dd
35
db
63
c1
d9
d2
61
5d
59
5c
e5
d7
53
d6
cc
d6
2d
c3
2f
2d
1d
db
4f
e2
5b
5a
4a
0
5c
d9
bc
80
e0
d6
52
e2
dc
d3
46
d2
db
55
bd
dc
de
e3
4d
e1
cd
57
ba
5b
cf
d1
da
c7
c8
5c
b0
37
d8
d9
50
e5
b2
65
e9
60
d5
d1
da
dc
58
be
e1
a7
dc
5d
4a
50
d7
a1
5c
d8
e6
cb
e2
61
5b
4d
32
e0
cf
61
51
3f
9f
6b
64
47
5b
54
d5
d0
5d
e1
b5
47
b9
b8
51
e1
e0
e6
51
5c
50
4b
5a
cb
b6
95
b9
e3
d8
e0
43
e1
50
dd
d1
58
52
dd
d9
da
53
63
ca
26
c4
60
c9
4f
59
60
46
61
bc
b3
d9
5c
60
d1
e3
50
5d
d6
c7
5f
bc
56
c6
cb
53
59
49
41
cf
de
db
63
61
e0
55
4f
4a
d2
58
43
d7
81
52
48
e8
db
40
d8
55
be
97
d0
3e
59
d5
5a
e2
e6
c2
d6
e4
cc
e5
c5
5b
5e
df
55
d1
24
e5
53
e1
44
b9
56
b9
db
58
d9
d5
dd
67
c2
dd
55
51
cd
b4
be
d2
d4
62
d9
df
ca
49
e0
de
da
3e
e2
5a
4c
50
cd
e2
c9
61
bc
5a
c5
4e
b4
30
c8
62
64
d4
de
4e
db
63
db
9a
dd
80
e1
c1
df
c9
c9
30
55
4e
3f
64
5a
c4
c2
49
63
4e
3c
db
dd
0
51
d2
4e
4f
be
5e
37
47
52
64
d1
e3
56
58
5c
60
d2
d8
db
56
b3
e2
62
aa
5a
d8
dc
59
5d
e4
cc
db
5e
44
40
d9
e1
55
47
3c
cf
3b
da
c9
e3
d6
cd
4a
ce
3a
c4
4d
4d
33
64
a9
d3
56
d3
55
64
37
37
ce
3c
44
57
4f
d5
d2
c5
80
43
59
c8
d5
db
ba
4b
5b
c5
e4
62
57
53
d5
cd
c8
e4
e2
35
a9
4c
60
5a
df
5d
60
bf
51
61
53
52
cf
4e
dd
50
d8
3b
b5
e2
45
bb
40
54
cf
af
53
61
4a
50
d1
61
cd
50
18
d7
4d
4b
4b
d1
d2
dd
3f
3c
5f
31
5d
db
53
56
27
d7
cc
67
44
ca
2c
32
5e
cd
e3
50
44
53
d8
ac
45
c7
de
4e
db
e0
59
ad
dc
31
d9
e4
50
de
d8
df
cb
d5
c0
4c
4d
db
cf
e0
60
1c
c1
99
e0
5d
33
57
1a
b4
a9
dd
44
cb
ce
3b
a8
df
da
bd
e6
b9
5c
54
cc
da
60
ca
5f
5f
e4
3c
b8
60
5a
5d
53
37
5f
52
5c
c8
51
54
33
32
a9
d4
5d
c7
44
31
c5
e8
ea
e1
46
4e
d6
4e
46
9f
26
ca
4c
55
d2
d2
63
36
dd
5f
de
5c
36
cf
50
4c
58
1a
64
56
e7
d2
53
e8
e6
e6
1b
c7
da
6c
61
d4
58
d5
df
41
d6
d9
9d
c8
17
e2
bc
d3
61
62
df
94
27
b8
48
c4
99
81
5b
5f
dd
c8
25
bf
bf
59
ad
de
da
c7
df
c8
80
ae
c
da
d5
c9
35
e1
d8
47
62
46
ce
41
57
a7
4f
1f
16
8f
52
3e
d9
45
62
c9
db
4f
c3
5d
1e
3c
53
e3
e1
e0
80
bf
58
ba
62
c8
d7
62
d8
56
57
c4
54
ca
41
61
ca
4f
3c
cf
b2
4d
d9
5c
b9
37
c0
e4
ac
5f
4f
80
52
54
e3
e0
ce
5f
44
4e
e2
e5
da
58
d0
95
57
9c
d3
58
aa
57
37
57
cb
40
53
b0
bd
51
cf
9f
52
e5
c3
e6
64
cb
40
ca
59
cf
54
49
ac
5e
be
d8
49
80
39
9
b7
e4
c5
db
d9
5e
a7
44
41
46
62
2b
4b
50
c0
56
5e
35
69
e1
59
d9
cf
47
58
4b
60
db
60
27
d4
64
5d
35
d4
e8
d8
c3
e0
3b
44
5a
e4
58
5a
3b
4e
dd
5a
32
e4
9f
b1
3d
55
59
bc
df
c8
5e
4d
59
31
c5
dd
e7
e0
e6
55
14
3c
4d
dc
60
d1
5f
18
d9
d0
dd
d4
52
20
e2
bf
a7
e2
d9
81
37
59
42
4b
59
47
66
6d
c9
d2
55
b
40
36
de
57
5b
13
e7
dc
4e
cb
9a
24
61
b1
e0
bc
62
3e
54
5f
80
c1
4e
54
48
56
df
3f
2a
e4
21
61
5f
cb
d5
c6
dd
38
e0
4d
63
d0
43
4f
d6
53
48
c6
dc
d3
a
9d
ce
de
ba
c2
1e
4e
c0
38
55
3a
d5
e1
5e
4e
cd
c0
e2
cd
61
de
d4
dc
ce
1a
5d
5e
cd
36
a5
34
e9
48
df
df
24
5e
d6
4f
e5
df
c0
ca
49
90
56
58
dc
cf
b2
dd
be
db
48
d4
ac
6c
dd
54
d4
b6
51
35
3c
d7
3a
4b
c9
ba
bf
5f
42
db
59
4d
65
61
cf
a4
da
cf
81
e1
c5
92
4a
59
c4
5d
df
c9
3b
84
e2
ca
e3
dc
50
bc
d4
ab
50
ca
e0
59
4b
e1
cd
62
b1
45
4a
e5
e0
62
c1
e6
a8
37
bd
57
cd
45
c6
b3
5f
c7
c5
60
da
68
e0
97
55
57
d4
d7
51
54
d0
df
56
5e
dc
a3
df
d4
5d
54
4b
6a
5e
4d
3e
5f
55
df
43
4c
d2
63
45
52
59
38
57
51
64
b8
54
aa
e2
56
5b
b6
d8
dd
55
52
b5
c1
ba
dc
56
d7
3c
ad
56
5a
b7
5e
63
5d
61
51
5d
5d
57
e0
48
57
d7
59
d9
a8
c8
5d
60
e3
4f
60
58
29
35
af
df
d9
33
56
dd
ce
5f
81
2f
da
40
a0
db
e6
d6
4b
36
bc
21
55
19
c7
d6
e4
dd
52
db
c7
47
5f
d2
59
9f
b9
c4
c8
5a
58
5b
dc
d9
bc
d8
52
d3
da
5a
45
ba
e9
31
e2
c0
d1
cf
42
5d
5b
d8
cc
51
81
94
26
4c
54
d4
38
d0
3d
d0
3b
5d
c3
b6
62
dc
dd
d3
50
ac
cf
60
4d
3d
ce
25
e2
58
59
de
d8
e0
8f
80
df
81
4d
64
dc
69
c7
5c
44
4c
42
60
da
b6
d2
cb
d5
d7
1b
80
5c
da
43
49
de
dc
44
44
60
dc
df
80
2d
df
d2
59
dd
45
cd
bf
e6
55
6
64
bf
d8
dd
5d
e1
db
62
4b
d3
e1
3f
c8
d1
5b
81
50
5f
c9
57
d5
52
4f
60
61
2a
51
52
5d
64
5c
44
d6
d8
c2
d2
14
de
d3
c8
55
e3
3f
c8
e3
18
e2
55
57
d8
4e
bf
51
4a
d7
e5
42
ce
55
47
bd
c8
c2
40
e5
de
4c
5d
da
4e
64
97
5a
d1
5e
4e
4a
d2
36
d9
d7
65
5d
b1
65
de
19
60
dc
59
5f
45
dd
4a
51
a8
54
e3
57
d5
cf
d5
be
50
da
51
dc
62
c2
59
e3
56
22
d9
c2
b0
d1
dd
4c
4b
dd
61
c6
d3
62
5a
d8
e8
e6
3a
e0
e4
56
e0
43
63
69
70
5e
cd
21
c9
5b
54
e2
e2
e7
a2
e3
d6
46
59
d0
5f
61
c8
be
56
4d
2
88
44
c8
2f
58
2f
5e
39
a9
48
59
d4
d4
bd
e0
42
49
d9
53
c5
bf
ca
62
4f
5b
bc
e4
d3
58
5a
db
e0
b0
1a
ca
cc
d0
5c
5e
b8
4f
d3
c7
43
d3
db
e4
c8
a3
bb
33
81
d0
4a
5f
58
d9
a8
d9
55
50
52
34
5c
30
bf
5e
5f
5b
1
56
3d
53
61
b4
dd
44
62
4b
63
5c
41
c4
d5
4b
1d
df
d8
4c
dd
59
35
d8
3e
45
65
2b
1c
5c
45
5a
e
52
51
bd
c9
57
63
8e
56
c7
6c
30
d5
49
56
53
d0
28
e3
ab
df
e4
39
c5
5d
56
d3
e0
d8
42
c1
bf
cf
ba
de
59
dd
b1
e2
dc
58
84
d7
54
dd
d1
c4
9e
66
87
4d
d5
4c
e0
d3
e3
d4
d4
e3
54
e0
5c
19
ab
45
55
81
a4
bd
a6
4a
63
58
d3
20
d9
d0
db
5b
58
35
e4
92
c1
e7
39
53
da
2e
b0
48
cd
d3
9f
d3
cb
c0
ba
0
66
bf
47
3a
e5
d7
ca
d7
c6
e0
61
df
44
c3
c4
5c
cb
dd
56
5c
5e
e3
3c
e2
9f
c6
d0
c0
53
2f
cf
5e
e0
cd
bd
e7
e0
d3
80
d3
c6
d5
4b
80
8e
df
d0
bb
5a
28
df
c1
49
d4
c7
32
60
5d
cd
5a
54
e2
65
87
24
32
53
5c
41
27
32
d0
57
62
61
60
5a
d5
59
46
dc
b5
32
d0
cc
13
52
dd
4e
5a
31
20
6f
5c
53
67
58
5f
44
9a
5b
d3
de
54
b3
c6
d8
56
58
ad
d5
4d
e3
dc
be
49
2e
da
e1
dc
c9
35
d3
5b
ba
39
61
80
dd
de
54
3c
61
43
4e
e2
61
bf
d9
58
d6
63
d5
d5
5a
c9
4a
59
d1
e3
2e
5f
d3
57
cd
3c
5a
45
4d
c6
d4
cd
52
59
af
5a
3a
4b
ba
bb
d6
55
4e
dd
55
e2
db
89
55
db
bd
45
55
46
47
e0
8a
d7
9b
d5
3b
db
58
63
e0
d8
dd
dd
a3
c8
b4
52
5d
c3
5a
61
c6
e1
3e
4a
8d
5a
61
df
61
d8
e1
60
51
d7
e0
5c
df
e3
d8
5a
cd
55
a7
d4
56
5a
4f
5f
ba
32
4a
e2
dd
e3
e0
81
e4
bc
44
62
3f
e4
cb
cd
da
b3
db
60
dd
4f
df
62
58
e1
63
d8
de
5b
60
4d
62
c2
df
42
3d
48
d8
93
dd
4d
4f
db
c1
60
3c
e2
58
59
4f
5f
50
51
59
e1
d1
cb
b0
3b
88
46
5e
db
57
cd
57
5b
64
ca
5f
e0
62
e2
0
d9
95
56
d9
c7
61
5c
61
4e
5d
57
da
38
bf
a7
db
3e
e1
a5
df
a8
48
4f
40
e2
5f
dd
5b
bc
d4
5f
51
d3
cb
cc
c5
99
5a
58
aa
cb
36
49
4f
4d
3d
84
3e
48
64
b8
e1
5d
60
e1
61
de
d8
c5
d7
ca
61
1c
d0
5e
4c
cc
b3
e2
e2
5d
df
d7
2d
d1
3b
5e
44
dc
4f
c2
50
60
48
ce
c2
c7
db
3a
d1
49
5
59
bd
56
1
38
e3
d2
dd
b5
4e
28
ab
cf
d4
e2
c2
e3
ca
d5
48
52
51
30
4f
5e
5e
d5
d8
c4
c7
5b
d3
d4
de
52
55
3e
62
41
5e
60
5e
0
66
de
58
d3
55
be
d0
4e
dd
e3
59
30
e3
43
5e
a4
dc
59
97
de
56
b8
2b
10
4c
54
dd
99
c6
5f
9b
d4
4a
58
d6
4f
3a
d7
58
3c
e0
b7
13
5a
dc
4b
4d
58
3d
30
a2
e2
58
58
5b
49
5b
d7
5e
ce
d5
60
aa
b9
e0
c3
dc
a7
5d
57
4e
58
bd
c2
4b
52
56
d2
3f
d2
d3
df
50
43
c3
60
db
b4
db
16
2a
d0
3f
d0
80
2c
2f
5f
c5
48
c7
de
5a
dc
d2
50
54
dd
ab
cd
e0
e1
58
5e
4f
52
a9
dc
dc
5a
16
5d
bf
c9
d7
4b
dc
3
84
4f
5b
5c
c3
49
c0
60
d2
49
c9
a7
b2
df
58
61
62
1f
57
df
59
57
59
5c
e2
58
60
52
27
62
53
27
50
da
d3
59
e1
cb
e0
db
e0
e0
e1
2f
d5
47
e0
c2
d4
d0
e3
e0
d0
d3
58
55
d9
53
e1
cd
cd
60
80
4d
dc
41
d4
42
e2
61
5a
20
5c
3e
56
d8
45
e0
d6
da
80
d3
51
5e
51
af
44
88
df
d5
5f
48
62
42
e1
e0
56
ce
b4
55
56
61
d4
9c
57
53
5e
5c
52
63
5b
46
34
ce
db
b0
4b
63
c9
1f
96
5f
cf
52
5d
d7
e5
4f
60
de
bd
d3
d2
e0
d0
50
63
cb
3b
42
5c
da
d9
40
5d
3a
45
d4
ce
e3
e
8e
33
c1
d6
58
a6
4b
d6
c8
df
d4
b3
20
c1
56
dd
d8
ae
e1
c9
25
57
cb
ce
40
d1
cf
40
e0
80
5c
58
4c
9d
cb
57
ca
43
d3
57
d3
3
d1
c7
db
d0
0
62
47
5a
c2
c5
5a
5e
c0
cb
5b
e2
d0
58
dd
b9
d3
d8
de
28
55
8c
54
63
c4
d3
ca
e1
80
db
da
b8
e0
61
d9
9a
b4
a1
9e
53
ad
d8
81
23
5c
54
62
42
54
d2
49
4e
4f
4f
54
62
bd
12
be
db
30
5c
59
db
80
e5
bf
cf
60
5e
e2
cc
5f
3e
dd
62
5f
60
d4
62
80
c7
3c
d6
4b
60
47
4c
d7
5f
db
db
dc
c0
57
28
a6
df
e1
55
d5
49
5f
63
ce
59
57
e3
5e
db
c5
5d
c3
63
d9
4f
5b
c8
60
cc
dc
b1
d0
ce
4e
61
54
cb
56
e2
d5
26
da
4f
d0
88
46
30
57
5c
3e
62
42
49
4a
ca
cf
43
5f
d5
63
cc
ac
ce
4b
50
46
5a
57
61
d8
46
5f
c7
58
d3
a8
81
61
55
ae
b1
a2
59
4d
5a
ca
db
dc
61
b3
58
ac
ca
5b
27
d8
ca
54
55
5c
0
5e
55
41
57
46
60
d7
d3
60
dd
4d
d7
d5
5c
1b
df
ba
3b
80
bc
d7
d8
5c
d9
2d
d2
52
cb
5a
c5
db
29
2d
d8
d7
5b
5f
5a
c2
5f
3d
4f
a0
dc
47
47
49
5f
e1
59
d0
38
dc
2c
c6
4c
e0
de
bf
5c
e0
e1
5d
5a
5d
2b
df
ce
ab
4e
e2
55
c4
29
e0
be
a5
dc
56
c3
ce
3f
dc
60
54
dd
2
db
87
49
d5
ca
51
58
bd
59
56
58
dc
5b
60
42
57
c2
bc
d6
c7
59
ba
50
50
99
e0
58
41
c9
5f
e2
5b
44
e1
5d
c7
4e
63
56
cc
5d
c4
de
5f
62
9e
5b
df
5f
61
dd
56
b2
d4
e0
40
3d
e0
54
5c
db
55
da
c2
62
da
de
d7
55
cc
d3
5f
e3
55
c2
b9
5f
cf
55
43
e0
4b
5a
80
62
d0
dd
cc
d3
df
55
e1
5c
4d
51
c6
44
83
e2
af
53
24
59
d7
52
59
2b
50
df
c9
ca
53
c9
e3
ad
ca
61
5a
59
44
d8
43
cb
8f
d7
5f
c7
48
90
c9
40
5e
dd
e2
13
37
5e
d8
44
d9
df
e2
db
cf
47
df
e2
b8
cd
e1
c2
53
49
58
de
47
1d
3a
34
51
5f
54
d5
da
d2
ca
e1
5a
58
5a
be
34
1c
5f
61
d5
54
d4
48
1b
d7
d2
e0
e1
5f
c6
5c
c7
c1
57
e2
bb
53
c7
d5
b7
52
38
49
e1
e2
d6
d7
b6
a8
ca
4b
62
ca
5b
52
cf
aa
dc
c0
52
61
e0
d3
bf
dd
5b
ce
d1
59
d5
db
dc
dc
60
5e
5d
db
e1
42
2d
36
37
d7
c6
66
ab
4e
db
c2
58
46
d9
d3
61
cb
62
64
d0
d4
d4
5f
53
de
5a
c7
e0
37
cc
4a
54
45
63
33
db
de
bf
da
da
e1
d7
d7
ce
40
46
da
47
4e
80
de
4a
52
5c
58
d2
3a
d7
9e
36
c4
56
14
43
60
b9
4e
5a
e4
e3
d3
97
dc
db
c7
cc
58
db
37
4b
ca
bd
cf
c5
3f
c1
dc
cb
51
d5
5d
51
dc
0
b8
c8
1c
e4
1e
e2
5c
57
dc
3e
5f
62
33
d4
b7
5f
a
cf
60
c3
41
4b
4c
dc
43
de
59
57
e2
d7
1b
4b
54
2c
c9
e2
de
4d
db
e2
4c
d7
5d
ae
dd
39
4c
d3
d0
29
4e
df
be
d3
34
be
c6
60
d1
b0
c2
5d
29
46
d8
a6
bc
d7
56
33
13
e4
81
61
d9
5f
c2
c2
e0
9f
81
24
e2
60
c0
5e
4a
aa
c2
ce
59
ad
44
ba
5f
50
33
60
cd
c6
d7
40
46
df
d5
e1
e0
59
50
40
cc
a1
53
5f
d2
40
a9
17
ce
5f
22
3a
b5
63
e0
d8
e0
d7
3e
5c
e3
de
91
da
56
d2
35
b9
4e
4a
b5
dc
55
db
da
d3
d5
81
bb
e0
ac
62
bf
b3
5c
e5
45
49
c4
53
60
45
54
12
61
60
4a
5d
d8
db
30
d9
c4
d9
ba
d7
db
60
a3
d0
de
d7
e4
d0
97
46
12
52
61
dd
e4
40
c4
de
a0
5a
d1
28
bd
37
e2
3d
57
59
d5
53
ca
d8
46
d0
4b
31
d1
37
c2
49
e3
e2
54
63
48
5d
63
cf
da
df
95
3c
b7
42
5d
45
5b
b8
b1
de
5b
da
ce
c9
c7
64
54
d5
b9
da
44
62
38
62
1c
5b
e3
ca
62
ca
be
4a
4f
e3
4d
d8
42
4f
39
dc
35
d3
e0
1d
ce
47
57
ca
93
a8
5f
5d
11
5f
d5
a4
4e
41
d7
e3
60
5b
bd
5
c9
4f
59
d2
d4
51
d6
58
3f
c8
db
57
5f
36
2b
5c
36
50
5a
4e
55
28
37
cf
60
d1
4a
b4
bd
e1
43
60
d6
c6
61
59
d8
c1
bc
4a
1e
60
5f
82
df
db
10
58
55
5e
64
5f
81
bf
ce
d2
cb
51
ba
d2
47
dd
c7
60
cd
d9
54
b1
4f
53
5a
61
2a
61
c9
94
5b
47
50
5b
d3
59
62
59
a7
41
55
5e
cd
43
e2
3c
5b
36
ce
55
2a
4c
22
d3
43
d1
d6
a3
54
df
61
c0
db
e0
e3
c0
52
d0
d8
40
4c
bc
c2
e0
e0
d1
e0
c1
db
dc
ce
d5
d8
53
d9
5d
5d
36
55
3d
b5
d0
4f
cb
5a
58
da
df
4c
5b
46
e3
5f
5c
a4
22
dc
4d
e0
c9
5e
cf
ba
5e
4e
d4
cf
55
54
61
b5
8d
d7
cf
5c
ac
3e
5b
5f
53
b5
d8
37
cd
9e
3e
41
58
5e
db
61
63
58
59
c5
b1
54
d4
da
e3
0
53
db
df
5b
c5
d8
a9
d8
e2
e0
cd
60
46
1d
60
48
dd
ca
2f
e0
62
52
c7
d7
55
50
56
45
da
59
e5
40
61
41
55
e0
53
56
db
5f
b6
b4
d7
d5
59
c7
62
be
de
b5
cf
44
dc
c7
af
e6
cb
dd
53
5b
48
5b
d7
63
dc
5a
cb
59
1f
db
c7
9d
c5
52
ba
e5
d4
d0
bb
c7
56
de
c9
de
29
4c
4d
e0
63
5d
45
3f
48
27
44
b5
63
e1
b0
81
de
ad
2a
5e
63
52
38
50
36
62
b6
4b
d6
54
44
4a
e1
45
44
2a
21
d4
c9
4d
c9
ab
be
3e
5f
ca
62
a3
df
3e
27
ba
c7
d9
dd
c9
61
63
dd
e4
63
d2
d6
40
4a
25
e2
92
da
4c
cd
d1
3c
d6
50
19
62
dc
5d
dd
cd
df
4c
11
d
54
51
e2
27
5c
55
4e
30
d7
d6
d9
dd
61
66
a5
59
c5
81
c9
52
dc
61
62
62
d5
0
0
cb
5a
d9
c0
98
e0
44
de
d7
54
c4
3b
42
63
e4
34
3a
e0
52
d4
51
bc
d4
d4
e1
21
51
54
ba
db
5f
d2
9a
c7
5d
39
47
e7
60
d0
34
5c
d4
61
cf
5b
d3
54
5a
d9
30
55
81
62
63
d8
60
28
c7
5f
57
cf
cb
b8
4b
e2
c5
db
4c
5d
d0
58
62
d2
27
c4
db
d6
ae
d8
30
a5
5d
5c
e2
4e
4c
9d
56
d1
5e
59
dd
de
80
b5
de
db
5a
60
e2
57
4c
d4
49
33
62
47
d9
62
cf
e2
ce
52
d5
dc
dc
e1
cb
c8
80
59
b6
61
61
ce
80
a2
c8
49
60
d0
48
c7
d4
dd
55
c1
56
de
23
df
de
5b
cf
56
d2
e2
55
4c
5a
56
dd
c9
47
ac
5a
d5
d7
55
59
51
db
80
d3
d7
e
b0
d8
44
d5
34
d5
9e
37
d8
54
44
51
9
da
e2
c7
d9
b7
d9
60
c0
81
bf
8e
da
df
1a
5e
de
c4
dd
4f
5c
46
e2
2f
52
c3
dc
bb
82
62
aa
b9
c0
e0
49
38
a9
40
d6
5d
43
49
62
dc
52
59
0
53
be
d2
4b
9c
5b
d5
cf
c2
55
c7
cb
c8
e2
5f
b7
4f
5c
30
ce
41
5f
5d
d7
60
5b
dd
20
34
59
ca
d8
b4
5c
97
40
2e
59
e0
9d
b6
d7
df
cb
cf
de
c2
d4
db
e2
56
dc
af
40
5c
52
d8
53
51
53
da
d2
5e
4a
be
b4
a8
ca
44
2b
e3
31
11
d3
52
dd
61
4f
81
cd
57
c8
62
1c
56
44
3f
da
dc
df
63
a9
e1
a6
dc
c5
d5
c1
de
63
ac
db
3a
bf
81
df
5e
4e
55
a1
4e
c7
e2
e2
97
5f
c6
e4
46
5b
44
47
57
25
49
c9
5d
be
59
bf
d7
dd
d0
b9
dd
28
bc
1e
28
64
81
d0
5e
da
e0
db
53
c8
20
4f
50
3a
4a
3a
d0
e1
3c
7
5d
47
40
e1
ab
b2
ca
c1
d2
80
52
b5
d4
5b
59
e0
4e
d9
e2
dc
ce
54
b4
81
55
49
45
5e
5f
0
ce
d9
e1
b8
58
59
dc
d7
4d
d9
5e
54
63
5f
d0
d9
a3
59
58
62
5f
b5
56
48
a9
68
bc
d9
3c
5f
c1
30
5b
b9
5d
61
db
c9
5b
4c
5e
d6
5f
18
53
54
62
e2
91
c2
d2
5d
54
dc
46
55
3f
5a
c7
45
5a
41
df
c3
d5
5b
3a
56
55
59
db
63
ae
3f
22
df
2c
39
e6
cb
c9
a6
d4
44
df
d2
49
67
da
62
df
d8
c5
8d
33
be
4b
df
d4
bb
4b
94
48
55
41
b9
97
b4
e2
48
4b
e2
dd
48
a1
5a
47
5b
e2
5f
67
63
55
5b
64
55
53
d4
da
cb
59
d8
de
63
af
4e
c2
d2
62
3e
d9
bc
a2
d3
48
9a
de
3e
5c
d7
d3
b9
aa
43
2a
ba
49
58
c7
d7
61
d1
d7
58
45
5e
a5
df
4d
e2
af
57
4e
d2
b1
58
e3
bb
42
56
42
3a
f
c5
3a
37
c1
d3
58
d4
62
e3
5f
53
d5
ce
61
df
56
65
5d
5a
d5
4e
ca
5e
38
10
aa
5c
5f
45
c4
d9
de
56
d9
db
57
63
49
dd
28
50
e2
5e
3d
1a
62
4f
9e
d9
da
0
ca
63
5a
1f
5b
dd
4b
5c
cc
e3
d8
d0
5a
4e
40
62
b7
81
d2
d1
dd
62
de
d
40
d8
59
e1
5a
d0
c8
47
d3
da
d5
60
dc
49
58
c8
58
d7
38
cb
b4
df
20
b8
dd
d1
49
40
19
c3
4e
61
dc
de
bb
3d
b2
dd
de
46
da
1a
ca
db
5e
d6
12
5a
e6
4e
40
5c
34
d9
4f
40
9e
df
5a
e2
5a
2c
d8
4c
da
d4
5f
d7
38
be
4f
5c
23
44
d6
46
cb
37
d4
c1
b9
a1
29
c1
d6
43
37
0
ce
2b
d6
47
e3
5b
56
aa
d0
de
dd
37
58
e5
4b
da
d8
d0
42
cb
c7
55
e0
4d
49
df
0
54
e0
33
46
5f
ce
e2
65
d3
44
ae
56
58
5c
da
d4
62
ce
de
a5
4b
5b
39
13
26
1e
d1
60
61
ac
61
5f
56
d7
5c
d6
60
60
cc
63
45
5c
df
2f
65
d7
dc
5c
2a
e0
29
aa
5f
c0
3d
5a
bc
57
c2
d
d2
3f
1d
3d
d4
e0
3b
5b
5f
60
dc
bc
49
5d
54
59
db
4e
42
e1
c0
dd
db
4c
4e
52
b9
52
63
c4
2f
58
d5
c5
52
3f
d3
e1
dd
48
4e
42
57
d2
e1
d2
51
e3
43
cc
57
b6
58
ab
db
b
52
3d
56
40
e1
c9
59
d0
3a
3e
c6
ca
d9
d6
a2
bb
dd
5a
4a
46
0
d1
3f
ce
c9
e1
ba
61
c7
5d
58
3e
53
de
45
56
54
c4
dc
d4
be
64
87
5f
e2
4f
dd
e2
5d
61
de
d5
c0
4b
5f
d1
52
4b
49
55
d6
b9
55
53
e0
c0
4a
de
b5
2d
60
24
99
27
57
54
30
d8
5d
0
e3
e0
9b
29
5b
3a
ca
5d
5b
d4
b7
ca
54
d3
c8
4f
61
67
5d
14
d7
62
47
4c
cd
d8
45
da
b6
d9
dd
c7
db
d8
db
55
c9
62
62
59
d2
e3
56
4a
60
dd
23
55
d3
a2
3f
4c
bd
d3
aa
64
43
ce
b7
cd
5d
b1
5c
e3
d6
e1
d0
d8
29
63
51
aa
4f
e3
d7
62
d9
3e
d4
c7
5a
4b
90
60
40
d1
65
5a
d3
52
b9
b6
d7
28
d2
3c
5a
52
cf
7
56
5e
c2
56
d7
9e
be
a6
e2
d2
5f
30
44
57
d9
4d
86
cd
dd
4f
40
5f
dc
61
e1
5a
d6
d
18
db
c2
58
de
c5
4a
2b
b6
57
d0
62
28
69
81
5e
5c
bd
c2
5f
60
3a
1b
d9
88
4e
db
61
bc
c1
60
5f
da
80
3e
d5
5b
bb
98
52
5b
42
e1
54
dc
53
51
d4
44
81
80
56
5a
5c
4f
d9
d6
16
e1
d7
a1
52
e0
dd
e3
3
a8
e1
53
4f
56
d5
3a
c6
3e
9b
dc
50
60
dd
de
55
8d
56
de
e2
9b
2c
5b
d1
5f
43
5b
d8
55
57
e0
db
d3
d6
54
55
cf
ce
d9
e3
e8
58
bf
da
5c
51
20
b0
56
5a
c1
bb
60
da
65
63
d7
61
b1
d6
dc
3c
56
54
90
56
56
59
65
c7
d7
bd
84
d6
58
c9
e5
53
d0
50
d9
e5
53
51
a8
56
b9
66
bc
da
4d
45
26
62
d3
b5
4f
ba
cb
55
cc
44
25
cb
e3
e2
e0
da
43
5f
d4
59
dd
a8
e2
bb
60
88
bc
58
5c
32
da
d2
63
6
58
24
da
ad
61
d8
cf
d8
d0
13
4e
cf
b4
5c
55
da
5f
e2
dc
d7
e2
b2
d1
c2
3f
52
60
9d
48
55
60
5f
45
49
54
c8
5c
3d
98
aa
5d
e4
2d
5a
c9
31
64
87
59
4b
60
bd
50
d8
0
c5
45
62
da
82
c9
52
43
b6
60
f
4f
60
57
58
58
bf
54
d7
63
57
de
5a
b8
c9
5c
d4
60
c5
cd
5e
63
5c
d1
d6
45
da
5a
c4
5d
b5
d9
2f
d9
c5
4d
47
5c
d2
80
11
e3
dd
53
5f
4b
4a
59
e0
60
25
d9
61
de
21
49
da
4d
ca
cf
dc
5d
56
45
e4
ca
a3
d8
c2
b4
58
14
c4
60
df
bc
e2
37
53
c2
d0
54
49
2e
a7
de
52
50
e3
db
5b
b3
92
d4
5f
da
d2
55
60
b3
dd
cf
d9
e0
d5
4f
5a
df
e0
3b
ce
22
56
d4
58
d5
53
4b
a5
46
51
d9
dd
e1
dd
d2
e1
50
58
56
e2
57
d6
15
62
48
56
49
db
5e
57
7
bf
d1
bc
ca
44
5f
b2
59
aa
df
dd
5c
5d
df
d2
dc
60
b0
d0
40
4c
b8
eb
e1
4e
d3
de
9e
d3
44
da
cf
e5
49
d8
3f
e1
48
c9
de
d7
59
d9
4d
51
be
dd
62
58
d2
e7
e5
df
e3
e3
48
1a
e3
bd
d3
d2
4e
cb
1
d5
60
4e
45
2c
b6
df
36
46
d9
42
8d
3c
da
b5
c0
b8
f
55
e2
e1
4a
41
d3
18
49
5a
e0
56
5d
32
64
51
de
c3
c4
3b
32
61
cf
c3
44
dd
b5
e4
4a
51
57
c2
cd
dd
d4
3c
5e
d0
2b
24
d6
da
de
bd
5d
d1
e1
cf
d0
5f
b0
da
d4
dd
d7
c4
c2
de
a5
a
4b
d1
c5
42
42
62
d2
d9
bd
3b
e2
4c
da
e1
e0
e6
3e
3a
49
bc
4a
61
5d
3e
5a
33
53
54
e2
41
43
a5
5a
62
5e
d9
57
32
5c
ce
d5
cf
41
81
3c
a4
e1
42
dd
33
4
c1
c5
bf
b0
56
5f
e2
43
5e
ce
cf
b0
bd
3a
55
52
5b
54
5f
4f
e2
59
57
5e
b4
4d
41
ca
3e
59
0
4f
e0
63
de
a1
bf
4a
58
61
d7
5c
43
b7
5c
cf
a6
d9
48
ae
d4
ce
c7
bf
4f
c0
5b
48
63
3a
e1
61
32
4e
e1
d9
4a
37
c2
cb
d0
c9
93
52
da
40
d3
b0
e1
4c
bd
43
a8
4b
61
57
56
52
62
bd
db
1c
9c
c6
d8
5f
68
cf
21
5d
61
ca
5d
3d
bd
5d
b3
9a
cd
c3
e4
52
e1
a7
48
50
4c
5c
ca
c7
cc
b8
e2
dc
d1
54
e1
4e
bd
53
bb
e2
41
d9
60
9c
d2
db
61
43
a2
df
5d
c8
db
d4
d9
34
46
c4
df
81
88
dc
52
58
62
d6
df
15
81
cb
5d
40
43
5c
d7
61
67
46
d7
6e
d4
48
95
d5
ae
e8
55
e6
de
a6
85
3d
53
c5
e1
57
ca
d7
2e
dd
cc
62
61
5b
62
4c
d7
e3
1d
bc
e0
3b
c7
4e
d7
b9
94
5f
bb
c2
37
c7
d9
53
47
e5
45
25
50
bf
58
4b
e1
bf
b3
63
61
d2
4c
56
b5
d6
d8
47
e2
3
db
d5
49
47
a6
54
cd
58
b2
5a
dd
39
db
56
c8
49
d8
c3
4c
d5
50
b8
c1
3f
5d
bc
e0
3e
65
57
4e
c1
c3
50
5e
d1
3f
49
cb
11
32
60
3e
e3
bc
e5
c5
c7
e1
3b
27
da
64
b9
c7
a5
dd
52
3c
55
56
5b
d4
60
ce
80
d9
d8
cc
e7
4b
d2
5b
d5
56
58
38
da
52
e2
3e
db
b8
54
4d
de
e3
e1
60
5a
dc
50
59
1e
df
d3
5e
9f
80
5c
ba
62
e3
e3
d8
57
a8
d4
e0
5c
4c
57
37
db
64
d9
56
e0
8
43
46
53
3e
53
35
de
dd
c9
c4
da
e4
1b
db
e2
9e
32
cc
54
67
54
d4
c2
54
cb
af
d1
88
5e
5d
b9
5b
4a
c1
e0
bf
56
c2
da
58
cb
51
51
e5
d6
c5
b8
dc
e2
d6
cd
5d
2d
38
d7
61
2d
d4
11
d7
3f
c5
9b
5f
1b
c2
c0
5a
db
e0
cc
b9
db
df
e0
3a
e0
8
64
59
5f
c9
47
de
52
5a
d5
d9
53
d9
c2
5e
60
d4
a4
e3
dc
c0
d3
38
dd
e0
e5
34
47
66
2f
5c
5b
63
53
61
37
69
66
cd
60
4a
d3
5f
e2
4f
54
59
e3
d8
e3
e0
9b
4d
d7
5e
da
d1
5b
d8
d1
e0
cb
dc
60
c4
d4
3c
5f
5a
5f
5d
51
e0
e9
d3
5d
d1
59
61
d3
a2
33
c0
36
d6
61
5d
61
a1
5d
54
ab
61
c7
d6
6a
4b
d1
e3
d5
55
22
cc
91
50
cd
5d
e4
54
e2
c9
af
60
b5
4f
c6
e3
da
e0
2b
51
cd
e1
51
39
cd
5c
d4
3e
6a
66
dc
66
59
56
e0
56
ba
40
c9
54
36
b5
e5
e1
57
46
57
d6
5c
cf
d1
5e
d6
2c
bf
b2
d1
dd
db
48
b7
cd
4b
5a
d3
db
cc
e4
c0
dc
3b
b7
cb
59
42
c9
47
5f
e8
d1
5c
c9
57
c9
d1
bd
5c
55
b5
60
3d
36
58
cd
c9
aa
eb
37
40
53
e3
5b
d7
c1
3a
41
5a
e1
53
bc
d5
db
2e
b3
34
ae
e4
ce
e3
59
59
c8
d4
d7
d1
61
43
5e
5f
ae
4c
d7
ad
de
2d
bb
33
3c
58
b0
da
63
c7
5e
d9
e0
5c
5b
db
bf
53
cc
52
39
c3
e1
5c
5a
9
26
61
dc
d0
5f
d4
d7
5f
25
3c
59
60
5c
c0
b3
d7
a4
e4
57
55
e4
3a
da
4b
46
33
d7
5f
ad
c4
62
d9
40
54
60
3a
52
d3
4e
e0
db
52
41
4b
ce
e1
da
a7
57
4a
cd
d2
e1
50
c4
dc
bb
db
4b
47
58
55
b1
38
d9
62
39
d1
de
47
c6
b4
dc
e4
e4
e2
3f
2e
ca
dd
3a
bd
62
e1
cb
ad
5d
db
8b
52
32
b0
d7
48
64
43
c7
da
d0
52
a5
57
bc
21
4d
4b
a2
b7
ae
dc
4f
4f
d4
d6
de
61
cc
55
5d
2b
b4
e3
38
d7
db
d0
c9
41
d2
d3
56
3e
5b
d2
54
d3
ac
56
c0
60
c3
80
cf
4a
3b
e1
54
c0
b1
be
d9
c0
5a
cc
38
cc
d5
0
c2
e5
3f
cb
61
d8
5e
51
c1
db
cb
97
56
5f
50
de
d1
e1
b5
53
99
4f
4b
3e
d6
56
ac
4c
61
ba
50
c9
57
26
4a
54
d2
c2
64
61
e4
43
e4
58
d6
db
e7
33
59
4c
60
4d
e4
0
64
3d
4b
50
e0
d8
cd
52
53
5b
4e
e3
45
e3
a6
d5
db
d9
c6
bb
5f
60
64
95
81
5d
d0
62
0
a0
60
ab
d6
d2
df
d7
db
ca
54
28
cf
59
d0
dc
4e
d7
d3
b2
c4
67
d7
5c
d8
48
de
2a
da
e2
47
dd
d8
c2
4f
c1
d1
42
d7
35
b8
d0
da
63
d2
e6
61
d
54
db
58
5e
4e
e4
4f
d9
e3
c8
53
5d
46
d6
d3
45
53
1d
35
d4
49
53
55
e1
49
63
5f
5e
4f
c5
3f
dc
57
d6
66
64
4f
e0
4d
cb
55
ad
46
81
58
5d
59
0
52
db
bf
65
4d
ce
50
1f
59
48
99
41
61
d8
56
53
bc
15
4c
5d
36
56
a4
b3
2a
38
d2
53
4b
59
3b
39
e4
6
de
c5
c5
47
ce
5c
3f
61
c9
e3
e1
59
dc
db
a7
61
5b
4e
5d
dc
e7
d7
37
cd
d3
4e
d0
e4
33
4a
bd
5a
4b
d6
3b
b5
44
d3
61
64
cb
11
40
d4
d9
5d
e2
e1
0
e4
49
4c
d6
65
5a
63
56
5e
c9
dd
a
58
dc
ad
ef
4f
d2
c6
e3
da
d4
60
50
c8
39
c9
35
53
67
27
3e
58
d3
c0
18
c4
e1
de
d4
5b
cd
53
d9
dd
d5
44
82
bf
4f
b8
56
ac
d8
62
c9
ca
61
4c
59
5d
52
92
e6
51
8d
ea
5a
bd
5d
bc
b8
df
d9
4c
54
e4
d9
e2
40
d6
61
e8
57
5b
55
95
cf
6a
5e
c6
59
5d
53
c4
ce
41
4f
1e
4e
cf
39
5f
52
51
c5
56
d3
5c
60
b1
5e
5f
e2
cc
d2
df
56
4e
d9
ba
4a
57
d8
9c
45
d7
bd
5b
d0
db
5d
d9
cd
e0
cc
e8
bc
db
d5
d7
b9
e6
5d
63
44
3c
54
56
e1
d1
d1
9a
4b
c0
e5
5f
e3
48
a9
d5
61
4b
d3
ce
e0
49
67
d5
61
59
db
5d
34
2c
44
de
69
d5
9
66
d3
24
53
d7
51
cb
38
dd
3d
b6
46
de
e1
5c
a5
e5
3d
df
5a
1f
d9
5e
5d
a9
d5
d0
df
5e
44
b7
d0
5
e7
bf
e4
da
66
dd
de
e6
cc
47
e5
5a
3c
63
69
59
c2
e3
ef
d7
46
df
51
38
e9
5e
66
5d
63
69
1f
ce
44
c0
e5
e5
5d
27
d6
c1
e5
de
3f
bd
59
51
dd
b9
d3
5f
db
e3
d5
d7
b9
de
8f
47
e8
e5
26
58
49
4e
54
e0
d9
db
1f
d5
67
5c
d7
dd
c4
5c
53
55
47
e2
ca
c
e0
b9
d8
d9
e4
db
40
5a
db
d2
e3
d
dc
d5
10
69
e4
18
e3
ba
87
de
38
53
b6
a3
3b
e0
0
5e
8f
62
28
cd
ba
35
58
3b
55
e1
cc
de
17
cf
cc
0
41
e7
e2
bd
eb
a4
e0
9b
59
52
5d
c5
53
37
4f
4a
49
45
46
bd
51
d0
3f
19
d6
4d
29
cd
5f
91
4f
d7
67
23
47
d3
5f
5c
43
c9
6
bb
50
80
5e
33
42
5e
38
1d
51
54
d8
c9
53
3e
45
d6
c
3e
4f
e0
5f
bc
b7
30
58
d6
81
2a
e1
45
55
e4
67
56
d1
81
d1
dc
cc
45
34
d1
ca
56
4a
e7
87
d7
e1
31
dc
e8
db
5e
5b
50
da
59
a1
55
d5
22
68
48
cc
c9
de
e1
50
23
50
41
c7
5b
57
56
5d
b7
5d
da
53
df
be
65
53
58
6b
41
4f
e3
53
57
47
dd
51
40
62
e1
70
b7
ca
3a
da
c8
50
b9
47
a5
38
61
64
d7
d4
68
d6
93
5d
54
e2
5e
15
b8
d2
53
b8
45
df
53
2d
50
d5
4e
5d
4f
62
4b
dc
66
56
d4
58
d5
d8
b7
4c
57
d8
60
be
4f
e1
de
50
53
db
ba
e8
ea
56
cb
51
ae
60
52
4f
43
dd
4a
de
52
cf
5a
4f
5e
b9
66
d5
3a
4f
3
e9
61
da
34
d2
69
ce
5c
60
63
a8
56
43
17
4c
da
bb
47
e3
4a
db
d3
a1
5e
5f
4c
e1
4f
95
db
d9
eb
dd
be
4b
b9
29
58
62
60
53
5e
58
3b
46
59
61
5b
da
3f
43
da
20
d1
52
48
cf
60
92
21
51
62
4d
5c
b0
3a
cb
57
2c
61
5d
e6
de
e1
df
de
e4
6a
2c
df
45
d7
53
60
43
83
e3
9e
ce
d5
39
e8
d7
d0
56
59
49
58
e1
d0
df
e2
44
d4
1b
e7
df
54
e0
80
51
e6
60
d5
5a
4b
d1
51
cf
d9
53
e3
eb
ab
da
5e
dc
39
56
5b
ca
0
5c
60
b2
54
54
b4
d4
d3
31
56
d1
39
9c
e1
4f
d9
e4
d3
e4
e3
d1
dc
81
5d
dc
d1
56
54
e1
d8
e1
6d
e6
d6
66
e2
1e
29
4b
6a
6d
4b
e2
2f
0
56
64
46
9a
ed
b7
ce
e5
da
e4
d7
96
ab
3e
cf
4a
e1
cb
a0
50
b5
d8
4e
d9
a2
49
ae
81
3a
d9
5d
34
81
38
36
c6
56
e1
a6
df
d2
4d
5a
c9
e7
62
68
4f
e5
54
4c
ab
dc
bb
40
4e
5f
dc
5e
bf
5b
60
65
61
97
cb
ca
e5
d3
db
b7
5b
d0
b5
a4
52
d0
4b
23
e1
57
d8
e0
80
c8
63
e0
58
5c
d4
cd
5c
22
d7
4c
d3
a4
5e
de
dd
d6
c4
60
5f
d7
51
bc
ce
e1
1b
49
61
5f
9d
5b
59
cb
e3
92
dd
cf
37
ce
51
e4
5e
5e
db
d8
3f
de
15
63
b7
cc
69
36
dd
60
e0
4b
c0
60
ca
db
43
e3
24
cd
4d
49
df
d4
5
5a
38
3b
3e
9d
4b
d2
32
55
4a
e2
61
ca
ce
df
bc
e5
e6
5f
54
10
38
d5
e0
4f
d8
da
2e
d0
63
66
62
3e
d0
9f
eb
a9
55
5f
db
4b
cf
c2
cd
56
4e
bf
d2
e0
43
58
57
d4
db
5c
c3
4f
d1
e0
0
64
4d
28
c3
cd
bc
e7
c2
49
d9
60
c1
5d
62
3e
48
5b
5a
e2
e1
5d
d2
51
d4
5f
23
42
80
e3
ce
47
d4
93
d0
23
da
51
bf
de
57
ab
cd
c3
46
df
2a
80
52
37
0
d0
c8
df
c7
6b
51
56
6e
d3
57
83
c8
5e
57
d4
4a
ce
6c
d6
61
e6
cb
43
eb
61
65
ea
e8
e9
e4
e8
e0
d6
e7
4e
6a
5b
e6
cc
df
c7
eb
ba
d9
6e
52
5d
d5
d1
4d
36
de
c2
59
41
c9
2f
df
61
bb
cd
42
db
e5
df
e4
51
bb
80
e8
da
cf
ab
49
cf
0
e6
ed
e6
b2
d6
b2
a9
68
bd
3c
41
c9
c9
dc
d2
cf
d2
4c
5e
d9
c8
df
65
c6
ef
e0
e5
18
66
ac
ca
5a
65
36
66
e2
d6
3f
44
e3
c6
2f
55
4b
61
66
63
5e
68
3a
52
62
54
e0
d8
cb
50
68
a2
de
30
d7
d4
cd
ca
d9
4c
2a
67
63
e5
5c
67
d6
e1
5e
e2
e1
60
da
c2
c2
e5
3c
2e
bf
f0
e0
d8
e2
e2
47
e2
d8
87
a4
61
dd
e6
1d
57
5e
50
e7
cf
b2
d7
de
e2
d7
ec
80
d3
d9
0
e5
c1
21
a6
4f
45
cc
df
f1
6a
62
56
5e
c3
5e
56
42
db
df
e4
2f
9e
60
53
de
4b
c0
52
bd
46
40
d2
66
32
60
c0
d1
ba
6b
2a
cf
5b
70
e3
54
d9
c6
3d
57
1a
5c
5d
2e
d5
44
dd
81
44
5d
dc
b7
d2
4a
dd
5a
5c
de
a7
3e
e1
3c
4d
ce
b4
58
3d
41
56
d9
5b
d8
a5
ba
41
32
bf
e5
ea
7
64
e3
bf
4c
da
c8
57
51
59
ce
be
54
4a
e0
e5
d0
b3
df
e2
5a
4c
3d
3b
a3
52
57
97
43
a5
db
ba
e2
5e
d6
a6
e4
c3
50
e1
ba
4d
33
c1
dd
e0
5d
44
da
52
e2
df
a3
dd
52
58
d3
5e
4e
e3
53
50
61
bb
39
54
48
de
6c
e2
c3
b1
d8
53
a7
4f
3f
d0
60
43
e5
cb
16
5a
20
51
41
62
71
15
e1
24
5d
4b
bb
62
62
54
b8
4f
37
55
40
c0
68
52
67
a1
58
20
d7
50
5d
62
3e
63
5f
d7
4f
3f
54
6c
58
3d
50
60
2c
4d
48
5f
7
d5
da
81
63
bf
b2
43
4c
51
da
c6
ba
ce
c2
d7
da
50
47
d7
8e
bf
c4
b6
d7
bc
c4
c0
e8
e5
e3
bc
e2
e5
dc
66
e8
be
e9
d2
30
55
d5
e1
32
c9
39
df
df
80
48
b7
db
49
5b
1f
b3
c7
cd
e7
47
ce
13
e4
54
c5
ca
5e
67
d5
ca
58
d7
e1
a7
dc
55
a1
ea
4f
dd
c6
d1
d6
b9
ea
e1
88
e2
58
d7
25
62
4e
e5
dc
e4
48
d2
54
3e
b8
b6
99
c4
bd
d8
54
e2
58
a2
de
1e
d5
4d
63
d7
37
43
48
4f
dd
88
c5
5c
a4
d4
a4
3f
dd
bb
62
56
c6
e0
cf
4d
4f
e6
45
d9
4b
b0
df
e6
5e
3b
da
59
54
3f
b1
32
4a
6e
bd
5d
5c
d2
58
a9
5b
e1
d8
cf
50
e3
e1
ba
3f
b1
60
b9
58
dd
42
db
e8
4f
df
ba
e1
cb
9d
e0
e6
de
c5
35
b0
ba
6b
5f
d6
53
d7
c6
4d
b8
54
c3
43
d2
1e
3c
17
53
d3
86
d1
4c
67
de
e1
d7
5c
57
d6
2f
38
3d
40
cb
3a
c0
dc
e6
c4
e3
e4
da
e2
c1
e3
d2
cb
49
d2
10
5c
df
28
d9
e6
cf
e4
f1
61
3e
d1
c7
5e
5a
34
46
e8
4c
d5
62
d8
60
66
65
6f
6a
54
36
5f
5c
4b
40
4b
b6
a7
23
db
cf
4a
c1
3a
e0
60
d6
d3
e1
ea
46
c4
da
b9
bd
da
da
c1
5c
61
58
58
59
e0
62
ca
4b
b0
3b
d7
52
a7
d8
d4
68
6d
6b
56
d9
d4
b9
54
52
de
d9
3d
21
bf
44
df
e2
e5
d3
4b
e4
ce
af
5a
ca
c9
e3
e0
42
df
43
58
b1
55
69
64
ad
da
cc
98
e4
ea
f3
ec
e8
5d
e1
3a
4f
4b
57
30
57
57
65
e7
4d
cb
d6
65
4e
5e
68
2b
55
47
a0
e9
65
61
e6
57
e2
de
b7
60
d7
b5
de
df
3f
64
e4
d2
d3
e9
e5
5b
62
5d
a2
c1
46
c6
9d
55
e7
f1
3b
47
da
6b
51
de
c4
3e
57
6c
ba
56
36
a1
69
6c
b6
be
58
e3
d1
d7
4b
e4
3a
c9
44
d4
4c
de
ce
51
de
5d
de
5e
59
e2
d2
a1
b4
dc
b4
b9
3b
d7
dc
4d
d1
ba
d3
b1
d8
dd
dd
d2
d8
c0
d9
97
d9
40
57
50
e2
47
54
51
de
1e
5f
df
e0
29
c3
e5
41
cb
cb
cf
d4
e0
cc
47
4b
dc
a3
dd
b7
51
cc
3d
38
bd
52
53
b9
1f
d0
d4
63
1e
cc
b9
4d
cd
58
d6
df
4b
42
26
be
d9
50
e2
2f
5e
44
61
38
e0
da
46
47
e1
e3
de
ea
e5
47
ce
f2
e0
ee
f4
cd
59
e2
5c
c0
5b
42
4f
3f
ca
ae
2f
34
db
64
56
61
a9
68
39
e3
29
dd
30
ec
d7
f0
52
58
d5
80
de
37
80
47
ba
60
ad
80
37
d9
4b
cf
c9
c4
d2
dc
c5
d6
a2
bd
5c
3b
c9
e6
e0
47
dd
bb
e5
e8
d8
51
69
e9
5c
ae
e1
40
64
95
66
4e
44
14
5b
3d
e7
e0
a7
d9
59
50
71
de
1d
4f
ee
cd
d8
59
5b
48
e4
9e
53
9a
5c
13
eb
42
60
de
60
5e
df
e8
c8
d7
ed
c8
ec
c7
d9
a1
d7
37
e8
dc
71
c1
d8
74
d4
db
6f
57
cf
61
c8
1b
5c
d1
ad
da
80
df
e3
dd
dc
e1
4f
d1
5c
4f
e2
d6
c2
55
df
4e
cb
3c
37
c0
d9
d9
c7
a2
de
53
51
d1
4e
d9
cf
bb
4d
98
2f
aa
eb
e4
52
53
c6
de
5f
69
60
62
bb
50
51
b7
66
61
5f
ad
6b
ae
5d
68
c0
54
5d
4c
ad
da
b9
1a
42
cf
59
cf
e6
dc
d7
d2
b4
d2
d9
c9
66
cb
df
cb
e3
4d
54
d8
58
eb
9c
ce
c5
66
c8
b7
db
d7
c2
4f
dd
c6
ca
62
5d
5f
38
25
e0
5e
c6
3c
68
62
64
4b
a6
65
49
b9
38
1c
81
36
60
43
dc
4e
e4
88
ca
4e
dd
b2
45
bf
4f
a6
4d
b0
3f
5d
9e
80
4f
27
5d
ba
5a
5e
48
cc
d2
dc
65
59
4c
d2
cf
bb
4b
e3
5a
5f
62
2a
3c
bb
61
5c
4b
42
d5
41
61
c6
42
57
c
53
3b
d0
c6
e5
45
54
d2
5d
c2
d1
56
55
4d
cb
c8
e3
d2
e8
ec
4c
38
58
3a
26
62
61
d3
65
98
b6
46
e2
da
d1
59
e6
b5
54
d1
40
e0
e0
bc
cc
d4
d1
cf
de
e9
cf
58
d2
51
e2
5b
ce
a5
5c
c7
52
60
d0
bf
52
c5
e6
dd
c4
d7
e1
d9
99
4f
4f
cb
97
e0
31
5e
db
60
4a
bd
de
50
df
df
55
d9
49
dc
cc
1e
53
61
93
e6
66
a3
da
45
21
25
bd
59
64
37
5c
d8
b6
ce
d9
c5
60
d2
48
5c
80
e9
4f
5e
d9
45
d3
59
e2
5b
48
57
5a
6a
b5
ac
66
62
c2
c3
3f
5f
b2
5f
c0
b1
db
5f
63
da
50
5b
49
e1
51
26
d6
2d
3f
db
de
60
e1
f
de
40
5e
4c
39
db
de
da
50
61
4a
22
c6
4d
d9
d9
c3
3a
af
a7
51
dd
54
e5
d3
c2
df
d9
d5
cf
e0
df
d2
c5
da
d0
34
8c
a3
c5
67
6d
55
56
58
d9
4c
66
d1
b7
de
df
d3
d0
5f
a7
d5
5e
4a
48
65
50
64
d8
c6
80
db
ce
d7
48
e0
50
57
36
4d
66
5f
4d
7
63
4f
eb
e2
65
e1
da
ca
dc
43
e7
de
d7
e8
4e
d9
d4
0
ce
52
9b
e1
c2
d4
e3
de
e5
e8
ea
e3
38
2a
66
5f
6b
68
4b
69
9d
ba
41
3d
4e
d6
2e
60
4a
52
45
52
de
ba
d2
b8
67
4a
d3
63
81
c4
e5
e6
d0
2e
e2
e2
27
4a
c8
cb
d8
db
40
d6
55
e6
1f
2b
de
85
3d
46
a
55
49
56
54
42
d3
d9
87
ce
38
d0
e7
3d
57
81
c9
dc
e2
30
4f
cb
13
a1
4d
4b
c8
cc
62
c1
42
bb
57
db
cf
cd
ad
c3
53
4e
80
10
5c
e0
cd
d5
d8
c2
4d
ad
ce
b6
ae
1a
e6
3c
e8
de
62
43
51
42
42
59
d8
60
44
e3
56
2e
3f
c9
52
cd
2d
46
5c
5c
3d
60
47
51
ce
38
57
cc
bf
45
56
d6
49
38
6d
57
52
34
64
69
4e
d6
5c
18
c7
5d
5e
d1
48
e1
4d
cf
53
53
5c
df
b7
db
af
d3
5f
5d
60
e8
e9
dd
ce
d9
cf
b7
df
3c
0
51
dc
b8
5f
ca
52
55
f
c8
41
4f
c9
3e
55
a1
96
db
db
cf
d4
cc
39
24
b6
c4
43
d0
35
bc
28
4a
47
5e
e1
c6
49
d8
dd
55
bc
cf
de
4f
d4
4f
2e
5c
61
cd
5c
d0
2e
d7
dc
56
cb
c3
d2
51
5e
51
e2
5b
6b
64
ad
5e
30
e0
de
64
cc
b2
c4
58
54
c6
e7
bf
d9
ce
50
a5
d8
cd
4a
4d
aa
24
5c
be
cd
a5
de
5f
6
dd
0
81
57
4f
57
2e
33
de
5d
5f
69
cd
48
9a
38
b8
3b
3a
63
30
59
6b
33
52
bf
17
bf
40
33
3e
53
51
51
bb
47
58
e4
51
df
58
cd
53
df
68
66
65
5e
64
64
9f
56
3b
d7
d3
51
45
58
54
c2
68
67
ab
d7
80
be
cb
c4
bf
58
cb
d6
db
31
4a
de
bf
dc
d5
49
95
58
bc
c3
5c
a5
e1
cd
e5
bc
42
59
3a
63
69
b9
32
d3
33
ba
2a
cf
e0
cf
bd
bf
d0
0
e2
c4
5d
db
5c
64
5c
13
c6
1a
54
d8
ce
5b
40
de
2f
45
df
d7
56
df
d5
5b
49
52
d6
d2
c4
c4
56
26
4e
d6
39
0
e7
3d
d8
43
5c
5c
39
de
db
df
3e
d9
54
a9
d5
e4
5c
df
b5
50
d2
db
d9
d7
df
db
32
de
c2
e0
cb
e0
a8
ba
d1
5a
5a
d2
cd
a0
69
e1
5a
5b
44
28
36
e6
e3
3c
54
e8
42
d8
24
d3
39
ac
b8
47
51
e1
db
55
56
58
b8
e5
5f
4b
da
5c
46
c7
a6
b7
59
54
51
d
bd
2c
62
bb
eb
38
54
43
58
e6
bf
99
ae
3d
53
ce
9d
d9
57
12
25
4a
e0
b7
e2
d4
df
da
ab
df
cf
3c
55
e2
37
bb
c0
a3
db
d9
41
5f
60
38
d9
3b
dd
27
c8
d8
da
d6
40
c9
5b
da
64
b4
5f
95
d4
cc
50
2c
d2
c2
c0
27
c3
61
99
49
4f
d4
51
da
40
b7
c3
c6
5d
42
d8
53
64
4b
dc
61
c6
db
42
d6
dd
5e
c1
d5
dd
37
d6
59
80
c8
5e
c6
60
e1
99
e2
d8
80
c8
b0
56
d5
6
e2
e4
53
5b
46
22
c2
e0
d4
4e
d4
d2
4b
4e
e2
5a
e0
e1
26
56
cd
47
46
e0
bf
3d
da
37
de
da
c8
60
50
19
46
de
3b
d4
d5
d2
b2
b7
5e
5d
ce
e2
b0
58
e4
e4
bf
e3
4b
43
53
cd
48
d3
5d
ca
dc
58
43
47
5c
5b
4b
d1
69
2f
5f
64
d3
1a
af
33
35
5d
5e
8
bd
af
57
e1
e1
5a
e2
e6
dd
e4
e7
d4
4e
d8
4f
cd
df
55
54
42
55
5c
3e
59
55
c9
c6
5d
bc
de
c2
de
52
e1
65
cc
67
58
ce
d9
59
e0
4b
b1
de
59
e0
3e
5e
57
dd
9e
e0
d2
e1
ca
40
c6
d2
d3
a5
51
cf
de
d8
e2
e2
8
5c
6a
5f
57
6a
61
53
e1
3f
54
e9
d5
e6
eb
26
dd
4e
e5
da
c0
46
ce
64
38
e0
6b
cf
cc
b2
d2
b2
d0
e0
52
e2
46
bf
48
49
bb
e5
48
4f
d5
a4
36
ca
61
65
4c
b0
dc
ae
3a
5e
cc
41
51
ca
63
3e
59
cb
de
df
ea
ce
28
59
1f
d4
5b
59
32
e4
52
5a
b7
dd
d6
55
52
eb
bd
25
54
d9
de
4e
ce
b6
1b
4b
be
37
cc
bc
c6
43
5b
52
66
46
54
59
5e
64
c7
52
d2
50
dc
5f
5e
64
6c
ca
e3
4c
ba
bf
51
de
f0
be
54
e0
bf
c4
60
46
dd
41
d2
b6
c4
dc
3c
c3
4c
cb
59
d5
c6
51
e7
be
a6
58
5b
80
48
0
5f
af
5a
cb
4e
92
ea
ab
46
e5
4e
ca
e4
b5
4d
de
d4
e3
d4
59
56
6c
38
c8
5b
2c
da
33
3b
d9
31
be
d7
4f
d8
e6
a7
b4
9e
c4
e1
3b
dc
d5
e3
5d
e6
d5
ee
ca
e1
e9
54
59
50
da
58
e7
c1
51
43
5d
dd
59
d3
47
e3
dd
b1
3a
41
67
40
61
54
a4
c0
d8
54
8e
60
52
cc
5b
c9
60
d4
5c
3
c
d3
4a
55
de
60
5a
d5
d3
36
5f
5d
44
d7
5f
e9
de
e5
54
e2
de
e5
d1
53
a1
54
cd
49
53
64
59
61
43
e4
3b
d6
e0
4a
b9
dc
5d
de
53
48
57
53
57
4d
60
cf
62
4d
cb
4f
65
b1
44
60
9c
c8
8e
2a
dd
bd
d9
50
5d
5c
4b
4c
56
d3
60
da
bb
e1
27
51
3b
e3
39
df
5d
5f
48
59
b1
ce
cc
2d
d6
ce
1f
56
5e
64
d4
de
5b
21
44
0
16
36
5e
5b
51
df
18
63
e7
e4
4b
54
5d
55
d9
3a
6e
d2
0
de
dc
56
d3
ec
bc
ea
5d
4f
4f
4b
42
5a
d2
c0
50
f1
dc
e5
ba
57
db
ac
4b
4a
80
4f
53
d1
3c
db
e5
53
e3
6b
3b
e1
5b
d2
e9
e7
e7
df
e6
ea
ef
3f
4b
5a
bb
dc
5e
5e
64
c9
d6
ce
25
b6
61
bc
4f
bb
27
2f
58
d5
e5
dd
39
e4
da
d1
5c
db
e8
e3
e6
e7
e5
e7
b2
d1
d9
49
be
19
4d
3f
5b
3c
5b
5d
5c
6e
68
49
59
24
5f
48
cc
e3
b
9c
dc
c3
12
cd
b
dc
df
a9
96
dc
3e
e9
38
50
da
db
6c
e0
a
d6
39
c9
53
4e
5e
66
aa
b7
e6
0
c3
de
d
67
5f
bc
55
4c
df
3b
5a
d6
3a
d4
5a
d8
60
55
5d
3e
5a
d9
e2
42
e1
db
da
5f
40
d1
5a
53
e2
51
d2
2
a8
5b
1d
56
c8
de
6
63
65
77
52
63
73
c1
63
56
4a
50
47
cc
b8
55
d6
d3
bd
54
6e
70
68
8b
44
e9
ec
5a
e0
bd
28
82
ce
57
4c
d7
d1
49
d9
58
5e
35
54
4d
e2
58
ed
e6
d8
5a
d6
a2
49
bc
ea
57
e1
d0
3d
4f
15
36
b3
1d
d6
ce
61
a7
d4
cc
c9
d7
e3
e5
aa
1d
c7
48
b8
e8
3c
15
5b
62
db
c6
62
e0
5e
d4
2d
60
d7
d2
e0
e3
41
65
42
d0
d7
d7
d0
d1
d3
db
4e
db
a6
55
58
71
42
d9
6b
ed
59
6c
cb
c6
e4
e0
d7
d5
4d
df
4f
4a
60
51
d0
df
4a
e0
e0
ce
e1
de
c2
de
e1
54
54
5e
60
53
b3
5f
5b
b8
dc
d7
d9
57
ed
d5
d2
d4
4b
e4
e8
ac
45
dc
df
bd
e
3d
60
4f
3d
da
6d
41
a4
1d
50
2e
5d
49
e6
6c
55
58
2e
60
3d
71
cd
d9
e6
c3
e4
cf
ca
5c
cf
db
e8
dc
4f
e0
e3
e8
f
d2
ed
d2
d7
80
50
80
dc
b3
e7
4c
e3
ef
dc
5d
d5
c9
dd
de
e8
e6
dc
2e
ce
c7
4b
57
ae
55
b6
69
66
36
57
90
c9
cf
a5
e2
73
6f
b5
1d
48
d1
c0
25
58
60
49
54
d6
57
d5
26
ce
d9
aa
b4
c9
e0
36
2c
cf
53
5d
a7
47
4f
40
69
b7
e0
d4
b4
5b
d7
e4
df
c8
61
b9
54
99
4c
d9
e2
62
50
46
b6
63
58
da
5d
4b
32
5c
43
58
56
e0
e2
cf
5e
b6
51
5f
e0
aa
b7
c7
e1
d1
ca
23
b2
a1
cd
bf
4e
df
da
d2
ce
e2
bf
d5
bf
61
5a
5d
d4
43
e1
44
be
57
4d
40
8e
e2
44
a7
d5
5c
d8
3c
df
dd
4
c8
80
c5
1d
56
e1
38
d1
4b
d4
42
e0
46
54
5d
e5
2b
d5
2c
e0
59
52
e2
af
5b
4e
df
dc
57
8
e1
df
c9
d2
e3
63
53
dc
5b
e2
5a
52
d2
5e
5b
62
5e
d8
61
57
e4
d8
d7
ea
d1
40
e7
e5
cd
36
2d
43
dc
57
d7
46
dd
4e
51
4f
e3
b1
4f
33
be
58
d2
68
ba
9b
70
3d
59
81
c4
e2
d3
eb
53
e5
ca
4c
59
58
54
62
54
ca
14
5d
51
d2
67
55
f
dd
ca
de
d6
4b
d2
59
d3
4d
d0
8b
4c
31
5e
cc
92
e8
4e
59
5a
46
54
e6
5e
e0
c0
da
5f
bf
db
8d
5f
5b
38
cf
da
67
53
a4
d3
c1
6d
68
72
28
ca
de
58
d4
d5
a5
5a
d3
4b
1b
c8
d9
de
46
ad
4
23
d3
d7
cd
e2
d5
de
d5
41
31
cb
c9
d8
54
e1
4
4c
53
28
0
40
e2
c8
4e
e3
4a
a8
e2
6c
6a
69
5f
e3
e5
cc
3e
a7
da
23
80
be
50
50
b0
4b
d9
80
d7
d2
80
dd
d1
d9
e2
bf
c3
da
5e
dd
5c
24
ab
bf
e0
51
19
56
e6
c7
e5
e6
c2
ea
db
d0
c7
5d
5b
c6
ab
d0
4b
b9
49
31
d7
53
bf
b2
3b
2d
61
8c
59
db
5f
e2
db
e1
e0
54
4b
e3
be
5c
2f
cb
dc
dc
2e
d0
ce
66
14
84
44
54
e2
5b
d6
cd
c7
e8
cd
df
e1
52
d0
c8
58
1c
53
4d
60
d4
df
3a
c0
48
e8
e8
55
ec
24
4a
ab
d7
d6
cb
c2
56
c8
e2
e6
3c
df
36
48
e3
33
4e
4f
d4
5a
4d
bc
d7
80
28
e7
51
64
60
56
cc
58
50
e3
c3
d7
4d
45
b4
e2
be
5f
cc
dc
5d
21
d8
5c
af
be
d3
54
b8
cd
61
b6
51
61
bc
cb
57
52
5d
e1
d3
cc
41
cf
c7
5d
dc
2e
51
59
9a
b7
49
c4
20
c4
52
55
4f
67
65
56
4a
53
d6
d8
0
d7
b2
49
37
5e
d1
54
61
d9
d5
d8
33
93
4b
b9
9d
2d
51
55
e3
a4
af
65
da
5a
a9
ca
5a
45
48
22
e1
dc
3b
43
5e
3d
5d
0
25
d6
e3
59
54
ca
de
61
d5
5e
c8
d5
5c
ad
56
e0
4b
5b
1c
b6
30
d8
d3
dd
c9
49
68
df
d1
59
46
5a
da
50
db
de
4e
89
da
d5
c1
b3
63
5d
48
52
df
db
48
d1
52
5c
57
60
62
47
d8
d4
5a
5e
df
51
57
d6
e3
dd
2d
e1
d2
1d
da
4e
81
d0
4d
52
43
42
b1
4a
4d
cf
5d
63
d6
24
97
5e
e3
41
d5
cc
21
44
e1
e1
d7
53
5e
dd
3c
d0
ca
60
46
5e
ce
2d
63
c1
2f
2
46
6f
d5
54
b0
e0
42
d4
52
1b
5f
94
dc
d9
d6
60
5e
e0
62
48
4b
47
5a
45
36
cc
1a
8b
30
25
50
59
80
36
d3
52
64
60
5d
d8
d5
d7
dd
e5
e4
5f
60
e6
d6
e3
dd
d0
bc
e4
bb
57
de
4c
81
c3
64
a2
31
df
52
d9
dd
df
40
5d
5c
60
54
e3
46
e1
b
43
62
d3
40
54
c4
5f
1e
81
2d
81
e0
52
59
58
d6
c0
2c
36
4c
18
5b
40
d7
bd
4f
56
55
e0
d6
d8
62
d0
dc
b7
d7
3c
d1
d5
c5
e6
80
be
68
3d
dc
58
a0
dd
67
4e
5f
df
56
d4
e0
43
e5
dc
b2
c9
2f
c6
48
61
60
66
5d
64
4f
44
1a
d5
5d
c0
47
c7
e2
9b
5b
de
bb
3e
53
4d
55
d3
de
48
cf
99
d5
e2
b8
35
46
db
5e
cc
5e
5a
bb
21
2e
c9
5a
d3
d2
1d
e1
61
e2
54
37
d5
e5
df
5b
d5
db
ae
51
c6
4a
c9
b6
3e
4d
47
d4
56
c3
2e
de
dc
59
4d
c3
c6
cf
c8
a8
dc
98
5d
bd
dd
3e
dd
5c
60
63
27
6a
d4
5d
58
cc
cd
d8
c8
49
e4
bf
2a
5a
41
db
4f
41
dc
e4
e2
d3
e1
ce
df
5c
55
ab
5b
61
61
c9
5c
49
d3
c4
d1
b1
d9
80
ac
50
c0
a3
5f
5e
db
dc
cd
60
ca
32
4d
9
38
61
3d
36
e1
d8
47
5d
a7
e5
34
5e
40
47
3f
5c
5d
48
ca
bf
c9
9a
41
32
cc
d4
5a
df
d4
d5
bb
1d
d7
bc
12
d5
b8
58
5f
5d
db
49
5e
40
44
d5
bb
8d
27
b9
52
e2
13
62
69
bc
47
5c
4f
b3
65
8
48
d0
23
3c
51
56
57
80
4c
e0
88
55
dd
5f
4e
ce
5c
e2
60
44
58
5d
d4
40
63
12
b4
a5
da
e4
df
55
e5
e0
43
3d
6a
62
c5
da
da
5f
d5
ae
da
a3
60
de
5e
d5
d1
50
ca
57
d7
55
ce
61
e2
da
cc
dc
62
d0
66
c0
55
cb
53
5f
cc
55
4c
0
55
be
c4
5d
bf
5d
e0
c6
32
e1
de
e3
1d
de
d9
60
93
2d
cf
40
32
67
19
de
37
ca
bb
30
52
dd
a9
e2
b1
e1
56
61
df
61
5e
33
51
50
55
4f
40
e1
d7
3d
ca
ac
38
d3
d9
e4
ab
d0
bd
40
d1
df
80
c7
29
de
a2
2c
cb
ad
63
e6
42
ea
57
3c
62
a1
34
34
cf
61
b8
e3
a3
c2
dd
5e
48
4f
57
5c
cd
3f
c9
e0
df
4d
52
da
36
55
42
1
b0
40
de
b0
ce
db
df
5e
b2
c1
cb
4f
62
d1
d1
dc
46
d1
49
23
0
d0
55
4e
e0
55
c8
5c
50
80
51
c5
5a
65
ce
37
5e
b9
45
58
1e
0
4f
4b
2f
99
e1
e0
af
dc
37
de
43
5b
a5
c2
46
65
10
dd
d2
5d
54
43
41
59
61
1a
35
d8
3b
58
4b
81
d3
de
e7
d7
33
db
be
4a
a1
e7
cb
e1
46
58
49
db
df
e1
5e
e0
c5
5e
c1
5c
d1
92
e3
5e
62
5a
50
36
db
5f
df
c1
a5
b2
36
5c
4a
54
50
63
3a
bb
51
33
e7
d1
e0
4f
d7
50
3d
b6
ce
d8
d4
41
cb
d7
e7
d5
56
da
de
e4
de
c4
d1
b3
c4
58
58
bf
58
48
b7
b5
d9
57
96
ce
d0
28
cc
64
e2
c8
de
e1
c8
b2
4d
db
4e
95
60
dc
cc
c1
b9
34
de
0
4f
b9
4a
95
c1
50
d7
4e
5e
60
d4
d1
d0
d9
dc
ad
57
d8
3e
cd
a5
e4
cc
d6
de
8c
b3
e0
c7
b8
ce
49
5e
d4
34
cb
56
d4
60
c0
e1
c1
d3
56
61
dd
d2
4c
31
52
57
b8
d7
bf
d7
5c
d3
c4
65
60
57
3e
66
c2
5c
3d
52
b1
5b
64
46
d
5c
46
58
c5
58
59
d7
68
58
3f
54
dc
61
cd
28
dd
1e
e3
5a
32
5e
ca
57
43
ca
49
46
c3
63
59
54
41
c2
5a
5f
16
4e
66
c3
33
37
e8
da
cd
e4
df
3f
b6
b
45
40
5d
5e
56
65
55
64
d7
46
1c
62
64
50
36
d3
d7
9f
ce
3f
59
bb
db
65
57
df
31
dd
c6
dd
44
4d
42
93
d5
db
e3
d8
60
ce
5d
55
e5
1
ea
c9
ef
c9
e2
c1
e8
5d
51
9f
c9
50
32
5a
3b
c6
de
4e
d7
ea
d9
40
c2
c9
d2
d5
ec
b6
62
55
4b
46
db
65
49
50
95
59
59
46
80
ad
de
5d
6a
5b
5a
60
54
e1
51
56
56
5c
e9
e3
d2
d4
df
df
d6
df
e1
db
4e
d2
47
e9
cc
db
e0
46
d5
c9
10
64
6a
46
d4
5f
4f
4c
54
51
55
56
e5
61
44
d6
64
60
6a
cf
81
65
da
48
5c
64
64
6b
5f
4e
5a
59
e1
cb
cf
c4
f9
4e
da
f1
4c
94
ef
c6
de
5c
5a
de
5f
56
c9
da
61
38
65
cb
2a
61
d6
db
59
5e
47
5e
a9
56
d4
8f
be
1f
cd
bf
51
cc
80
8a
ef
d9
5d
3b
cd
5b
54
32
1a
55
53
64
55
1e
58
30
6f
56
d2
ce
dd
51
59
aa
15
aa
41
bd
1d
db
5c
35
57
be
29
0
4c
dd
54
59
c8
4b
d1
80
c7
48
d5
59
c4
5e
4c
38
4e
dc
49
51
e1
dc
c5
5e
cb
92
27
ce
31
47
e7
cb
c7
d2
db
cd
8e
c6
cb
48
52
68
d8
58
58
1d
5a
43
8
d4
5b
e7
55
54
df
32
d9
98
63
36
d6
4e
c8
34
53
47
d1
e7
ee
e4
da
0
e3
d7
dc
ee
e6
66
cf
3c
5c
d3
64
67
db
bd
d3
58
bf
58
52
60
dd
ed
4d
dd
db
3c
5
e8
5b
5c
df
56
1
dd
d
3c
d0
d7
4e
e5
e6
bc
80
40
e2
e0
50
db
be
20
5c
4d
5a
de
59
df
5c
18
b5
4b
54
56
5b
39
59
d1
54
db
49
aa
4d
5b
e3
e4
c7
d2
46
5f
4e
4f
56
de
c7
4a
57
64
81
55
a9
dc
dd
54
dd
b8
51
4e
3c
4d
b4
62
5c
5a
45
50
a3
dc
d3
4e
3c
52
5a
af
3b
cd
96
54
ce
a6
cf
30
51
3e
cd
b8
62
2d
d6
b4
55
b1
62
b9
2c
c3
e
50
5d
6e
67
4a
24
d5
d3
e4
d4
ca
c5
d6
df
89
5f
da
de
ce
36
49
66
55
ca
57
d7
d9
49
5e
af
20
e3
c7
58
b0
44
4a
eb
5b
c2
49
41
b2
5b
6c
c6
3e
5d
d2
ad
5e
b9
d2
22
de
35
42
56
d8
c3
dc
b3
d7
5
67
44
1a
54
4c
d0
1e
48
2c
48
61
70
6b
5b
d8
44
6a
e1
5d
61
35
c9
e8
d4
61
e0
d7
c7
d9
55
80
97
64
3f
46
37
53
24
4f
40
cf
a9
e4
bc
5b
87
5d
48
58
c3
18
4f
df
e2
c4
e1
c2
e1
61
54
3c
5b
3d
da
57
62
58
48
c4
c0
80
be
62
dd
db
49
65
3d
4e
ca
e1
49
c4
5b
c2
65
28
da
62
22
59
71
e3
42
43
55
aa
45
43
c3
cb
de
c5
bc
de
df
c2
32
d0
a6
62
58
cb
af
bf
8b
60
55
dc
62
43
43
e4
52
c4
5d
80
3d
5b
62
3a
59
65
cc
b6
51
b0
e5
d1
30
d2
34
9
e4
a
d8
62
55
3d
43
37
d2
53
49
60
52
56
ef
c0
cf
d7
cb
41
bc
b9
4d
c7
d9
62
d9
f0
df
e9
e7
31
57
d8
50
52
d3
4a
45
57
64
75
57
8c
68
cd
4b
64
5f
60
64
d6
60
d1
59
42
56
ae
ca
b1
de
4e
d0
c3
47
52
48
c8
cf
5e
2a
db
d4
dd
1e
d4
62
d4
e2
5c
dc
d2
62
17
d6
db
ac
c7
2b
e2
d4
3d
31
62
d8
58
de
39
db
3f
c5
d3
65
d4
68
1
c1
c6
d1
41
21
4d
5c
3f
e3
d9
5e
4c
51
d3
6d
55
db
68
35
4c
c5
bb
e2
e9
b9
62
53
e3
d4
d6
d9
eb
1d
96
b1
e0
9e
ae
e6
e6
e7
11
56
53
51
d3
dc
e5
be
d9
c0
4b
d5
9d
47
d6
e4
52
60
a7
cd
c2
90
3a
e3
d9
c5
e0
4e
af
52
c8
d5
c3
63
31
b3
de
40
ad
b8
19
c1
62
5a
cf
56
9
6d
15
4c
71
e1
4d
6e
60
e3
57
80
30
df
5a
da
d7
5b
60
73
99
d2
68
e3
b3
54
58
e5
cb
60
a7
e7
b6
dd
c3
eb
e9
55
de
d5
c1
52
10
e0
df
28
48
ce
4b
89
55
48
cc
d5
c5
dc
51
3e
5e
48
63
5c
61
de
c5
61
e1
c3
cc
db
3b
81
b2
53
52
51
c5
ab
61
5d
ca
b0
20
47
d1
42
34
d4
d6
24
e2
3b
5b
44
0
e0
0
bf
cf
d2
e0
de
df
c5
ab
e3
56
e2
4f
e0
c7
56
bc
c5
cf
5e
d4
42
2c
5b
10
5c
d6
4e
c0
26
be
d6
dc
55
dd
e3
56
d8
d0
27
a4
59
df
e1
48
bf
e4
e8
e5
f5
50
59
f5
a8
50
f5
f0
cf
dc
e2
df
dd
45
34
39
19
d8
e1
b7
58
50
5d
63
61
ca
31
64
57
3f
69
4c
d8
d9
b9
4f
31
d0
bc
3f
eb
e8
55
da
cc
30
db
59
d6
4f
34
b5
58
50
55
ce
dc
b9
d4
b5
be
e7
50
bf
e7
e2
5d
e4
33
cf
4f
65
4a
64
5b
d6
5a
46
bc
db
ac
ca
3f
be
50
5f
4a
56
cb
59
5a
c6
bc
22
bd
57
cc
60
c7
47
48
54
1a
eb
d0
c8
70
6a
6d
71
68
38
82
63
62
66
50
71
51
63
bf
5a
16
59
e1
e6
dc
d4
58
c9
47
d0
5f
c1
59
bb
d1
62
c7
dc
5d
ce
ce
d8
f2
cd
e5
2d
3c
9d
b2
5a
89
de
d6
2c
51
cd
d9
5a
c8
da
d0
60
df
d2
cd
61
dc
55
95
45
3d
b5
e6
eb
d7
d6
39
e1
dc
4
ce
d8
60
5a
3a
4e
63
6a
e2
cb
4b
d8
51
d7
97
17
56
4a
c7
c8
48
ca
4a
e4
d7
5e
4f
5a
0
59
da
4d
4f
d7
d2
e5
cc
c7
57
62
da
e7
44
a9
ca
d2
55
2b
cd
e0
55
52
d1
3d
55
d9
23
28
c5
61
34
46
d1
2a
de
5c
4a
dd
e4
e8
dc
c8
dc
cd
67
59
31
61
ba
45
5c
d5
48
a5
5f
e1
58
58
5d
42
bd
d9
98
1b
ae
bd
61
cd
e5
55
4b
a8
53
d0
2d
b4
d8
31
49
aa
dc
31
cf
5a
5d
31
46
59
51
d5
e4
61
63
db
d0
df
45
1e
de
58
dc
4b
59
b5
58
4a
d7
d0
58
18
56
d3
66
cf
61
c5
b5
45
b6
44
dd
d4
32
5f
57
df
df
dc
c3
5e
df
e1
ce
54
ce
4c
4b
52
80
63
46
58
d7
e1
da
bc
de
47
e3
5c
32
2e
ce
a1
3b
80
e2
d4
d7
b0
dd
bc
bb
4b
25
56
bb
5e
cf
ad
5f
67
bf
4f
df
56
be
d6
5d
a7
2a
5b
59
59
dc
3e
cc
d0
d5
17
ab
23
50
64
5c
d0
5b
d8
d3
df
4c
42
e2
c3
59
e9
d6
41
bf
df
d0
d7
d3
db
5b
5c
d3
d9
ba
48
39
54
3c
d8
db
c1
56
5f
4c
47
ba
6b
1a
df
61
49
b8
5b
1a
59
50
d0
d1
e0
d2
58
53
cb
38
c1
de
5e
5e
d2
49
a3
38
26
4e
a5
d3
42
60
de
e2
59
d9
51
cb
d8
cb
d1
e8
cd
de
c4
df
b1
b8
df
16
c7
dd
c9
d9
49
5e
3f
d5
3c
81
dc
e3
27
38
db
27
bf
a7
5a
52
da
55
5c
3c
df
94
5f
11
9e
32
4e
5c
59
db
98
4d
c4
e0
c7
ac
de
ae
4d
47
de
46
4f
41
d1
c4
c9
d2
60
60
d2
5c
ba
3e
db
cf
dd
d1
52
d2
cb
e1
0
b3
48
b6
22
e4
e1
2f
5d
56
51
dc
55
3f
16
1a
56
36
53
a3
9b
be
d1
e0
d5
d2
37
cf
cc
cf
e1
63
59
e3
d8
e3
c2
bb
de
ce
50
50
d8
bc
64
d0
db
20
22
5c
3b
d3
42
bb
ce
80
55
80
5e
55
36
de
56
e0
cb
26
2d
c4
b1
81
65
89
59
c6
54
1e
45
dd
e2
59
5d
d8
65
b5
59
47
21
b6
d0
5a
5e
41
c3
3b
c9
51
bf
2c
3a
3e
5d
84
5d
b
36
e1
55
36
de
cd
d9
c0
39
47
5a
61
9
43
66
60
35
26
cc
33
30
d0
de
cc
cc
62
29
38
d1
db
59
e1
46
cd
3b
da
b7
de
cc
dc
2a
64
61
de
51
5b
df
24
5d
4d
d0
4c
d9
dd
b1
c8
c6
d6
19
4b
c7
1b
da
62
55
5c
4f
54
b9
5b
59
e2
56
e4
e9
e3
57
57
d7
59
ca
5d
4c
5d
2e
cc
57
5a
d7
5c
df
61
cb
50
df
d1
ca
cb
e2
d9
de
db
d4
3d
1b
d0
e1
da
de
db
d1
58
d2
cb
46
58
5e
c0
47
4a
53
52
53
cc
e6
57
8
d3
45
58
da
e6
dd
50
37
5e
d6
df
57
dc
57
58
4c
c5
87
8f
4c
c1
56
a3
63
e1
df
dd
c3
db
a6
56
61
d6
3c
ba
d5
56
43
57
58
56
b9
4d
aa
d3
50
55
3e
22
47
b0
e2
64
c7
d1
37
dd
54
d9
3f
d0
22
d8
d8
5a
4a
d7
cd
d3
2d
43
5c
cc
da
e4
c2
da
47
2c
56
d7
53
da
57
5d
81
25
d5
c3
db
d9
5a
80
e3
61
8f
a5
d5
dc
be
53
4b
da
4c
dc
e4
de
dd
51
b9
23
56
63
a6
df
db
df
d1
41
67
dd
40
67
b4
a6
61
e1
b9
d2
0
38
c0
d4
d4
cf
d4
54
b1
a5
c9
1a
d6
e4
d8
d5
de
e7
e2
41
3d
51
d3
4f
c0
df
de
d8
43
db
b5
d5
5a
62
61
cd
e0
5c
d2
5a
5a
3f
c6
47
55
c8
48
23
e1
dc
2f
b2
80
d9
5c
93
df
ab
5d
e2
e2
c5
3b
e0
63
28
ce
cf
d1
c7
45
5f
50
58
3b
df
d0
53
0
4e
da
c9
e1
59
37
dd
bf
ad
4d
e7
39
e3
16
e8
5d
ac
e2
e4
b9
21
bb
9f
d1
4d
df
c5
d0
3c
5b
64
b1
d0
5f
ad
d1
48
63
d4
bc
d5
da
5b
34
5a
e0
5d
bf
b0
e1
aa
e2
d7
e0
53
51
d1
5a
4a
be
55
45
e7
42
da
4e
d8
5a
dc
63
29
59
cd
5a
26
55
d9
bf
53
54
db
64
49
63
cb
68
cf
44
65
d7
63
58
c5
bb
5f
5e
d9
33
a7
50
d3
43
d6
2c
55
5f
e5
e3
dd
52
57
60
66
d6
89
cd
bc
d4
d1
a2
cd
d8
cb
41
59
41
ad
e0
60
d3
b8
61
db
e0
d1
e4
40
4c
c6
5a
cc
d4
44
e1
46
e4
e6
ca
e5
bc
e4
da
bd
e3
5a
b0
dd
55
d1
51
54
1c
55
5a
d8
de
58
bd
53
64
ca
a8
3e
5a
53
38
51
db
c9
92
d1
53
57
5b
d9
d4
5d
46
9b
52
3b
53
48
c7
80
e1
d3
63
59
9d
d9
48
52
53
53
30
24
d5
83
e2
d2
c4
54
60
4b
5a
de
b8
ca
5f
28
dc
62
e0
d1
a2
d8
d4
e3
d6
49
dc
df
c4
5c
e1
c1
5b
5a
d5
db
81
d6
64
d7
8e
db
5f
b2
39
c8
d9
60
f
dc
63
d5
48
d7
63
e2
e5
4a
c3
c8
e0
dc
61
44
d1
da
c2
d9
66
d6
ce
b4
c8
4e
54
dd
5a
58
4d
d9
5f
3c
4d
ad
49
c4
62
63
53
e2
dd
4e
2b
4f
57
4f
44
5d
4b
41
ce
5a
ce
57
d8
e3
4b
a1
5e
ce
47
5c
d8
53
b2
d2
5b
63
62
5a
d8
13
82
5f
50
33
e0
e
5f
48
4d
43
da
5b
da
8f
65
51
d2
cc
3a
4c
e1
46
44
dd
38
5e
c8
60
4c
1b
52
3f
0
54
c8
4c
cf
1d
c4
ce
0
57
d6
db
50
db
d8
e2
da
60
c1
39
60
c7
6d
5a
bf
c4
d2
4d
4
c9
a7
e4
3f
d6
41
dc
e7
e5
42
d4
30
96
c3
c6
c9
d2
80
d8
d0
55
58
80
0
d3
e3
5e
e1
31
1d
d5
5f
d4
e0
3a
ba
e2
e2
81
ca
e5
52
55
5a
d5
50
62
2e
49
4a
30
c8
51
64
c4
56
59
db
5c
cf
63
a7
5d
ad
58
44
c6
5e
5c
4c
44
38
92
5a
5b
dc
b1
d6
ca
d0
4f
55
57
b1
c1
c9
54
dc
13
e5
c4
d0
30
61
36
24
a3
58
c5
4c
45
64
cc
d7
67
c7
5f
d5
5b
60
44
5e
bf
56
5f
5a
5e
58
d3
d1
d5
53
60
d0
46
e0
d7
5a
5f
ae
47
5d
58
ca
56
5b
38
4e
5e
58
3a
17
e2
49
da
48
b7
61
e3
49
e6
cf
61
d7
cb
13
c3
5d
62
db
8c
d6
59
d9
db
43
4e
2e
da
3d
62
6e
42
60
51
aa
5a
d6
5e
e1
59
5d
2c
4f
33
d6
a3
56
10
53
2b
b5
9a
4a
a1
dc
2b
e3
e9
45
d8
56
62
c5
a7
d0
e4
bb
58
66
af
52
4f
24
db
ba
62
54
53
5c
53
e7
60
e6
d7
37
de
a3
50
e2
d4
3e
d4
3e
52
32
63
da
d3
b9
62
c5
e2
db
2d
66
a5
d4
c2
c5
a0
d5
55
bc
df
9c
d2
be
5a
64
7
d3
e0
cf
d2
e4
c5
9
5a
bd
c6
d2
55
47
63
62
5a
d1
51
52
62
bf
63
62
ca
b2
c2
dc
b5
e0
37
60
5c
e2
47
5d
5e
cd
de
5a
4b
94
65
5f
4a
63
9f
60
da
59
c4
dd
a6
3c
e1
e2
3a
af
45
5
5e
e4
ce
96
a9
4e
cf
5b
af
4f
44
63
50
a3
bb
5a
55
57
69
63
cd
31
e0
cb
d9
d5
5c
46
46
d6
60
5f
c8
4b
de
57
c8
5c
c9
47
5c
62
dc
4a
e0
9
51
ca
5a
d6
50
99
df
cc
61
d6
d2
43
a0
cd
57
6a
d5
62
45
d6
df
5f
32
e0
d3
c1
cc
5f
55
65
54
5c
52
3c
61
35
de
dd
d8
5b
d1
d5
4b
3f
cc
c9
e5
55
5b
d1
d6
4f
47
a8
aa
56
d7
63
59
2e
36
57
c8
a
df
59
d2
d8
4a
4a
12
63
66
d8
d8
44
92
5b
c1
e5
4e
13
9e
5d
4e
ba
59
b6
e8
96
95
ca
5f
42
81
54
3a
a1
d6
3f
55
4d
a5
5a
64
f
dd
d4
db
c9
db
60
60
62
dc
5c
4a
14
66
5a
c4
96
65
ca
67
5a
4f
40
49
d9
d9
4a
b4
e3
de
41
2e
c5
60
ce
5e
4f
d7
46
c7
29
b6
5c
b9
e3
d3
e3
e9
e5
dc
e2
d3
67
d1
53
59
b7
25
2d
4e
a4
c1
c2
47
57
63
d3
ca
db
41
dd
d5
c5
5d
80
ca
e2
a4
bb
b3
c3
bf
c6
c2
2d
5e
5b
cc
c8
dd
62
41
39
5f
6
b3
48
61
de
bf
d0
5b
45
c4
ba
d2
5e
49
4c
bf
5d
5a
e4
d6
6a
61
db
5d
1d
ae
2e
40
e2
53
de
5c
c6
c9
57
51
dc
18
5c
af
25
b2
ce
e5
30
60
3d
31
c7
5d
54
d8
5b
d3
de
0
d1
d1
61
ed
d9
4b
e7
c7
bc
31
c7
cd
c8
69
47
67
55
b5
e3
0
cc
d0
58
d0
65
d9
8f
62
ca
c6
e1
b5
db
5d
ae
5d
26
62
81
b8
c4
58
19
c9
c6
de
4b
db
60
58
c7
47
5d
3e
d6
dd
53
1d
dd
45
50
e2
80
43
db
57
2f
e7
da
e0
de
48
63
5f
51
4f
c2
a9
5c
4e
59
61
cc
57
57
4e
2c
26
89
b5
dc
db
ce
d5
b3
34
62
4e
9a
bc
bb
cc
d4
55
44
c8
5d
15
62
c3
60
69
61
cd
0
de
58
d7
44
5e
d3
58
db
cf
62
4f
e6
54
68
61
5d
64
81
db
39
d7
3d
81
52
e1
38
e5
b1
2b
d2
da
cb
d1
61
c8
cb
56
66
43
4c
6e
54
d2
5c
e4
55
e2
4c
bd
d7
b5
34
56
63
e4
da
43
ca
58
63
2e
5a
48
e2
d3
61
db
55
df
49
57
4e
34
37
df
92
d7
df
60
55
44
dd
e1
ac
31
44
e0
41
e1
17
25
5b
53
a8
48
d4
4b
68
61
cd
d9
da
de
3a
df
3e
da
5d
dd
d8
5a
50
64
57
cd
11
58
2b
4f
d7
c6
62
56
cc
df
d7
5d
32
4f
58
47
d0
df
dc
dd
5a
62
dc
54
d1
63
c9
61
4d
57
d8
57
65
4c
df
de
d1
d9
50
dd
4c
dd
63
2c
ce
dc
4f
59
65
9e
50
c9
49
59
5f
60
d9
5f
a5
4c
5c
d4
db
ce
d9
d1
4c
c0
db
5e
1
ce
cf
61
9b
c6
20
b8
58
2c
5b
a7
45
d7
4d
45
b2
4b
5d
de
31
4f
b8
66
3e
d2
d1
50
31
57
32
d9
e4
67
dc
d5
55
e0
b2
40
61
d9
50
57
2d
d8
59
c4
5d
4f
b1
d4
47
bf
61
9b
4b
54
26
5b
64
62
53
5b
cb
59
53
da
51
e0
2d
5f
a0
5b
5e
5c
60
3c
de
64
1b
d0
48
62
4d
a0
56
df
80
67
d3
ad
63
da
58
4d
e1
b6
4f
3b
d7
5e
36
db
d9
e5
58
d2
d4
e2
60
1a
cc
32
3b
d3
c4
d8
c1
d4
d8
de
28
b3
dc
b9
e0
26
c2
8b
37
d5
56
5b
59
44
e7
4e
56
b9
61
e4
be
dd
2f
d6
56
d0
d1
49
2d
bb
41
33
c6
63
60
d3
34
4e
43
4c
dc
56
dc
a9
e0
c1
dd
80
4a
57
52
bd
e5
e6
de
dc
60
c9
66
61
e
61
da
e0
3a
d8
23
d3
62
cf
d7
b8
49
43
e1
53
5a
5a
2e
14
60
53
64
65
58
d8
9c
57
81
ce
9b
dd
dd
59
55
cb
54
e0
d1
63
1f
4f
58
e0
df
5b
c7
b5
b4
5b
bc
5c
c9
39
4d
a0
c2
90
d2
20
d6
e1
54
e1
e1
e0
60
66
63
d9
67
ca
da
0
5d
2
c1
d8
5e
52
5e
d4
cb
1d
60
d5
94
d9
db
61
d8
3e
4a
55
4
e0
d6
e9
b4
e1
d5
57
d3
e1
53
cf
a5
af
a9
47
16
54
60
ad
2
c8
db
a0
3d
0
5c
5d
45
dc
d8
b5
99
bd
51
59
bb
48
48
b7
e3
5e
d3
5e
3c
5a
d2
be
5f
32
e1
63
5a
65
43
0
4a
63
8a
b6
30
53
5c
54
d7
62
b7
81
48
44
50
55
3f
da
ce
c4
58
e5
5e
62
27
d2
e0
46
1d
4e
cb
0
0
44
db
dc
48
e0
d8
5b
9d
d9
41
c9
cb
80
d0
80
d3
27
56
b2
63
c0
42
3d
63
56
c5
53
bf
80
c2
54
e1
dd
d8
58
44
4e
be
4f
89
d7
2d
d7
59
ce
3e
5f
5e
58
5f
d0
cb
60
e3
ba
50
da
5e
c0
52
c9
da
d1
65
4b
2b
52
5b
5b
56
5d
ac
5c
55
d6
60
c4
db
b2
d8
58
60
ba
cd
5f
9b
d0
4a
c1
cc
c6
cd
df
c7
5d
d0
c0
59
cc
5c
54
e2
c0
44
4e
56
c8
44
e1
57
de
60
42
51
54
d6
53
5c
65
22
d1
dc
c3
c7
0
5f
46
c8
44
e0
4c
dd
d4
48
43
a9
50
52
5a
de
d5
dd
b9
b3
60
60
de
1e
e2
59
e0
62
52
62
62
d4
be
d3
e1
3b
9c
5b
52
26
df
58
9f
e1
46
3c
8f
4d
c0
d7
c6
d8
5a
37
e2
d8
e4
d5
e7
d4
d1
df
b8
d3
c4
df
94
b3
3c
c9
e3
92
44
8e
5f
d8
4b
5d
d4
53
ab
56
b5
d7
d4
35
5e
d9
d5
bf
36
9a
53
53
d1
99
81
dc
ac
5b
37
46
af
58
df
d9
e1
63
60
61
dd
5d
49
45
16
64
5e
d9
41
c7
dc
ba
4d
be
d2
45
4
44
47
63
bd
d4
44
19
4d
62
d9
d4
5d
d8
56
43
25
56
e2
1b
d0
67
d2
35
26
55
40
6a
3e
d1
e3
c0
45
58
30
c6
53
4f
61
db
e3
be
81
40
cf
d8
29
29
b2
60
54
d9
3b
3b
48
37
44
6b
61
66
66
3c
cf
36
5c
df
db
b4
d3
df
da
4a
d5
41
5a
db
52
d9
5f
4c
dc
cd
38
80
59
d8
5f
dd
1f
9e
c4
2a
d5
3c
d2
e3
1a
59
59
56
e2
2c
d8
d2
d6
c1
be
62
57
e6
65
53
10
4c
63
5f
68
1a
d3
da
e6
dc
54
9
32
5c
d9
55
ce
4a
da
4c
d5
60
5b
de
60
5e
d1
d1
e4
da
cf
4b
39
59
d7
5a
c9
1d
c7
d3
5a
99
9a
e0
b7
34
3e
5d
55
4d
db
dd
c4
38
4f
e2
d8
c6
4c
4f
56
de
33
d8
d0
4c
5c
e3
b7
e0
d5
d7
aa
b5
48
bb
9c
96
d9
44
92
11
e1
dc
65
bd
47
ca
47
36
d9
49
a9
d9
b4
e1
9f
5b
5f
60
ba
c5
b0
e0
dc
a4
c5
ac
4e
61
63
d6
45
4d
5a
c8
ba
e2
c7
42
b5
df
e1
55
5d
dd
5a
5b
c8
c9
dc
d7
c4
5c
d5
d9
c4
d0
5e
dd
c0
35
d7
ba
46
5b
dc
df
2c
5c
5d
5a
6c
b1
5f
6a
c7
4a
5b
d2
50
31
26
51
d7
d7
cc
de
56
e3
c0
63
e0
46
40
56
c7
de
df
8d
4a
c7
5d
d5
40
5b
d7
66
cb
29
d5
5e
4f
ab
30
41
38
dd
31
c
5a
e3
db
d9
4c
c6
36
3a
dd
1e
b6
5d
e0
49
5f
d2
55
31
df
60
56
e5
d6
9
48
ce
df
e6
dd
d9
d1
e0
d4
d
55
60
5f
c5
52
54
65
4d
59
5d
cd
cd
55
bf
d0
4d
3e
56
d3
2e
42
d5
57
5e
df
d3
33
df
51
cc
4b
58
ba
b2
d1
59
5c
cd
e0
4b
4e
4b
d8
cc
62
36
cb
4c
d3
64
4a
c3
e4
dd
55
c4
cf
e4
bf
de
32
5f
bf
4e
dc
41
50
d2
53
47
5b
5f
d8
5b
ca
da
4d
30
55
b4
56
cc
df
53
41
aa
c3
b8
3f
61
df
d2
5d
d9
d7
55
dd
37
50
d4
63
5b
58
d3
b6
d7
df
1f
f
44
d8
61
c9
60
57
c5
4c
d9
34
6a
54
35
5e
be
1b
52
81
43
66
da
b0
5d
20
a8
d7
d6
55
30
2d
de
c9
64
be
af
c8
32
67
48
45
af
4c
46
58
a9
57
d3
d0
c6
40
3f
3f
20
3b
22
3b
54
cb
2a
46
56
ba
d2
2d
b6
61
d7
e0
5f
e5
50
3a
59
c1
d6
be
df
58
b7
5f
d4
d5
d1
bd
a7
4a
4e
0
6
54
5d
5b
d2
4e
3e
d7
37
a5
d9
e0
60
22
bf
d3
d1
b2
ce
5c
d6
b7
58
be
df
52
55
af
c5
d9
5e
e3
de
c1
29
b0
5d
be
c0
5a
53
c1
4f
a1
80
c8
d1
37
60
5b
80
46
5a
df
5e
5e
55
3e
e2
54
62
ba
d6
ae
cb
25
81
c9
e2
61
4a
ac
64
59
5e
58
dd
4a
d4
28
20
ca
59
93
b2
c7
e3
5a
c5
dc
2c
d8
4f
41
d4
57
c6
d0
24
cd
47
de
df
e0
42
f
4e
c8
54
e2
1
c0
d8
5a
4b
2f
5b
c1
d5
58
44
c0
bb
c1
57
22
5a
59
3a
47
39
d8
ab
b0
d5
dd
d7
ce
2a
5b
53
61
2b
56
5a
52
54
ca
9b
b9
55
c5
54
48
4e
59
3c
57
b3
4a
45
e0
de
e2
d0
cf
38
d4
e5
dd
af
33
d9
e2
5a
b3
80
5a
61
62
5b
dc
4c
c9
5a
5f
ae
4a
5e
da
5c
df
52
53
1a
c0
4a
5f
bd
df
41
92
db
da
4b
67
4f
b8
55
c7
4e
e5
e2
3d
d0
db
36
24
48
55
c1
3d
54
ce
da
bf
e0
e3
c4
db
db
b8
47
65
d4
cd
5f
5d
58
df
c9
bd
d6
14
af
52
61
31
67
70
d0
32
e2
e2
0
55
dd
ce
cd
4d
de
4f
57
c2
4d
e0
dd
3a
5e
95
ac
c0
4c
cc
60
ba
da
d4
d7
81
e4
db
66
c4
cc
3a
23
d3
2f
40
48
cc
de
52
51
58
24
de
d5
3e
56
e9
e4
cf
e0
b5
30
e0
d6
5e
5b
dc
5b
49
bd
21
c5
c4
dc
e3
e3
ab
c1
58
46
ce
50
cd
c1
0
4e
55
5a
ac
80
46
e4
5b
61
3c
c8
be
52
d7
d7
61
25
62
59
64
b9
57
5b
5b
de
34
33
da
4a
dd
53
52
31
1f
45
5b
c9
5d
53
6a
c6
5a
34
d4
4b
d8
5b
c0
57
48
cc
c9
d2
b0
cf
da
b0
e2
3e
ba
d1
b0
d6
bb
22
be
b1
41
e1
47
54
e0
bf
41
c1
4a
5e
80
48
3f
4d
53
1e
dd
ba
80
df
5d
56
80
e8
5c
5e
58
1f
c7
e4
cc
80
3f
28
57
d1
c3
ae
5b
1d
4c
d4
4d
61
e3
cd
d9
56
5f
dc
e3
d6
4f
5a
b7
30
ca
df
63
d5
cf
c7
4a
95
41
e0
56
41
db
5f
bb
3b
db
e1
d6
d4
80
d1
61
5b
65
c6
26
5a
d9
d7
c4
41
da
59
e5
e5
4e
45
5d
34
1f
c8
c4
63
16
5e
de
ce
de
9d
56
b3
d0
10
e
5a
bb
3f
e0
e0
5a
e0
bb
4e
8a
cf
c9
db
4f
58
59
5d
2e
5e
d5
e1
5f
5f
4c
5c
5c
dc
d2
e4
5e
d8
de
e0
d5
4d
cd
d3
df
5c
33
aa
0
4c
c5
48
43
52
30
da
dc
48
d9
57
e5
d4
cb
df
d8
ba
4c
5d
60
59
d3
cc
d1
a2
de
2a
dc
a6
c2
42
a1
47
53
e7
e9
d8
dc
bd
23
d7
e5
dd
59
d6
c0
ab
dd
d3
2a
c
23
52
dd
e3
bc
50
c5
11
5d
c4
d6
da
89
cb
d9
80
68
5a
dc
51
4d
cf
ce
38
62
31
d4
5f
57
56
55
5d
0
17
e2
48
65
50
52
3d
5a
6d
4d
51
65
da
68
57
55
57
65
42
d0
d0
dc
4e
d4
5c
c6
d3
c6
c1
dc
e3
10
60
61
5b
db
14
c7
60
5a
ca
4e
2b
c8
4b
d1
68
b6
e0
c9
67
d7
50
43
67
24
c2
d7
e4
c3
be
38
49
d1
c4
67
4f
cd
3e
95
c9
d4
d6
df
b9
c0
b2
59
d5
de
d6
d1
41
c5
c0
60
36
e5
e5
ce
c5
1b
56
5a
32
cd
da
c6
2b
d0
ba
57
50
66
52
3a
57
46
d1
de
59
5e
dc
d4
c4
d8
dc
52
17
48
cf
dc
a4
56
61
d7
eb
44
dd
3b
56
5f
d3
cf
e4
db
c6
5b
4f
3b
51
3a
49
cd
b7
c0
d0
e3
48
e9
20
cf
d7
ca
b3
db
e0
61
e0
27
cf
d5
c3
58
55
df
cc
d5
dd
5a
9d
4a
4
3e
30
5f
db
cf
bc
d7
d1
ce
b7
58
58
58
d4
5d
5b
cb
24
38
b3
53
66
2f
4c
31
d
cf
cf
c0
d7
4f
5e
bc
df
de
bd
d9
cd
47
d4
ac
d5
62
c8
bf
56
65
cd
c0
35
c9
5e
52
52
5e
3f
58
40
b9
ce
32
c5
bb
e0
d6
e0
4a
ca
d7
db
e2
47
e3
6
59
4c
e1
cf
55
ab
5a
e0
60
44
4f
6b
4f
e2
57
51
de
c4
bb
5a
c6
be
59
5b
d2
df
55
5b
4c
44
2c
5e
d9
43
62
ee
d9
54
44
67
63
43
57
5a
d5
bc
db
0
57
d4
61
56
0
34
bd
e6
54
e0
31
de
a9
1a
c3
d8
45
52
45
53
58
59
d7
48
c9
5e
66
65
59
63
50
5d
d9
50
54
8d
de
bd
d5
dd
d4
40
5a
4c
d8
58
dc
3b
e0
44
65
5c
5e
a
c7
cd
c7
5a
9b
bb
33
58
60
d1
e2
61
50
80
df
80
bd
cc
a1
4b
d8
56
5b
64
d8
4f
b8
c3
cb
67
e5
cb
df
bd
4e
16
39
32
56
53
6b
57
c6
88
16
da
5d
56
d2
af
5f
5d
cf
53
60
cd
dd
80
c3
e1
e5
e6
61
55
43
e3
b8
4c
9c
cf
63
52
47
c3
df
41
9f
a3
d2
d5
b7
e2
89
d6
df
4a
63
4d
cf
4c
60
d5
54
d9
aa
a1
a3
de
17
58
3e
d2
57
5a
60
38
c5
5e
b3
53
60
5b
e7
56
dd
5b
b6
bf
df
48
5d
e4
d9
61
e5
42
d5
dd
c9
e
da
62
62
e0
29
d9
dd
df
5c
e3
2a
57
c9
c8
4b
13
5f
e0
e0
cb
61
db
63
5e
cf
20
57
dd
57
a8
2a
c8
4d
57
34
cc
32
2a
e6
52
56
5a
a9
9b
d3
91
26
e3
d9
4e
cb
54
de
cb
e0
ea
62
62
e6
d9
55
e0
2d
c3
5c
5b
d9
d3
db
34
65
af
3c
c9
5a
59
cd
a6
61
5b
a2
c0
de
54
cd
60
c6
80
3e
39
e6
88
d1
d5
5f
5a
4c
56
b0
c4
63
30
b6
ac
a1
d4
d9
58
db
e3
48
cb
33
dd
d4
45
db
e6
10
bd
c4
e8
5
3d
51
bc
41
6e
69
5f
61
e2
a5
df
b8
54
f
50
5d
53
5f
d3
cc
df
59
71
61
5a
52
45
5d
ab
e1
e4
1d
81
c8
e2
bc
e6
9a
e3
e4
bc
bf
57
d6
43
b8
45
d2
11
4b
c5
56
d4
5b
5a
43
5d
e2
aa
a7
4d
d0
c3
4f
bf
d2
dd
5e
4c
c8
54
4d
d2
51
4c
d3
6a
c6
d7
66
6a
c1
58
69
5c
53
5e
db
c4
5f
18
46
bb
58
4d
de
4d
3b
51
50
59
5c
d5
46
e1
15
e0
48
ca
93
42
38
58
2c
ba
56
d7
50
b7
51
b0
df
1a
5e
49
58
31
1e
d9
df
e2
a0
5c
60
53
5e
44
60
61
a1
bb
4b
22
5a
4d
19
3e
2
60
4a
c8
45
d0
e0
d2
52
4e
a4
3d
e3
2e
da
de
da
d9
df
56
52
58
5c
55
e2
dd
52
c7
de
ba
60
59
4e
c2
de
61
36
e1
49
56
c2
3e
62
46
cb
ad
1e
96
d4
c5
5f
b3
ca
dc
84
60
d5
de
48
c7
5a
3c
50
d8
53
be
27
e2
50
d9
62
5a
5b
c5
47
97
d3
c2
d4
3c
51
50
4c
e1
e4
d4
5b
e2
d6
c6
e0
42
63
0
e2
47
46
5b
4b
c5
30
5a
b
da
e2
56
53
ca
d5
56
c5
b4
53
c8
59
34
52
61
3f
a6
50
d9
df
d8
d0
0
3b
34
cb
0
dd
a0
e2
d5
da
dc
da
da
e
61
ac
e2
9a
d4
4b
3f
c8
61
46
59
59
55
45
5b
cf
d1
e0
e1
57
d9
d9
ce
89
5e
df
da
dc
54
dd
d5
d5
2c
cd
c3
d9
9f
b3
61
52
5f
d6
1f
33
de
ca
61
c1
e2
d6
ae
e0
59
5e
e3
d2
e1
b3
5f
5b
80
51
39
4c
5e
d2
0
52
58
dd
41
b8
80
33
d7
b7
2b
8f
5f
5f
c9
e3
cd
bc
d2
37
aa
b4
4c
3b
52
50
de
e3
33
e2
db
4b
da
2a
d0
23
3e
d7
47
33
88
57
d3
9e
cf
5f
ce
da
c1
5d
b7
3a
dc
0
e3
cb
61
cb
55
db
3b
45
d9
f
de
8b
44
de
62
45
60
56
b4
a
de
cb
c5
29
5c
3f
e0
43
df
d3
51
60
c6
4a
61
34
38
46
2c
e3
c3
59
36
df
2e
c6
32
42
31
e1
55
d5
e2
55
55
54
a6
d6
b9
d6
61
55
5f
48
4b
63
c8
d7
5a
56
52
a4
d3
4a
44
4e
cd
e1
de
c1
62
d0
5a
aa
bd
55
53
e3
5d
bb
ca
56
33
df
d9
52
3e
df
db
39
52
e1
d5
2f
a4
2f
c1
60
61
be
c6
4b
43
c3
e3
32
cc
4b
e0
55
d9
4e
b4
3b
e1
a3
d7
4a
e1
d3
13
c6
e2
5c
46
c8
53
d6
df
51
60
3c
c0
cf
58
e2
e2
a8
cf
cb
e1
5e
d8
47
d6
4f
c6
56
5c
5f
57
c1
dc
5c
ca
bc
5f
e2
e2
de
b4
b
3c
60
3a
17
2b
4b
54
cd
60
2a
5d
e2
51
5a
61
e0
cd
5f
b2
22
ae
ca
e2
5f
5c
d9
58
e0
60
55
51
e3
33
c1
c0
d5
e0
d4
1a
81
db
61
29
d9
d1
c3
8f
33
63
a1
60
8c
bb
b6
a0
b6
5e
61
15
b2
61
58
3d
60
60
51
be
b8
51
c9
5f
c1
d7
5f
e0
b9
5b
62
be
d9
5f
4a
a4
c5
dd
a4
5f
e1
16
c9
5b
d6
8f
54
3e
c
e1
2f
61
df
ce
ce
e2
59
55
cd
51
4c
d5
5d
56
c4
bc
bb
30
d9
d3
43
c5
da
d0
de
52
e0
d9
36
c6
d5
48
53
dd
0
4a
d2
cd
5e
e0
61
5d
be
49
d9
52
d1
b3
db
c5
80
2e
18
c6
df
3d
51
d0
d7
c7
59
dc
4c
5a
d9
42
ba
5d
de
62
e3
55
95
7
d0
da
d1
51
88
df
4a
cd
58
62
e1
4f
57
d6
5b
5a
c4
59
48
cc
d6
4e
cf
d6
4a
c2
dc
5e
cb
d6
5c
4d
e1
d6
45
45
e2
e1
d2
5f
55
58
a3
e3
44
e3
dd
ce
5f
55
9e
5e
54
54
cf
bc
45
cc
3f
4f
d0
e0
51
b9
5a
e4
c0
62
48
d0
c2
3b
5c
48
d1
5c
e1
d5
43
5e
c1
b2
e0
53
db
b2
4d
4a
df
28
4c
ba
dc
34
43
61
cc
c5
81
48
cb
5e
d6
57
60
62
cc
62
5b
0
b7
cf
e3
cb
31
c9
d0
d1
e3
dd
2c
5d
d5
cf
dd
8
e1
d9
db
da
0
5d
dc
d9
1e
cc
d9
4d
d9
cc
81
54
5e
56
ce
c5
dd
c3
3d
5e
d4
b9
58
5b
a8
3e
e1
53
47
b0
e2
c5
51
30
5c
53
81
cb
2a
25
5c
45
b2
27
4e
5e
bf
da
4f
2b
d4
47
bb
cd
d7
4a
db
61
c3
3c
c2
89
59
dd
cf
91
c1
d2
da
61
d4
4f
e0
dd
d8
d5
cd
e1
c0
4c
54
c8
e0
5f
c5
60
54
d2
4e
48
38
e4
56
24
c4
ca
d6
60
c2
da
52
4b
cf
61
be
51
e2
5e
5c
5b
d1
62
e0
5d
53
a0
61
c5
59
40
54
d3
d6
d7
55
3d
cf
53
d8
5b
35
53
5c
4c
e3
dd
d6
de
cc
db
5c
db
58
51
5d
18
e2
df
c3
49
d4
d9
50
e1
28
b7
4a
e2
c2
d1
40
c8
d8
1f
dc
e1
df
59
56
c3
5e
5f
de
4d
40
c8
d9
2b
d8
2f
4c
5b
58
c7
5b
bc
30
d4
56
60
d6
4e
e2
b2
5b
bc
5e
5f
56
d8
e0
61
81
63
d8
c6
e0
80
4f
62
d8
d5
db
d2
dd
63
2b
e2
d0
e1
55
e0
d1
e1
2f
5a
46
80
7
b0
e3
e0
96
ae
cc
63
d3
61
62
5a
b2
e0
62
5e
62
56
60
58
d6
dc
97
4f
de
4c
d9
5d
99
c0
3f
e2
4c
cf
40
d3
4e
b9
56
57
c1
29
e0
47
49
b6
b8
ca
dd
80
df
55
de
dc
db
d4
4a
35
dc
61
42
5c
4f
9c
d2
47
e1
cd
d2
5e
dd
30
c6
ac
e0
ba
dc
d8
5e
cb
d3
d8
35
b5
5e
de
9
42
c0
47
5e
51
cb
df
d8
d1
3e
3f
b7
1a
5b
bf
d9
49
b3
2f
df
36
d8
e0
ce
d6
4e
d3
d8
83
dd
4d
52
d1
38
e0
23
3c
ad
dc
97
d5
57
47
dc
e2
ca
df
59
d8
cc
bb
60
56
30
52
e2
b9
e2
da
c8
d4
c9
db
da
57
80
0
9a
e0
cf
31
e4
aa
54
30
5f
61
63
5c
b1
d2
ae
af
54
e3
80
db
50
4c
df
5a
ab
a1
d1
51
4f
4a
d3
de
42
d4
53
51
da
de
e1
50
61
e3
d0
b8
e0
da
57
4d
cc
d5
3f
d4
da
52
50
bf
e0
5e
a4
3b
3f
b1
41
5c
47
e1
4
4c
41
56
62
e1
63
55
5a
61
34
62
27
e1
34
34
61
de
de
4d
4a
c5
51
43
cd
18
db
60
47
da
60
d0
e0
d1
bf
59
31
63
89
4b
d4
ca
2f
a9
59
d6
d8
dc
dd
30
d5
50
d5
e2
22
b9
db
d9
d7
df
dc
61
d9
c9
de
5b
db
50
e2
e0
e2
a4
41
af
4b
c2
ce
dd
80
59
cc
d9
db
d4
4f
47
61
b5
62
c6
dc
a1
c7
d3
45
4e
61
2a
21
3f
80
42
ca
4e
60
60
b6
61
c4
59
5e
d1
51
5a
d1
cd
e3
5e
2f
b6
5b
47
1d
49
90
d5
46
bc
e1
5f
50
dd
46
59
55
5a
47
ca
e2
60
60
9e
d2
5a
62
b7
61
de
b6
de
ba
b7
be
59
d8
5b
61
d7
d6
21
53
db
3b
60
c9
36
d2
60
57
4c
ce
4b
64
db
30
dc
c1
c0
d1
db
52
b9
57
df
dc
80
5f
d2
61
dd
58
ce
4a
b4
63
43
4a
5e
da
80
48
52
52
d3
59
ca
b8
da
df
5a
c2
5
e1
da
59
e1
cb
e0
58
db
62
c4
33
d4
d3
5a
39
80
dd
d1
c9
52
35
db
db
d6
bf
d2
5c
db
df
e2
dc
57
2d
e2
5e
bb
48
bf
c5
d3
58
37
cc
53
63
32
54
4e
dc
be
62
30
cb
53
5b
e2
cb
cd
54
4c
c6
bd
5e
d4
5e
e2
51
de
58
54
3c
53
42
4f
4d
4e
e0
c8
4d
4e
60
a7
53
47
43
55
37
5e
da
5d
5f
52
38
d0
5c
52
40
58
e1
de
e1
50
a5
50
e2
0
d3
31
54
da
80
52
3d
4f
4d
cc
b8
30
c7
de
b4
60
df
d5
37
34
c9
cd
d2
5d
e0
5c
dd
b3
d4
54
60
9a
d9
59
4d
4c
e1
57
d8
c0
51
5a
57
43
ae
58
d2
ca
c3
97
dd
cc
e2
50
bf
48
52
3d
e2
be
5b
d2
bb
58
a4
f
5b
da
45
5c
54
cb
59
62
be
4c
dd
d0
db
5d
23
5b
5c
d6
5e
59
59
d4
56
e0
34
d9
d6
c9
50
d7
5a
89
53
c9
d6
5b
b3
d1
d1
c9
51
4b
e2
5b
d5
3a
da
da
5f
dd
83
29
3e
60
5d
50
52
95
c4
cd
37
de
28
df
54
59
5d
e1
d7
5f
ce
e2
db
cb
53
5f
47
d7
db
bd
e0
8c
60
e1
52
ce
62
da
61
cf
5c
dc
c8
e3
61
5c
80
1e
3e
df
e2
3e
5e
d0
35
46
db
61
54
e2
d0
4d
2a
46
58
5b
cf
e1
5a
be
cb
dc
e3
40
ad
5c
4a
cb
d3
5f
b6
d8
47
47
c4
e1
e3
bf
af
d7
62
5b
e1
e0
4e
63
be
26
61
d7
3c
59
d1
3c
5b
c4
4b
8
d7
e3
62
47
d0
c8
2e
49
d4
d5
60
3e
5c
d4
61
61
de
d9
41
2e
38
da
b8
b6
5d
ca
64
41
58
d2
ce
4a
4a
c5
c0
cd
8c
57
df
56
60
5a
61
e2
d2
c6
cf
81
ca
5e
2e
d4
c5
d8
de
36
60
54
e1
4a
4b
50
cc
5f
1b
2d
3f
d7
e2
4b
4c
e2
5f
4e
48
60
4e
5c
5c
49
b7
4d
21
5e
dd
d0
e1
5e
60
cd
de
2a
59
51
db
db
8c
cd
e1
d2
3d
54
a3
58
57
3a
2f
3b
b1
47
3b
af
c5
c3
e2
c8
54
55
cd
b6
51
25
ae
e0
dc
56
3e
47
41
ac
52
52
d0
5f
c4
c0
d9
4e
63
cd
5e
ce
aa
d8
60
dc
5c
43
df
56
2d
4c
b0
e3
c9
53
e1
c1
4a
c1
e0
5b
47
d0
50
5f
ae
8d
c6
d6
c1
62
10
58
51
58
4e
d8
e3
d7
38
36
4d
d9
2a
d2
d5
e0
a4
dd
39
36
5e
df
39
50
80
2e
c9
4a
c6
de
dd
cb
d1
bf
49
e1
59
e2
dc
a8
dd
3a
b6
5e
e3
4b
a3
cb
38
62
e1
4b
5c
80
4f
5d
b7
31
5a
49
5f
b6
d1
db
52
57
d9
53
5f
58
da
50
45
5d
2e
d3
38
d7
53
56
d9
55
53
5f
c9
51
24
43
d8
cb
3f
60
e1
2e
e1
d4
e1
55
aa
d1
3b
e1
20
62
58
d0
d0
de
dc
d7
dc
5e
dd
d5
e1
d6
46
2a
e1
5f
d5
81
c3
e1
5d
de
d7
dd
4e
dd
c8
48
d6
dc
3f
d6
c9
41
52
ba
df
d7
ce
a
e1
61
ba
36
57
b0
dc
61
49
df
58
5b
5f
db
50
5f
d4
d0
e3
a7
e2
d6
5d
d1
e3
cf
a8
df
b3
80
5b
54
c7
e2
a9
33
b4
9f
c7
33
47
df
d4
e0
45
d2
5f
b6
55
3f
23
28
5a
4c
5e
4b
5d
de
4d
e3
39
47
c6
e1
d6
43
d8
83
d1
e0
5f
b3
dc
e0
dc
51
c8
d6
61
cc
1f
5e
da
b7
62
e0
62
de
48
d2
d5
45
bb
d2
e2
28
5d
e2
42
d7
5b
e1
bb
5b
57
62
e0
5d
c5
91
50
51
55
3f
db
db
4b
e1
d6
d3
c1
53
d3
d8
df
2c
cf
31
d3
e0
2c
49
db
b5
90
dd
52
56
e4
cb
c6
c8
3c
d9
59
bb
c3
54
55
be
bd
99
4f
c3
33
5e
dc
15
c9
4d
60
c5
5e
51
97
c4
d6
57
e2
d3
e3
5a
62
44
3e
1b
ce
dc
35
5e
e0
cb
dd
c8
62
d4
5f
28
b7
5b
30
de
b6
36
c4
c7
58
5c
e3
d6
4a
9d
5c
cd
c0
c9
5c
d0
e0
d3
e0
4a
d6
dd
5f
5c
c4
e1
e1
51
59
37
aa
46
d5
b5
ce
52
5d
cb
56
42
bd
e0
50
5d
d6
55
17
54
5e
cc
d3
47
50
cf
d4
d2
34
53
46
60
e2
e4
b9
16
1f
c4
59
d2
59
cf
58
9d
52
36
35
a5
c8
dd
c0
5e
48
c7
63
52
59
b4
5d
5b
53
60
ce
e1
9d
5c
d0
e4
2b
4f
97
dc
5b
42
c7
33
d6
d5
e1
80
46
50
dd
cd
ca
a8
5f
60
2d
20
4f
50
4e
59
3f
4a
df
d2
c9
c6
df
42
58
ce
12
81
cc
bc
d2
a3
e0
d6
98
61
9d
80
cf
5a
15
c3
55
bc
d6
dd
1
d5
c1
bf
a7
50
54
de
c5
54
5b
df
5f
51
cc
31
da
da
37
be
c3
81
4c
dc
d9
d6
ca
14
14
e4
d5
40
58
d8
5a
59
0
e0
4e
df
44
cd
4c
e2
1a
d3
e1
5e
53
cc
5d
57
d6
3a
d3
3a
59
de
d6
df
e1
d0
da
e1
ca
d8
d0
d2
3e
53
e2
d6
4b
b4
b0
61
3f
5f
63
3d
46
51
cc
81
5a
dc
36
cd
c5
de
4e
57
4f
5a
43
d5
5a
30
cf
db
1c
5d
d9
c0
da
43
4d
ca
dc
e0
d3
c2
46
4d
4f
56
d5
53
23
48
45
c2
a8
d3
61
44
59
cf
e0
4b
c9
5a
e1
bc
60
43
e0
dc
b6
5d
35
5b
d6
4d
d9
bc
bf
de
38
32
e0
4d
5e
e0
60
19
c1
d0
e1
53
c4
59
58
a3
dd
46
55
d6
e1
db
da
57
56
ca
c0
34
4b
59
b3
1e
62
97
c6
5c
da
52
db
cc
c9
2a
4e
8d
4f
4e
e0
e3
59
60
44
c3
a8
41
ba
aa
59
e1
de
d3
e0
43
e1
5a
3e
db
26
2e
d2
d8
41
80
3d
b1
4f
cc
80
c9
63
e0
d2
c
bd
4a
d0
c7
5e
44
58
d6
bb
51
d4
bc
58
51
4e
d5
44
21
4c
45
63
dc
e3
1e
4a
5c
3c
b8
5d
58
cd
d7
be
c8
c2
e1
a4
2c
be
b7
ba
2d
bd
ab
5c
61
dc
cd
a7
d3
60
cf
d3
46
e2
2e
46
5a
e1
54
d8
62
5f
dd
d6
60
d9
dc
61
32
5f
61
d4
ca
97
81
d6
d1
58
60
e1
12
d8
54
c7
ce
5b
ad
4b
ad
58
5c
81
86
50
5b
58
4d
2c
b7
cc
5e
d6
bc
df
63
d1
d6
cb
21
da
9a
46
e3
d7
d8
e0
63
5c
d5
cc
d1
56
da
5b
5f
18
52
5d
3b
d8
e4
4f
b3
52
61
50
80
25
5f
dd
95
46
58
cf
b3
5c
5c
cb
61
5e
d8
57
d0
57
5b
4e
dd
5f
4e
db
cb
dd
b9
5c
e0
dc
bf
da
4c
dd
c6
34
60
d4
d3
be
5b
b7
e0
be
d4
32
42
df
d2
5b
5c
5e
dc
e3
59
4f
b7
5f
3c
ad
36
b7
97
1f
db
5e
43
3c
d7
e2
e2
db
80
4e
32
5a
e1
cd
df
d1
5a
a8
c7
51
5f
44
de
da
df
ce
da
a9
5c
62
e2
53
44
cf
56
5d
5b
55
de
c6
da
dc
d7
c5
d9
bb
c4
bf
47
d5
b1
df
d4
cf
cb
e1
13
da
ba
c2
e1
59
b9
59
d4
e4
b5
50
cb
20
e0
56
bf
41
52
ad
43
53
d9
2a
c4
4f
d1
d4
5c
e0
57
50
5b
42
c6
d7
39
e2
4d
d5
dd
61
5b
59
d6
db
e1
42
62
57
e4
ad
c0
5d
61
c2
ab
db
c1
dd
56
d1
53
bc
5e
df
dd
d5
e0
35
40
e5
da
5b
41
58
d3
db
5e
a1
56
e2
c0
5d
e2
34
61
e1
d0
b1
dd
4e
df
63
b8
57
61
e1
db
c5
b2
cc
53
4f
dd
b3
ad
df
c5
aa
44
5c
d5
bf
c2
56
62
44
d6
30
59
51
e1
d8
df
9e
4d
60
d3
d4
5c
80
c7
5d
cc
55
53
ce
de
32
dc
62
3c
c5
60
46
57
a4
46
44
2b
57
5e
e4
56
51
5c
45
cb
5a
a3
d2
dd
e1
de
ca
c5
60
d6
a1
56
45
80
5f
a6
4f
54
c2
60
53
60
c8
9f
da
5a
5e
a6
5f
5e
5b
c7
61
11
99
d3
57
60
60
41
de
37
54
d9
dd
4f
80
e1
e0
4c
cd
5c
c4
da
48
e2
dc
5a
d1
b6
5b
2f
46
5e
df
40
aa
9f
e0
cb
5c
c6
4d
61
d2
d9
58
e2
cd
cc
d2
5a
cc
5a
cf
44
d9
d4
30
ba
10
54
4a
dd
cf
d7
dd
e0
52
e3
4e
b3
1f
dc
e3
53
5f
db
63
dc
5d
4d
84
36
55
d8
ac
90
56
a6
53
62
57
47
52
d2
3b
4d
58
5a
4a
63
4f
bb
54
4a
ca
a8
dd
bd
5f
e3
db
5c
5a
4c
d2
e1
80
5b
d2
dd
b2
60
dd
57
c7
d6
58
d4
59
d8
5e
60
b
e2
a2
de
5a
dc
48
80
81
50
36
5e
53
42
37
cf
57
4a
60
c5
be
d3
e4
cc
ca
38
a7
4a
e2
d8
e3
3e
b9
2a
db
62
e0
52
e3
57
c6
34
be
e2
31
c2
48
62
d7
c5
1
dd
61
49
44
58
bf
5c
db
5b
af
e0
48
51
cc
5d
63
a4
d0
d5
d1
dc
d6
db
dd
a7
be
dc
5f
df
50
24
d6
d9
3e
4a
cd
d7
b9
b5
4c
2f
55
b1
38
de
48
e2
e4
e3
d9
d2
bc
de
2d
54
d3
56
d0
c2
dc
50
d4
5b
b0
54
40
d4
4c
3e
d2
58
aa
81
47
ca
4c
4b
48
11
66
5f
2e
da
c9
4f
53
b6
52
5f
ce
dd
80
2c
d6
38
49
dd
51
34
8b
98
5a
58
43
c8
c4
be
55
b4
cf
c0
df
bd
5c
d9
de
5c
41
59
61
45
5e
cb
4d
7
42
47
60
55
62
5e
9e
53
44
34
49
c1
dd
df
35
c6
c6
b3
59
5f
54
80
df
cd
4c
c9
dd
d1
d0
4b
a3
c5
57
5e
d6
de
56
1d
5e
55
3c
59
51
4e
e0
c5
62
93
16
df
db
ad
55
49
d9
5b
5c
d1
a8
a8
5a
af
e0
df
cf
59
52
b5
58
e1
d5
db
54
4e
80
4
5d
a8
52
d4
50
dc
9c
60
61
db
40
da
de
38
b2
c9
55
d1
c6
41
59
b3
d9
4d
c8
4f
da
9a
e2
54
97
8c
d9
bc
ad
db
dd
cf
41
de
68
55
5d
64
c6
c4
ab
65
4c
d8
db
c5
ce
ac
53
61
5e
c2
de
22
83
5e
c8
c7
60
5d
64
85
9e
3d
c7
48
b2
d6
1c
c4
b5
ca
61
57
bb
ca
38
d6
cf
d6
ca
4f
bb
c3
c7
56
5c
ac
32
56
46
bf
e4
e2
c4
80
d3
44
bf
e1
c9
94
d2
de
dd
81
3d
4f
47
d1
c4
d6
4d
df
e3
dc
4f
de
1d
45
ce
62
5a
67
54
54
68
6b
53
60
62
ab
d8
da
c5
4d
d8
db
56
cc
5b
e1
e6
5f
a1
5b
43
d6
dd
33
a4
dc
4c
33
e1
54
47
4f
e1
dd
e0
31
d1
dd
cc
62
ab
d0
56
3d
dc
c8
b4
5f
da
e4
d5
cd
5d
cc
4d
de
1f
4b
d8
5e
61
d1
2c
5b
5c
a4
a9
cf
df
dd
d0
d9
d9
55
52
62
5c
4f
b8
36
da
35
b1
5d
80
5e
52
4e
59
cd
4c
df
e0
3c
40
17
80
cf
55
45
c1
1d
5f
df
c9
54
d6
d8
dd
d0
31
d2
4d
db
d6
41
42
4f
30
3e
50
b6
62
c3
54
e0
d2
bb
46
49
d3
e0
da
9c
21
d7
45
57
d2
da
3c
dd
45
db
df
56
ae
80
4f
5a
61
55
c6
db
62
61
dd
5c
d8
e1
da
59
35
5e
5c
d5
35
80
4d
64
55
59
d8
4e
30
ba
4c
55
5a
5f
aa
57
ac
98
4f
52
3a
e3
4c
d3
d9
da
42
51
53
53
e3
80
e3
5e
c6
e4
52
c6
d5
d1
61
9c
d8
4f
d2
ac
be
d2
c8
e0
da
4e
e1
e1
56
41
df
e8
e1
c7
1b
de
e2
dc
9b
c4
49
dd
56
df
4c
a3
1f
da
4f
dc
3a
a5
11
58
5e
4b
67
62
d6
dc
60
d8
5d
61
50
3a
33
55
d0
2a
b7
57
55
3d
4d
ce
ce
df
4a
db
62
ab
cc
d2
58
d7
3c
14
52
a3
b5
df
3a
e2
49
c5
d6
56
de
25
9d
c6
e2
5e
43
54
cf
dd
5a
5d
57
5e
61
d9
56
c8
dd
c5
5d
df
5f
da
b9
5c
ca
50
45
64
b5
e2
38
1f
4e
65
d8
d8
db
c8
be
c8
b8
35
c5
e2
e0
de
d1
31
1c
35
e1
c3
57
36
9c
c7
c4
e0
0
d1
3b
5f
47
50
5b
5b
5d
50
d4
a4
60
e0
c6
c5
b2
bc
33
45
81
46
d3
5a
b6
5c
ce
e1
e0
58
5c
36
a9
4a
dd
57
cf
de
da
5e
e5
5a
da
c4
4a
dd
dc
df
51
dd
7
e9
53
e0
0
de
a4
bd
5f
4b
e1
54
5b
60
d2
c7
a9
e1
3b
5c
5a
df
b6
e0
b7
da
c7
62
d8
e2
35
3c
e1
dc
cd
b9
0
e6
53
c0
d8
59
59
50
2e
df
c4
5f
c8
4e
ce
80
53
e3
d9
c9
55
9a
26
5c
ce
46
4e
2a
51
2d
d2
42
e3
50
e0
da
dc
c0
de
39
df
bf
c5
5b
d7
65
2c
c7
db
bb
c8
57
25
44
b4
5d
c6
4b
5a
47
ce
c5
52
62
5e
e3
5e
c8
5c
47
cd
dc
8d
56
3c
db
3c
c8
59
d4
88
da
dc
a8
ad
d1
5a
49
c2
5a
dd
da
c0
5b
d4
a4
38
62
cb
c2
57
95
82
51
4b
e2
d5
d5
45
59
4d
b6
1f
1b
31
e0
5b
df
55
5f
e2
5a
c7
b3
d9
dd
5c
4a
db
53
e3
89
d6
e3
a4
42
35
48
61
5f
de
52
9
43
d4
4e
36
2f
45
55
d9
5e
54
47
1e
44
bf
5a
d6
e3
cc
d0
1e
d6
dc
38
3c
bd
65
34
d3
ad
34
41
52
3d
d6
3f
dd
be
dd
bb
e2
3c
db
db
e4
47
54
e5
53
34
d4
5f
54
c8
64
d0
5e
46
ce
de
4f
d2
53
81
4c
e0
2e
60
dc
bf
56
d4
d0
cf
4b
4c
d9
61
c4
b8
bd
5c
d6
56
27
60
40
e5
39
de
56
c8
36
e2
8
41
4a
c4
50
80
44
ce
d5
5c
5f
9e
c2
51
db
dc
c9
d9
c1
c6
5c
d6
58
4f
4e
29
d9
c1
49
56
62
48
b6
d9
53
62
da
42
c0
5f
42
4e
e1
5f
db
cb
e0
47
41
24
cb
63
12
b1
50
62
e1
56
51
5a
61
b6
d7
b3
60
5
47
b2
62
3e
a2
e0
de
c9
b1
da
55
41
61
64
30
dd
5e
53
c5
4b
64
cd
20
4d
63
bb
58
bb
df
de
91
c6
e3
5b
d0
df
ba
57
54
ca
27
4d
20
d7
ce
63
5d
b9
c7
e2
ac
5c
cb
4a
e0
ca
56
d1
43
c8
5d
3d
df
2b
bc
4a
d0
39
bb
50
5d
c0
d5
cf
dc
4e
cc
56
c9
bf
3f
e3
bd
c9
9e
31
53
66
c5
4b
d2
ab
4c
14
d4
53
c1
58
49
be
36
e2
90
d5
d6
a
5a
4e
5f
4c
59
b8
ba
29
b2
62
d5
3d
5f
ad
db
59
b3
4e
2f
da
80
42
53
e0
36
b9
d7
b0
bd
58
54
4f
aa
63
64
dd
d7
53
cc
36
4e
5c
94
db
dd
60
4f
57
3b
0
b8
f
52
5f
d0
d4
5d
63
40
5c
a4
57
c3
bd
db
57
5f
51
c3
4e
93
3e
61
bb
56
5a
c9
bc
3e
4b
60
80
5d
d4
63
4e
52
9a
a8
d7
e3
c1
c4
60
60
d0
47
c3
cd
ac
aa
cb
5f
cc
df
5f
b1
47
ce
dc
cb
e1
58
cd
29
63
5e
58
0
bd
5b
e1
3b
b2
4c
e1
21
4d
3b
48
59
d4
df
37
cd
da
d6
83
88
d1
e4
49
99
5c
ac
45
9f
df
de
c4
3d
4d
ce
d9
5b
dc
c9
c3
38
56
48
e0
5a
5d
42
db
c3
e6
5e
54
c5
e2
60
d7
e2
de
bf
b9
0
5c
63
da
5f
62
d1
d9
d9
d
59
dc
dc
e0
5f
4a
b4
62
40
60
36
4c
dd
64
c1
9b
3c
38
e8
d9
66
cb
64
3d
b0
61
25
de
4a
de
3a
ba
58
e6
61
df
1e
5f
dc
ad
d5
d2
cf
da
52
9b
50
cd
59
37
33
4b
35
59
e1
55
3e
62
bf
46
d8
e2
62
60
d0
e3
31
d4
c1
39
d3
61
56
10
d1
54
a6
3a
4b
e1
d2
26
35
3f
c0
d7
e0
51
4c
e4
5b
5b
c5
4b
64
c5
22
d4
d6
3d
5c
5b
3f
2e
df
d8
cb
47
3f
db
a6
df
da
61
de
df
4b
4c
58
3f
bf
51
5b
5d
21
5e
66
49
24
58
20
5b
b1
94
dd
af
0
91
26
81
da
db
5f
44
bc
d8
b7
cd
dc
58
59
d4
39
80
5e
cd
e2
35
51
15
59
61
d0
16
54
de
2f
52
40
86
c4
c6
67
ad
e3
63
d0
e0
c6
5c
4f
d4
c9
d6
36
5e
e3
ca
44
da
54
de
d4
d8
4f
4e
da
d0
5d
a0
6a
d2
cb
4f
df
63
d0
c5
66
58
53
32
d9
da
b3
d6
ea
43
dc
a3
56
d5
c9
57
4d
d3
4c
cc
2d
80
11
c1
da
0
d7
d1
db
5c
cd
db
e2
47
c2
4f
d2
df
35
e3
5f
51
52
5a
66
d0
d5
d9
bb
d5
cc
db
dd
44
db
5b
44
d1
d7
df
43
de
e0
40
ce
a4
3f
59
50
ba
24
5f
3f
de
e5
19
52
cb
c5
bb
de
54
52
49
57
e1
3a
43
46
61
5d
c7
4d
cb
cb
9e
d2
3e
de
3f
e2
26
e0
45
d1
be
d8
b5
51
47
e1
dd
60
80
d1
5c
89
e1
4a
dd
bf
da
54
30
dc
ac
63
e0
e1
34
e2
b3
45
32
c0
4a
60
45
69
d6
12
87
cf
d4
66
62
58
be
d7
4d
5f
25
5b
9c
31
be
43
20
59
40
cd
45
67
63
61
61
d9
24
d2
db
4a
ce
1a
a4
e4
d3
51
bf
5d
a3
c5
64
5a
67
e1
5a
5e
da
51
d7
c8
4a
a4
64
5d
dd
cd
ce
dc
58
60
b7
e3
5b
c5
df
c0
4b
c9
5e
25
4e
af
d2
29
5f
2c
5f
e6
c6
56
d7
dc
d3
32
43
4d
5c
50
bc
e3
c9
d0
e3
28
bd
64
60
e4
c6
e1
a1
3a
32
3f
de
dc
39
de
4c
55
4b
23
5a
4f
4f
47
49
c8
32
c6
db
51
60
ce
de
3e
5a
d3
49
de
b3
e2
53
a7
e1
2a
b7
48
a8
c2
1d
a9
cd
e1
43
55
3e
c0
9f
c5
df
41
d4
43
de
5f
4e
3c
d0
db
5b
22
27
dc
d1
35
d1
57
d1
e2
48
26
a0
b3
58
2b
dd
c6
5e
cc
b7
54
61
1e
4c
c8
46
e
e0
3e
da
5c
5b
51
c3
60
56
db
db
e4
b8
d5
5a
36
26
81
c2
de
d7
d0
54
5c
c4
d3
56
e4
da
44
db
58
dc
4c
58
d5
5d
e1
47
60
3b
d1
60
4f
d6
df
57
da
a6
45
ce
e2
3a
c9
51
c3
cf
a1
cd
c1
e7
51
11
be
69
43
b5
da
af
d3
1a
b8
d0
d5
54
dc
cb
49
5e
d8
58
55
c8
62
b2
57
9a
c1
b1
e1
d8
4a
2a
46
64
95
df
60
c6
d2
50
ce
ea
e1
56
2
e6
55
2b
48
3c
51
da
b4
4c
80
c5
d5
cd
be
44
bf
3c
42
ba
ba
27
b1
31
ca
60
60
d5
89
db
49
dd
56
df
55
23
d9
a1
d1
d6
de
d0
2f
e3
3f
d2
38
50
e0
db
de
ce
5c
69
4a
54
c3
d8
34
d6
de
41
2f
c5
cd
63
d0
63
de
d8
bb
cb
e6
ae
c4
56
49
cf
cb
68
57
c6
4a
68
d8
4f
b8
e3
d5
5c
d7
db
c2
56
41
62
c6
cb
c9
e2
52
5a
dc
9d
36
45
5d
50
c0
de
55
dc
2d
de
e2
e1
ca
dc
e2
5d
c5
d4
c1
e3
b2
49
da
3a
5c
8f
5e
66
e0
e2
d3
32
5e
2d
ce
63
d7
46
6
d4
1e
da
d4
10
d3
cb
d9
d5
b3
35
5b
d4
c4
4b
d9
5b
42
b7
e3
5f
d7
2d
58
cc
e2
d9
9a
d7
db
60
5c
55
cd
50
ba
49
42
cf
dc
c3
3f
d8
d6
c9
d5
d7
59
5f
d3
d
d4
de
5b
35
db
e2
d5
59
dc
e3
d5
5c
62
56
be
da
df
5d
5e
b7
d8
cb
5c
e
d8
5b
cb
50
cb
5c
61
c5
49
50
39
c8
48
52
45
d3
3d
61
5d
ce
50
d2
5e
5e
48
cc
d5
5e
d8
81
55
c9
de
57
5f
5e
be
e1
57
5e
4d
58
97
2c
e2
5e
52
4c
1b
d7
55
d9
b4
63
60
36
20
5d
27
b9
d4
5a
a7
c5
57
4f
5e
5c
59
e2
3b
41
a7
43
49
57
a3
80
e1
e5
60
59
d8
d7
c0
ca
e3
4a
de
c3
d7
28
b0
45
d8
b8
30
62
d6
d3
37
de
49
e3
60
c5
e1
32
d9
e1
57
cf
4a
53
de
c4
ad
5b
52
d4
60
d8
52
d3
c2
61
31
d6
56
4b
44
5b
d6
60
e3
dc
c0
5c
25
dc
60
cc
d5
dd
60
af
2a
4c
d5
c4
d6
da
df
cc
a
df
ca
e0
c3
bc
50
4e
d0
bf
91
51
db
c6
5c
dc
2c
db
4e
e3
33
40
67
51
35
58
56
dd
d8
63
cf
e3
e0
e1
5a
d1
b9
df
ba
62
dd
c9
e3
ce
ae
c0
de
e1
5b
bc
5a
62
4f
36
5e
54
db
ca
68
2c
55
51
58
d3
59
59
f1
4f
4f
c9
44
ca
5a
c9
b0
c7
41
4e
d1
d9
d1
df
da
da
dc
c0
64
b3
5d
c8
51
3f
b7
56
44
62
5f
be
1e
50
41
e3
9e
e1
4e
63
80
64
53
61
0
c5
53
48
53
d0
de
40
d0
e1
17
c7
ce
32
4f
17
cd
c2
b4
e7
31
b8
35
5d
32
ba
ca
a9
e4
cb
5c
52
c2
a0
50
6d
50
d6
31
58
d9
b7
ce
4f
56
b2
d3
49
5b
42
e2
df
ce
5a
16
47
40
57
5d
db
c9
4b
d3
44
2b
df
5e
46
d5
3f
4a
4d
d5
ca
58
4f
49
ab
5d
d0
cb
b2
e2
4a
47
d8
ce
c5
46
61
d6
c1
80
4d
80
6b
c0
c6
47
dc
b8
d3
db
e7
5d
de
d4
3e
e7
c1
ce
49
4e
e0
32
df
54
e0
ca
67
4b
e5
69
9f
57
da
d7
50
b9
32
65
e1
cd
a3
20
63
5f
d8
57
4b
e6
ab
e0
5e
bc
36
cb
5e
49
58
5e
c8
dd
ad
6e
60
ce
59
4b
37
5a
e3
47
db
5a
38
e7
5a
4e
e7
de
dd
e2
66
65
2f
95
c6
cb
6c
60
e9
5e
52
4d
b9
cf
5f
b6
5e
c3
56
49
5a
5e
c1
5b
62
51
5d
57
d7
8
d7
3e
d5
59
4c
c
5b
5d
9e
48
4c
48
5a
e5
ae
2e
2f
b0
15
e6
cc
c6
ca
2f
6e
60
cd
67
68
c7
64
c2
c5
ce
58
5c
31
dc
b9
68
46
53
e6
da
61
54
5d
d0
55
9f
d6
4a
45
d2
50
12
56
57
53
d4
80
48
e1
58
c8
dc
bd
35
5b
43
e4
3e
47
51
e0
53
51
5c
5f
a
b4
db
da
da
54
68
55
cf
cc
a4
db
bf
58
46
44
57
42
ca
59
de
c9
d9
51
58
51
c0
e2
db
d1
b8
5d
45
1e
ab
d1
5a
4c
42
44
dd
47
cf
d7
cd
5c
d2
e0
af
61
dc
df
d9
62
63
5d
b6
46
57
64
53
d5
60
43
37
b0
68
eb
6a
e4
dc
61
c7
e4
ba
dd
e9
5f
d8
b7
e3
38
42
25
9c
59
ac
61
d9
ba
58
3c
4d
cd
5c
41
93
e8
2f
c7
51
61
b9
cb
5d
3b
b5
d4
58
c7
d9
52
e0
d8
e1
46
b7
1f
ce
de
5d
45
42
48
d7
b6
40
e4
e0
55
d2
3b
9f
5e
39
c8
54
dc
3e
58
9
e1
e0
dd
d1
d1
8b
d9
22
62
e4
59
63
b2
60
66
c2
cb
c2
4b
5a
43
65
5e
57
d5
a1
d9
bf
a5
e4
d7
5f
65
ce
c5
45
bd
5c
3d
58
bc
57
62
93
df
b7
df
5d
6b
5a
46
5d
b5
28
c1
f
5c
46
5c
3f
dd
80
d0
d9
4a
c6
2b
de
d0
59
55
bf
58
ae
cd
e0
bf
59
df
c4
5f
5d
4e
c1
60
55
54
b1
b0
4b
df
60
c9
db
3d
d0
a7
43
cc
60
55
81
c8
5b
4e
dc
32
41
c7
54
56
4e
e7
e3
e1
80
c7
dc
59
26
3f
c8
4a
d3
31
d0
e7
c7
64
53
80
46
4c
57
61
cd
a9
d8
e1
cd
54
3b
d9
c6
b9
59
5b
e3
d5
5f
3b
2e
d7
a4
4b
6a
47
db
43
57
a1
64
d7
db
e1
c4
55
cc
db
cd
df
59
e6
61
52
5b
39
5b
61
d1
d9
2a
57
d9
d9
d1
62
5c
df
b3
62
41
4d
ab
64
4f
e5
81
d4
98
62
bb
cf
b6
5c
cf
19
e8
d5
5f
5c
33
3b
ae
61
48
dd
c9
d3
b0
e9
b1
be
3d
e0
e1
4a
5c
2f
dd
65
5e
64
db
5b
14
54
80
46
6f
5b
e7
6b
81
cc
c1
c0
5b
db
5b
62
9d
da
45
61
60
61
5f
61
55
d8
dd
51
1f
66
19
4a
4b
bf
5f
0
dc
e2
81
61
5c
80
d4
ad
3a
60
a4
d3
54
5d
df
e4
bc
55
54
18
ee
e4
3c
e4
e3
e7
bf
44
d5
62
e4
5e
d0
1c
5a
5d
38
cf
58
bf
5b
da
4c
66
34
5a
62
60
cd
d3
44
c2
d1
44
e2
54
db
c2
dc
d9
63
44
58
d9
be
55
5f
85
ca
cc
dd
54
da
68
a1
dd
54
55
b5
62
c9
dc
df
ea
e5
56
e0
52
5c
5c
db
bc
cb
48
c5
e3
d0
40
41
4b
64
d9
cb
5e
2d
e8
62
30
cc
47
4c
4f
94
a7
48
2f
69
9a
65
43
c4
0
c8
ec
c9
db
e3
cf
5b
df
d5
5b
2c
60
57
b7
d8
b6
d9
c9
b4
29
c9
b6
df
b8
dd
df
de
62
40
61
e0
57
53
d5
da
4d
5a
4e
63
d1
53
5d
b9
c3
d1
63
9d
5d
cb
ab
d0
4d
d5
e3
e1
ad
4e
55
58
55
da
e1
c1
57
5d
ba
d8
87
3f
d6
48
c0
37
b4
3e
cb
a6
d5
5e
d0
5d
52
ba
b6
d1
d5
d3
da
64
80
5b
5f
51
4d
e1
56
5
ce
ca
5a
cf
db
2d
d4
59
5d
59
da
e6
df
db
ce
1b
c6
49
47
62
59
e5
1e
50
50
6a
39
4f
53
cb
b5
5b
df
e6
46
e2
57
81
e7
2e
bf
3f
c2
59
d8
20
5c
aa
d3
32
d1
65
3f
b8
4f
1e
af
17
e0
53
38
da
55
62
56
ce
de
37
c2
d6
4c
c3
5d
e4
55
ce
d7
46
c7
5f
69
63
d6
53
d9
6c
68
d3
e1
df
61
df
bb
5d
cb
d9
c3
63
43
e0
63
64
e3
92
44
f0
5c
c4
ae
a8
dc
46
49
53
5b
55
28
e9
63
db
e6
aa
5d
dc
c5
e4
a3
d7
3f
4b
e9
5e
54
ca
d9
4a
e3
5c
99
57
5c
69
e3
c4
5a
2b
55
57
e1
dc
ca
56
47
df
b7
af
d2
df
db
4a
bd
5a
47
5b
c1
bc
e1
e1
c0
4e
38
40
5d
5d
52
65
d0
dd
30
c1
db
37
5c
cc
da
42
d9
b6
c9
27
d7
d7
dd
35
e3
5f
38
5d
c5
e2
d3
be
e6
c4
55
d0
e0
59
8e
d8
47
f
55
b5
4d
d6
55
60
5a
3e
68
59
55
57
dd
52
cc
56
52
50
5f
d7
cd
d6
55
62
c4
d8
c0
ce
80
62
42
5a
da
e0
3c
62
d3
58
2a
5c
ca
3d
c7
de
df
e3
bb
5b
dc
cd
ba
cc
4b
4f
d7
4d
61
db
9d
d2
d9
d6
9f
e0
61
df
81
4d
d1
c9
b8
51
52
df
ca
59
de
5c
37
c4
d4
b6
a7
4c
5b
d7
e2
5e
a6
df
99
cd
a3
e2
df
e0
4e
59
a3
5c
0
9b
d8
4a
41
e3
8a
5f
d6
c9
d3
5b
4c
62
60
b5
ca
aa
55
57
c3
5c
4c
bc
49
cd
d6
43
e0
57
dc
bf
5a
1c
80
3d
dc
e1
d9
c5
5b
e1
bf
62
d0
de
c0
5d
d1
55
d8
5e
5e
c3
e3
a9
d6
c2
56
d4
e3
5a
3d
96
dd
80
e0
d3
ce
dc
dc
e0
4f
4d
27
d0
5f
51
a4
3f
d4
36
4d
b3
b8
47
59
5f
e1
d1
61
e2
4d
5d
d4
4d
5c
56
50
d8
d9
bd
57
c7
52
5a
d9
41
da
52
93
57
c9
19
c3
d0
60
d0
41
34
ab
94
db
20
5a
5f
ab
b7
60
57
cd
e0
28
da
54
81
dd
3a
aa
52
d0
95
da
49
81
62
de
57
de
5b
56
81
5a
5f
c1
a0
bc
dc
59
53
d6
df
59
cb
d5
8
4b
5e
5e
5d
df
4f
c2
5f
5d
37
5c
e0
cd
4a
cd
d3
de
51
49
da
3f
1d
b4
e0
bc
59
4f
b3
5e
cd
9b
62
5f
d1
cd
bf
bc
e1
df
e2
c2
57
31
df
52
61
e0
c4
61
e3
de
4d
53
48
dd
d8
bc
d6
21
2d
5c
8c
c7
cb
55
a6
9a
56
5c
e0
2c
80
bb
50
b1
53
ab
52
34
59
58
49
be
d5
3a
87
5e
cd
e2
5d
db
4b
df
c8
d7
36
c2
db
d5
dc
d6
5c
ce
50
5f
de
bd
45
12
5f
58
5f
c6
d5
60
4e
c9
5c
6
5b
2b
d8
5c
be
b6
54
c0
31
d4
49
c7
5d
df
43
b0
40
c9
e2
57
dd
4f
32
40
e1
58
22
d0
42
d6
62
d8
d4
5a
51
d9
89
cc
4e
a0
3e
51
4f
5e
4e
ce
da
dd
e2
d4
41
61
33
a8
de
dd
62
de
b9
d6
d0
ca
d7
4f
c1
54
d1
e3
60
4a
60
1e
d3
e2
ce
cb
c6
47
5f
d8
cf
58
de
33
33
d4
cf
5f
59
c7
d1
57
a0
4f
b7
e0
db
e0
d1
5f
db
cc
41
c6
dc
55
e0
bb
d
da
e0
57
51
dd
af
58
d7
61
63
c4
25
5b
cc
c7
d8
cd
5e
5d
5a
df
50
e2
bd
d8
35
d5
e2
cc
e0
e2
3a
db
da
4d
55
d2
c8
c1
da
5b
80
e2
dc
d9
61
9a
d8
60
41
51
dd
dd
51
44
5e
d9
26
61
49
4d
95
d4
b3
c1
db
d0
c2
57
b2
48
cd
52
5e
53
5a
5e
d5
5d
54
b6
5a
5b
58
32
d0
d1
d6
e3
48
5c
61
8e
4e
17
9a
4e
d7
39
81
e1
2d
3c
c4
5f
81
60
60
62
25
e0
54
81
5c
52
2b
34
62
4b
de
8d
cb
db
2f
61
62
dd
9
42
c8
dd
db
52
3b
5e
df
86
cc
d0
37
d3
3e
44
e2
3c
56
d7
51
d9
c2
e3
59
b0
5a
df
c0
81
33
c9
2f
52
c8
d6
e2
5e
e0
2f
b6
45
c8
34
ae
ce
bf
5a
80
c8
cc
d6
df
e1
c5
b6
8c
b1
e0
c3
dd
e3
da
36
e1
48
db
5e
21
5f
a3
df
b2
3e
9f
d0
5c
df
c6
52
38
97
3b
3b
e2
45
dc
1b
5e
59
2a
e1
5a
b7
52
dd
53
47
5e
81
44
b2
e0
3f
23
c6
60
58
4d
d4
57
a0
1c
3b
62
52
d8
80
59
d4
43
59
c6
b3
d2
42
a9
5a
46
60
55
b2
4b
12
dc
54
dd
e2
5f
5c
d6
80
c2
19
e1
c0
d8
d1
62
ce
50
51
ba
c7
e0
db
9c
49
50
99
d9
d8
35
3b
58
e2
c8
7
3a
cb
d5
39
56
d6
5f
ca
34
bd
4b
ca
4e
de
80
d7
cf
3a
55
47
b6
4f
df
d0
55
3b
cf
5c
d9
e2
be
dd
49
c2
27
d7
cf
54
5e
53
56
af
bc
d9
b8
57
5a
80
d1
45
e3
80
dc
e2
c6
e1
5d
cc
d8
57
d3
df
d5
dc
29
c2
3b
81
59
5b
ba
53
4a
d3
58
e0
4d
5f
c0
62
db
35
40
d7
57
d3
db
e0
dc
c6
80
43
29
55
3c
56
5f
62
b8
5d
5c
5a
5c
bc
e2
5b
c3
f
c5
c0
df
3f
e3
80
d8
5b
e3
50
3d
e2
c7
a9
dd
52
87
4b
5a
e2
2b
d1
60
5c
4c
58
2d
5c
d0
d2
da
d8
df
dd
a6
4a
62
e0
d6
cc
ba
e2
d5
b6
a6
e1
80
60
ba
d7
b7
52
56
ca
ad
57
d1
e1
cf
d1
46
45
5d
e0
97
c0
33
60
da
c7
61
e0
dd
3c
db
c8
df
e2
be
ba
dd
59
da
63
bc
b4
d4
e1
51
62
61
36
5b
4a
d4
5f
e2
c4
47
e
45
dd
4a
45
45
d4
4f
58
e2
d0
2a
55
bb
e2
3b
3c
5e
11
57
3f
3f
58
d5
d6
61
4a
4c
d5
43
c7
3f
33
55
4f
d4
e2
b0
5c
df
df
a1
e2
41
5f
db
c5
62
e1
45
4b
d9
30
d6
e3
2f
45
c2
d1
c1
a5
dc
5d
5f
45
d0
bd
db
ce
3b
c0
51
d5
3f
51
61
5c
4b
dd
0
e1
db
e3
51
d9
3b
3f
e3
db
59
42
40
d1
d9
c1
5d
dc
56
cd
50
df
d9
36
24
d4
56
53
63
cf
e2
10
d1
9d
e0
c5
cf
40
5b
52
db
3a
26
53
c8
db
e1
54
cf
db
56
42
5c
e2
61
e1
cc
39
f
3a
d1
1d
e1
d8
2f
56
3d
15
c7
54
ca
e0
df
54
4b
de
33
e3
d6
28
dd
62
d9
47
80
32
d6
bd
33
60
af
5c
d1
cb
cc
e3
53
c2
3e
4a
60
db
43
60
da
51
c5
d2
4a
d7
49
80
44
cd
43
a7
56
5e
5d
dc
5b
5a
d4
1c
df
e3
4e
56
e0
d7
50
33
c0
df
df
dc
a7
59
60
c2
ca
5b
db
d4
57
d2
39
c5
5b
e1
28
2f
de
e2
5d
e2
b1
cf
1c
e2
da
44
b7
60
47
dd
ce
5a
bd
3b
5a
dd
d7
5c
d4
60
c7
3b
f
d9
d0
d7
86
5e
de
e2
d3
4e
dc
53
56
de
d7
45
90
9d
a1
e1
42
cd
4a
56
b3
e2
b3
d9
52
dd
a5
58
d1
d4
50
b9
ab
45
53
ce
5e
34
1d
55
a4
df
d0
d6
c1
df
3b
d0
da
3f
57
e0
5f
de
3c
4b
e1
91
54
e2
d4
de
4c
30
de
dc
4c
cf
1a
4c
80
e2
cb
5f
63
50
dd
2d
57
de
be
ca
dc
81
2e
be
d1
a1
2b
4a
cc
e0
c4
d8
48
4e
e3
cf
5b
4e
57
4e
5c
4a
37
55
54
c5
1a
30
5b
62
b7
d2
bd
b5
b4
e2
59
d6
61
de
45
3f
a
5a
35
d5
8c
21
d5
1c
cc
39
db
41
5b
d3
41
52
d5
e0
54
47
da
5b
51
80
5f
46
bb
c4
db
dc
d8
50
4d
50
62
62
bc
23
55
27
d7
44
58
55
df
54
c6
e2
57
63
d5
5b
56
ca
5c
5e
36
5e
53
56
3b
54
4a
42
d5
da
a0
5a
dc
ce
53
b7
4a
df
e2
c8
e0
d1
56
e0
e3
d4
c9
57
d3
e3
dc
c8
3d
2d
4c
c8
ba
45
4f
de
57
41
5d
46
df
5f
42
58
5d
b2
db
4d
16
4f
d6
52
59
4f
4d
b3
57
ca
d3
d3
b3
dd
47
d8
4f
dc
54
bc
c7
cf
d1
dd
44
df
c0
38
2f
36
d9
de
d8
c6
3d
c2
82
5d
5a
df
ba
37
e0
df
5e
26
34
54
4b
d8
e2
d2
2a
56
aa
53
58
d8
db
4d
d8
46
31
62
5a
50
db
60
29
ae
3c
3a
58
d9
e1
62
24
5e
5a
db
11
37
dd
5c
d6
d7
5d
be
5f
5b
4d
dd
34
a7
e2
8e
b2
61
d7
d1
57
62
54
38
61
e2
bd
61
dd
ce
b3
cb
d9
4e
25
d4
5d
c5
d5
61
b4
62
db
c5
60
4a
cd
39
3f
e1
be
cc
55
cd
de
43
b3
b2
e1
45
59
d2
60
44
52
c4
3e
b5
58
a7
dc
5d
ba
e1
55
db
dd
af
52
e0
60
dd
55
dc
dc
d6
5d
48
c7
4c
df
e0
9c
5f
bc
59
29
5b
db
b9
57
e
59
3f
50
60
39
5c
61
2e
db
5e
c8
df
cb
c6
55
12
4f
52
57
c8
4f
d1
60
62
a1
48
da
cc
c2
9d
93
93
61
e3
60
5f
26
c3
d4
e1
e0
cd
d9
57
4f
d6
ca
39
ca
e1
c4
c6
46
22
28
d2
e0
aa
d9
61
d2
1b
3c
5b
c9
c9
6
c9
d0
d3
40
cc
c7
be
de
d2
92
bb
cf
5c
53
3f
df
5e
c8
63
c9
52
d8
5c
5c
60
5a
c3
54
d5
d2
90
5e
5d
d7
5e
de
30
2a
cd
bb
54
62
d8
5b
61
9a
d7
d9
38
ce
d4
3b
62
cf
5d
d6
cc
14
c5
36
db
d3
de
5e
5a
d9
d8
bf
5f
5c
c6
92
52
e0
b4
e0
4a
c3
46
dc
4
93
be
cd
36
d3
c1
d6
d8
61
d8
58
30
e1
e0
c8
dd
5d
62
48
c9
b3
56
dd
e3
e2
5a
61
18
58
52
42
d9
55
e1
c6
a6
de
aa
29
37
3b
d7
b6
5e
db
de
dd
61
4e
4f
c7
de
bc
d0
c3
34
50
db
e0
61
da
e2
5c
4f
3e
d5
db
d5
11
9d
4b
56
e1
51
ba
0
a1
d9
ce
c8
c9
5f
c5
d7
ca
26
5a
b9
54
df
d2
4d
8e
57
af
cc
b9
d7
d3
d3
cf
36
5b
d0
db
36
e1
d0
47
c0
cc
1b
5c
62
80
5c
a7
de
3c
e1
38
e1
d1
5c
5d
ab
dd
dd
df
df
5f
c9
60
4d
cc
53
c8
4c
55
53
5f
4f
ba
55
cf
59
ce
80
51
49
df
4a
c2
83
d7
e3
d5
a5
e2
d1
27
d9
dd
e3
cf
61
5d
da
51
22
4c
56
59
df
5f
2e
ca
e2
de
e0
d9
e2
ac
bf
c4
c5
d8
b7
94
43
5c
cc
d9
d4
93
ac
4e
d2
5f
37
43
d5
5d
b3
db
56
dd
5a
41
2b
d
cc
5d
db
c4
5b
56
c8
4b
4c
d7
48
42
5f
bc
cc
dd
d2
d6
c3
e1
c9
4f
c6
0
df
51
81
e2
47
c0
61
cf
e0
47
5f
d3
c7
cf
a8
61
31
52
3d
54
d4
d8
e3
cd
3d
ce
60
80
da
55
57
e0
57
4a
9f
43
c8
5d
bc
57
14
d5
5f
4f
56
5b
4f
db
c1
57
63
54
52
5c
5d
d4
62
df
57
5e
53
df
d7
d4
e3
c1
a6
59
3f
b
5a
49
ae
49
c8
4a
92
dc
ab
af
0
df
4d
5b
be
da
de
5a
d0
3c
40
46
d7
d0
3f
b
d3
59
e2
e2
cd
dd
ad
c6
9d
59
5e
ca
de
52
60
51
de
52
5e
a9
d9
c6
4f
ac
dd
e1
e0
47
56
ce
e0
5d
4f
62
c2
44
41
e4
91
5b
ca
57
b9
40
d2
5d
db
45
ca
c1
df
54
63
c2
d2
c5
5b
ae
c6
61
92
e2
d5
83
d8
a6
16
3e
d8
5e
44
d5
d8
cf
3f
c
55
d5
52
d3
5c
de
36
50
ca
e2
34
4d
bf
15
d1
59
5a
9b
a7
60
4f
4b
62
62
c4
50
5d
aa
3d
bc
55
58
57
d0
60
56
42
2d
e1
53
48
d7
dc
d9
e2
54
ce
4c
21
c7
c5
5f
a5
58
5d
62
c5
dc
60
dc
63
dc
5f
5f
d4
56
59
44
da
e3
e2
5c
c5
dc
10
da
5d
b6
e0
2e
80
e3
b5
c7
5d
b8
b6
60
d1
43
ce
59
3d
c5
59
c6
5d
35
87
2d
59
4e
cd
d5
5d
55
de
3e
dd
19
bd
d4
cb
b4
56
dd
e2
dd
d2
c9
5c
dc
1c
38
46
50
56
3a
f
d3
d5
5b
51
44
61
dc
55
bf
2f
5e
5e
2f
8f
0
a0
5b
4f
d2
d0
cb
5b
46
1b
57
5c
b3
d2
3b
41
a2
b7
c7
c1
55
3e
da
20
9c
4f
c8
c0
4f
57
55
59
5c
4f
64
f
26
d3
5a
dc
ab
24
3a
8d
52
c8
58
42
54
e2
5b
5f
da
cc
db
2a
32
61
da
9e
5d
dc
db
51
e3
c8
ca
bb
60
d3
d7
5c
56
5d
35
57
31
5b
dc
c1
60
5d
d7
61
bd
ce
60
e5
df
b0
de
c4
c4
b1
a6
60
67
5c
1b
59
d4
56
52
5d
59
56
51
d9
bc
c1
e0
d3
2c
54
3e
df
de
60
cc
5e
e1
49
50
54
43
d5
cf
d4
de
44
4f
59
c7
8f
5b
5b
4e
50
d6
28
5b
41
dd
3f
da
50
2e
1f
5f
b4
e1
3c
c7
dd
5
5e
d7
f
56
61
5a
35
be
67
65
ca
54
93
e1
2c
64
4e
5b
5e
46
aa
80
23
ce
d5
5d
5c
30
5a
cf
c9
49
46
4a
53
cd
3a
65
9d
e6
4f
d6
61
61
59
dd
ca
36
b9
c5
e4
50
2f
c8
52
4e
dc
37
c8
43
58
cf
97
d5
de
43
5f
5b
d1
39
d0
d7
d9
4d
34
58
9b
c4
d5
63
61
45
c1
b7
49
61
37
91
57
49
48
4a
dd
63
4f
bd
57
5a
cd
3d
61
80
d5
28
4f
d1
d9
55
de
5c
be
d1
58
4a
54
2b
b9
bf
1c
da
c0
1e
d8
b6
59
d2
de
af
3a
54
ba
53
2c
53
c4
56
c2
3e
58
de
dc
d7
61
35
a5
33
bb
c8
e1
59
49
4b
42
a6
e4
58
32
d3
bc
3a
da
e1
5c
5f
da
ce
d1
c6
2c
df
52
5b
30
5e
5a
d7
52
5a
66
3b
46
d2
5e
d7
3e
29
e0
dd
cf
1d
52
e6
d4
59
c0
df
a3
d8
55
d0
49
e3
5f
5c
50
5d
55
62
c7
2b
d4
4b
e2
e4
ca
93
20
e
e0
d7
35
b8
c6
57
d9
60
5d
ba
d6
3c
80
66
47
57
c0
57
bf
b9
c9
ce
da
cc
5d
5e
35
4e
4b
64
22
c2
c4
d6
51
15
55
5e
50
dd
5d
cd
d8
bf
3f
d5
d8
d8
d8
64
d5
db
5e
d5
2d
51
3e
da
59
59
52
c2
cf
cb
55
64
2f
65
dc
db
bf
db
4f
58
5c
e0
dc
40
51
d0
ce
e6
e2
c
e6
4f
5f
d9
36
5d
5b
4d
55
db
cb
da
14
bd
cd
5a
3c
b0
e3
18
c0
e2
3d
48
48
d4
58
e1
8e
15
4b
49
e7
b8
d1
55
46
c7
a8
47
dd
62
3e
e3
5c
86
d9
c6
b8
47
32
49
c9
5e
58
39
3e
57
d9
58
44
b5
64
3c
e1
d8
8c
c1
63
a2
c0
b6
d3
24
5d
de
a3
d6
51
31
e9
5f
41
4e
b
12
57
58
57
46
80
4a
45
c8
d8
d1
df
41
50
47
52
51
4d
65
9d
ce
50
db
59
63
94
5c
e4
56
b0
e0
52
dd
42
5a
ba
19
61
1b
62
4e
d6
c4
c6
80
60
c
48
d8
16
4e
3e
d9
db
cd
b1
c2
2d
3f
df
dd
59
5f
e3
9c
49
ca
ca
e2
53
dd
c0
d8
ce
d5
d0
4b
de
60
49
4b
da
51
dc
46
98
b
c7
dd
df
31
19
5d
48
d3
4a
c4
e2
cc
a8
58
bc
e1
eb
da
52
64
cd
5f
d8
5c
c5
d7
40
de
d4
55
cb
ae
33
60
d3
64
dc
59
ca
d4
de
4c
b8
c4
ce
da
55
be
e3
5e
4b
52
cd
ca
c5
64
3f
42
4d
31
c3
44
de
cf
80
ac
93
df
da
e1
e0
54
d7
be
58
da
61
4e
c5
66
d1
3b
6b
d3
60
e4
5d
db
d9
d8
cb
dd
de
d8
cb
8c
58
d3
ad
5e
c9
40
4d
4e
5d
4e
18
c2
50
61
95
e5
47
62
45
30
e0
3d
5f
35
52
e2
da
df
55
9f
b7
28
4c
60
c2
da
d2
db
5d
de
d6
5d
4c
52
42
58
a7
bb
42
31
c9
57
20
4e
e2
e3
e2
61
d0
92
c3
ac
50
db
60
0
52
60
cd
d4
df
dd
52
de
d8
dc
e3
d0
b6
dc
1c
1a
42
b7
5d
48
35
5d
ce
dc
5f
a7
52
1a
be
c3
56
d7
53
d1
c2
b2
55
5d
df
46
5e
5e
46
4d
a1
5a
32
61
d3
d8
b8
d9
bc
bf
e3
4a
d3
3f
62
5c
55
80
54
ba
5b
c6
d2
5c
2a
c0
d3
51
59
b3
d7
cf
5a
4c
3f
be
e0
dc
e3
db
c7
9
c5
c1
d6
d5
c5
ca
d2
63
d6
e0
80
e1
ba
45
c1
b7
d7
d6
db
a5
d9
5c
d6
64
57
4d
dc
53
d0
49
a4
bb
4b
c8
dc
b0
57
1f
e0
d2
96
c7
bf
55
5a
3
d1
d5
cf
d4
df
d1
5c
ce
62
d8
39
db
43
d7
d1
34
53
d1
62
df
e1
5b
92
e0
53
c7
db
5a
de
c6
5f
ca
c7
5e
54
5e
33
4f
41
aa
d7
d9
bb
e2
be
dc
da
61
41
d7
5a
2f
d1
bd
bd
ac
d1
5f
5c
5f
5d
e4
e3
26
c5
5c
e0
a3
d6
d0
56
d9
e0
ae
e1
df
2f
da
9c
ac
5f
5d
e2
4e
3d
c9
c9
5c
5f
cc
8
4e
db
c9
e0
bc
21
d1
56
cb
d3
c5
e1
2c
27
5f
d9
b3
60
da
cc
65
be
3c
c6
5a
4b
58
61
e1
ce
5e
54
48
54
b9
50
dc
c6
cb
50
42
d5
c6
60
1c
4c
bc
d9
5f
3f
c8
d6
50
d3
8f
e7
5c
c5
5d
d2
db
5a
57
5e
d6
47
d7
de
54
dd
4b
38
c5
34
d0
dd
be
df
d9
dc
56
5a
dd
55
e0
d9
5a
ce
d1
bc
5f
0
51
c9
de
4f
d4
5b
a3
24
e5
2d
bf
d5
de
d9
40
61
5c
d6
67
cd
56
55
ba
2c
5c
63
57
d7
65
37
b0
40
0
c4
33
43
2e
50
d5
b6
6f
da
d8
6e
5a
5f
80
