42
3e
da
0
33
c6
c6
c0
b9
19
c1
1e
c7
be
cb
a3
c6
2e
4f
46
cf
81
51
c1
ad
38
b7
3e
a0
b4
0
80
cd
b4
45
af
e3
cc
27
e0
cf
d3
d5
d4
d0
c1
41
49
11
c3
55
ae
d3
4a
f
2d
bf
4b
b1
b8
42
31
c6
ad
4d
25
a5
44
bd
49
c1
3d
49
be
37
d1
b0
5c
b9
51
2e
af
a0
84
b4
44
c6
b5
36
b4
38
b4
41
4c
c7
c5
bc
42
d8
43
c8
91
c7
c0
2
a4
87
a3
41
81
52
57
81
6b
5a
0
50
b7
9a
4d
37
ba
80
b0
3c
47
b0
cb
d9
d0
cd
c3
cc
d0
b5
ba
b1
42
96
54
47
53
53
bb
b9
25
24
c1
c
2e
bf
3a
80
d1
81
cc
c7
cc
cc
1c
d4
c6
af
1b
9f
42
38
d2
53
33
c5
91
d6
c2
34
c5
d8
4a
b9
ca
3b
23
37
3
bc
37
81
3f
c0
d5
48
25
d8
9d
2d
d4
bf
3d
ce
d9
b1
d9
d4
43
dd
ce
34
3f
42
1a
5b
5d
ca
4a
58
d0
44
c6
c5
3a
20
3f
36
8b
25
81
94
37
c3
86
4c
bc
4e
4d
44
4d
45
b7
7
4a
3b
33
42
3d
c4
cb
1d
3d
b3
34
c6
17
cf
a8
25
96
b4
48
3b
0
9a
63
dd
36
5f
e3
44
3d
c9
39
4b
28
a6
2c
ae
4a
9e
9e
ab
34
43
31
21
58
c7
54
55
cb
a4
80
c1
2e
b7
bd
41
24
b1
cd
af
be
c7
f
b4
2c
c7
29
42
bd
c
1e
23
b3
48
c2
40
a1
47
50
42
bc
a3
bf
b7
13
a6
39
47
98
ab
c6
33
b9
9f
5b
63
d1
81
69
40
38
4c
ac
4d
18
50
38
37
37
80
30
aa
31
96
c3
be
93
32
28
44
43
4d
46
41
28
3d
5e
3a
26
4c
ba
c5
c9
46
45
32
c8
bb
a0
e8
b8
5e
ed
47
5a
dd
3b
55
c7
a6
44
d5
a0
cb
d5
b9
ba
b8
c6
58
9a
2b
54
a2
ad
45
80
ac
be
54
c6
3c
9d
23
90
56
bc
b2
3f
c1
bc
3b
d0
ba
83
81
3d
bc
37
b8
9d
12
9c
d9
84
33
d9
54
28
b
ae
4a
43
2b
d2
4c
38
d0
4a
50
c9
2e
48
24
ce
a5
46
c2
bd
b6
e7
d9
47
d9
c9
47
dd
cd
48
9b
bf
c5
b6
22
21
a2
80
b9
f
8a
c5
4f
84
39
42
b8
81
c9
31
c0
d0
44
98
c7
18
48
be
b4
34
c8
38
41
e
a9
bc
58
51
cd
2a
36
46
43
ba
43
97
5f
b9
ad
53
57
48
52
40
a4
50
80
3f
10
80
2
9a
8a
22
b
31
4f
97
30
51
d2
14
cf
31
2f
25
11
af
3d
c2
43
c1
c2
43
3c
34
7
ba
3b
2f
da
49
c3
d4
b9
c6
c3
93
4a
47
ca
37
4a
20
39
4e
3d
3b
4a
55
58
bb
96
66
d2
48
68
da
ab
49
d8
50
cb
cd
4b
cb
bc
3d
39
c3
3c
b7
41
a4
ab
40
ed
2a
59
f0
39
9f
d3
bf
50
67
4a
3a
62
51
4e
5b
bb
57
70
44
49
71
4d
26
65
bd
30
3d
bd
a7
a3
2a
3f
d1
4c
e4
ce
52
d0
c7
41
d4
9f
81
8d
b7
b9
36
c9
c5
b1
81
cd
56
54
4a
55
65
34
4f
63
93
24
a1
ce
13
9e
c1
d3
b1
cf
eb
ca
58
e7
d5
64
e4
d3
5a
c4
c6
a1
cf
b8
cd
c4
d7
ca
0
65
db
5e
6e
d8
53
61
ce
3e
49
47
b6
45
4f
b0
53
40
a5
42
ac
c8
43
36
bf
0
32
90
c3
33
3f
45
50
23
b7
2c
b9
c8
c1
d7
b4
b4
cb
23
d0
45
3d
5b
3c
39
60
2c
54
5e
bc
3a
81
3f
c6
39
46
d7
52
4d
53
df
bf
55
d0
b8
3a
d5
50
44
3d
33
a5
22
b0
3
b8
c2
b6
47
b2
c3
83
56
b1
cb
cb
49
30
41
3d
50
43
48
5b
b7
b7
c1
3a
13
c0
a8
80
88
b6
57
63
cd
54
6d
c4
5b
61
51
d3
ce
54
d8
93
be
c0
4e
4e
4f
92
45
ca
44
2
cb
53
f
56
45
42
58
42
42
51
31
46
3a
47
51
4d
af
4d
c3
a1
d0
bc
80
c8
c4
93
c6
cf
bf
e7
b0
c4
e5
28
c4
e1
c0
4c
5f
d5
ae
53
ae
3b
46
80
ac
cf
43
52
c1
d4
5b
cc
ae
59
c8
bb
4a
bd
98
3a
d2
8e
64
da
47
30
db
4e
49
d8
48
3e
42
80
68
80
c6
6d
c1
23
62
4
47
c6
c2
c1
d8
c2
d7
0
91
35
40
9
ab
12
32
25
43
a5
d9
4c
2a
c9
5a
d4
a4
5a
f2
e0
97
f6
de
b5
e9
e1
b2
d9
c1
4a
bc
ae
47
cd
28
46
80
52
46
2
4f
56
d
38
50
50
49
8f
a4
94
3f
b2
c5
48
ba
30
50
c5
4f
a2
38
1d
9c
c
b3
33
29
b3
33
90
b7
c6
b3
ac
a6
46
43
43
bb
a8
ca
dc
ce
94
e1
81
4c
c6
b3
45
c4
c7
ce
80
35
32
27
3b
44
4f
9c
10
45
e
2f
33
35
46
cb
b4
47
c1
b6
a8
cc
bd
0
0
38
0
9e
38
11
41
c1
36
c7
c4
4a
55
df
4d
b7
cc
53
cb
9d
12
d5
b9
2
b9
47
52
89
44
aa
3d
c6
ce
84
4e
b4
28
4c
91
10
4a
46
a9
9f
e
ca
c1
4d
81
83
3d
bc
7
21
da
b7
64
d8
c7
59
a8
9b
31
57
d4
cc
dc
9d
2
c3
c2
a0
d3
b3
b5
b1
3c
a7
3d
2d
c6
1c
59
3d
14
4a
12
29
9f
44
be
5
d0
3d
de
4c
30
bd
81
d6
dd
d5
cf
e5
d1
51
e4
e3
59
55
6c
54
62
66
ab
5e
4f
43
c0
4b
b1
24
20
20
8a
41
c0
c0
8a
9e
c5
3c
43
de
ab
c1
d0
d8
d1
b9
d1
bc
c3
4
34
af
b5
cd
b7
34
b9
dc
c1
cb
80
51
d2
3a
63
cd
55
5d
3d
9a
b5
d4
cc
34
c3
c1
23
42
40
4a
45
a2
87
2c
3e
47
61
5a
c6
5d
65
ce
5a
5a
50
4f
d4
e2
ab
c4
d8
94
2
cc
cf
52
48
8
8b
3f
ca
c1
30
39
c7
43
c6
c6
4c
c3
34
0
c5
d2
26
c1
d6
b7
38
af
b5
da
c6
47
da
c3
4b
d1
cc
80
c9
4e
68
3f
54
71
a4
53
73
cd
d1
3e
d5
d5
5f
cb
cd
56
4f
a7
3f
5a
3e
4b
41
97
35
41
d5
4b
8e
cc
a8
30
80
30
ce
a8
c6
c3
ce
9c
3c
d5
c4
3f
c8
c0
4b
bb
92
40
be
c7
dc
23
47
e9
45
41
e6
b8
41
3f
c4
bb
95
39
c4
27
4b
b8
4c
ae
d5
37
ce
cc
3f
b5
b1
42
3f
40
33
33
57
3e
28
56
55
dd
da
39
c8
b6
d2
28
be
de
a6
50
db
81
53
d5
c5
4d
b7
bf
c4
d9
28
15
c6
23
a4
b3
5c
68
bf
53
6a
43
4d
61
9d
df
25
ce
c4
cb
ca
50
c5
52
c7
b3
d2
35
4d
c6
59
a0
de
bc
3b
d2
44
14
d9
1a
51
d9
df
cb
e3
bf
4f
dd
1c
65
b5
10
20
4c
2f
43
3c
2c
90
43
3a
b0
b0
c6
42
3f
9f
d0
41
bd
47
4f
b9
9a
34
1c
81
35
40
d0
30
ca
4e
c5
36
51
c0
4e
32
56
38
14
c4
50
80
3c
49
46
34
bb
80
c5
3e
43
a3
ce
3f
95
d2
51
46
2b
af
ac
ba
aa
bc
c5
d6
4c
3a
d6
3e
4f
a2
4f
4d
d5
56
48
c5
e4
3d
af
eb
81
a
d4
a2
49
a5
bf
29
b9
14
35
a4
22
4e
e7
5c
6e
e3
45
61
e0
95
3a
9f
3c
bd
cd
7
d6
81
b9
c9
2c
c4
c7
c8
16
a9
c0
2c
ab
d1
54
5e
e2
2c
67
db
e
61
53
d2
d2
4f
cb
cb
26
ac
47
cf
c3
c5
1e
c9
cb
4a
34
cb
a2
b0
b9
23
97
ce
4f
be
b7
32
b9
b2
34
c1
28
4e
4b
37
40
56
ca
50
4a
c3
4d
3a
a0
11
34
3f
c7
21
47
2e
5d
d2
c8
4a
64
ca
54
5f
d4
54
62
b4
0
46
da
bf
5c
c8
26
51
4d
8d
80
24
d5
b7
8d
b7
b4
b5
d4
d9
3d
8b
e1
51
80
c9
87
3e
24
b5
27
2c
b2
38
ba
57
5c
5e
5a
48
5e
44
61
58
44
3c
b4
37
43
d7
3
37
e3
1f
6d
65
80
64
6f
2b
5f
69
3f
ce
ac
ad
ac
1e
13
26
b5
37
c4
42
8f
5f
a4
18
5f
55
3b
47
4b
38
c3
c7
42
49
37
ca
a7
22
d2
ac
b8
2a
bb
36
a8
53
22
a5
38
95
b1
49
c6
5f
78
e2
57
7d
cb
63
6a
47
9e
4a
c3
3d
a5
d3
d0
9d
d0
a
d3
47
3e
dd
37
b8
38
b7
de
db
65
e6
d3
5e
e7
e
53
43
d0
3d
0
b2
5a
d4
36
29
be
22
b2
22
c2
c
b8
93
46
22
36
44
9b
16
d0
55
20
d5
20
36
55
2b
b7
37
a3
be
3f
51
8e
e3
4f
c1
e3
53
e7
df
c8
20
2a
1b
4b
b8
80
ab
b5
d2
4e
4f
e3
37
44
dd
2e
3f
81
3c
d2
cb
be
ad
4d
54
a6
3a
48
3b
44
49
b4
37
2b
33
4d
0
36
4f
c7
b2
c6
a2
c2
d1
80
20
80
4a
3d
f
af
c7
3d
26
48
4a
31
40
55
4a
a9
d2
4c
47
c9
bb
4e
25
b9
a2
0
42
47
35
1
c9
c1
c6
ce
3a
ca
81
e
a7
3d
b9
39
17
44
3
ca
48
d2
d3
5d
dc
c0
50
95
b6
a5
be
20
de
c6
61
d6
d3
da
da
a5
e2
d0
d8
a2
c5
d2
36
97
cf
3a
b7
cb
d0
c5
37
bf
dd
42
4c
d9
b0
54
3d
ba
c7
49
9e
cc
3b
b7
c1
c6
d2
cb
0
cc
cf
4a
89
d2
b9
43
0
4d
55
2d
32
44
40
c9
d9
5a
d8
c8
49
c4
ac
46
4f
59
4d
b4
47
48
18
a5
3c
dc
37
aa
e2
98
84
de
c5
41
2
b2
c3
c1
d3
8e
de
c0
45
48
ce
ab
4b
9a
cd
49
55
c2
ae
57
6b
2f
60
53
a9
67
3e
20
3e
a1
4f
3b
1e
c5
82
20
4d
df
50
39
d4
3f
ce
55
c
21
4c
af
c9
47
47
b
cc
39
46
c3
8b
59
c2
c3
4b
b7
ce
5c
36
81
60
5c
be
60
6a
e1
d1
d4
5d
c8
d5
5b
b0
c5
60
24
44
47
42
58
81
51
43
9a
50
a8
b6
4b
4e
16
88
47
b8
2d
9c
80
5f
d4
3d
5e
cf
47
e3
cc
25
ec
3f
e0
e4
4d
a2
d0
ec
e0
de
ee
dc
d4
ed
df
a4
3c
64
bb
47
68
d2
38
55
a4
d9
a4
b1
36
81
c4
3b
c5
f3
e6
dd
ff
df
dd
f6
e1
cf
3d
c2
2a
97
34
b1
37
93
bf
81
36
80
31
ba
c0
ae
c5
a9
bd
3c
60
a6
20
60
b9
5a
4e
4d
42
d4
52
bf
b5
3f
be
2c
4e
50
3f
2b
c0
4e
34
d4
39
ca
b4
22
9e
ca
4c
35
0
46
54
e2
dc
bd
ce
bb
ba
b9
ba
c8
4f
c6
46
96
4b
40
ce
ae
44
b6
b2
54
28
d2
57
3c
d2
48
4d
3a
2b
4a
a8
b8
4e
ca
b4
d1
3c
cb
c1
b7
d0
a5
cb
ba
de
3a
d9
e0
2c
d5
e2
b5
3f
c7
cf
53
be
be
b4
3f
2e
51
f0
d3
54
ef
d9
d0
e2
d4
36
88
1f
48
c2
94
22
80
83
46
36
42
b0
3d
a8
23
48
9c
cf
db
b9
df
e1
d6
cc
19
a9
32
4d
b5
91
3b
80
b5
44
cc
b0
e6
ca
50
c1
45
61
64
50
c9
3f
c5
da
df
a1
d3
d4
d8
cf
29
bf
4e
45
4e
4b
57
57
9
8d
2d
3e
30
e
2d
36
50
d7
d9
de
ba
c1
d3
d0
ca
ba
32
4c
4b
3f
b3
ca
ac
cc
b8
53
b8
b8
5f
5f
33
60
75
5d
38
39
38
3d
24
b7
39
30
1b
53
5d
46
37
5e
41
5e
4e
4b
99
b1
84
23
3d
44
37
cb
36
d0
dd
d4
9c
36
2d
37
3c
32
b4
a6
d0
27
95
50
2c
53
19
e4
eb
e1
93
cc
19
c4
c8
3c
31
53
47
39
53
46
b4
bd
ba
50
1f
2f
38
38
b7
d3
c
42
51
bd
36
62
63
1f
c6
ba
3a
52
54
a
36
3e
a7
40
b2
47
de
d9
d4
d1
c1
2c
4e
54
54
45
4b
3d
4d
c7
c5
24
17
a9
e4
e1
dd
c1
bc
d4
34
3e
9b
29
3c
a8
46
8f
3e
89
bc
3b
56
60
4b
63
68
63
43
cc
d1
c7
ce
9c
2b
45
4d
59
5e
44
30
17
50
3d
be
4b
4b
b3
88
40
4d
51
5d
4b
5b
4f
54
42
c8
20
c9
a0
c9
3c
bf
20
3e
91
18
34
4b
50
43
b1
40
32
44
2d
85
40
b8
3f
2a
b7
17
be
81
4a
c9
c2
bc
47
bc
41
1c
36
1d
80
64
5d
3c
2c
42
ba
4b
be
1c
a7
33
3e
53
c1
c4
bd
41
43
44
2a
4c
3f
46
45
c3
45
1e
3c
aa
a9
1
1b
1f
b3
b1
4
27
38
51
b1
4a
2c
40
44
52
81
cd
50
35
3e
b3
d9
3d
cf
49
85
38
4b
ad
80
2f
46
80
bb
c
9e
34
e
a4
b8
d2
16
cf
43
ca
d2
3a
c8
d1
cf
2d
9f
d5
45
55
35
88
39
1a
43
4a
a6
cd
40
ae
dc
dc
cf
29
54
54
57
5d
55
31
58
37
4f
c7
42
80
a5
b6
62
64
66
61
68
67
c2
26
c0
5b
5c
56
39
17
3b
1c
35
b3
b2
a9
30
ba
b1
81
ae
d4
b9
bc
d3
bf
33
bf
2f
d1
86
c3
d8
c9
c7
33
d6
aa
3c
55
50
46
4b
3c
cf
c6
39
53
50
56
47
d2
d0
51
8d
d2
4c
68
3a
4b
54
7
ba
30
b5
b1
95
a8
cb
b7
ae
a8
af
c1
c6
bc
36
c7
41
3a
b8
3e
b9
ca
1e
c4
29
12
80
45
42
46
39
5d
5e
c5
23
49
b3
d3
ce
1c
bd
49
bf
e0
d9
c7
d9
eb
d8
d0
cf
ae
c8
4a
b6
c6
cb
b1
35
b8
e4
df
ac
cd
c9
1d
5a
49
34
ce
34
3b
30
3d
44
b4
4b
3e
47
2c
41
d0
d9
d3
a3
d5
d6
bd
88
38
b8
d0
a3
cd
40
ac
8b
30
bb
5a
28
aa
44
41
3
b8
59
4b
15
4a
5d
a7
53
43
ea
f7
ec
eb
f0
f2
c8
b5
9b
40
ab
ad
b1
d
9e
9b
2d
4e
bf
ce
bc
4d
21
37
aa
3
c3
5f
48
12
44
d5
b3
a0
bf
f
bf
d3
c9
c1
28
20
32
52
49
c4
ad
1c
42
3f
39
64
5c
af
b0
37
b0
cc
94
c3
38
2a
a5
cf
e2
c5
bf
b0
d6
86
be
0
4c
4f
ac
b7
b7
3f
26
80
c6
10
46
3f
49
4e
4c
3a
c1
ca
b1
c1
dc
bf
b9
d1
93
e0
ba
de
d7
d9
34
37
50
59
5c
65
29
ad
89
d4
d0
3e
bb
30
bf
c2
45
5a
46
4c
55
c6
d9
dc
30
d3
0
f
b9
b9
43
3a
23
47
bc
d3
33
ce
17
40
c4
9e
aa
c5
b9
38
93
cc
3f
5a
45
56
49
18
bc
38
81
94
36
40
2e
4
a1
ae
37
37
25
4b
4b
34
33
d6
4f
53
ad
28
37
c4
ea
eb
e0
c9
ce
92
38
4e
54
c6
d0
bc
c7
b3
95
81
34
c8
3b
3f
56
aa
2e
52
ce
b1
b5
de
c7
4a
9e
49
47
52
42
5a
b2
43
a6
30
46
27
80
c3
30
d1
c7
31
35
48
5a
60
5c
54
49
5a
45
de
ee
ce
e4
e2
d9
e4
e2
dc
c9
d3
d7
ce
cf
c4
d9
c5
b8
b5
59
64
80
4d
46
c0
3f
42
43
b0
39
42
47
29
0
43
2e
19
81
7
9
c3
c3
bd
49
45
50
12
4e
60
6a
62
c6
d5
dd
ca
47
46
52
4c
3f
3e
5b
51
46
ac
b6
a6
e0
c1
a9
53
b3
cc
d2
bd
d7
dd
ab
f2
f5
ea
de
d0
d2
44
8d
36
b2
c7
d3
8d
25
5e
1
68
69
ba
52
ca
2a
cf
dd
47
c5
1d
ae
42
2d
c2
0
c6
33
34
af
4f
4e
1
bc
b6
39
2e
48
48
ba
29
97
5c
47
9e
61
62
39
d3
ca
cd
c0
ce
28
c4
c5
b1
c6
b5
94
b8
c5
d0
49
5c
4b
cf
3e
56
38
2f
94
97
b8
96
81
d9
4a
40
4a
d1
cd
35
d0
cd
b6
b5
cd
c1
3d
13
4b
ab
46
42
3a
3f
2f
43
3e
cf
4b
d6
e6
e3
e4
ea
d5
cf
d6
d2
a2
c9
82
b0
b
b0
d3
d7
c2
d1
c5
2e
99
3a
9e
81
9d
a0
1a
8c
bf
a4
af
16
b1
bb
f
42
26
49
b7
d1
c7
bf
ce
c8
b0
43
ca
0
45
50
cf
c4
18
bc
b8
18
1d
a6
8e
bf
ba
26
17
37
33
37
48
53
12
39
ca
d6
cc
ce
51
2e
4c
16
80
40
4b
52
27
c1
ab
ac
ad
43
46
e0
e7
bb
4c
34
42
a3
0
bc
e5
f5
ea
e3
ea
d0
c7
0
b6
4e
56
b1
46
60
54
3b
36
b9
3d
9f
1e
35
4a
8
5d
59
b0
4f
35
4c
50
2f
c1
bc
af
b1
4d
4a
2e
6d
6c
5f
68
72
6b
58
4b
5a
81
49
5e
40
58
ce
94
b0
45
45
3b
38
c2
41
1
ae
2e
c0
4c
2a
d
56
59
4a
52
16
52
43
4b
35
a8
1f
c7
c0
d9
c7
97
ce
d9
24
4c
be
11
81
5c
bd
2e
45
c1
4a
35
8c
d1
99
af
2b
2b
81
5d
50
bd
b3
c6
c2
c8
81
44
40
3b
29
43
55
d7
d6
cd
c1
d7
bc
d8
e1
c6
d5
d3
d3
de
d7
d1
20
be
28
c1
4e
52
d7
b9
ba
55
ae
54
4e
57
62
4b
65
50
5d
4f
50
64
70
6a
55
62
65
50
97
ca
6f
65
58
76
75
64
ce
ce
d5
8f
80
cf
3f
50
56
54
57
4c
c4
9a
ce
17
ab
4c
ce
aa
bf
cf
c5
b1
3b
b5
15
33
a5
49
c8
a2
44
18
3f
a1
14
a5
39
3d
0
47
3e
3f
40
44
cb
ca
37
52
48
ac
9c
9e
c6
de
dc
d0
cd
d5
46
52
2d
c0
c9
45
b5
11
b5
4c
ba
bb
44
55
60
b6
37
81
58
5c
3e
4b
3d
51
86
c4
3d
40
57
49
e8
e6
dc
e4
e4
d9
2c
49
ca
4f
47
5b
6b
68
62
64
76
69
30
b6
34
63
5e
5b
72
7b
69
e5
f1
e3
d6
e0
e3
df
cc
3e
d4
e4
d1
e7
e1
d9
d3
c8
d4
db
d1
aa
d1
d5
cd
78
74
66
cd
dd
dd
b6
b5
d4
96
d3
c5
e8
eb
c7
e8
e6
e9
d3
c3
d1
39
41
3c
b9
b2
c3
c3
46
44
c6
44
cd
cf
33
4a
1f
47
be
bb
42
c1
32
28
98
27
ae
b2
27
0
4d
ea
e4
b8
d3
ce
9d
41
29
29
3e
2f
99
2e
d0
d3
88
3b
19
2c
48
ba
2b
a4
a2
c1
c6
4c
a9
57
2a
96
3b
c2
b1
c5
bb
b9
a8
c6
a9
bb
2b
db
a6
c2
53
33
44
34
d8
d1
d8
c3
4
c1
4f
a6
39
25
3a
2c
2c
b9
2f
c8
b8
39
94
bc
d7
eb
ea
c0
3e
ce
47
b4
38
55
5d
5a
33
4c
47
80
80
4b
cd
d0
a5
36
81
c1
5d
64
43
e7
ef
dc
2c
a3
c1
50
5c
43
e3
e3
dd
d5
d1
bc
d9
e1
1a
bf
29
c9
cf
a2
49
b9
25
30
49
46
44
bd
c3
c9
c6
c9
cd
4
3c
81
d6
ca
9f
2b
bc
6
e6
e7
de
cb
df
e4
a8
cc
d3
d2
d2
1f
b7
bb
3a
4e
60
ae
50
42
4b
24
33
20
8a
c8
d0
bc
db
dc
47
4a
c3
4f
5a
51
4c
15
a2
80
c2
bc
d3
cb
ce
cc
af
bb
3b
4b
32
36
be
98
b1
4
b2
44
20
c9
ad
4f
cf
2d
48
bd
3d
30
5b
55
6
51
cf
8e
d2
43
4a
92
28
cd
ce
cf
e2
d0
3a
b0
d7
36
39
ad
d0
db
c0
50
cb
bc
b8
b8
1d
db
d8
cc
c0
b9
55
3a
15
be
d0
d0
1c
4a
c5
cb
92
ae
c9
cc
c0
c5
40
12
80
c5
c2
ba
da
cb
d0
31
32
cf
54
37
4b
c2
34
4f
23
d0
c4
bd
d1
d3
cd
38
ae
ac
38
bd
b4
d6
bf
42
50
49
85
61
52
83
31
17
e6
ef
ed
df
dd
d9
49
49
88
d5
d6
c0
c0
c4
4d
b8
31
d7
2e
29
be
b8
40
45
cb
cf
2c
56
5c
5c
3f
4a
3a
14
33
bf
bd
c8
32
4d
bb
c8
54
43
b9
4f
45
a1
47
3c
4c
b8
a5
5c
21
45
56
aa
c7
44
ad
b3
41
d5
d1
a7
ab
c3
b2
4b
10
49
2a
b3
c4
50
4f
46
c0
b5
4f
44
b9
d8
46
36
c3
58
53
0
56
4a
34
cc
0
c1
da
da
b0
c3
d0
40
5c
4a
a0
27
47
35
5f
55
5c
55
5d
4d
39
4d
b4
5d
50
58
4c
5f
51
b8
af
9f
b0
4d
83
3c
47
32
b7
c0
4a
5a
31
c2
b7
44
3d
d8
d5
3d
c4
1d
4d
44
60
3b
d2
aa
39
d2
d9
dc
d1
d6
d8
49
66
51
47
40
b7
3c
2c
b7
3b
34
ca
5a
4a
49
b0
3f
bb
bc
26
c9
54
5b
4b
5f
5f
5a
66
77
69
45
ba
cb
41
bc
c7
43
26
47
29
ad
4d
ae
55
3b
13
c0
2e
d5
b7
cc
a6
b9
c1
d3
cc
38
c4
d7
d8
1
5e
38
44
52
4b
c6
90
a9
20
cf
c8
bb
b7
96
64
4b
54
4b
33
2f
ab
89
30
d0
e1
df
e3
e6
c7
d3
c4
80
25
1c
c3
c7
31
47
ba
3d
58
53
5c
5b
b8
9e
1b
c2
ca
df
de
dc
d3
b3
c3
c0
ba
c3
c7
5f
61
c1
c3
dc
3a
31
4a
43
11
ad
ac
4b
28
c6
ba
32
48
4f
3a
26
80
bb
c1
3b
49
44
3b
4d
49
39
5b
5e
4c
2f
81
18
d1
95
a0
80
3e
27
4d
45
a6
4b
59
46
59
3e
33
ca
de
32
b9
4e
c0
c8
d1
ba
c8
b1
ca
d0
c6
95
49
b2
d5
cb
43
bb
d3
52
4b
45
af
be
2f
3c
43
d0
da
54
26
92
32
54
3e
54
4c
48
5f
59
57
6c
75
69
d0
af
23
dd
e3
e3
c0
c2
bd
35
d5
c8
c0
d2
cc
4d
4d
b9
44
3a
39
a0
26
3e
37
22
80
3d
44
3a
cd
94
90
af
b2
17
37
36
4c
4b
3e
55
6e
74
6c
bb
38
c2
d3
b6
ce
d1
cb
b7
d7
e1
c4
41
d2
c1
c4
c8
ce
d7
df
d5
45
25
2
25
59
50
ee
f2
e5
d6
cd
9a
28
2c
8c
99
ca
b5
d2
4c
41
cc
cc
cf
2c
2d
48
4c
5b
4a
ad
dd
c9
c8
bd
85
c5
9f
b9
cc
4a
b9
37
43
3b
b8
12
49
32
a6
47
4f
3d
39
43
d5
bf
cc
9f
d3
c3
49
c4
e0
e2
d2
e
c0
34
5e
f
c9
bf
c3
81
d0
ad
b9
1c
a4
37
24
40
41
82
42
40
d0
bf
cb
3d
a4
92
46
4f
2d
80
28
48
ba
be
d2
37
81
bd
40
b0
bd
c4
40
30
bf
9c
ab
4b
b3
da
41
d1
bc
38
98
46
49
53
59
46
55
52
2a
24
2c
48
c
cb
3f
50
b9
d
10
ce
c5
a8
b8
ad
38
35
c3
27
4c
47
46
45
56
52
0
34
2e
1a
43
18
81
b9
a7
24
95
ca
33
3c
33
58
51
3e
61
36
62
63
c3
d6
c0
ac
dc
a5
39
98
41
ad
bf
c0
43
36
37
58
48
4e
a2
ab
c9
c1
c8
3a
47
c2
ca
4a
46
57
4c
1e
68
40
34
59
c1
b0
a9
b8
bf
18
ba
22
b6
4a
cd
d0
b1
9f
b5
c4
d0
b1
47
80
b4
43
11
b6
21
52
1f
50
5b
5c
af
4c
54
c1
bb
b4
40
d6
d7
30
cc
d7
89
bf
d0
81
c9
b8
d1
90
ca
db
cd
d1
c4
ba
cf
41
cd
81
b5
cf
c8
4a
39
37
36
c1
49
ab
c4
81
45
c8
3e
bd
d0
c2
3d
cb
29
d5
b5
a3
c2
42
0
d3
bf
b0
e7
de
e4
e3
df
dc
8d
8e
db
a6
ba
d2
df
da
b4
d3
99
ac
8
3
3a
21
51
40
41
4c
30
53
48
c3
46
c5
bb
4d
c5
c8
ac
47
41
bd
bd
0
1c
ab
4a
54
a0
bb
95
c7
a9
c0
bd
a2
48
b9
4f
c1
ce
30
9
af
47
2d
b0
c6
bb
c3
47
bb
c2
c5
83
15
2f
42
57
3d
3f
50
80
a1
b9
bc
c3
99
99
32
b9
ba
4c
1c
3e
bd
cf
3b
22
c9
50
ca
46
81
bc
3e
4c
b1
a0
4e
48
54
44
b9
4e
b4
80
29
81
e
4f
31
33
cb
b5
25
c1
a1
34
1c
48
51
4e
53
56
43
48
c6
1
2f
ba
1
c1
ca
cf
c2
4a
4a
b5
4e
44
ce
47
4b
48
4
98
d4
cd
c7
e4
be
c0
d8
18
1e
c6
80
20
3f
ba
8d
c2
61
48
3b
64
55
b3
58
4f
2c
3c
bc
39
5c
29
4e
54
3d
46
d0
c4
d1
d0
d1
d9
cb
bf
d3
ce
be
bf
c9
c3
b8
a0
1a
36
4a
52
19
3a
51
9d
3e
c0
a4
5b
a6
5b
51
a5
4d
50
31
3b
4b
41
99
80
30
1d
24
ae
1e
be
9e
d3
16
2d
bc
36
2d
80
c3
bf
12
9e
47
3f
56
5c
3b
5b
31
28
33
b4
b3
56
ae
24
aa
ba
c5
49
42
12
38
19
34
12
4e
45
15
bb
52
48
25
2a
c4
91
3c
b9
bc
30
ba
c9
ae
d0
d4
bd
90
cd
da
44
c9
b6
c2
a2
4f
0
a6
ae
3
80
bf
c1
d5
4b
aa
d4
a1
3e
c1
45
d1
99
b5
d0
af
aa
c9
cf
b3
bd
41
52
80
b3
80
8d
c3
a2
7
b5
a9
54
47
49
32
b0
3b
c8
c9
47
37
c7
32
3c
4e
a0
4a
a9
d1
62
4b
bb
56
80
43
0
c4
b5
2e
8
a9
4b
a1
2b
3f
de
c5
c2
e3
dd
b2
d9
da
54
56
34
25
49
49
bf
1e
3f
35
a1
c7
4b
37
c6
80
3a
34
c3
e1
b0
a7
e2
b1
d2
d6
cd
d0
e2
bd
d5
e0
c6
db
d1
24
d6
df
d8
d6
d9
c8
a5
ce
bd
c1
af
bb
5
45
bb
46
36
31
67
5f
6c
65
5f
64
6b
5b
61
9f
36
8e
2e
47
3e
9f
2c
14
e3
e3
e0
ea
ec
ed
ea
f3
e7
20
2b
c0
49
3f
cf
3f
bb
3a
e3
d7
dd
ec
e5
ec
e8
df
e3
2a
cd
a1
32
c8
c0
a7
a0
89
ad
bf
bb
aa
4a
2c
3b
25
4a
d2
e4
29
e5
e9
d0
dc
e7
bb
25
4f
3b
41
61
b2
0
49
ca
c5
9c
43
58
46
4f
49
4f
59
3b
c3
c3
2a
cb
d2
c6
d6
d9
cf
3b
48
3
4f
59
3c
55
59
4c
42
50
3c
49
3e
2c
c5
a3
3d
bc
cf
3c
bb
cd
3d
ba
b9
44
c3
c6
bf
81
ac
ba
42
c2
42
52
44
a4
46
4f
1e
ae
53
c2
b7
aa
3c
bd
96
38
3b
38
81
97
3c
b0
ab
8b
a3
a7
2c
18
df
d7
b6
e0
e4
30
d8
d9
37
e7
e5
2e
db
de
2f
cc
c5
3f
93
4f
36
2d
55
25
af
54
80
47
5b
51
53
61
4e
55
5e
4a
36
39
c0
50
3b
16
bf
0
94
ad
c3
bf
cb
bc
ad
cb
43
6d
5d
53
65
57
4c
6a
65
59
17
d2
31
bf
e0
2b
b7
ba
27
3c
3a
56
24
48
4d
b4
c8
5f
1a
23
53
bd
35
52
33
89
56
55
4c
4c
3a
44
4d
50
51
94
96
bc
5a
c5
cc
5a
80
c1
67
4a
4b
42
46
0
d1
bd
ab
cb
15
3d
53
d0
a2
46
2f
0
46
52
4e
5b
47
49
58
94
52
57
3c
25
45
59
33
43
5b
1d
37
69
67
61
68
5e
61
65
50
5a
11
cd
cc
38
b3
c3
47
b4
81
c2
c2
b6
87
32
50
d1
4b
32
cf
d0
a2
4
d8
21
c3
d5
d2
80
39
41
39
c9
cb
a8
34
40
2e
80
b2
38
1f
c4
28
22
4a
5c
1f
c4
5b
bb
c1
1e
c7
ae
3b
b8
ca
80
d5
cb
8c
37
3e
38
39
b
b7
8a
80
ba
c2
be
5e
55
4c
53
56
57
4a
9a
43
b2
ae
15
d1
c7
2a
c0
8e
98
d0
c8
d2
ce
be
a5
c1
d0
cd
b1
c9
98
c2
cb
42
33
c0
40
25
13
4f
b6
26
a5
b8
48
34
d4
d4
cf
bf
d4
b3
ce
c7
cb
99
aa
37
3c
d0
c1
1c
b9
aa
68
6a
64
2d
5c
3c
4f
51
4f
d4
d0
d3
d6
d8
ce
c0
c3
c1
ba
c1
46
26
be
b4
c8
3b
c4
4a
14
44
36
c8
c5
b8
b6
cd
b8
4c
b1
57
55
3f
33
4d
b1
da
e2
d3
df
e6
e3
d6
e9
d8
a9
46
6a
3b
3e
67
37
21
60
2f
14
33
bd
38
c1
c1
3c
91
c2
ca
d1
9e
86
0
25
26
3f
55
d5
d8
59
d5
d6
3d
b5
b5
36
b9
41
b2
ca
3f
d5
e1
b5
36
9f
38
56
2c
57
5a
4e
88
4c
d9
c8
a0
db
c9
cc
c4
cb
8d
1f
42
55
52
1d
44
48
36
e3
e3
c6
e2
dd
49
d9
d7
51
4e
65
4d
60
62
4d
39
59
38
4d
d6
cd
37
df
cd
3e
d4
bd
b8
28
35
cd
37
3b
81
93
34
dc
d9
d1
dc
de
0
d8
d1
a9
2d
35
b5
4d
49
31
65
5d
45
5d
5e
6c
5d
61
70
63
63
73
a1
52
53
c4
9a
c4
d8
3c
b5
95
42
52
3c
4b
50
53
4e
0
40
24
bd
33
be
c1
32
c9
1d
2f
ba
38
34
4a
1a
8a
22
a3
bf
45
c0
cd
d1
4b
c7
d0
83
8
db
d4
b6
ae
2b
16
30
bd
41
85
30
2d
4f
45
4e
b7
45
a
d8
ab
ba
d6
53
48
d0
4f
26
5d
55
31
58
61
48
53
65
2a
3a
91
c3
2c
c0
ad
80
aa
40
c8
b4
1e
2b
35
1a
51
43
a8
bb
c0
58
c9
b4
5f
56
43
5e
68
66
58
60
6e
2b
61
62
5c
66
50
48
57
43
ce
be
90
21
58
7
16
4a
2d
5a
4e
28
5c
45
49
59
13
bd
57
3b
9d
de
e7
dd
e3
d9
e0
db
d2
d4
c5
ae
c6
3d
b6
cd
42
c9
81
54
53
bb
39
33
9e
50
4d
2f
35
19
17
44
4c
15
b9
a4
2b
2e
9d
4c
d8
ce
2e
dc
d2
cc
c5
4
c7
9b
36
ba
cd
bc
c0
19
8e
47
18
c6
2c
a1
c7
31
57
cd
80
58
b9
81
2f
c8
c4
5e
40
9e
50
22
ce
4d
b2
cd
62
63
bb
66
6a
4d
54
65
43
55
45
3d
4c
57
4d
4c
4b
c0
a9
3d
46
50
4a
53
4c
3c
4b
46
5d
60
4e
5c
51
4a
55
b3
4d
45
c0
5c
53
36
52
36
51
bb
ae
23
c2
29
43
2d
49
52
3f
40
60
4e
3e
4d
4b
33
53
c6
d7
c3
e1
db
d5
c5
db
d5
bf
9f
3f
ad
42
af
c8
8
9f
bb
c1
42
b1
9e
3e
89
b3
c1
c5
c2
9b
be
2e
1c
80
41
3e
5d
5a
22
29
81
51
be
80
c2
ad
ca
16
17
c9
bd
c7
d4
c7
4c
2b
43
57
46
4b
62
56
51
c0
3f
36
c6
b9
3a
80
13
54
b6
2f
2d
c4
a4
b9
b8
c3
bd
ba
83
c7
13
2f
9a
80
a7
bb
45
80
34
45
80
b4
22
9e
d5
49
5a
68
81
56
69
53
4d
5f
ae
c9
b7
3c
a5
d1
52
2c
d8
be
b9
bf
dc
c5
c4
cc
ba
bd
c8
a9
49
c9
c0
12
b2
d0
c0
bb
33
46
44
28
56
44
ca
40
4a
af
18
c1
c9
c4
2b
c9
c1
be
cc
b5
ce
d0
c5
b0
c2
ce
29
80
34
48
38
3f
43
cb
be
ce
ce
49
b7
cd
3d
17
b7
9d
b8
98
bc
c3
af
c4
c2
ac
c1
7
47
50
4d
49
53
24
c7
b1
66
61
58
50
3a
9c
43
b9
c1
0
35
3b
cd
c9
52
c9
cd
2c
25
c3
42
cf
47
ba
bf
3c
d2
a1
c9
be
c9
a5
c2
b7
b0
c1
4f
3e
52
cf
ce
ca
aa
8e
20
4f
c2
d2
21
dd
d1
3d
c2
bb
88
50
b8
b2
c1
8f
39
c6
1d
b7
a1
24
40
3b
36
b6
bb
ba
2b
15
b7
2a
21
ce
94
bf
21
d1
cf
b3
cd
d7
b6
a7
cc
c9
b9
17
86
97
49
c4
31
0
c1
5
52
b5
bb
4e
41
c5
c3
42
e0
ca
c2
dc
c1
a3
ce
3e
81
b4
d3
c5
c3
e3
b6
cc
e4
bf
c5
43
5
27
49
b9
87
4e
17
81
43
45
c8
5f
45
d4
4d
3d
a0
32
80
3e
4d
2c
c6
4a
49
aa
80
bf
a4
43
3e
58
4c
5b
56
47
c7
4d
46
c6
57
55
25
49
c7
50
5d
49
38
37
45
3e
b0
cb
85
4b
1d
48
4e
4f
30
6
3d
d0
2c
4b
d7
c2
1a
de
4f
52
95
53
52
50
4e
51
51
cb
d8
d1
2e
bb
c4
b5
8d
c0
4a
4e
5c
4d
b7
52
4b
ae
53
d0
3a
3b
3f
b1
88
af
c8
1b
5e
42
c0
63
a7
bd
59
16
20
5a
c7
c2
50
bb
af
3a
c3
21
c7
25
17
c3
29
37
c0
8a
12
45
22
4d
37
21
56
3b
33
57
b4
bb
16
0
8a
c3
ad
41
b9
49
54
3b
4f
5c
4f
35
53
53
ca
13
4c
c7
41
42
a2
47
cd
b8
cb
bf
4b
d2
ab
40
d6
cb
da
db
d6
b6
d7
d8
bd
d5
b5
b3
ca
c1
d7
e5
d5
d6
e3
d0
57
56
53
4e
59
4b
b6
5a
49
34
c3
3a
be
d6
b7
91
c1
b3
d8
c9
99
de
bb
a3
e0
cf
ba
63
52
0
64
44
b1
52
5a
39
e6
f3
e0
ed
f3
dd
e6
eb
cc
32
4e
59
4e
4f
66
33
54
66
d3
d0
db
c1
ca
bf
45
c
97
67
d3
d1
6d
ae
b7
6a
44
29
36
c1
a7
c1
b6
a3
b2
1e
c6
39
14
3e
cc
b9
3a
3d
2a
b1
ac
d0
c7
bc
d4
c9
b5
c6
8c
97
d8
c6
4a
39
80
50
c5
ba
2d
34
61
2e
9c
5d
19
ba
54
cb
cd
ca
d6
d4
cb
d8
d7
d5
34
ce
21
35
d3
89
2c
da
8b
14
37
4d
88
43
a1
3d
2d
b1
50
50
33
5e
5a
4e
58
55
9f
b8
49
4c
c3
43
15
cc
ba
be
c0
39
4e
12
b0
c2
bd
b8
b4
41
c5
38
59
3d
2b
51
bc
b5
cf
ce
d3
15
ce
b2
ae
80
45
ce
cb
43
45
cd
b2
c0
c9
a4
a5
40
42
a5
27
53
34
ab
9d
1c
b9
98
3d
b5
38
1c
14
2d
97
d7
cb
80
d7
ca
40
be
b6
85
c6
1c
25
44
0
b1
27
27
ba
4a
3a
4a
38
48
3f
42
53
b6
d6
bc
db
db
c5
d6
d7
cb
5c
47
4a
42
45
4d
4d
51
5a
bc
cd
c2
46
48
36
22
c
33
59
60
5a
47
4a
46
45
36
24
88
bd
cf
45
45
49
2f
4
46
c5
ce
3f
c1
bf
54
2a
65
69
51
4b
4f
41
50
52
43
55
3b
43
49
52
3e
18
3b
52
50
39
ac
3c
b4
b8
a0
3c
3c
92
32
40
36
41
c3
ca
d5
ac
c3
2c
39
43
b4
9c
34
81
40
a3
cc
51
65
62
4b
54
41
af
ca
21
2c
3d
13
40
a8
c3
38
3a
2f
e4
db
d6
e1
d5
c2
d9
d5
d5
52
49
0
3e
b3
38
40
b9
c6
b2
c9
bf
b8
bd
b7
c8
99
1e
60
5c
50
44
16
42
b6
c4
21
bf
c4
c9
d
bb
b8
b4
b9
c5
48
a8
48
b9
b1
40
94
81
47
a
46
24
38
81
c4
49
a8
c4
df
db
e4
e2
ba
dc
2b
d1
cd
ca
cc
d8
e1
e5
de
cf
cb
ce
37
47
0
26
3d
2a
28
c7
3c
b8
c4
d3
b0
db
ce
43
a4
86
be
80
b4
43
b8
c0
41
b0
40
4a
44
45
4d
56
43
56
50
28
a5
d5
34
4d
4e
26
33
57
4a
bf
3c
28
ac
81
43
2f
2b
b7
49
3c
c9
52
5e
4f
39
a4
3b
1
c1
37
80
be
21
45
15
4b
30
48
c3
18
33
4d
bb
36
bf
3e
0
3b
3e
96
c7
a0
b
80
b8
c6
1
a0
bb
b1
a5
c7
1a
38
4a
2a
d4
b2
41
b0
cd
b5
30
39
40
0
1c
3b
47
2d
3b
e0
d9
cb
d4
c6
a6
b7
c7
bd
2a
4f
4c
46
ab
46
49
4e
c5
bf
c5
39
d1
d3
d3
41
39
c9
c7
c8
38
2b
c9
c1
c0
9f
21
60
45
37
54
af
c8
45
3b
ba
35
55
2f
51
4f
37
43
89
20
e5
ea
eb
e0
eb
ea
ba
e3
be
1d
cc
a6
31
c1
bd
39
49
3a
55
4f
3a
48
58
3f
41
bb
b7
53
65
57
46
58
59
58
61
4f
52
54
40
48
a4
a1
61
52
38
c3
c3
39
80
b0
c8
4c
15
3d
b8
26
40
b5
be
9e
82
48
2b
d6
ce
a1
d3
c3
c2
ab
bb
b2
ac
3c
91
a7
45
c4
bb
c4
3e
d0
4b
3b
81
3d
80
83
c9
c7
bf
18
3c
bf
b3
20
d0
ab
24
21
20
43
b3
be
90
ce
d4
d6
52
64
60
d9
81
a
c4
92
a3
af
af
3b
b1
db
d0
cc
dc
c9
51
59
43
80
27
0
32
a3
3f
87
c2
a4
49
ce
3f
3f
49
4b
c4
c4
4e
28
b8
6
3e
9b
c4
d0
c9
43
48
af
41
1c
bf
44
4c
b2
c0
5c
41
f
55
3b
42
aa
48
1a
2d
4f
46
9c
41
46
9f
c7
9a
bd
d7
df
29
da
d9
bf
5a
5a
d5
49
45
d0
81
54
ba
cd
a4
41
52
48
c0
81
ca
d0
ac
40
2e
da
17
cb
cf
c5
46
3f
53
c1
34
4c
b0
4f
37
ca
e2
dd
bb
c9
c0
bc
a5
a3
45
2d
44
b9
30
b3
47
b5
48
37
3c
c
30
27
80
46
c0
d4
43
6
b3
3b
a9
bb
40
be
ca
29
4b
41
b4
ce
d7
d2
e2
d7
48
5b
57
32
42
2d
c1
a7
47
dc
dd
d2
e3
e7
ee
da
e5
e3
46
b9
c3
b3
bf
c3
37
50
40
2d
5b
3b
bb
56
60
44
54
50
c4
37
b3
d6
dd
c3
d4
df
ad
b1
4f
56
52
68
49
4e
56
29
93
d8
d2
a5
c9
d1
40
49
b6
c8
b3
94
9e
c5
be
aa
b1
ae
9e
bf
18
a6
51
49
c1
3c
43
27
4e
20
51
58
43
47
4e
36
4c
63
57
bc
4e
49
2a
3e
bc
46
4a
26
41
b8
a9
cd
2a
44
80
a5
39
2c
29
2e
c8
42
40
d9
d9
b0
a6
23
c0
81
be
c2
c4
a4
4d
bf
b8
25
48
4c
43
81
c7
d2
b3
bb
c4
a4
43
81
28
d5
d3
ce
e5
e3
b1
db
db
68
67
61
57
52
54
1e
8e
51
55
5c
5a
96
20
13
4f
55
2a
48
a3
11
c8
43
b6
44
1c
ca
d9
c9
d2
d6
d7
d5
ca
d9
b9
58
80
3c
65
4f
4b
70
6a
67
4b
56
56
33
30
35
11
4e
96
12
b5
ba
35
52
23
4f
bd
81
2a
b8
37
44
45
43
45
be
52
5f
64
6a
57
32
41
59
4d
3e
45
53
51
3d
50
5f
59
5b
6e
b2
55
4f
56
52
51
49
8e
39
1b
ca
2f
be
2f
21
99
52
4c
d9
c2
2d
cd
bc
aa
ba
1b
4e
4d
e
47
50
49
3c
4c
44
b7
60
6c
62
62
65
5d
57
4b
49
d5
d0
a6
c5
db
cd
44
4d
37
d7
c7
c2
d4
8d
d1
c5
32
cc
51
41
c5
50
2a
8d
81
10
b5
9c
14
ab
3c
b8
53
38
b7
c2
a3
39
a9
a5
c1
13
4f
4c
ce
63
3a
46
c4
e1
dc
cb
d1
d2
32
47
cb
c4
d0
bc
b1
bd
c1
51
45
0
39
21
0
c6
39
3f
0
b2
b9
43
47
27
a0
39
95
d7
cc
cc
cd
bf
d0
44
ca
c8
20
ca
bb
8a
b5
2b
c9
e2
cb
34
8c
43
c8
bd
ae
c6
d6
bd
bd
c6
9b
c5
b7
85
b5
2e
bb
d3
cf
94
d6
a6
3f
b8
c0
ac
34
3e
3b
b2
b1
2
a2
2e
26
69
6a
5f
90
c4
d0
b0
c9
bc
80
bb
db
bb
d0
ac
3e
d1
c6
cc
cf
3f
ae
ca
39
d0
d7
d2
3e
38
80
81
cb
dd
95
c6
d6
cd
8a
c7
42
57
b6
a0
45
20
5f
3f
46
56
5b
45
70
75
63
c9
32
16
ba
cd
49
29
44
24
c3
80
c6
c5
c7
ca
3f
0
ba
92
0
2c
33
bd
80
54
2f
33
b4
b1
cf
4c
86
33
b1
4a
b9
37
c2
bb
cf
d2
b7
e7
e6
da
48
81
d3
3a
c5
36
4b
55
36
81
2a
2c
50
56
4e
53
5a
5a
19
a
be
3a
50
b7
a7
2
ce
c8
c3
b6
d1
35
2e
d4
0
33
61
68
53
5a
56
51
4d
1f
3f
31
3c
3d
ba
34
27
c6
32
0
ab
bd
1e
9a
46
ab
ad
16
b1
e9
e1
cd
e9
ec
dd
e7
ee
e0
49
50
4f
53
49
49
66
66
5d
51
51
60
1e
45
5f
54
4f
63
d3
cb
24
df
c5
c9
d5
af
4d
aa
aa
8a
da
ba
4b
39
36
4a
15
be
87
c4
ca
b2
af
2a
bf
a5
be
80
d1
b3
ca
c5
2c
bf
3a
45
4d
c3
b3
b5
c8
d1
92
cb
df
d2
e2
c6
b6
d1
11
cb
41
3e
2d
3f
41
aa
b8
2
44
a9
9d
ca
3d
27
d4
5a
52
44
a9
2f
ab
c3
8f
49
b8
3e
46
64
48
a8
55
45
a4
4d
5b
46
d1
ca
cd
d6
0
c8
4a
57
4d
5a
42
40
66
59
4e
77
78
6c
61
6a
63
4a
53
64
8d
2e
49
43
4d
1c
34
1e
b8
ad
b9
39
4a
36
59
5b
5a
5d
71
6e
5b
61
58
57
41
45
48
2f
cd
ae
d5
b1
36
d6
b1
ae
df
cf
81
41
4e
c1
4e
36
30
bf
35
1a
25
be
be
a0
be
8c
47
44
2c
3f
0
ae
95
27
1b
d1
bf
14
d9
dd
cf
eb
f0
d8
df
e3
e1
be
d8
c2
dd
ca
d4
d6
d8
dc
28
bb
ca
e
cd
b7
bd
83
3d
46
10
c0
5a
50
2a
35
3d
39
40
c0
2e
c3
b3
be
d4
bf
9e
3c
4f
c2
4d
5a
b2
2d
94
ca
8e
45
43
59
58
80
5d
5d
30
98
4d
a5
9e
35
4a
37
2f
33
4d
99
c1
4b
4a
ce
2c
34
cf
30
9e
ae
34
ce
aa
b6
bf
c7
27
81
21
1d
28
36
56
62
35
3a
58
4f
2a
b8
d4
54
4a
81
3d
54
63
3d
30
51
3c
34
35
42
29
51
4b
4a
2e
b0
48
4d
bd
c6
c4
c0
c8
cf
a2
c3
c9
d6
dc
cf
8d
ce
bb
50
3c
1c
5d
65
52
38
29
4e
1e
80
41
b4
29
1c
c1
2a
b2
dd
da
c7
4b
4e
4a
4c
45
46
2b
40
b9
40
61
55
c6
36
5b
8
15
5d
b4
b9
cf
ad
ce
d7
33
c4
d7
44
39
46
9d
2e
af
80
a4
c8
4d
4a
42
4c
1d
45
38
b5
b1
55
51
55
4e
59
5d
55
56
68
3f
45
53
22
2e
80
33
9e
c1
d4
da
a2
26
31
15
be
48
27
b3
5a
43
97
52
44
2f
48
46
51
54
4e
31
b5
2e
3d
0
30
22
a4
3c
a6
b7
46
af
26
3f
bf
2c
4c
d5
9d
54
d4
b1
4c
5c
63
62
46
60
46
49
5c
4e
be
dd
4c
bb
d6
4b
5
3e
32
28
25
b9
c7
80
b7
ac
d1
d6
81
d0
c3
3d
d5
d0
53
37
4c
3c
31
b2
3f
50
2c
3d
4a
29
4c
5d
5e
c8
80
51
49
20
46
47
bf
b2
c1
4c
49
2c
b9
4b
bb
ce
db
20
93
c3
5
b6
a3
43
53
86
d3
cc
b7
19
ae
a
b5
c4
82
c9
ae
c9
2f
b4
6
a8
81
da
cb
b4
9e
c3
c8
c6
48
51
47
37
4b
47
46
3e
21
98
c7
c4
cc
d8
d9
9a
0
2b
a4
c1
2f
b4
a1
90
21
3d
50
ca
b5
45
c2
9a
2f
c3
a1
47
34
39
a9
a4
53
a1
cf
bd
c0
e1
e3
d6
de
db
d2
e1
ce
d2
db
d6
d9
af
da
d8
31
bb
be
3f
b3
c8
a4
42
4f
a2
45
39
34
18
a7
c5
35
4d
de
cb
80
57
33
39
4f
28
80
b2
48
3a
0
c5
31
46
ae
b7
50
5f
5a
26
af
b9
ba
bb
46
47
44
31
45
15
4f
b5
c9
84
41
33
16
3c
42
9b
53
31
3a
6a
6b
58
4e
39
29
37
39
3d
40
b6
af
aa
57
3b
a
52
4d
56
47
10
ba
b8
b5
53
97
c2
a2
31
cd
46
26
49
39
87
3e
80
41
3d
41
46
4c
bf
20
bb
cd
9e
a5
e1
d9
c3
ce
ca
ca
33
c1
bb
3d
4e
5b
cb
c1
1c
cc
ba
22
bb
9f
21
3b
4d
cf
ca
c6
c6
53
a7
ab
99
c0
c8
4c
44
bc
59
41
4e
50
29
f
44
33
ac
52
c7
20
ba
e
54
37
4d
44
2c
c6
b8
c3
19
4c
c9
ab
80
4f
4b
3c
4a
50
36
2f
2b
aa
40
b1
4
40
39
4a
56
4f
5f
3d
4a
59
c9
c0
b8
c9
b4
2b
99
c1
c6
cd
c7
de
e6
d9
e6
51
4e
3e
57
47
37
53
1d
b5
18
48
a0
47
3d
c1
c1
80
c3
41
21
cd
31
4d
3b
44
b9
ae
d1
c6
c9
d9
d4
c2
cf
c3
80
80
14
a6
5c
53
60
60
6d
6f
d4
dd
b4
e6
e9
e6
db
d2
d7
a4
e6
d9
cf
e1
d4
b9
dc
d6
80
1b
cf
41
42
cd
2d
17
d2
28
46
2f
4f
4a
c0
ab
34
cb
99
2a
51
b5
99
81
46
45
56
3f
51
c3
41
35
cf
9a
80
3a
55
58
42
34
9c
90
c0
80
47
b8
ab
a9
f
c8
c1
b8
8d
9b
77
76
61
71
66
57
6c
63
5e
32
3f
bf
3c
c7
a8
cd
3c
ca
50
5e
50
59
5d
59
44
34
24
47
c0
98
c2
24
50
cc
3f
9b
c7
9a
86
a4
49
bb
b6
23
47
44
55
4b
48
a6
2b
33
80
41
3c
a7
c8
3d
3f
9b
21
52
c8
c1
d7
b4
dd
e2
ae
d5
d4
bc
be
38
1b
c0
c9
b7
c0
b0
cf
97
32
48
4c
a9
bb
4b
4e
38
