1939
34f
a8d
3b73
3ba9
2ce9
ffffe806
fffff1c5
3378
1613
6d0f
667
bcc
c29
44b9
ffffefe0
8ac
2b8d
ffffd0df
fffff39b
fffff2e0
25e9
fffff89d
353e
388c
ffffffa5
948
2ea
a77
b16
fffffe52
ffffde41
ffffff44
fffff520
fffff9eb
fffff5cf
fffff542
ffffe1f9
ffffed50
293
5af2
ffffffda
4b82
fffffb6b
485a
fffff3e9
ffffe42c
2716
1d75
fffffdb7
2931
1a69
fffffbb8
fffffd61
1d0a
107b
527f
1b17
4b8
142c
1c49
fffffd18
1ed5
ffffede3
d652
66d
9a5
2e43
5e74
5ae4
5
3869
ffffe88a
82a0
fffff8d5
708e
3c95
569a
55f9
fffffabc
49c
fffff1df
ffffeee1
202
50e7
ffffff87
1fe6
265b
3460
6b8f
8236
2fa9
6ded
fffffdc5
ffffff32
696b
1707
fffff9a4
16a0
6c23
3eb4
5df
ffffe795
1e58
68c4
7220
20c4
fffffcae
2ce6
31
142
6d04
1bc1
ffffe003
ffffdfe2
ffffec39
1c86
1734
1a7f
a1a
1b95
e4e
7c23
ffffe582
428e
fffff76d
ba4b
2998
fffff8dd
40e4
16db
3484
4656
e7f
fffff6e2
6364
38f1
fffffae9
ffffdfec
967a
722b
898d
9cd
ffffe4a1
fffffe61
fffff206
fffff6e0
29a8
fffffca3
2207
237b
34d2
8bb4
72c5
633c
ffffc781
1fb4
1df5
984c
fffffa0c
fffffb45
1545
2ee4
3609
114
ffffeefc
fffff597
4020
10a3
fffffcc5
2e14
1acc
8ef
3a24
3a09
c18
ffffe660
ffffce49
19e3
40d6
453c
3874
fffffade
ffffee76
244
3969
fffff037
81a9
206b
1fb2
fffffe8a
440
23e5
6afe
fffff76a
299c
8c98
5335
fffffc2b
ffffe38c
ee9
454f
fffff26b
8e3
e59
2297
fffffa15
1b4
ffffc2c9
4a0a
fffffd5d
a2c
ffffed67
ffffeea4
ffffe6cf
23ea
4e17
ffffe7ce
ffffc649
fffffff7
8a6
8fd
1d1a
4c91
2215
589c
ffffef51
fffffdbe
fffff75b
2bff
605d
511b
2096
bd3
bd4
ffffe2df
b215
7972
37aa
60f3
303
d03
6273
2f16
3892
4cba
9e06
fffffc27
1419
fffff2f7
fffffded
34cb
fffff7e1
9751
7e1
5bc
