ffffffa0
49
34
13
fffffffc
13
e5
fffffff6
fffffff1
1d
7
fffffff8
4b
58
5f
7
fffffff4
13
b0
0
ffffff96
ffffff8c
0
0
ffffff38
3f
72
23
fffffffd
ffffffd2
45
ffffffd3
fffffffc
4f
ffffffdd
fffffffe
32
b3
fffffffe
fa
ffffffec
fffffff5
45
6
ffffff93
18
ffffff75
b
78
fffffff4
5
25
ffffffea
4
ffffff3d
ffffffca
fffffffa
42
ffffffff
ffffff7f
ffffffd1
fffffffc
b
c
ffffffd6
5d
ffffffb3
125
ffffffff
ffffffdd
59
1
ffffffea
14
64
81
ffffffe9
1c
fffffff3
ffffff71
6
65
36
17
3d
2
7a
1
fffffffd
e
11f
7d
ffffffe8
ffffffce
ffffff89
1f
