a2
b8
b2
8e
3b
a
95
8c
9d
43
2a
bc
0
8b
9c
23
1f
0
b9
3c
3f
c0
a4
16
22
90
13
80
86
39
ac
35
8
37
20
ad
2b
0
ac
81
80
19
19
9
2c
b7
0
a2
2b
2c
1b
6
af
38
43
32
32
2b
2c
b7
af
aa
80
a6
31
3c
c2
8e
0
c0
80
ae
b6
aa
2f
a
81
31
bf
c3
a5
40
44
bb
43
39
2d
9d
2a
32
b7
b5
a5
13
39
0
b0
1b
0
b7
c
80
15
42
22
81
44
3b
35
d
20
81
b6
26
f
8
95
c0
18
2c
98
ba
a3
23
b7
0
c0
21
b
29
2d
3c
36
49
25
8d
34
bf
35
1e
99
3b
a4
c0
28
29
34
ab
8e
b8
8a
81
c1
38
3f
44
16
40
25
80
ac
4e
b3
3a
2a
3e
80
a4
34
35
40
b2
be
b1
bb
b5
bb
b0
3a
80
a1
a5
80
bc
94
ab
80
c1
99
9f
96
b0
20
b4
0
b1
30
3b
21
96
80
5
c3
c0
9f
2a
81
b4
be
13
31
25
29
13
35
a8
3d
18
93
9d
ae
17
b0
3f
81
18
8e
b0
1f
13
80
a4
37
bb
d
a4
c0
37
23
81
34
a2
bb
3c
83
b9
3d
d
27
3b
37
25
28
bb
bc
0
36
2c
0
b9
17
23
c7
81
44
a3
32
18
36
8d
b4
36
c3
32
a9
b4
35
a1
a9
81
27
b8
9e
23
37
13
33
ba
81
a
48
41
1f
42
81
3b
32
a5
10
81
3a
81
16
1c
39
ab
a8
2f
43
1f
1c
91
c3
80
46
0
80
a4
b4
40
2f
30
45
25
18
80
22
29
40
1f
48
9c
48
c2
30
31
2f
2e
39
bb
a
31
36
3d
8d
21
c2
ae
c0
bb
0
c1
28
be
d1
9e
be
b3
2a
bb
9a
6
a8
3b
40
35
40
37
40
1c
36
80
81
1d
94
c1
2e
3e
b7
b0
94
c2
41
19
33
2b
0
81
90
25
c1
b0
9e
80
99
90
ad
97
81
ac
2b
0
91
1e
80
c2
b8
2e
2e
9c
b1
30
17
9e
2c
3d
bb
aa
80
ae
15
84
c0
98
94
93
b6
44
81
2b
47
16
90
a2
8f
ae
85
b8
16
2f
80
b9
aa
ac
80
2d
b3
38
81
1f
a5
2b
b8
29
86
ba
bd
95
9e
b4
24
43
2a
bd
1d
a6
2f
aa
49
da
ba
cc
3a
b4
a2
28
99
2f
40
97
a3
bc
a0
bf
9
a2
0
3b
2b
2e
2b
3d
12
29
b5
b6
c4
c
45
9a
0
9b
c0
8c
29
1e
8e
36
96
c1
b5
24
b4
a4
36
31
9
ad
36
41
80
1e
94
b8
2e
a4
6
a9
3b
9c
30
45
b8
3d
a9
c0
ab
b5
31
29
a4
bf
3a
2c
17
39
80
ab
aa
b8
19
33
a9
32
1c
21
8
2e
9d
80
8e
9d
29
b6
2c
1e
1d
b6
33
9b
a0
ad
36
b3
31
30
3c
31
b
88
3b
2a
47
b8
80
2b
bd
82
bc
31
22
31
31
c5
37
52
b4
ab
1e
3d
a8
45
42
7
3a
30
bd
b5
40
31
2c
99
21
af
19
be
31
a8
ab
11
80
8d
ad
41
a2
9d
40
80
15
2d
24
aa
29
2a
9
a6
c8
b6
81
80
49
a5
a7
26
80
b2
30
3d
b8
be
81
0
2c
c3
b5
21
ac
c3
0
91
0
39
12
aa
9e
c2
3a
34
ba
c0
2e
b1
81
0
3b
a7
a1
99
35
3c
b0
b0
3f
b1
3b
17
17
43
46
ab
1b
2f
a4
81
97
1a
80
bd
3a
2b
16
bd
96
36
80
10
80
c2
b2
a2
19
4b
32
80
4c
f
39
1d
a1
38
1a
20
31
80
a8
39
32
1d
35
8
20
81
b8
92
b9
37
2f
24
bb
29
ab
12
31
32
c
80
34
43
38
a
ab
80
2a
a6
3a
bf
9f
41
8d
3a
9
92
80
27
44
aa
2a
21
ad
8d
ba
2d
88
ae
b5
bc
96
a6
ae
aa
c6
35
81
29
43
b8
98
30
97
97
c0
b0
35
80
bc
26
0
24
9b
b4
1c
22
ac
2b
26
41
29
21
1f
25
8f
e
88
85
bd
c
2d
80
81
a6
33
2c
28
b6
91
80
93
2e
b7
95
3b
b7
bd
a1
2e
37
bc
ba
be
39
1b
27
bc
96
23
6
2a
a5
ac
a4
32
37
29
ba
9c
32
84
be
24
95
16
3a
22
0
d0
bf
c5
c2
c0
b0
a8
c3
b7
31
3d
3
45
42
bf
81
19
b3
43
4e
4b
3b
42
47
3f
37
1f
48
b0
be
36
90
22
bc
82
b7
af
98
b3
5
2c
2d
c7
c8
b3
b9
c4
b2
99
3a
af
28
35
3c
2f
32
33
0
35
2d
98
36
93
9d
d5
db
81
d0
d2
ad
c7
d7
ad
c7
cb
b5
c8
16
a9
0
ba
26
36
b9
a6
3c
b6
3d
37
b0
bb
33
80
b6
b2
c7
ca
b8
c8
4a
48
49
39
0
ac
b9
34
b2
94
c
be
80
9e
97
2d
a1
80
9f
5
2e
27
22
32
c3
81
31
9d
be
ba
80
45
81
80
3e
33
30
4d
12
a9
21
b5
80
3d
41
93
f
80
3a
47
0
80
a9
2b
86
32
3b
80
80
32
b5
c2
81
a8
c1
15
3a
24
92
30
ae
2e
44
14
19
b1
8
33
43
12
b6
18
28
bb
aa
a0
2e
2d
c0
14
b7
c3
91
c9
b9
c6
a2
b9
11
46
4d
2e
37
29
47
28
34
1d
28
45
4c
8f
31
14
a8
38
8f
94
b8
36
95
bc
48
31
c4
af
b6
3f
3a
80
a6
96
3f
18
80
ba
9e
9d
12
a6
ae
bc
3f
a9
c1
c4
b7
c8
b5
c4
bc
aa
ba
a3
b1
c
a7
8e
b2
37
7
a9
b9
9c
ac
8e
b8
95
a3
24
be
15
3c
44
33
99
c
a2
3a
3b
ac
19
47
a6
30
1e
33
be
aa
48
2c
81
3f
32
25
aa
82
9a
35
0
9b
45
9b
3b
3c
23
3b
c8
1f
a6
80
15
a0
a6
f
34
37
36
13
81
38
21
38
33
14
b1
1d
1a
19
8
37
b1
46
43
bc
b7
a9
19
21
28
c7
1e
96
0
40
d
28
43
24
80
39
2b
28
3c
39
b4
4b
44
a9
af
ae
58
5b
5b
68
60
64
60
52
59
8d
15
4
6
37
a0
15
13
a8
3f
9b
b7
22
84
b1
95
9b
af
a0
7
a
c0
38
b1
c4
ac
95
32
36
43
b2
9d
42
2f
10
c1
ba
8d
22
98
81
38
3a
32
29
a8
6
0
30
2d
7
33
47
42
c3
b5
b2
ba
ae
c0
b5
96
3d
34
0
41
a9
ac
23
32
87
80
90
98
c6
bc
bb
80
25
6
29
af
a8
c2
c3
bb
aa
bd
bd
80
32
38
80
40
38
36
bd
18
a4
26
23
0
b9
37
34
c1
12
9e
9f
28
38
ae
b6
3a
bb
12
3f
b3
23
81
a4
b2
b7
9d
c4
2d
46
81
3f
38
0
42
3f
3c
40
1b
80
40
a7
45
0
27
41
a2
c9
c9
b9
bb
c2
ba
b5
bf
c0
18
35
1d
40
98
32
b1
32
2d
ab
97
2e
26
80
29
b6
af
33
d7
f2
d9
f6
ed
f2
cc
f3
d7
80
31
12
3e
3d
36
f
29
15
a9
a3
99
3a
4c
3a
b1
32
7
21
3d
3c
49
39
23
a6
4a
45
b9
2f
b2
c3
0
bf
21
29
b8
b8
bc
b7
a6
ad
c7
a5
aa
a2
2d
1e
80
42
3b
36
97
34
0
cb
8d
44
be
34
a5
29
bc
45
c0
a6
af
23
1f
ab
2d
38
ba
c8
2b
b3
c4
44
b3
b6
bb
ad
42
3b
b5
4c
68
52
ad
3e
49
f9
f8
b4
f9
fa
b2
38
53
51
14
96
81
b3
a3
39
c1
c2
3e
10
37
b0
3d
46
86
39
20
18
a9
31
9f
82
28
b6
a2
42
29
f
80
38
49
3b
46
23
a5
18
c0
26
a5
bf
19
2a
c1
b6
c4
ff
fe
b5
f1
ee
0
f9
f9
4e
3e
2e
13
42
80
3c
23
46
d
99
3d
27
b0
25
37
a8
aa
15
1a
0
bd
37
39
27
34
16
ac
80
31
26
b6
37
29
c3
14
90
39
31
45
9a
46
0
93
3e
45
b8
ab
b3
9a
b9
2e
8d
a8
ad
bf
1e
a9
b7
a8
35
ca
b1
e
a8
ad
bf
b9
2b
ae
1
28
a6
ad
30
bc
a5
af
1f
80
a0
b6
41
b6
29
46
a7
b6
3f
bc
11
2b
af
28
13
37
a1
19
e
e
ce
c5
bc
0
8b
9d
ca
c4
c5
c6
c9
3b
81
80
31
80
b7
81
15
19
44
b3
52
15
0
e
a8
b1
5
2b
b1
3f
b4
b6
bd
bc
aa
19
82
a4
47
23
a2
46
94
b5
19
31
b5
26
85
cb
c1
80
b7
a4
2c
33
b5
3e
80
81
35
8c
b4
aa
15
3c
30
80
0
81
3e
35
81
ae
19
38
0
29
2f
c
41
3a
b7
ab
13
31
3
27
36
18
42
0
3d
2c
42
31
81
80
bd
c0
b0
b9
91
a2
b8
80
b4
81
94
2d
22
20
26
ae
34
d2
a9
b3
8d
2a
a8
80
2b
35
a7
21
2b
bc
b0
8c
bc
30
80
80
80
34
41
39
38
8d
bd
91
29
2e
c1
ae
98
13
bf
b2
1f
95
bb
a3
22
33
28
a3
26
2c
c6
ac
0
93
39
27
ad
3b
38
41
25
1a
2a
b6
21
26
20
0
92
43
30
21
bd
2
41
81
2d
ba
b3
a5
97
bf
1d
9f
80
ac
a7
34
b4
29
1f
28
47
b
ae
88
1e
41
bb
e
28
b2
81
80
cb
b7
b8
cd
b4
c7
cd
ce
80
ca
9a
b1
16
af
b9
a7
81
38
ad
bc
17
b8
b2
b3
b8
3c
1b
b5
be
b6
bd
1
b2
a7
c2
80
98
9e
b4
21
bb
8b
a5
2f
3c
24
8b
2a
20
bd
b4
a1
25
1c
bf
af
b8
80
34
2c
27
39
a1
3f
12
11
1a
b2
31
ad
3d
8c
3a
80
0
80
28
29
87
3b
af
3f
33
13
40
3f
36
3a
c
9c
b8
23
2c
38
3f
b8
8d
32
41
33
bb
93
a0
33
39
9c
b8
31
43
24
40
c4
80
96
2a
80
2c
b5
3e
a9
39
2c
0
3e
0
99
38
43
84
29
46
48
3f
4c
1e
b2
bd
0
44
b3
1f
8e
88
b1
a5
86
b0
3e
8d
30
97
29
b0
45
3a
c9
3c
30
c3
80
ac
bd
1
b1
88
b6
2d
2e
80
37
97
c2
c3
c6
bd
8b
c0
15
bf
29
c5
80
39
29
0
37
b7
97
40
44
49
0
46
c
b2
35
47
1f
3a
4d
80
e
48
9
27
42
a2
17
9c
b7
27
0
a4
9b
ba
9d
81
2a
ae
d
24
b1
bd
34
3e
ae
bc
26
b9
38
b2
37
2e
33
37
15
31
9f
5
8f
3d
80
81
8d
8e
a0
b9
a9
b9
81
9b
80
80
25
38
45
1d
18
47
32
98
1b
31
b9
18
85
80
34
39
23
81
29
34
bd
40
80
a
28
a7
91
81
20
a5
20
98
2d
38
2f
ba
b9
b0
80
19
b1
25
a2
2d
b6
28
ab
94
ad
b4
b8
80
33
9a
8e
3a
2c
c4
81
b2
2e
ae
bd
56
bb
44
bc
a1
bf
9f
36
2e
1c
1a
c2
c5
81
c4
2d
31
a6
19
8e
80
89
2b
9b
80
b9
93
a4
20
e
b7
ab
3c
3d
40
2d
32
80
36
0
bf
b0
22
af
bb
aa
b3
b5
c6
80
18
81
1f
81
bb
88
aa
98
a7
37
a3
3d
3c
bf
39
a9
b5
b0
b2
3d
17
98
c6
35
91
a5
33
1f
a5
a4
c0
90
2b
ae
24
b
19
8a
24
81
20
3
8f
2f
ae
38
37
33
4
40
22
b4
c2
30
c
44
49
23
af
a
90
9
0
14
aa
3c
24
c9
19
c7
a5
30
38
29
b9
4b
d2
80
c1
a2
35
b3
33
3b
8d
2e
8b
be
b9
20
80
a2
c5
1
b8
81
ba
32
9f
a8
1c
0
91
b0
36
9f
a7
28
a0
a2
a7
3c
23
2e
3d
3d
b
bc
a7
80
1
34
a7
c4
c2
bf
ca
8f
2e
17
81
6
21
35
bb
ba
13
b5
3d
3c
3b
38
35
2f
3f
28
32
3a
a1
c1
b6
a3
aa
2b
3a
42
ba
b3
1c
2d
30
a1
a9
3d
af
b1
cb
c4
ad
21
c8
c2
ac
c1
26
81
2a
28
b4
3f
36
2b
ba
b6
e
0
f
ad
bf
22
a9
15
9f
81
af
bc
20
80
39
25
32
1f
1d
36
89
ab
3c
2e
1c
39
12
2c
17
a5
13
ab
3a
37
30
96
32
a9
d
c
1e
21
9b
39
21
b7
b0
ab
b7
1a
2a
43
bc
b2
2e
b8
36
b3
b6
ae
ac
29
ba
aa
aa
b8
b2
c1
8b
b4
af
3a
96
b
32
13
80
bc
40
34
c4
45
81
b7
c7
3b
38
c4
a7
2d
90
b1
2f
1a
32
80
b2
25
6
bf
10
9f
36
80
24
24
32
28
80
a8
87
c7
b5
35
1e
0
b7
0
94
20
bd
b0
15
4
34
25
44
ac
a1
ac
c4
2e
34
b2
b4
c0
2e
80
2a
bd
b8
27
d
23
8b
0
e
40
43
41
a0
18
42
21
bb
24
af
81
3b
80
a7
81
3f
2a
11
8b
21
80
97
38
ab
ae
9
c
bd
c4
c1
8d
9f
0
c4
c1
c
a8
b1
34
2d
a8
2b
a1
33
27
a2
38
96
31
34
80
94
3e
18
4a
47
c
aa
24
2c
3d
49
b0
80
c4
b7
ae
20
2
9a
32
9d
a
25
80
43
16
4e
50
59
2f
46
52
b3
46
56
4b
3c
9b
4c
8d
4a
3e
a0
33
96
81
b8
be
2b
d
28
1f
28
a7
26
3f
45
17
81
41
54
34
13
22
33
33
87
b7
ab
46
81
ae
23
a3
18
0
37
25
8d
37
11
f
e
43
a0
b0
81
3d
a0
a2
80
bd
33
31
80
2b
9e
26
c3
9
c0
a1
aa
b8
9e
a1
0
a0
95
13
a5
a1
ac
98
b3
81
b5
81
81
9e
a4
1c
1a
bc
37
94
bd
1c
3f
2f
8c
46
24
28
3a
a9
ad
b0
a6
26
42
a6
c2
5
2b
b2
a9
ab
32
19
c2
0
4b
33
4b
3f
33
aa
50
a2
45
ad
b1
c6
b3
c0
3c
bd
0
34
be
c1
80
b6
b7
9d
b8
25
5
2c
3a
41
30
8a
3c
3b
13
b8
cb
81
35
bc
b1
80
2c
2a
1b
8d
2e
28
35
ae
bd
19
38
93
92
34
7
b7
42
a4
8b
30
2f
af
a5
47
a0
aa
81
39
90
89
88
80
81
39
c2
3a
2f
31
1a
b3
80
1d
19
ae
a2
b2
81
18
cd
ba
30
b8
b3
a7
2a
c5
b7
18
94
1c
b7
b2
3c
c8
b3
ac
c0
20
c6
10
ab
21
bb
b6
b3
ae
14
23
83
34
0
32
a1
35
9c
81
92
c6
aa
a7
ac
a
2d
97
80
18
b9
c2
af
cd
95
b4
1f
28
1d
3e
3c
37
bc
32
2a
b6
80
9
b0
ad
80
c0
bf
80
34
aa
91
80
34
33
4
bc
b9
e2
bf
e0
e8
e1
df
d5
a8
d9
b7
af
bc
81
27
b5
81
19
b1
0
2f
51
b1
1b
34
b8
bb
c5
aa
3a
3d
b1
47
ab
38
45
1f
3
4
e
be
81
38
c1
c1
c2
c2
87
21
92
a1
3f
a9
a5
8c
c1
81
a3
b7
b6
a5
bd
3
32
26
3e
2d
29
20
ab
9c
a5
46
d
a9
a6
b9
ab
b8
8f
16
b5
17
25
bb
b3
b0
29
29
13
31
3e
47
a4
2e
2e
35
3f
3c
47
aa
af
b6
15
ba
a4
b2
9d
a9
b6
b4
c2
16
3c
43
8a
30
34
af
19
ba
a1
be
9d
36
1f
24
2f
45
48
37
3f
37
20
33
4a
30
ba
9d
85
c6
af
ba
c4
c0
ae
bc
3d
9c
18
26
23
31
17
4b
40
8f
39
3a
46
99
88
28
1e
30
32
36
b9
34
ba
8f
2a
aa
bb
80
80
a4
1e
80
81
41
4b
74
5e
77
6b
76
47
76
52
b8
aa
6
ab
ba
91
a4
80
80
ae
1e
2a
a8
32
1b
bc
9b
a7
cc
a7
80
39
87
c0
ad
39
ba
2c
43
af
b1
37
bd
3e
3d
c5
43
2f
28
48
38
b9
4f
40
3a
80
be
c6
30
b2
b5
b3
bb
c4
13
99
19
b7
a7
c5
3b
ca
13
4b
3a
a2
0
2f
94
81
34
bd
52
46
2a
80
43
b5
46
31
50
d1
d4
a1
c1
e8
ca
8
aa
cb
79
7b
a
79
78
c3
c3
b3
d3
44
aa
26
a9
c3
2c
a6
c0
41
31
39
bf
38
23
b4
7
9
9b
c0
16
b4
a4
3a
b4
c3
3b
99
0
1b
48
89
b6
27
81
c1
a1
2e
40
80
29
80
3a
ad
96
b3
7f
7c
c1
73
71
40
7c
78
ce
c8
a1
a2
c9
c6
d
d3
b4
bb
b2
31
19
c2
3d
2f
ba
9d
12
a9
f
a1
af
8c
2f
ba
c2
bb
94
ab
a8
be
b0
a3
c1
96
a3
23
9e
26
ab
34
ba
a4
1b
29
21
1e
99
2a
a5
1a
3d
af
ac
9a
a7
3d
c1
c6
33
bd
c5
39
bf
1f
90
a7
31
81
99
19
b0
ac
33
b7
a0
b7
1a
ae
c4
c2
13
a5
2f
bc
a7
b0
c8
c4
2e
26
bb
80
80
26
ac
2
a9
9a
80
35
4b
3e
30
47
54
46
38
32
b2
45
b5
b0
21
3b
9c
81
b6
90
c4
a5
b4
c5
9b
bd
bd
b6
22
3f
a6
44
c
32
2c
39
28
aa
cc
b6
29
cd
a2
25
ca
b4
a6
2f
bf
aa
22
30
1c
50
25
ae
99
3e
93
3f
89
a9
3b
