5c
2f
bf
43
b6
c7
da
59
d8
f2
da
47
ea
61
2c
ea
80
bf
c5
a5
5d
e1
c3
14
cd
9f
5f
51
a5
12
5
55
d9
5e
5e
da
6d
38
ca
4b
ad
ba
b5
d1
3f
5c
54
4f
36
e0
ce
b8
54
3e
dd
c0
58
dd
81
42
bc
55
c7
33
e4
40
d3
ca
b8
9e
5f
62
59
4b
5f
34
59
54
56
5e
52
43
cb
5b
51
dc
b8
45
ca
df
c9
35
4b
59
64
2d
c9
d6
d5
bf
cf
d1
d8
4a
55
db
db
41
4c
55
39
3c
63
4e
a8
51
4f
68
d5
a
5a
5a
4f
52
59
45
e1
b1
81
58
d5
ce
3f
d5
62
63
cc
41
68
9c
c6
19
65
5e
5c
57
57
ca
50
0
4b
d6
dc
ca
d9
53
ab
51
39
57
37
de
c4
eb
e3
46
de
d2
b3
bb
cf
4e
62
41
d1
d0
66
df
e2
d4
36
54
4e
c9
80
4b
b5
93
a9
57
d0
32
d7
b4
d8
45
cc
da
e5
41
e5
d3
a2
d7
5b
69
69
5f
d7
bf
5e
af
4a
db
59
ca
d5
5d
47
4e
cc
4f
5f
a7
4e
cf
46
d8
da
cc
df
c4
52
13
d6
da
2f
5c
d5
5b
cf
df
dd
29
50
52
ce
d0
49
10
b3
4c
80
d7
dd
d3
cf
51
4f
c1
c
ce
d4
db
5f
db
54
59
5d
49
cf
c7
2c
44
45
21
3e
1b
c6
4d
5b
4e
dd
57
5d
d0
4e
b9
5a
2b
54
c3
56
51
c6
3a
a3
1f
91
c6
db
44
1f
48
5f
c8
c4
4a
52
cf
ca
d7
c9
b2
c2
c9
49
ce
d6
e0
b2
df
52
1c
15
40
46
b6
40
58
5d
c7
ad
df
55
2c
e0
54
4f
d8
59
b8
d7
d5
5e
5e
56
5b
4b
d3
5e
cc
5d
2b
c7
db
60
44
c2
d5
80
d2
5c
59
88
5d
dc
4e
d8
8c
db
ca
55
29
d5
4b
e0
46
ca
d2
c7
5d
d4
c3
ce
dd
ce
5b
e0
3e
bf
45
dd
26
db
c5
a3
bd
2f
42
1d
52
ce
c6
5f
d8
de
56
54
d0
d2
54
58
e
50
d9
c2
ce
26
ba
dd
da
5b
5a
e0
3d
c8
5b
d8
bf
bf
42
56
57
d8
4a
20
b9
d6
46
59
58
30
33
61
45
57
48
ec
e7
56
54
b6
52
60
3b
d0
44
45
81
52
d2
5c
a7
43
b8
d2
4f
60
60
ba
d3
d6
46
df
e2
54
4b
61
62
c3
e2
63
d5
25
c2
c4
c3
d5
3e
c0
d1
5f
cc
57
dc
e2
4a
5f
d1
c9
d6
62
da
43
b1
49
4d
57
c4
da
d1
4a
bf
dc
da
b7
45
de
da
b5
d9
98
60
58
da
43
2b
dd
cf
36
cd
d6
cd
60
5c
50
d7
9f
4d
d1
c4
51
91
61
56
d7
e3
da
d4
e0
8b
21
5f
34
b8
41
d2
57
c2
a3
51
c6
ca
5e
5e
44
4f
d0
cb
e5
d8
bf
41
38
f2
45
cb
cc
d1
bf
39
19
9d
b4
35
4c
58
17
5d
d5
49
32
65
ab
cd
51
45
52
5a
40
32
ca
dd
be
ca
5c
5a
df
6c
d4
b7
ca
e0
46
4a
df
d0
4b
4d
52
53
c4
46
e
59
52
d8
c6
b8
d2
ce
34
d2
db
59
5d
20
db
be
0
9d
d0
d3
43
5c
d4
33
db
d2
5c
54
58
2a
db
4f
4f
c2
e7
3d
50
e5
af
5f
3d
6a
40
e0
e6
dc
d4
de
d1
ce
e2
57
49
43
dd
c0
dc
dd
da
b6
45
59
c7
5b
39
d4
ad
c7
d1
3d
b3
a1
34
1e
4d
4c
ad
d6
54
d9
c5
5f
39
e0
dc
da
e0
51
16
c9
3d
59
58
cc
d6
df
59
3b
43
5f
4c
5b
af
c8
c6
d6
d9
c4
db
e0
d2
35
21
29
5e
4f
b6
5f
58
45
dc
59
58
28
d7
2d
b0
db
dd
46
48
5f
4a
60
6a
69
ae
0
c3
23
a6
ce
c6
d9
d4
44
cd
4b
59
ae
b5
5f
da
52
45
31
4e
2d
3f
49
52
5e
8b
c7
4c
29
d6
d9
dc
c4
d3
d9
51
2b
60
54
60
b5
ae
bb
35
58
53
5f
5a
d0
9b
17
4c
2c
40
59
df
df
e2
56
5a
5b
69
4f
d8
d8
45
5d
cf
d3
5e
de
db
5e
57
54
5b
bd
48
32
d1
dd
21
30
16
49
d4
d8
50
db
5c
3d
89
d2
4b
57
4d
51
47
49
5d
d9
db
da
aa
36
5d
c5
48
58
d5
3b
da
70
db
f8
64
e0
ea
e4
da
48
62
bb
b2
44
b3
4b
3b
67
d9
d6
d1
b8
4a
cf
dd
19
59
52
d6
62
64
47
80
57
6a
dc
57
53
64
55
68
db
a1
69
c6
62
5c
32
5b
d6
d1
3a
df
b0
d1
4e
41
97
4d
8c
51
bb
c9
5e
3f
32
5b
36
40
5e
29
36
ae
60
67
b
db
a1
42
c2
57
da
4f
d6
c1
2c
d6
a5
52
50
c6
d0
56
2e
5c
e0
53
48
da
d1
c1
e2
da
46
c4
4b
9
c5
b1
db
aa
ca
64
de
dd
31
c6
9b
59
59
57
31
2f
6a
b2
4f
6a
b4
d3
df
60
34
56
58
d2
49
3d
db
bd
b2
46
23
5f
c8
c5
4d
34
39
55
18
de
bf
1f
d8
e2
de
5d
df
d7
a7
d0
51
38
4d
4f
80
d7
dd
5d
62
55
24
c4
49
49
4a
3a
2c
45
49
e4
55
ad
5f
34
c4
4c
c8
5b
48
68
40
dd
23
2c
c9
80
dd
5b
30
a0
a0
3a
cf
cc
c1
1d
b8
d1
43
cd
b8
59
63
d8
5b
4a
45
4d
3b
6f
6a
f0
69
d4
f1
d5
50
5d
57
18
2
bf
1a
cf
a5
54
5b
65
4e
5a
4f
5d
b3
c4
e0
e5
ca
cb
cc
35
5a
c0
cc
4e
e2
5f
57
e8
c9
d3
d4
c5
bd
c6
c8
cd
d2
cc
c5
45
55
c2
a8
d6
cb
61
c5
59
5f
56
d9
32
56
51
dd
60
d5
d6
80
92
62
5b
de
c4
c3
df
db
64
4f
e1
c9
61
80
50
d0
e0
d5
56
dd
a9
cb
42
d0
b5
39
d5
d4
b6
c8
62
b1
96
36
81
67
da
e
db
ce
d4
d0
ba
e0
97
dc
d7
27
d4
45
52
d3
da
66
c0
65
66
52
42
e4
c0
cd
4e
3e
35
55
56
cc
dd
50
c8
4a
99
97
d5
aa
d3
a1
4e
d1
f1
d5
5f
2a
5f
63
c5
65
be
c5
93
8e
e1
52
a5
c1
b4
41
c3
61
d9
5b
30
c9
3b
48
5e
d7
81
5f
51
5e
df
e0
4f
d5
65
59
38
5c
94
d9
5b
db
eb
e1
f
24
da
d1
b2
31
5f
d6
5b
52
e0
94
80
2a
42
e0
d2
e9
e3
22
39
d9
bb
4f
43
63
d9
d0
28
da
ce
2f
62
66
64
5a
cf
5e
40
4f
59
a1
35
5a
74
1c
e4
5f
bc
3b
60
5f
3
a8
30
dd
a5
56
cf
9f
df
80
3c
d6
47
3f
5b
58
4e
46
56
4d
c1
3d
62
a4
dd
63
d9
bb
d9
52
5d
cf
e0
56
e0
ad
cf
56
c8
d5
4e
d6
91
dd
5b
e2
41
d5
c1
cd
cb
5f
36
53
58
d9
d2
37
d0
dd
dc
5f
ce
b8
d0
cf
ab
4d
bf
da
80
5a
ca
c8
51
cc
df
df
41
33
d2
a2
42
2
ce
5b
51
de
b8
ce
5f
d5
d0
bc
57
52
cc
43
51
5b
45
db
a1
43
c8
28
42
5e
dd
4a
c8
e9
51
cf
b5
8f
4f
dd
db
eb
dd
38
a3
cd
5a
66
5d
d2
58
0
dc
50
bf
e4
d3
4d
ca
dc
62
5d
d3
d5
c7
5d
4f
5d
df
41
b6
60
30
41
b3
dd
4b
5d
6f
c1
d7
59
5c
bb
64
db
c3
d4
da
57
dc
50
d7
b4
d4
2d
45
58
81
b0
5f
5d
61
80
18
49
e5
be
59
52
e6
dd
50
67
44
df
65
ba
c1
3f
e2
54
60
c2
ca
8e
5b
bf
81
d9
d3
ed
e2
5a
e4
c4
d9
36
6e
e4
e3
5e
d4
f1
80
e8
d8
4a
ad
34
4a
cf
c6
5b
3c
af
df
80
56
6a
55
64
55
c6
e6
56
90
59
c8
5a
d4
da
5e
bb
4f
58
d0
d4
d5
db
59
da
5a
5f
b0
59
c1
35
4c
da
c9
47
4b
44
26
d4
cf
5b
d3
59
d5
dc
de
4a
6e
c9
36
54
91
55
50
cf
d5
e0
69
37
c7
59
d1
a7
4a
d2
b7
d6
3c
db
d7
d4
e2
44
ba
e2
41
47
0
48
54
d3
db
59
35
5a
c5
e1
d4
da
60
b3
e3
ea
e1
60
de
49
39
c0
fa
e0
d4
d4
41
5b
4b
2e
98
84
43
4f
d3
cc
29
50
d5
3b
d9
dc
57
5a
48
d0
49
c7
d7
50
53
d3
d4
da
d2
ac
de
38
79
4d
ce
72
df
81
65
59
22
54
cf
be
5f
d4
54
da
b5
30
d3
c
49
d9
5a
d7
5b
d0
51
5b
20
68
d8
a9
de
5b
72
e1
b9
54
d7
ec
ee
f2
d7
dd
de
ca
4a
9
52
42
34
55
a0
be
b9
57
1c
e1
df
4f
a4
45
76
52
da
59
5a
de
4a
ed
e9
ec
be
cb
54
d8
5a
8a
db
cc
c4
da
de
38
5b
ce
d7
74
68
72
4c
5c
54
df
9c
1d
df
56
c8
35
d9
cf
58
4e
cf
82
db
b9
13
39
5a
ce
da
b7
b6
d5
ce
df
21
60
dc
9b
53
d9
c8
4e
e9
c1
e5
c5
e2
4f
59
55
42
64
5d
c4
80
d0
e5
36
c5
54
de
60
d7
c7
b2
b1
49
52
dd
1c
50
d4
d1
44
39
0
2b
40
44
d9
5f
3a
dd
80
c5
46
59
d5
db
df
5b
80
41
b6
45
cc
5a
58
60
45
55
bc
6b
ef
fc
47
c7
4d
16
56
56
dc
f5
ed
df
81
49
e8
cf
55
28
4e
cb
d7
df
52
c9
5a
55
df
dc
dd
64
77
49
45
db
23
ea
dd
f0
94
26
58
d9
cd
3e
d7
e1
5e
4c
3a
56
5d
b2
c6
4b
d9
db
a5
ce
4d
62
e1
e1
e1
cb
e5
67
31
50
27
ce
ab
c4
b6
ac
51
5b
c8
57
9b
59
d4
46
a8
e2
59
53
de
ba
2f
4a
c6
2a
40
48
59
58
a6
55
51
cc
40
37
db
de
3c
5d
58
c9
d0
5a
52
cd
de
d3
de
9c
d4
0
45
4d
c5
bc
db
5f
33
39
50
d4
bd
53
95
3e
37
5c
81
dc
56
52
d8
dd
59
b9
dc
d5
cf
ac
c3
30
d0
4e
5c
57
44
ce
60
0
d3
c8
5a
d7
4d
35
d1
ac
be
c6
5e
bc
4b
c9
57
84
5a
47
53
5b
ce
b0
b7
18
c6
d5
c4
5e
b9
d9
62
61
98
5b
c7
50
d3
4f
d2
c8
c6
80
b5
1e
4b
5a
dd
32
de
ce
cd
c8
b0
41
d4
49
4d
b5
d8
5b
aa
c4
38
64
b5
a9
56
c4
67
62
df
cb
5b
e1
ce
5c
4b
81
42
5a
27
5c
5c
d6
e0
55
52
4d
5b
54
e1
d3
54
c
b4
cb
5d
c6
5d
5f
52
a6
de
d5
38
c7
c2
39
ad
ac
e0
80
de
43
54
a3
55
6e
e6
37
bb
ec
65
c9
53
53
d5
e4
de
e2
50
61
38
65
56
64
5c
47
d7
d4
e5
d7
5b
54
1f
54
5a
6b
b1
c5
3b
d4
65
62
40
c6
3a
d8
2b
5e
56
35
d5
d8
c3
39
d0
5f
40
ab
e0
3
61
db
93
21
c9
d7
a4
23
bc
cb
d1
80
58
1d
d1
5c
3c
d5
dd
29
40
81
b2
4f
13
50
33
d6
57
c0
3f
bc
65
d5
51
55
dc
cd
0
c7
46
0
cb
d9
80
e6
4a
d1
42
92
61
4e
bc
d4
53
dd
d9
ce
6c
67
4a
5f
db
3b
5b
e0
4a
ca
54
39
da
51
d2
e8
21
4a
2e
53
db
41
d8
5c
26
9d
5f
5a
56
de
bd
d8
dc
58
ca
44
35
3c
46
4a
af
6c
3d
c2
cc
d9
d3
bb
d3
be
14
46
11
df
b9
d9
57
4c
c4
5c
af
b1
64
b9
56
d7
31
37
44
5c
53
5e
50
5d
48
60
8b
d6
e9
d1
d3
c5
49
de
d0
e1
e0
5e
53
91
15
ca
b3
50
64
53
5d
43
39
5f
c2
35
ba
3a
51
ca
87
57
27
d7
88
d3
b3
60
c8
bc
5a
d9
51
3e
d2
37
62
45
5c
dc
5f
16
e0
ea
58
4a
dc
38
5c
34
52
d2
56
e2
5b
cb
3e
e0
dc
d2
ca
40
c6
80
81
d1
53
bb
48
49
4e
9c
4c
4a
37
3b
dd
4a
57
3d
5d
de
41
5f
3a
46
d9
d1
c8
65
3c
c9
5a
61
2c
32
5b
5f
33
df
c9
48
b9
a0
c0
d9
37
a8
59
dd
4d
44
a4
ac
57
d4
cf
df
45
57
dd
8c
d9
e3
f2
d7
0
3e
e7
c3
5e
d3
ca
44
d0
e5
cb
55
42
5a
57
4b
e9
e2
55
50
32
58
50
49
57
de
4d
40
df
60
4f
ca
be
17
ef
cc
22
d2
d2
58
5c
59
66
fe
33
65
eb
5b
80
c9
13
6a
50
57
4b
48
b8
50
6e
5a
dc
e0
d3
5b
81
58
3f
d1
34
4c
ae
59
c9
59
ce
4c
de
cb
54
64
33
d0
6d
16
59
58
d6
65
1a
d1
43
d5
55
a6
d2
a8
61
d5
d1
cd
d5
51
9f
53
c6
ce
e6
29
4d
a3
d0
d7
52
bc
46
b8
39
46
51
5b
89
ea
50
59
c3
df
e4
c9
db
e6
d6
29
4b
e7
4c
cb
e5
dd
32
cd
d6
5d
5b
5d
67
ce
3e
c9
d7
db
4f
51
be
3b
37
49
d7
d6
d8
5c
6e
5a
66
bc
af
81
e2
36
64
57
c7
d9
d4
b4
57
5d
5a
d0
9a
48
61
b5
c3
db
5c
2b
d0
ca
b0
98
52
3f
4f
5e
0
e5
5c
de
47
15
d9
54
94
59
df
5c
49
8e
0
64
68
b2
81
cf
43
1a
e0
25
2d
4f
87
5a
68
46
41
e8
b2
da
49
cc
ce
4c
f1
ea
18
ea
3a
5c
32
31
23
dd
be
80
55
ba
5d
58
d1
9c
63
dc
81
cc
5b
d3
dc
d1
26
cb
f3
f7
6b
c
5a
6a
4b
e2
66
46
6b
60
bd
5c
58
28
d0
62
49
dc
69
36
c6
42
bf
2a
59
3a
50
3e
55
5b
47
4c
d2
5f
70
5e
be
c0
32
34
80
dc
be
44
57
4e
dc
cd
de
4a
45
d1
3a
58
a4
e0
59
5e
22
4f
58
68
4f
e0
43
a5
fc
e4
e4
b6
58
66
e4
da
97
e0
b0
cd
d3
c7
d2
42
dc
dd
c0
bd
63
e7
d6
e7
e8
60
56
61
46
89
61
45
52
44
d4
62
51
42
d1
b8
a4
51
5f
52
d7
60
4c
50
67
b7
b0
59
55
69
44
b7
29
51
a8
34
4d
60
bb
b4
59
d4
dc
d0
c7
5d
dc
e1
b
4f
53
d3
cf
c6
49
55
bc
af
8e
4b
57
cb
53
b9
cf
c7
4b
35
4b
47
d1
e5
5a
4b
5b
df
59
5b
e1
4b
cf
cd
d6
1b
e4
2f
53
cb
e0
e0
53
56
42
dd
59
d1
62
67
63
52
5d
5a
ca
b9
51
50
3d
5c
5d
b8
59
42
bc
42
b1
54
67
e9
de
4e
2e
45
c2
5a
d5
e1
ce
50
bd
db
d2
cf
41
4b
62
d9
3d
d1
29
ce
ed
3d
c3
4f
db
d6
58
be
5d
5d
dc
b5
db
de
b4
44
d8
5a
d0
cf
5b
6e
d8
2b
45
df
c2
47
db
54
b9
37
b7
5d
59
54
d7
5b
cf
42
4c
b8
a4
d4
5a
cf
d5
e4
de
88
48
e4
d9
c3
f0
b7
33
54
5a
b5
c6
54
4d
d8
5d
2e
5f
d0
d2
55
40
52
be
cb
4d
38
e6
2d
3a
ef
dc
40
50
dd
a
cd
c2
45
47
a6
53
56
37
5f
5c
41
80
4b
56
80
b2
21
ba
5b
c6
cd
4e
40
5e
53
52
dd
47
d0
a9
95
dd
4b
da
e0
5e
df
dd
ca
c4
42
db
b4
c
c4
34
c4
59
ba
dd
d1
33
5b
d5
53
df
d5
44
4
4d
cd
6e
56
50
6e
40
ce
64
cd
61
60
4b
c0
57
3e
c8
32
4e
5b
cd
d9
5a
62
59
c8
59
41
4c
4a
2c
48
56
36
db
ea
d6
c8
a2
dc
e0
56
5e
46
9d
32
ad
65
59
da
5d
cc
cc
53
c6
55
e1
4a
63
80
39
a5
5c
e3
2f
62
da
df
38
45
d3
60
2d
bd
66
62
a8
1f
b3
e4
20
46
38
4b
12
3d
b6
45
cf
c7
bf
cf
2d
66
50
32
d3
e5
ec
de
2d
cb
52
5e
52
55
d8
d1
c2
48
5a
5e
de
d1
6b
5d
50
3f
34
b7
5c
d6
d7
e6
3f
66
64
66
47
58
5e
57
cb
d5
0
e3
d7
c1
e5
e0
54
d1
d7
d0
19
9b
e2
e7
d7
c4
d4
60
49
6e
37
0
c8
c9
d6
5e
55
d4
65
bf
55
a7
44
da
d7
3e
c3
51
4a
ab
d2
5e
54
68
c6
d8
c0
df
47
45
be
c5
43
5c
38
ce
26
51
40
5d
3b
52
1f
c5
d1
65
cb
60
65
d3
dc
45
da
c4
38
3e
43
df
d7
5c
4b
2b
dc
4e
c8
56
ce
a5
5e
4c
5c
ce
30
48
e0
4a
55
a7
b1
d1
d8
d0
53
e0
13
5b
d6
3c
5a
e4
69
58
d2
50
53
e1
36
34
3a
5d
b8
4d
c1
b0
52
d9
c1
d9
e2
b9
cc
4a
d2
a2
d1
d9
e5
c6
d6
ea
50
b8
d8
69
c6
bc
25
40
de
19
c2
47
be
44
56
cf
d4
bf
5d
49
bf
9f
cf
c5
2c
de
56
da
a7
24
47
d2
5c
f1
db
e3
89
e8
57
5f
70
63
d0
2d
3a
a5
50
d8
4a
20
a1
d5
5e
d5
ce
5
27
43
5b
3c
17
d5
ca
cf
9f
44
e7
e4
ad
db
dc
3b
e9
cd
5b
ca
58
cd
c8
63
b4
43
5c
dc
53
de
60
37
80
d7
5f
67
ab
8f
cf
f0
3c
56
94
55
e8
a7
9f
e2
d2
d0
df
51
d5
c5
4c
59
d8
da
4d
57
c7
5d
5d
45
2d
2d
e8
d8
98
ce
46
2b
49
3a
cd
59
38
48
db
d5
5d
4a
40
a4
c0
bb
3d
47
55
ce
dc
ca
0
dc
da
41
96
41
5a
46
53
df
4a
c5
e1
67
65
d9
59
54
3e
5e
60
49
c8
d8
e3
d8
ea
e7
c7
5c
59
54
30
4b
40
5d
57
b4
22
56
ce
59
ee
c2
a2
bc
db
4f
4f
bb
dc
d9
a8
c5
5b
5f
5e
44
36
49
4f
6b
db
bf
4d
b7
d0
e6
4f
54
db
4
b0
3d
b2
d0
e0
66
27
3e
60
60
4a
ad
cf
d3
54
51
b9
cd
29
ca
4e
d0
90
5e
ae
cb
cd
46
59
43
68
6f
5b
a4
5f
ca
15
2f
23
42
d9
4c
ab
dd
e0
bb
50
c8
d2
83
4d
58
4e
c4
b2
a7
69
a0
d6
c4
55
de
8a
e4
d8
cc
35
5b
56
24
63
af
40
37
5f
cd
80
54
c5
0
3e
47
52
69
3d
cc
3c
5a
e7
41
3f
ad
f
dd
18
62
3e
dc
50
d1
e1
58
4d
59
d1
cb
df
d8
b0
c8
63
54
e1
ac
2c
31
5e
c7
50
80
ba
3f
bc
60
5b
33
4c
bc
ad
c1
b2
db
dc
b2
55
c5
54
4f
3e
21
49
b4
2c
b9
2e
29
48
8e
bc
53
58
b9
d2
db
d6
b1
aa
39
d9
e0
b3
38
33
c4
da
5b
d6
81
5f
da
d6
50
63
aa
c8
33
5b
59
20
c4
df
da
55
da
d9
c1
b0
4b
28
ca
ba
5d
23
5a
5e
d7
5a
42
2b
5e
bd
cf
22
8b
57
d7
50
45
bf
56
db
d6
65
61
48
e3
e0
d2
de
d5
cb
ad
4f
57
cc
50
e0
54
4b
bd
d3
de
45
cf
db
d0
d4
28
de
5a
0
5d
35
bd
5f
d1
d6
dc
cf
d2
44
ce
c3
cc
c0
c9
11
3e
50
d7
da
ad
d2
5b
48
5e
d7
59
d5
e0
54
81
dc
dc
c5
59
cd
4e
a8
81
da
c0
d9
e3
c3
e3
50
49
59
d5
b2
d1
23
60
de
4d
de
5e
40
d8
5a
2c
cd
d7
42
40
a7
2f
a8
e1
d8
38
b5
4c
b9
de
49
da
d0
59
4f
59
46
df
ba
43
53
d9
5c
db
2c
3f
d8
c6
c5
97
d7
54
4f
5a
38
60
57
90
e0
4a
d1
5d
de
d9
42
26
60
93
44
d3
cc
be
d6
b4
dc
c9
5d
dd
dc
43
a0
cc
dc
57
b7
3b
3c
5a
d5
2a
5d
45
cc
50
61
50
cc
a5
bf
4c
d8
5b
47
5b
b3
31
4b
10
43
28
45
58
e4
cc
44
2a
64
37
cc
60
be
ac
55
56
50
47
4f
c0
d7
5e
44
60
5a
2e
5f
c9
5b
56
5e
50
d8
d5
18
58
35
c0
60
56
bd
d4
d7
3d
5a
be
af
60
49
4d
ca
b8
5e
be
5d
33
32
d0
a2
ca
59
5d
d2
d7
34
d6
58
e0
d6
3a
e5
d0
c5
d4
dc
ca
dc
47
d2
d0
d2
c8
b9
d7
d2
cd
d8
57
d2
4a
ba
31
60
c9
66
c0
d3
d0
e2
49
5e
6a
4d
64
4d
4c
d3
4e
56
3e
b7
cb
e9
d6
36
e3
d2
e4
d4
c8
d8
e2
d8
da
4b
41
f2
d4
e0
51
ed
c6
6a
d0
b8
37
be
54
d4
d1
dd
a1
b3
57
d8
33
b9
2a
60
11
6c
c1
dd
3a
c5
48
c2
d3
31
5d
d0
d7
4f
5a
b8
5a
5c
bb
51
be
c2
42
d0
bc
3f
80
43
80
4b
80
d9
d2
5d
e3
34
d8
da
2c
44
cb
da
dc
46
67
a7
64
2a
b9
dc
63
5d
d5
d7
50
be
d6
d1
e7
e3
47
5a
c9
ce
68
3a
da
49
20
27
4d
47
47
bd
65
c5
d7
c0
10
e9
41
b7
5f
2b
cf
c9
51
80
40
d3
52
5c
a4
d3
4d
d8
d8
60
4a
37
d1
5a
b7
e1
5b
51
b6
5a
b4
ed
51
a4
da
a8
4d
1d
cb
5b
d
57
c0
cc
45
57
d3
d8
5f
db
d8
5e
df
d0
cb
ba
61
c8
4c
3b
ab
4f
68
5b
4c
5a
4f
c3
59
db
39
5a
4b
28
63
40
5e
b4
60
c3
58
37
b6
58
3e
d7
b1
d1
d4
5a
e7
61
53
5b
d0
a8
5f
e7
51
69
3e
46
e1
d1
e0
c6
50
df
80
a9
c3
dd
57
df
e9
4a
3b
d9
60
e4
da
5f
d8
16
2b
d3
60
5d
58
cc
3e
1c
54
e1
5e
d1
4b
c6
d8
6a
c8
5b
4e
d8
dd
5e
dd
d2
31
4c
b8
a2
57
3a
c6
46
63
44
28
d8
d8
5f
5b
5e
40
40
d8
59
9a
57
5a
d1
4c
52
df
df
b8
b3
de
d8
1d
49
72
0
6e
68
c6
2f
1f
e1
b2
d9
e4
c2
30
80
0
2e
5f
aa
be
d8
46
bf
55
c3
5d
e0
50
60
c4
33
92
d7
3e
1f
c7
d1
9f
dd
49
5a
da
af
94
44
80
55
5b
be
27
4a
de
5d
cb
5e
f9
ee
c4
3b
9f
d4
da
d0
62
54
db
c8
5e
e4
5f
d2
e4
4f
99
ea
cc
cf
d8
d9
e5
db
ea
3b
4a
5f
d1
21
51
dd
48
c3
6c
c4
6a
6b
ce
5a
67
bf
59
cd
5b
a7
da
ca
dc
98
dd
50
55
3c
b2
da
cc
c1
48
0
88
e3
ec
e8
64
dd
2d
40
56
c6
d3
ce
da
53
5c
37
2b
55
5e
5a
62
49
60
45
5d
42
50
d8
37
e3
d9
ce
d0
5b
65
2b
4d
32
52
e5
55
81
b5
e3
ce
d6
4e
3c
5e
46
d0
4f
4b
df
b2
d5
d5
d7
50
51
51
51
b2
e1
d9
5a
91
cb
5d
bd
dd
de
de
48
3c
d3
d1
cd
15
5c
d3
56
df
d0
1d
a9
cc
d3
c3
81
da
81
45
5d
ae
5c
db
46
db
cb
c7
e3
d9
5c
4e
dc
55
48
52
41
c0
52
c2
c6
4e
d8
c8
50
52
e4
51
50
11
55
a6
bf
df
df
e8
5c
d4
dd
d1
bf
52
e1
c9
4c
de
5c
34
53
25
b9
cf
26
df
3d
db
d3
45
4a
d3
34
e4
e1
31
3b
bc
3d
66
e3
c3
dd
45
49
39
5c
50
c0
65
5c
21
d7
4f
2c
da
3d
d5
50
47
5d
5d
5a
d0
cd
3c
b6
55
53
68
60
d1
55
43
63
e1
55
49
dd
44
c8
b4
cb
d3
ae
de
57
c4
4c
aa
d6
52
57
47
53
5e
d5
2e
e1
4a
90
5b
93
dc
29
62
d3
ce
32
9e
2c
5e
cb
74
d5
ca
dd
61
56
50
57
58
59
59
9c
92
62
55
c2
c1
44
ec
8b
68
c9
de
52
e1
ad
ce
c9
28
b0
5b
d9
df
db
53
56
48
54
4b
e8
c5
cb
a5
32
c9
62
dd
4c
52
e0
39
be
a7
48
bb
e3
5a
c9
55
2f
d3
24
4e
5c
24
1d
5b
13
bf
dc
3e
59
54
40
ce
45
df
37
1a
27
c9
27
50
26
53
cb
d9
50
d5
16
df
b1
c8
b6
48
ea
c0
90
62
72
dc
ba
3b
b1
cb
41
df
d2
d7
4b
5c
d3
56
dc
ad
b9
e3
2e
4e
46
1c
38
55
53
58
53
59
e4
24
e2
49
56
25
de
cf
b8
67
6f
d6
68
c9
e5
39
da
d7
63
53
44
58
41
e5
5d
96
1a
39
de
e6
d2
d5
d9
d6
dc
b7
40
5f
bc
59
46
5d
d8
d7
c6
75
2b
f3
63
9a
d0
df
e5
da
d4
d7
d8
4c
d1
de
57
de
b7
59
db
55
48
4c
e7
16
e1
30
68
d2
c1
cb
e6
b6
2d
5c
53
a7
e9
bc
50
a4
4b
dd
98
e2
da
d9
4e
49
dc
d7
c8
3c
da
c0
58
df
3f
50
d2
f0
ec
5c
e0
c7
9f
44
66
68
eb
55
59
ab
5e
b7
26
5d
51
8c
d4
2b
c5
c7
a0
ce
69
6b
ee
5b
5b
b7
de
5a
5b
5c
ac
55
3b
cd
5d
db
ba
54
59
e1
c5
58
58
3c
37
e0
58
49
b8
e4
da
e8
bf
59
42
52
59
56
db
50
49
71
5c
db
6b
4c
ee
5a
bc
ea
5e
cb
e8
65
c1
3b
ca
be
5a
ba
d8
df
d0
2e
cf
e1
55
5c
0
49
c6
4a
5c
4e
e5
db
e3
4f
5d
50
d3
d0
df
51
c0
36
bf
d4
57
23
38
61
d4
2e
5a
e9
37
6e
81
46
c7
33
81
ce
70
4e
d7
6c
81
e5
68
9d
e4
58
5c
c3
df
db
3e
86
dd
2f
b3
df
cd
d8
49
46
98
81
d5
db
4d
78
c5
e2
5d
ef
41
6
3f
b6
15
5a
46
2e
b9
d8
df
5d
b0
56
cb
37
d5
9b
30
da
d3
33
cd
dc
c9
56
de
ce
d4
32
cd
56
ae
4b
d3
52
da
4a
5b
80
55
d3
5
5f
4f
4b
5d
4f
62
ca
dc
4d
56
3a
db
63
2e
58
a
cd
32
8e
cc
d7
53
c8
ca
d7
58
c6
49
cb
48
c6
a3
57
80
c5
da
d8
b6
59
d7
55
42
df
da
59
4a
5a
c7
9e
c8
5d
31
e0
58
d8
57
57
5a
1d
57
3d
5a
53
c4
d8
cc
5c
d9
3a
5b
d3
60
b4
d0
de
44
de
5d
b1
81
87
59
90
c4
21
c6
23
c8
d3
de
57
42
5e
5b
de
cf
53
d4
4
d9
36
42
43
d4
d7
57
56
57
e1
45
c7
0
e0
4e
bd
cd
2b
ca
4f
0
23
c6
60
5e
d8
58
d3
b7
53
5a
b3
d8
a1
ce
50
cb
51
9f
ae
c2
4f
dd
8
df
a2
bc
d5
c5
24
ce
5f
45
3b
d8
48
c8
c6
c1
d8
40
51
d0
d2
c4
5d
bf
3e
e0
4c
a3
c8
50
42
d4
14
d5
37
48
48
57
5a
d8
54
5e
d3
af
52
5b
ba
47
59
d4
5e
34
d7
d4
5e
bd
cc
41
48
62
ca
de
bc
59
49
d5
57
d5
5d
5d
cb
ce
de
47
5c
c5
bb
52
63
d6
e1
d7
55
3e
c2
db
c4
51
dd
cf
dd
d8
40
4a
58
48
5e
37
27
51
e0
d1
5f
55
42
d5
48
c5
51
4e
e0
d1
c8
30
bc
b2
38
1c
50
80
d3
d2
5e
5f
37
45
4c
d5
e0
e0
ca
d4
5e
d3
db
ce
4e
ae
5b
61
5f
c0
5d
43
28
ce
d3
5b
5e
e0
d8
cd
57
bf
55
1f
ca
34
4a
d1
5c
d9
ba
5e
bf
ba
5c
5a
d0
de
4c
55
4c
5d
b9
54
44
9f
c1
2c
61
dd
5b
c9
54
41
53
49
ce
18
4c
d1
db
d6
c4
49
b8
5f
58
b
4e
5e
d6
db
d9
59
c0
df
b3
5e
3b
df
de
de
9a
dd
da
43
c6
5f
d6
47
4e
57
c1
50
cf
c7
50
4d
20
d0
d9
ca
4b
d7
da
4e
54
5f
80
a1
25
41
d9
55
de
b7
cc
c9
37
de
5c
e0
4c
4f
42
4b
5b
48
cc
60
27
ce
52
36
4e
4f
e1
d6
1f
bc
40
b6
4a
cf
61
52
49
d8
0
59
4b
42
ce
61
5e
5c
5d
cf
cd
46
da
cc
31
d3
e3
ce
5c
b1
cd
cc
ca
59
80
d8
c8
5d
5f
c3
bd
c2
81
5f
b9
60
2b
59
39
cc
58
5a
57
dc
5f
56
47
be
68
c9
59
a6
b1
58
59
5f
56
db
5e
a1
d4
d8
c1
b9
58
48
4f
5f
9a
de
da
1d
4a
c7
d2
51
4d
39
b4
80
50
dd
5f
d0
c2
58
57
52
3e
30
60
21
50
5c
4d
e1
db
ce
33
80
e3
dd
d6
e3
cc
b9
c6
47
d4
5d
d6
62
60
60
ba
d0
0
cf
a2
65
52
e3
3e
a9
b5
5b
57
db
55
cb
c6
de
64
61
4f
d0
d9
36
5f
4c
de
93
5f
e8
1a
5d
21
d9
5f
26
81
5b
c2
40
cf
cf
cf
d1
5a
21
50
de
df
5e
4b
d2
58
c6
50
a9
5d
c1
2c
5b
5d
dc
d0
d1
c0
c9
52
89
3f
1b
c8
37
5b
dd
df
51
0
54
4e
d1
54
5f
4d
5f
d7
5a
de
dd
59
dc
39
dd
d3
ce
44
60
80
dc
da
da
5d
4a
b6
de
3c
d8
dd
d0
5f
56
55
df
b9
be
a7
db
a7
d1
ce
cc
d5
40
d9
ba
80
3f
43
cb
c0
2c
62
a6
b4
38
4a
c0
52
5e
4c
4c
1e
55
5a
5e
0
1e
cc
4b
de
58
4e
4e
55
25
14
42
e0
b4
34
58
6
44
da
26
5c
cf
47
de
ad
59
57
de
db
39
c5
46
d7
54
27
5b
df
cf
d5
37
60
48
3a
55
c5
3b
bc
82
60
5f
b6
dd
bf
5b
ce
5b
24
d5
56
4c
e0
53
d2
a1
2a
dd
53
bb
d6
df
d6
b8
c1
58
d7
45
45
43
43
c3
26
d8
57
4c
5f
48
60
55
4f
48
46
44
33
60
4c
d1
33
d4
2b
ba
55
de
48
bd
2d
dc
d3
50
d7
d5
cd
4d
d5
cf
5c
dd
41
cc
59
31
54
d6
27
50
b0
db
59
ca
ba
80
ae
48
88
5f
de
5b
b2
b2
58
50
3e
de
e
dc
51
59
c8
c
5b
37
80
4d
dc
2d
d4
5b
2a
2e
cd
5d
d0
70
5e
d6
69
c7
d3
eb
f4
5b
42
d7
6c
43
c4
58
44
58
68
65
df
e1
48
2a
59
3c
db
ba
72
4e
42
4e
66
da
d4
e1
df
56
64
d1
c1
38
d0
6a
b9
3c
c3
df
a3
e0
ab
5a
de
ce
4c
da
c7
4c
4e
9e
ca
54
e7
50
53
4e
5f
38
49
56
c2
48
81
de
d5
b8
4e
d9
a6
e6
c6
59
43
4e
d7
b5
af
54
d5
d1
3e
21
ca
56
dc
dc
dd
81
b4
aa
b0
b2
cb
c5
65
e3
ce
dd
ba
43
bb
64
d9
5b
62
4c
c6
e3
37
b2
d6
ce
de
42
81
9b
bb
a5
bb
45
3a
24
49
e7
c9
aa
3e
df
5e
54
ce
46
54
52
48
eb
d0
e5
55
cd
c2
d8
29
54
cd
58
80
96
d4
d1
e5
d5
9a
bc
a5
ed
d2
59
56
dc
3c
62
55
50
d3
13
c0
80
43
4a
66
58
3f
c0
d6
58
c5
53
df
53
63
d6
3b
b2
5c
57
52
c9
66
4c
cb
5b
d4
d0
dc
dd
3a
da
b4
d5
c8
5e
49
a7
3a
41
58
e1
ce
2c
c1
6b
53
da
70
45
da
e1
df
d7
43
d4
6c
3a
e7
5d
4e
63
40
d9
4c
64
50
b1
42
52
1c
44
58
56
16
33
d0
1b
5d
38
c4
d1
67
de
d6
54
e0
bd
c6
50
d9
db
4c
e0
ae
ca
cb
ed
d2
cc
b0
5e
c2
b0
8d
c9
57
59
d9
4c
56
4f
5c
5c
cc
d5
49
51
58
58
c0
e2
48
c7
4a
80
5d
61
47
d3
61
da
3f
49
c
5d
3a
d2
cd
d2
c9
95
29
e0
1b
d6
e1
dc
9c
62
4d
5b
cf
ea
51
48
2a
55
4e
42
62
2b
da
2e
d4
4d
57
43
57
3e
5e
ce
da
56
ce
62
5c
80
42
4b
3a
2b
52
c9
59
58
5d
af
d5
a6
49
32
d8
d5
54
e6
d2
d1
49
57
4a
69
5a
b1
56
27
e6
57
bc
64
43
ca
5d
6a
64
d9
59
53
48
b7
44
58
50
df
d3
48
59
d5
c0
1a
f6
4e
bc
e8
c8
80
dc
30
62
3b
23
45
d5
c3
ce
d1
52
5c
b7
dd
5d
d8
58
e1
c8
c4
d3
eb
ba
53
e0
63
56
61
d4
62
cc
54
54
42
52
38
d9
57
5c
dd
43
c
5a
5a
cd
d5
b7
2d
50
5f
dc
d7
3b
5c
c5
d1
c0
43
c3
3e
c9
bf
d4
5a
e4
29
d8
dd
55
5f
c1
56
2e
cc
cd
cf
ea
de
5f
30
9
6d
54
5c
cc
b1
df
36
4e
d0
5a
5d
d8
2f
56
cb
d1
50
80
42
1e
db
51
57
52
b7
81
44
d9
47
de
41
57
de
3b
3e
d6
49
ac
dc
63
bb
5b
60
ba
59
be
63
63
d3
d3
eb
c0
44
e8
29
d1
d6
c
dc
e2
de
48
ad
47
51
52
df
4a
38
b5
e0
5c
e2
58
54
a0
41
47
4f
e0
cf
39
ca
d0
d6
b1
e4
4d
57
93
cd
4d
33
f0
f2
ff
43
40
d6
5a
57
5d
46
d6
30
bd
8f
2d
51
df
66
d4
4f
cf
98
d9
df
61
c7
18
bd
d6
59
42
dc
45
da
d7
dd
e7
56
e5
5f
4d
df
58
67
63
51
cd
da
52
0
22
50
c0
c3
b6
cd
3c
e0
42
db
5d
60
c4
e2
36
30
cf
4d
52
50
e0
e1
d6
d7
4e
4b
de
5a
48
31
24
87
45
de
42
5a
57
c9
5f
a3
cc
3c
56
5b
5a
5b
cf
b4
50
4a
d5
5a
ce
53
3d
60
d8
5c
4b
dd
bc
3f
5c
5d
ce
9f
53
80
ca
cd
14
41
55
47
5e
d1
cf
38
2e
92
80
5e
46
cd
59
3c
37
d8
b4
56
5b
20
4f
cb
d2
b1
de
bf
60
32
db
18
55
df
5c
dc
41
50
d0
df
c5
5e
df
d3
55
5f
54
c1
da
43
b0
54
43
d0
db
1f
36
4b
a2
98
cb
cb
3a
58
46
56
60
be
5e
bc
db
30
34
c8
dd
ce
58
dd
4f
db
cb
5f
c3
c7
44
5f
96
c0
2b
5d
ca
ad
d4
47
35
d5
23
df
33
9d
e5
e4
ce
cc
c1
d7
5a
ce
4f
37
c4
d1
df
17
11
5a
2d
b9
cb
dd
60
d3
cc
5b
d2
58
d6
5c
de
cc
37
42
2e
4b
b6
cb
39
4f
4a
de
e1
d8
4c
50
50
d7
de
30
c0
60
a2
dc
da
48
dc
5c
46
4e
5b
3b
d2
d2
2e
56
c7
d8
e0
c5
17
d9
59
e3
0
5d
63
58
58
62
50
16
48
d1
5d
cf
44
c9
58
48
dd
45
44
d9
56
cd
c3
3b
53
cd
c4
49
26
53
da
b8
24
5a
d5
d9
37
60
40
4a
3a
db
cf
b3
e2
d6
5d
c0
55
60
51
43
d0
54
55
df
e0
bc
5c
c7
56
11
de
3f
d5
48
54
d9
da
58
46
5b
c6
da
38
de
53
bb
21
41
5a
50
d5
5d
bb
d
d8
c6
48
52
d9
47
de
4d
b6
de
87
bf
32
5c
d0
d7
5f
50
de
c3
19
da
52
59
23
58
4e
80
c5
d1
cb
e0
d7
ba
4b
59
c6
c3
5c
55
dc
4d
ba
cc
dc
c4
52
39
80
40
d0
49
d8
4b
ef
e3
44
e0
60
5c
e8
a9
2e
e6
dc
32
c2
c6
d9
1e
45
59
4c
e1
4e
5a
e0
5d
5b
5e
be
ba
57
5a
3b
cc
3e
59
c4
4c
c1
54
5b
70
62
5e
ac
ad
b7
37
23
5e
df
56
59
c4
29
5d
cb
58
b4
db
3a
c5
d1
55
2b
5b
d3
dd
49
e5
53
d8
d4
45
40
5c
3b
59
be
cd
cf
b1
d6
35
59
e0
67
c9
22
61
57
61
e3
cb
cd
3a
45
41
e4
39
68
53
e8
e3
22
cb
9d
34
4c
dd
5c
bb
c9
de
4f
de
81
4c
52
26
3f
ca
52
57
c3
47
49
b2
db
bf
54
c5
5f
5a
35
34
4f
57
4c
36
58
de
9e
5b
d7
49
5b
b4
40
da
b2
b3
c4
58
de
c1
e0
da
d8
89
37
5a
bc
5c
59
c0
d2
de
c4
b2
d7
d0
5e
5a
cd
5f
5b
e0
e0
69
d1
4f
59
4b
2e
5c
dc
d1
d4
db
42
cf
2a
95
e8
56
56
8c
50
e5
5f
d2
55
59
41
53
5d
de
51
d3
5e
43
5d
d6
5e
59
24
5b
b8
80
50
0
ce
67
23
46
57
e7
49
d5
ca
45
51
e1
cb
d9
53
5b
39
d9
a2
44
c8
3e
23
34
cd
50
c1
af
2d
4f
b8
d7
e1
b6
d6
c1
d2
6d
b6
c2
29
5d
d0
d8
59
df
4d
56
cc
40
5a
4e
3a
89
d3
d5
d6
57
99
4e
be
3c
34
d9
cf
e4
ea
e5
d1
61
d5
4f
24
35
e9
d2
e2
81
55
d7
40
30
e1
45
52
dd
40
a4
c2
57
d3
cc
5e
5c
5c
4d
5a
43
56
7
b8
51
80
d3
d6
d0
59
36
db
ac
58
49
d5
de
e6
e0
28
d3
e2
24
21
e1
52
dc
5d
c4
4d
c8
8d
50
bf
97
c2
e
d7
35
cb
ce
de
dc
59
dc
3e
c3
d6
3b
41
d9
5b
dd
bb
c4
5e
c7
d6
46
52
21
38
4e
d6
53
57
31
99
4f
bb
d4
e3
df
55
88
ce
0
51
49
4b
20
1d
5e
da
62
da
89
b2
61
6a
56
5d
d3
6c
60
66
60
bc
4f
9a
44
85
de
d8
db
d2
46
d3
b7
60
c4
d4
c4
da
a1
52
3f
c4
6a
33
45
5e
39
de
4b
53
54
b1
53
60
ce
46
d9
d7
e0
c9
c5
e3
d7
3b
48
5a
5e
cf
cb
5f
50
b9
56
57
9f
80
dc
26
db
46
ce
81
e
bb
30
ab
be
aa
d0
5f
e0
a7
cf
5b
1e
e2
53
c0
40
d7
88
4d
66
63
48
53
d9
67
bf
cb
d7
58
83
46
d7
b0
d6
d4
af
db
d2
d4
54
df
b5
33
e2
4c
d6
c8
ca
65
61
31
cc
e8
dc
56
d5
33
45
c4
2e
5b
c9
dc
65
d7
d4
c8
48
3c
5a
dc
d9
51
58
9d
b1
42
2b
63
dc
27
de
56
e0
a3
dc
bf
df
59
57
48
dc
da
5b
c0
4c
c4
5b
46
40
d7
36
d2
59
5a
26
4b
d7
53
b9
d8
56
39
cd
56
de
80
5c
b7
53
4d
d2
57
59
cd
53
da
5b
53
66
9d
cc
46
dd
e7
eb
80
62
4d
dd
23
67
61
d4
5b
75
57
57
e2
af
51
14
55
bf
34
d6
80
59
d6
da
ce
57
d1
5b
66
b2
33
c9
db
e0
dd
d6
5a
c3
4d
61
d6
5b
65
d6
ba
31
d0
53
c7
e4
52
58
cd
bf
5a
d3
b8
a9
db
52
de
22
40
a2
5b
3f
bb
d1
c8
5a
46
d6
1d
e3
e7
61
5e
50
0
5c
59
54
56
bc
43
3c
ce
d2
db
46
59
5c
4b
c3
5f
41
ac
a5
58
d6
d3
e5
c5
ca
e4
55
d1
e1
b6
61
25
4b
2c
2d
50
52
2a
40
4c
ba
33
c8
4b
bc
54
29
4c
d7
51
5f
49
5d
68
3a
29
47
ce
d7
c9
dd
b6
4c
2f
5b
ba
ce
52
c3
5d
3c
4b
bf
57
d2
8d
56
b9
5b
ab
e5
dd
b4
12
31
c0
50
df
44
d5
5d
da
61
32
de
50
cd
32
d0
dd
5a
e3
5a
52
d8
5c
4e
54
5f
db
53
9f
a5
5c
cb
d9
3e
33
48
d4
b7
64
de
df
c6
40
be
2f
d8
50
d0
c5
bb
5d
5e
3a
64
de
56
2c
3c
ca
5d
a9
d3
d3
68
6a
51
5f
c1
4f
70
4f
b
d7
55
d4
53
42
c2
50
44
cd
41
b4
45
d3
d8
e4
2c
dc
1f
e3
d3
ee
dd
5e
41
58
5d
50
e3
dc
e6
4e
50
cb
c1
81
a4
d4
1a
d0
c1
0
17
d7
56
b7
e0
43
55
de
db
c3
1d
bc
dc
67
cc
5b
2c
d1
d6
38
33
4a
62
62
5b
9c
52
ce
39
c8
5c
4a
5c
50
cc
d0
d3
80
bf
d1
54
bb
6a
22
1f
e5
57
cc
9e
b7
be
4c
d1
d7
4f
49
3b
66
4a
47
47
61
d5
cd
41
68
52
f1
cb
5f
bb
db
55
50
62
ea
56
68
5f
bf
24
c1
da
38
cf
ad
d5
5d
5d
d5
a5
55
80
df
5f
e
3c
c0
e7
cd
4a
44
94
4f
cf
52
59
57
cd
d6
5e
d6
db
c7
d0
e3
a1
c7
d0
59
b9
26
b1
a5
5a
d2
da
4b
2f
48
57
b3
d9
49
c2
5c
59
4c
c6
c4
63
bd
d9
58
b1
66
3e
e1
9a
1f
24
e3
d4
81
ec
44
61
5c
4b
55
b9
d5
c4
d3
b6
ce
41
b3
5d
d3
4f
5a
bf
eb
d9
cf
b6
54
2b
55
c1
5a
c1
cf
cf
d7
c9
c6
51
4c
45
4f
d0
ec
33
7e
ea
f2
0
5b
ce
15
ba
5f
53
d1
b6
c6
ab
b2
d9
5e
66
5a
58
46
50
4d
d5
ce
c4
d5
52
40
bf
cd
26
5a
d4
d8
d5
58
81
de
d6
6c
67
e2
bf
d8
bb
df
e1
50
4b
35
25
c7
46
b0
bc
cf
81
54
53
46
d3
5a
c1
e0
e0
b2
dc
44
4e
af
c1
dc
cc
e0
c9
4d
dd
de
51
46
b8
d6
5d
dc
5f
ad
c0
56
a6
c9
b8
d4
55
dc
c6
c7
d6
e0
ad
b7
39
22
c4
3e
31
d8
58
c4
33
d3
cd
c9
d2
c4
45
d7
54
ce
dc
5c
40
c4
3d
57
5c
59
94
58
9e
dd
c5
56
54
55
56
cd
39
b1
11
da
dd
60
5e
be
5e
d4
5f
42
b2
dd
c5
59
39
d8
cd
58
4f
52
5c
40
ce
8f
52
bf
37
d1
a6
c6
c9
30
4a
60
db
9a
b0
50
4d
5b
24
cc
5f
cb
5f
db
52
48
a4
cd
53
cc
35
5f
a0
c9
b7
4e
5d
a0
d1
37
d8
d0
a7
15
bd
54
89
dc
df
21
5a
c6
d5
e1
14
df
5f
3e
cc
da
e0
d2
1e
55
55
3d
60
5a
3e
d8
d8
db
d7
ca
0
5b
db
b0
38
13
47
cd
50
4f
bd
dd
ce
44
3e
54
5a
c6
bc
3c
db
5a
e1
56
e0
20
c0
33
41
4b
c7
3f
5d
58
dd
d1
9d
a1
c9
60
9f
59
4a
e1
d1
42
ea
92
ad
d7
e5
6e
64
5a
63
3f
51
4e
e4
4d
4b
d3
51
df
b6
dd
59
60
a8
ea
32
81
3c
9d
5a
d4
cb
10
55
56
d7
3c
ad
60
5f
5a
4f
32
42
d7
ab
de
3c
5c
3e
53
c3
81
4c
ca
56
4a
c4
32
5d
40
cd
c5
54
b0
ce
d9
c3
a1
59
ca
da
d6
d7
40
d8
d1
41
4e
59
db
5e
4c
db
d7
49
c6
52
5f
47
5d
b6
0
dd
42
5d
47
69
55
9f
5d
5a
52
49
cb
d5
de
e4
80
bc
2b
6b
68
62
5c
81
63
de
ce
66
41
df
9f
df
d9
54
54
cd
63
50
51
62
df
da
cc
4e
5a
5b
8
3b
32
da
d4
44
57
4e
de
5a
cf
5e
83
3e
4b
db
4a
c2
e3
d4
e2
a4
64
bd
39
1d
60
af
d0
e3
d8
3a
5b
b5
4a
cd
dc
db
bd
d8
c4
5c
d4
4
56
dc
9b
5b
ec
ea
f3
44
4b
b7
dd
cb
ab
ac
2a
d5
4f
5a
4b
dc
19
da
58
52
dd
5e
57
df
47
58
b3
db
d6
5f
50
29
5d
e4
49
12
ce
db
e2
4e
e3
dc
cf
38
54
46
dd
9f
d4
4f
60
9a
4a
36
a0
d3
35
56
5c
4a
e6
e6
81
de
db
61
4b
47
c5
60
47
c6
51
5a
c8
53
df
5c
d0
52
30
43
64
6e
d4
e9
d2
66
51
47
5f
57
db
5a
d2
4e
21
93
56
d2
c8
dd
4f
c1
5b
b7
c3
5c
49
4d
c1
31
e3
51
3c
da
51
5d
54
13
50
df
ad
42
aa
cd
42
54
dd
dd
52
d1
b3
c0
43
4e
aa
d6
b4
bb
d7
40
64
4e
55
d7
c4
5b
4
47
5e
d8
c5
ec
db
f5
5a
5e
49
49
66
4f
cd
4e
29
5d
d5
a1
52
31
4a
19
d
4e
c6
81
c6
6e
d1
a9
6b
57
e1
de
2e
ce
5a
d1
43
de
d9
9
22
66
26
a9
ca
6d
c1
dd
4e
d8
ce
58
df
e1
cc
d4
23
34
52
2f
46
c6
58
5b
63
75
6e
ab
e4
d1
df
ed
d9
5b
de
a4
57
4e
5d
5f
11
53
57
df
47
cd
c9
de
5a
45
28
4f
25
19
c2
43
9d
70
63
69
ec
cf
64
de
de
5a
32
52
20
e4
c2
43
52
d5
db
86
d0
55
58
31
50
ae
cd
bc
ef
a7
55
bf
48
68
d8
5b
61
da
d6
57
50
d9
ce
dc
39
d0
88
d7
d9
b7
be
c9
df
db
24
eb
55
6c
3b
b4
dd
5b
54
d6
b4
2e
df
56
81
36
48
5b
3d
57
53
51
57
dd
e0
2d
e7
a3
2b
4b
e3
52
a8
dc
81
4e
c3
5f
d3
dc
62
c8
f6
6b
48
e8
62
ba
e0
61
c5
c0
c6
5a
b2
df
34
6c
d9
ae
35
da
df
47
ec
da
db
56
80
db
dd
54
da
e6
5c
d5
5d
c4
52
ab
5c
c7
dc
2
b4
be
3c
46
4b
51
4d
be
4f
bd
e8
da
59
dc
c0
d2
d7
eb
53
5a
8b
f6
6c
d2
e
5a
e9
d6
54
0
d4
e3
d9
de
96
e5
52
52
c1
44
55
7
a3
54
d5
cb
e7
5d
70
e4
cc
c9
32
b5
46
28
5d
4a
51
4a
c5
a4
5b
5f
ac
67
a0
c2
33
55
b5
dd
37
53
60
6d
26
80
4c
cb
59
d2
e1
ca
56
4c
dc
54
2e
89
3f
d4
57
d5
23
3a
db
be
48
be
9b
55
e3
61
d8
f2
60
68
e0
58
26
41
1a
4e
54
3f
4e
64
da
26
55
d7
5f
d9
c8
dc
0
d9
e6
d8
e3
3e
d7
e3
e8
d2
dd
1
ce
de
d9
4e
c0
3e
5b
53
51
9e
be
c5
df
d6
c8
50
18
cb
de
55
5d
5c
e1
dc
df
be
4c
c5
5a
c8
e0
d6
5a
c7
3c
4f
4d
5b
a9
4e
b1
d6
3f
6f
bd
33
3e
0
e1
4c
e3
c4
40
55
c6
c7
c8
65
40
df
81
75
5c
64
48
b7
5c
c4
c7
d6
c3
dc
bf
5e
c1
60
38
c8
d8
67
d7
dc
53
40
d9
dd
d7
5c
e3
e9
37
be
b8
af
6b
62
70
58
62
6c
5e
db
d1
ee
ef
c8
5a
64
b7
66
5b
34
4d
1a
22
51
db
ae
db
5e
52
b9
c2
58
d5
c6
d7
de
14
e7
59
40
e0
36
dd
3f
d0
48
5d
ca
d7
34
d9
56
5a
de
59
ba
4e
80
d0
61
8d
55
36
d7
80
a8
63
cd
27
d3
5c
40
db
d6
bd
e7
33
47
de
52
b5
b0
cf
4b
d4
c1
ad
a4
59
e4
cd
73
b4
cb
76
5e
49
6a
b7
bd
ce
4a
ea
ed
d0
9f
55
c7
c8
d2
52
5e
d9
d4
2b
71
4c
42
6d
cc
c8
66
80
48
54
55
50
c8
cc
cc
b
ca
42
dc
a3
dd
dd
46
3a
d9
bd
64
db
63
3f
d9
45
e1
ab
de
d5
d9
54
52
41
dc
aa
0
64
68
d9
67
67
d4
60
70
2a
cb
d4
b4
b5
cc
c0
4a
b5
54
37
95
4e
47
8a
f1
d9
e2
d1
54
58
d5
49
59
dc
5e
58
e8
cb
cb
a4
4b
3b
dd
5c
80
56
44
df
3a
bf
95
b5
97
e5
2f
dd
e0
48
4d
36
d5
e8
26
e0
65
26
db
cb
67
f1
e2
67
d8
6
60
35
dc
ca
df
df
e2
cd
4a
59
49
d9
bc
42
3a
5d
cf
e3
dc
d6
59
60
c5
c6
d7
cb
5b
bd
5d
52
cd
5a
5b
b2
5b
e4
e1
63
48
cf
68
ae
5e
65
dd
11
e5
8f
46
5b
5e
64
4c
98
31
5e
80
d3
ca
d2
c9
62
59
5b
be
bc
65
d9
19
b9
36
e9
d1
cb
cf
5b
3f
c3
64
bc
50
57
62
58
49
2f
39
42
cb
cb
d8
cc
52
d1
4b
61
37
34
6f
6d
d1
48
49
48
dd
25
64
bf
45
c7
44
ce
5f
36
50
56
ce
55
41
5d
52
58
9d
d8
c9
ce
59
51
19
d2
c4
25
e2
b1
c4
bf
c9
aa
db
51
21
98
d7
47
51
63
3f
c5
d1
ea
b7
c8
40
53
51
42
e2
49
48
39
5d
5c
e1
a9
cd
5b
bf
bf
3d
bb
db
53
c7
c1
ac
50
2f
a5
2f
df
d5
5f
3e
52
de
56
4d
46
d8
de
c3
a5
46
e3
36
da
da
b7
d6
e0
51
1f
e0
67
5e
d9
4b
3d
ed
e8
d3
dc
c9
66
db
9d
d2
80
56
5b
35
2c
c9
9f
df
5b
4c
b2
43
46
d1
c4
59
21
a7
f3
5e
54
eb
c1
ed
f6
d8
42
e1
5a
4a
51
d8
c0
dc
d7
d6
d6
4e
53
e1
c2
e2
bb
c6
ee
e2
53
37
c7
55
da
e9
3c
58
53
d3
52
d4
9e
56
c4
de
b0
c8
2
d7
d9
5e
5b
4e
da
e0
d3
5b
a5
5a
4a
d8
5a
cd
d5
62
62
41
58
c1
3c
d0
5a
5e
1b
c8
51
d4
57
d3
5d
c0
dd
e7
d4
de
e3
64
bb
cd
cc
34
da
20
9d
ce
50
47
5a
3f
31
57
ba
2f
da
11
24
4f
db
d2
e0
58
dc
c0
30
31
d8
54
be
d4
80
5b
5c
d3
dc
59
80
59
64
d7
31
64
68
d1
d7
b4
d6
b7
38
ca
47
63
c2
c7
db
c1
66
b0
1c
cb
60
84
4a
70
55
81
5e
5f
e3
30
c0
e9
54
c7
5a
d7
55
51
cf
d1
60
47
cf
69
db
e3
b5
47
cb
58
53
4a
2b
d4
17
4a
42
b5
53
5b
68
63
45
43
3d
f2
c5
d4
b4
41
4f
23
4d
b3
bd
df
d3
18
53
d4
de
80
36
e0
dd
1c
d7
c6
c1
60
50
c0
58
32
cc
4f
d7
ac
5c
a9
d6
df
5d
5a
59
d7
d2
4a
44
db
42
cb
de
64
b7
b1
31
b8
3a
b5
e6
e5
47
60
59
d5
4f
81
3a
a5
cc
62
4c
e3
80
4d
5c
9f
3a
33
89
d6
63
db
1e
42
f2
e2
59
54
c8
da
1e
c4
19
63
36
63
27
bb
41
57
c7
a3
d6
60
df
42
45
ed
2d
c1
39
d4
9f
ca
dc
3b
d7
e0
80
ce
dc
50
c1
80
5d
62
5a
d3
cf
94
61
4f
e0
c9
c3
cc
5b
39
2d
55
4c
20
bd
0
22
4b
a6
5a
51
43
5f
56
a4
41
68
27
d9
cf
5c
58
db
cf
4d
5f
4a
cc
de
52
dc
3a
55
50
54
84
da
b0
3c
65
4f
96
d1
cf
d6
d7
5b
64
37
d8
57
52
4a
2b
41
df
5a
da
e4
d5
5d
df
e7
5d
52
0
36
df
d0
d6
db
c5
65
49
27
47
40
65
e1
5d
68
62
63
77
a3
aa
da
53
5f
d5
57
5a
2f
b1
d5
58
30
df
5c
4a
b
d7
c6
38
4a
e3
d0
3c
de
ef
cd
57
37
dc
3f
4a
5f
3b
51
32
4f
ca
c0
cb
bd
d8
32
bc
50
62
61
6b
bb
3d
db
dd
4f
c0
36
4c
e8
58
50
e5
28
5f
61
c8
22
60
58
dd
2d
56
c5
d5
56
6b
59
d5
59
51
d4
35
5f
b4
db
d8
c6
4d
d7
59
dc
d1
56
db
55
d5
46
42
53
45
58
dd
d2
da
5a
5d
21
6b
49
5f
b4
b1
d1
e0
e0
c2
db
5a
d1
43
c1
ae
55
d2
c2
60
cc
bb
dc
c6
d4
e2
d6
c2
55
d4
34
c0
ca
5f
46
d0
5a
bc
43
0
1f
54
61
2d
d8
5b
63
5a
59
c5
d4
33
dd
dd
40
1b
5d
6c
4b
56
bf
4f
d8
d7
41
df
e0
42
4e
50
32
dc
cc
bb
c7
e6
42
41
52
5f
b7
3d
d7
80
45
cc
c0
d3
3f
47
44
de
a2
50
d1
45
9b
d5
3e
55
e4
da
59
ae
50
58
e5
64
8f
ed
c4
d6
cb
d5
df
3d
41
31
5a
58
cd
1b
cf
5c
dd
d8
e1
d6
d8
d8
65
83
1d
80
d7
4e
e2
e3
ec
d5
c0
39
51
d6
55
de
45
96
59
d6
5a
52
d1
d6
32
bd
4e
31
51
42
8e
df
11
62
43
64
49
d6
4b
e4
59
c6
37
b6
64
df
38
d5
de
55
e1
37
d4
57
46
48
5f
d3
d3
48
f4
ec
eb
56
3b
b1
4a
d9
5d
4e
60
56
19
5e
4f
5f
1c
b2
8b
2a
5f
e2
55
2b
c4
80
4f
38
e5
46
c5
2a
dd
34
ad
b0
c4
49
df
5c
57
5d
cf
81
b2
46
d4
62
3a
bb
c3
4f
47
c7
d1
d9
d4
80
5a
5e
da
b7
df
c8
d8
db
51
d5
4d
40
b7
1e
38
3e
57
80
56
cf
c7
c7
4d
e9
d8
c1
4c
da
45
dc
47
1d
5c
ad
40
6d
69
74
4f
58
c4
c6
dd
9d
5e
af
c3
c5
19
53
5e
51
5c
d5
d4
16
b8
47
4c
61
5f
62
d8
b9
5a
3a
ba
48
80
89
35
65
4e
c4
5f
d5
e2
63
dc
ca
47
53
bd
a7
c9
4b
d3
5b
ae
e0
dd
47
da
d9
80
34
53
38
df
4b
e7
dd
90
e0
ef
df
37
4b
4b
4c
d7
8e
54
d2
47
40
a3
db
37
bf
4d
9e
57
3e
e2
ce
e7
30
ca
d8
48
6f
62
61
49
48
3c
d0
c5
43
d2
d4
ec
b6
4e
e3
d0
9f
34
53
db
25
4d
45
3f
c5
df
e3
c5
d0
62
cd
47
b0
4c
b9
d5
47
40
db
d2
4e
df
60
27
61
ca
30
d3
ce
5d
5d
dd
4c
d7
e1
ef
da
5c
59
d3
54
18
4f
e0
b3
5f
32
1c
de
c6
da
cb
db
57
42
0
34
b5
d8
58
db
43
cd
cb
56
de
a7
53
5f
0
e0
dc
5c
de
51
ab
37
56
e9
57
4f
4e
e7
61
d6
dc
c4
1b
e9
d3
cd
59
c6
c3
c2
65
4e
53
cd
de
ec
56
4b
44
22
6e
e8
ca
5c
5c
dc
56
51
4b
96
a6
60
c5
de
4b
36
19
4d
4e
38
db
b0
55
ce
4b
a6
ea
58
60
e1
5c
69
3c
5c
62
53
64
31
2b
63
60
43
d9
e2
bf
b4
e4
3b
b4
d9
db
dc
c1
e0
28
42
57
5a
65
b8
69
5e
be
cc
e3
3c
42
d1
d9
4d
56
c4
da
df
c6
3b
3e
5e
4d
61
d7
d5
5d
df
1c
57
b6
e2
c8
c0
eb
e7
db
e8
4c
5a
4f
57
d8
b7
48
e2
32
de
5e
5c
80
38
44
a8
d3
e0
4a
62
3c
4b
92
5d
44
61
40
c4
18
5a
d3
5e
3f
56
48
80
4f
d1
cb
cd
5a
4b
5e
bf
be
41
b0
61
e3
be
c7
64
8
e5
de
41
d8
5b
db
db
2e
3d
b3
c5
d9
cd
5c
87
9f
59
45
60
5a
81
d5
56
60
80
56
57
4a
db
d2
49
5d
dd
1d
2c
da
29
61
be
46
54
d0
e5
d9
2b
e3
d4
c3
66
ad
5d
5c
6b
bf
c7
b7
63
ba
49
bd
dc
e4
4a
dd
56
d8
cf
42
41
d2
24
45
4a
81
c8
d5
db
a8
57
2e
30
d3
db
48
0
41
45
46
a4
e8
28
e5
df
5a
c3
d2
c6
d5
be
d8
6e
2c
3d
d2
81
df
db
d9
b2
40
3f
de
cd
55
5d
b0
dc
4e
5e
d3
5d
db
5e
de
d5
dd
56
2f
d9
d3
69
a4
69
4a
66
5e
57
c7
30
db
d6
d0
81
60
1
51
4b
4d
38
46
ca
d7
43
d9
66
de
e2
57
46
3a
53
67
68
69
5a
6b
4e
68
64
55
d8
dd
dd
35
53
4d
2e
d4
d4
46
5f
58
49
5f
d1
e0
d4
b8
3b
2e
d0
a4
eb
4e
ce
36
4b
4f
cc
d4
2d
b7
52
c2
4d
2d
c2
ab
eb
d3
e6
3e
d4
b6
b3
83
59
d9
5d
59
cf
54
c9
dd
55
cf
52
59
4b
dc
5a
c4
39
81
e2
b8
d7
d4
d8
d1
d1
5f
5d
d0
cb
51
cf
55
40
38
d5
d8
43
d4
dd
df
da
b8
e9
9c
59
11
c0
5b
47
56
c3
ba
dc
cc
5c
14
64
4f
80
26
61
c6
51
35
3d
a6
d4
c4
d4
cf
be
56
c2
47
dc
60
aa
a9
d7
54
57
dd
d9
5c
d9
58
c2
4e
d6
af
28
5a
6b
6a
d4
ce
d7
d7
f0
23
cc
95
c6
43
47
e1
d4
50
81
cc
da
d0
5a
d1
61
61
ac
61
c7
d6
c7
d4
d7
2f
d
5e
c7
e1
bf
be
50
5f
80
5d
47
45
e0
cc
5e
c4
d9
ce
dc
c4
d8
44
5e
39
d8
47
5c
80
c8
5e
25
53
bf
5f
81
cc
dd
ca
1e
59
b6
3f
da
51
4b
aa
d7
cb
52
59
cc
1d
35
d8
5b
5c
c2
c6
d2
50
d6
d5
db
82
47
c5
5a
5a
55
d8
99
56
c2
55
51
d5
3
5c
c4
bd
5a
d6
47
32
cb
5e
de
d2
54
de
50
2a
5b
4d
de
54
54
d8
81
df
51
53
c2
2c
df
58
c0
e0
db
bc
34
5a
5e
d2
d9
e0
c2
c7
dd
de
4e
8
d9
50
80
d4
52
e0
3e
5d
e1
ca
c
5c
d2
95
de
5e
cb
5f
40
3b
41
98
d0
3c
80
56
2f
5b
a9
5b
61
5a
1d
5e
44
c6
c9
3d
d8
24
48
47
50
46
de
80
53
ce
55
de
52
42
4f
b5
cf
10
cf
5c
0
dd
cc
dd
be
3b
0
d3
d2
df
e1
53
b1
54
d4
55
a7
61
5d
61
53
d7
c6
d7
da
d8
39
4
41
33
d8
d5
d5
dd
5e
4b
56
d2
dc
dd
d1
4c
bb
e2
d1
d1
4c
de
5a
37
40
c7
33
45
3f
d2
de
ca
57
60
49
dc
dd
a9
38
da
de
3c
41
46
c1
be
d1
ba
d4
df
dd
46
5a
d7
49
d9
d9
ca
31
db
b9
0
80
5a
50
c5
da
58
b5
d6
d2
b7
40
95
54
dd
39
3e
55
c4
41
56
46
e1
55
30
49
4e
54
1a
d3
52
51
da
cf
4b
c2
52
d8
da
d9
51
5e
81
58
c6
5e
3b
5f
4a
1b
aa
d2
cf
a2
45
da
de
3e
5c
48
df
49
d6
dc
60
b6
55
54
de
5c
53
db
d9
47
b3
cf
50
dd
b6
5b
5b
b9
4b
ca
5a
d1
b8
2c
56
bf
49
e1
c8
e0
58
d2
80
b0
d9
59
2f
56
ae
49
51
44
da
db
d1
dd
cf
5a
d3
3f
58
50
dd
cd
cb
a6
3c
4d
52
4b
55
50
53
0
5b
d4
4c
cc
51
d8
29
42
dd
9b
22
bc
3f
ac
4c
51
de
d3
3b
df
d7
4a
5e
c3
5f
5f
57
d6
df
41
26
41
c6
1c
d0
a7
c9
39
cd
d9
58
da
43
53
db
d7
c2
a7
3d
dc
d7
55
28
5d
48
c9
de
f
49
de
ae
dc
50
51
93
54
4d
b0
66
43
5b
4d
dc
cf
cb
52
c5
e1
54
69
d1
da
6e
d3
55
54
d6
57
51
b2
54
5d
cc
e0
65
46
9
4d
e5
c1
62
e7
3d
4b
53
61
da
d4
a2
ef
c3
de
db
d5
d5
de
56
b8
5a
c2
5f
d9
ce
ba
2c
a2
e5
74
69
5c
d7
52
41
4f
42
d9
d0
4e
dc
3a
e2
e9
50
e0
52
bc
5e
48
42
4b
81
44
bb
25
dc
2e
80
5d
dc
b6
c5
56
47
8c
c5
df
e8
c5
5d
bc
3c
4f
c7
5b
aa
9a
e2
27
d8
42
c2
81
cd
95
e1
5b
ca
d0
df
d6
2d
c1
27
ba
3c
65
5c
5c
c2
dc
c9
df
dd
4d
4a
db
19
df
da
5b
34
e5
e8
27
21
d2
3a
e9
e0
3e
4a
5c
e0
c2
21
ee
64
50
42
58
33
50
56
a5
2
45
cc
53
5e
c2
59
42
b8
de
4a
42
51
51
da
14
61
17
d1
db
49
c3
51
6a
4e
b0
61
d7
f0
df
49
53
d2
44
d6
52
8a
b8
db
51
e4
d8
d2
40
51
5f
5d
c2
5c
b9
d1
5a
e1
d2
3e
39
5d
3c
c5
d8
53
54
55
80
64
81
4c
aa
67
cb
cb
46
5c
55
67
51
da
c6
d8
e6
d4
c8
da
5f
41
4c
b3
44
5e
3e
50
55
35
60
2b
5b
50
dd
4a
4c
e0
54
b1
36
48
4a
c7
50
60
b1
b5
5c
56
5f
4b
5a
c9
56
d4
c6
60
49
d2
ce
dc
42
d8
7
42
39
be
59
b4
3c
56
67
af
54
21
ce
5b
c9
de
ce
de
5f
d4
2a
e9
c4
b8
da
59
de
64
72
5d
75
5e
5f
d6
dd
cd
dd
ea
cd
d8
e5
df
4f
c0
d7
cf
64
5c
dc
0
d2
cb
50
32
49
d6
dd
b1
e0
cb
59
2f
4e
4b
39
e0
48
d9
e5
dc
5a
d0
1b
b8
57
6c
dd
d7
d5
ee
ee
80
94
cc
ad
d7
9c
33
55
d7
eb
4d
e8
db
48
40
c3
10
50
3c
bc
a6
56
55
d9
d8
43
5c
d5
d9
2d
d7
60
5a
d2
b0
d4
57
68
5e
46
cd
e2
55
db
5e
57
5e
46
ca
d5
55
1a
51
d9
c7
a2
d2
de
e2
55
62
ec
c9
39
d5
49
2e
d0
5a
c1
b3
29
39
e2
e8
c1
83
d7
dc
a3
d3
4a
5c
37
2e
cb
26
51
d4
bf
1c
47
49
27
ea
52
c5
21
51
dc
b5
49
4a
4e
4a
cf
5a
d9
3f
44
2e
51
45
61
39
e1
4f
4e
32
dc
43
a9
d6
cb
df
d4
48
ad
d5
da
b3
de
de
5f
5c
dc
b2
de
d2
a5
a2
c0
5c
80
5a
61
d5
d3
5b
5b
df
5d
d9
30
37
2c
9
3c
66
d1
58
8c
cd
b5
e4
d8
53
de
b0
d3
4f
57
5b
d0
de
e2
df
dc
e0
50
da
bf
e3
ea
2c
c5
51
3f
bf
41
9a
63
dc
57
31
3a
59
d9
80
dd
c8
cf
81
0
66
1b
5f
4b
54
56
4e
be
df
63
e2
e8
26
49
e2
46
52
3d
3c
2f
5b
d8
bb
91
cd
2c
4e
cc
4e
56
5b
d1
0
af
3e
40
d1
56
aa
11
57
5f
59
30
6c
5b
57
b8
5a
d5
56
52
bf
55
58
56
54
cd
60
48
59
59
5e
57
4c
4a
4a
5d
3d
d4
42
54
dd
db
5d
e8
52
3f
81
2b
4c
e0
dc
62
c8
3f
59
60
2f
2a
48
1d
c9
da
36
37
d0
40
9b
bf
da
5a
cd
bf
5c
be
3e
a
e0
dc
56
d0
c3
57
c3
4b
cb
4f
cd
a7
bb
d3
58
59
b7
e8
50
db
b8
56
33
3f
4d
d1
d7
df
d9
54
36
dd
2a
cd
4f
dd
46
5b
ce
58
54
d7
cf
bb
bd
5a
e0
db
62
61
a4
d5
58
d4
54
58
2b
d2
c7
d3
5c
ca
5a
48
30
5f
4f
c3
5a
62
e
19
55
d6
62
1b
52
59
cc
20
2d
51
49
ce
de
ab
ca
d3
d6
d7
47
47
64
ad
cf
5e
5b
d9
b8
5b
c8
ce
5b
30
c8
d4
35
55
d5
46
3f
b4
2f
d6
59
d0
5a
5b
30
da
57
cb
46
c3
de
e4
51
c9
dc
69
13
ce
41
21
cc
9e
b4
d8
58
66
61
c7
d6
4d
0
34
5c
52
b4
d5
db
e4
ea
52
d3
b0
ce
d2
d8
21
5f
58
2e
d3
55
af
58
e0
4f
ce
31
e1
50
9a
ad
d6
59
3a
d0
80
c2
d8
34
48
55
b9
38
da
5b
35
bc
d4
56
c9
dd
11
b2
50
c7
a2
d7
d8
aa
4a
a3
22
44
cf
4d
80
4c
5f
88
de
4d
d6
52
2a
d7
49
47
4f
5d
d6
51
4a
dc
df
60
53
49
49
ce
ba
af
d8
db
50
d2
e4
34
d8
81
d8
bd
3f
5e
5a
36
4e
e0
d8
45
16
dc
d4
42
58
b5
50
4e
cc
5a
41
50
25
86
3e
c9
14
cd
53
5f
c8
53
55
50
53
dd
ac
4f
d7
c3
de
cb
35
66
b7
52
d2
4d
c0
59
5c
d4
4e
ca
5e
e1
dd
4d
48
d7
e3
d9
1c
aa
5b
42
63
5c
65
d8
21
45
51
54
cc
c7
5f
2b
60
81
5e
2d
d8
d2
b5
d9
cd
d1
5b
ca
48
36
2b
57
d5
dc
2d
d9
c2
d9
5d
d2
67
53
cc
df
98
cc
34
da
db
54
45
d8
c3
40
59
d0
a7
58
dc
de
d6
d6
7
5d
1d
c4
45
e5
cf
3a
36
51
50
4f
de
d7
49
a2
d9
2b
44
bb
db
58
dd
b8
d5
5d
5b
4c
dc
da
da
15
b3
a8
d9
df
b0
d5
5f
bb
c4
4d
0
b9
dc
c1
e0
ce
55
db
d3
af
da
5a
39
cb
5a
3b
87
e0
b6
c6
55
63
35
5a
45
3e
d7
57
ab
d5
ba
58
d2
55
dd
da
3e
49
5f
59
3b
c7
e0
53
d6
42
37
1b
d3
c7
5d
52
d3
5a
33
a7
3a
ab
e0
cc
53
de
d3
a5
54
cb
59
4b
5a
cc
d7
3c
3e
d1
53
c3
55
29
e
d9
4e
57
5d
50
b7
d9
d9
4d
cd
d4
2b
d2
c6
5a
b3
b4
ac
db
da
57
5c
ca
46
5f
db
53
61
4a
51
5d
59
d4
31
1c
31
59
56
dc
d6
4d
59
4c
d4
60
41
5e
c9
1b
60
5e
d7
5a
d0
91
d1
4e
42
e4
d4
61
e1
dd
46
80
dc
4d
c2
42
df
43
29
5e
3d
5a
d7
56
d7
ab
b4
58
d4
ba
df
3e
59
48
51
dd
5e
b3
3b
5a
c5
d0
4a
de
5c
d8
37
22
4b
e0
0
3f
d2
dc
55
df
5a
89
cf
5b
5c
5e
ca
c5
52
cf
55
52
4d
f0
d1
64
44
5a
6b
ae
65
d5
c8
cf
42
4d
4c
62
ad
5f
53
be
5a
d7
5a
dd
49
3c
37
5a
df
c5
52
24
49
4f
67
a2
df
3d
c8
64
7
47
14
4c
28
3d
db
4f
5c
dc
3c
c5
4c
59
e1
ed
ba
ca
d5
c6
67
53
c3
d3
5d
3e
cc
dc
be
db
56
a3
b7
43
bb
50
5
da
c6
d6
3e
de
3e
b5
db
55
df
cb
28
e2
53
48
59
5d
48
d3
60
60
df
5d
56
de
dd
e3
47
50
d8
e1
56
e6
e3
e1
48
80
3e
61
22
db
58
d3
4f
59
d7
d9
56
5f
d2
ca
46
22
46
40
60
d8
61
3e
c4
d1
1a
d4
4e
dc
3e
58
e0
da
12
d3
41
59
4f
46
3f
60
e3
e9
b9
dd
8
58
47
c5
0
c9
dd
43
dc
bc
5c
51
47
dc
21
5a
bd
d8
58
c6
d0
d6
4e
c9
3b
3a
c8
3e
c6
29
5a
d7
cf
d6
aa
29
d7
6c
3a
50
3c
d6
c1
c8
5c
52
dd
5f
35
bd
56
5a
59
43
df
d8
93
dc
f1
50
58
ea
da
50
5b
ce
0
e1
f
81
62
53
bc
68
62
64
48
9d
d8
c0
1e
4f
d5
60
d8
43
e1
58
50
5c
af
44
52
c0
54
4e
43
c2
dc
c9
c8
d7
19
c6
cc
db
4e
b8
de
dc
c5
e0
5e
54
40
d7
60
d6
14
61
dc
df
4f
dd
db
3d
d9
80
5e
5e
ca
c2
4a
2b
3d
39
dc
38
ad
5b
2b
ad
d7
55
1c
49
c7
b4
de
5f
80
b8
60
bf
c1
d7
5a
ca
d0
54
c1
b3
33
37
d8
46
d3
e9
e7
68
38
d5
5c
b9
a4
5f
63
55
3d
cb
d6
40
d5
5a
d6
c5
64
e5
43
6a
df
35
c4
1c
5a
ce
22
4e
da
5e
cf
4a
c5
e7
db
34
a2
62
3a
4d
db
c3
59
5f
be
3e
45
e9
bd
12
b7
54
60
4d
dc
ae
d3
ba
6b
39
ca
34
cf
61
c0
80
5b
3b
d2
51
81
47
5c
d5
54
d3
54
e4
ed
d2
c4
46
4c
e0
90
58
cd
51
ad
bb
48
ca
de
5e
2b
3d
55
d8
80
cd
c7
5f
4b
4d
5c
c8
dd
5e
5c
4f
b8
80
d6
62
db
60
d3
61
d1
c7
4c
d7
d6
32
e0
de
58
4e
cf
d3
2d
53
b1
62
d5
41
60
d1
d6
51
d3
e1
d6
21
ac
4a
8c
d5
cc
ce
5d
1d
54
d6
52
ac
60
c1
23
de
d1
1d
86
4b
21
bd
42
59
88
c9
56
53
cc
59
5f
c8
35
cb
58
58
20
5d
49
cb
a5
2b
d9
df
5c
cf
58
42
cc
cf
de
d7
d3
d4
5f
5c
df
e0
db
e0
3f
50
44
de
d5
c7
d9
3e
58
41
5a
56
50
c4
55
4c
64
d5
50
c5
80
3d
dc
be
53
5a
d4
54
49
35
c3
d7
d7
38
c3
52
51
dc
49
1c
d2
c2
dc
d9
ba
45
ca
5c
80
2f
59
9f
db
d0
ae
d6
de
4d
c6
b1
ca
c0
cd
bd
5b
40
39
4d
d4
c1
dd
3a
dd
5e
de
55
d6
d6
57
c3
54
42
d6
5b
cb
52
de
e0
30
5d
59
d3
0
d2
da
40
c5
40
5b
5b
c7
0
ce
d7
e0
5e
b9
58
48
a7
da
5d
56
46
d8
56
5a
80
48
df
d7
5a
d4
55
d6
c1
cf
59
e0
5f
5b
dd
9a
33
c1
52
81
d6
c2
d7
db
5a
45
4a
d8
38
d5
a9
d0
c8
cc
d7
4f
42
5e
da
38
ad
c6
4d
59
d9
d8
4d
d1
54
d8
3e
58
d8
d3
c4
a1
35
bf
aa
59
13
bf
57
da
df
1b
e0
52
57
30
4a
59
39
3a
3d
de
de
80
a8
30
df
5b
d6
d6
5b
b1
a0
b8
4b
e0
dc
3b
5d
ae
55
5f
55
c8
51
2f
80
43
dd
4c
50
cf
c9
df
3f
49
4c
c5
4b
d2
b9
60
55
bd
5f
c9
42
3d
d8
ca
b5
d3
53
4d
d5
33
d6
b8
c4
21
a0
57
36
c2
52
d6
45
cc
cc
58
5a
54
59
cf
da
20
ce
de
c6
61
dc
d7
5d
d0
cc
d3
e2
cd
cc
df
3c
42
ad
5d
5d
af
90
5b
dc
3d
51
5f
cf
2d
5e
5b
59
ac
4c
3f
5e
59
5f
da
c5
d9
43
33
5d
54
a6
4e
c1
5f
d8
4b
d3
dc
5c
bc
7
60
56
de
58
47
45
41
cc
c2
c0
e7
26
ce
3f
4a
e2
e6
5d
98
59
ba
5f
d0
e3
50
52
ca
5a
df
81
2d
c4
e1
63
34
59
81
d2
59
56
de
ea
58
89
e1
c2
e3
37
da
e9
db
3a
a9
ca
cd
59
5d
dc
b3
de
c6
de
b2
e0
fa
e0
65
d2
de
c1
50
2e
5b
dd
80
b9
42
31
80
20
df
60
2f
df
de
de
18
17
c3
50
d6
e3
df
2b
53
b8
5a
b2
c2
cb
aa
c6
db
c4
5d
55
5c
a0
b5
57
69
57
d6
59
de
50
c3
cd
e6
3c
36
d3
d1
4f
31
59
4b
de
d5
b1
3e
5d
c7
e4
54
de
4b
58
5b
a8
51
4f
45
4c
6a
60
c6
b9
da
d1
34
46
cf
d6
dc
db
d3
41
42
33
e3
db
d8
48
69
72
c7
de
59
cc
d2
cf
5d
87
ad
ce
27
2e
33
41
9a
3e
49
d6
dc
e3
5d
d4
56
cc
d7
b0
5d
cc
80
58
55
c8
cb
d9
58
6d
48
cd
65
e0
c7
d7
d6
30
59
ac
40
ac
41
d3
db
84
5a
2c
f
cb
df
47
dd
40
d7
e4
68
bd
ea
68
53
cb
6f
32
5f
4b
ac
df
5d
5d
5c
56
e4
e2
d2
4e
59
bc
bc
ad
3a
69
58
dd
30
54
ce
e1
e2
d5
59
c7
97
51
58
dd
be
e5
e8
56
c
52
3e
57
d4
51
5c
ba
5c
d6
cf
65
54
98
62
4c
bc
dd
55
dd
9e
55
54
cb
3e
5b
64
55
58
61
5d
4d
50
c8
d4
ce
c7
b3
ae
57
4a
90
c0
44
3f
cd
0
e0
d5
30
5d
4b
d7
db
c6
57
25
ad
5c
ce
be
9
8
dd
e8
3b
d5
38
e5
36
d5
49
cf
60
cc
dc
5f
c0
da
47
53
dd
cf
5f
54
d6
d3
5b
5f
3d
4d
d6
cf
5a
47
c0
42
d9
d1
e0
3e
40
51
bf
b8
da
80
5c
ea
d9
55
5d
5a
80
d7
ce
df
2f
36
51
b8
c6
57
e4
de
b1
d0
1e
2b
c2
64
4f
20
41
cd
cd
49
dc
4f
dd
15
5f
bd
66
48
75
31
dc
53
d7
51
6a
e1
d0
d0
d2
24
8b
a1
d3
a8
4c
4f
58
d1
e0
c2
4c
d6
c0
e0
cd
d2
d1
b9
df
c5
38
dd
4d
64
c9
d2
46
e0
3b
e5
81
e0
cb
55
d2
dc
5c
bc
55
db
bb
5d
c0
d1
d5
9a
e2
8
4d
51
d9
80
ce
e1
54
56
d2
64
d8
ac
bf
c5
d3
de
80
43
b2
cf
6b
b2
c5
5d
d4
34
53
63
d5
24
da
d3
d8
43
48
81
c4
45
47
bb
4d
54
5c
51
dd
d0
d9
5e
50
3d
db
3e
da
a0
c0
30
a4
4d
60
e0
57
d1
d8
46
a
6b
cc
dd
bb
47
80
49
b9
e4
ba
c3
57
42
d4
28
58
4f
b9
bb
55
bf
4d
cc
0
cf
bf
c5
df
d3
d7
c4
e0
51
cc
bc
52
56
4c
5f
58
45
4d
5b
bd
57
c6
cf
8a
d1
4d
63
4e
5d
c3
62
4d
28
5d
d1
c2
32
da
d5
61
c1
d5
60
d4
55
4a
80
c9
37
dc
96
5a
c9
4d
c8
bc
dd
4b
be
e0
58
55
54
45
3f
d1
63
bc
bc
63
dc
55
56
1c
da
d0
c9
24
99
de
35
34
5f
45
38
4f
58
3e
1b
5c
48
5f
58
4f
c9
c3
e1
e0
d9
d7
df
d5
db
d3
ce
5d
bd
db
4f
20
e0
bc
3d
56
4d
45
b4
dd
56
5c
b0
cf
d6
28
e0
47
db
bd
de
48
d3
45
db
60
5d
cb
c2
48
47
35
42
dd
de
be
81
da
52
de
c3
d4
5e
43
dc
80
d8
41
dd
da
5d
56
c7
cc
3d
50
d2
54
53
33
47
5d
5e
a6
dd
da
3e
5e
c2
de
d1
56
55
53
56
5e
5c
b9
cf
ac
4f
2b
a6
c8
c2
d4
89
57
50
c6
34
5f
4a
38
b7
be
4c
cf
d1
bf
e0
46
52
dc
d6
4f
5e
ce
53
c0
d2
50
5c
e0
aa
d3
cb
c6
80
5c
57
4a
bd
d8
dc
2c
d6
d5
31
3a
c9
ba
45
9e
cf
c6
df
3f
db
51
c1
5d
5e
d2
d6
cf
d1
1b
4c
55
ce
92
dc
56
4e
5e
57
cc
cd
3e
5a
5d
50
d1
4e
3
51
df
da
55
d5
d5
a9
5c
d9
5e
d9
cc
41
c1
4d
56
db
5c
1f
48
db
cd
b8
df
bf
dd
c8
bc
e0
c9
55
c4
4b
4b
e4
d6
d3
d9
ce
5e
dc
9a
aa
cf
d0
d0
5e
cb
51
d2
c9
c8
e1
e0
c9
60
3d
56
50
2f
4f
d0
d4
48
e2
ce
c0
c
d9
3a
65
61
a3
5d
80
cb
cd
44
dc
d6
54
48
4d
a6
5d
60
5b
59
bb
d9
d7
d5
ae
e3
34
e0
bf
df
a8
2a
c3
60
5b
29
51
b3
41
3e
41
5b
dc
de
53
51
dd
4c
ca
4c
d3
bb
32
5c
5a
c3
dd
5d
a7
ca
d6
42
ca
32
b5
42
c2
bf
59
4d
ac
df
d7
31
c8
be
d3
43
42
de
b5
da
de
63
36
43
64
cd
cb
5b
5c
5b
52
d9
4e
d7
53
61
52
5c
68
4b
4c
b8
d9
39
b3
59
43
d4
e0
61
5e
bc
55
d8
dc
c8
cf
63
60
59
61
d2
55
49
b3
44
e3
3b
81
cb
c9
6b
c0
ac
56
2f
b5
ce
5f
46
4e
ad
5d
58
5e
5f
c8
5d
9d
e0
42
df
de
cb
54
50
ca
ac
4f
d4
55
c3
5b
55
4c
ce
b3
53
4d
3f
cf
d6
5e
9e
c9
4f
d3
4e
44
cf
e1
59
e7
dc
dc
d2
bd
43
dd
d0
e8
e2
5b
3c
59
3f
df
df
5e
c5
b9
16
37
54
63
54
55
18
ce
ca
56
4c
da
d0
58
81
b9
35
27
aa
52
4c
e4
cc
42
d0
cb
d1
9a
d0
21
d3
5b
5d
d3
66
d4
46
4e
50
c6
27
34
4a
40
4f
51
cd
d7
db
d6
cd
a9
d1
31
4c
16
35
bf
c3
9c
39
ba
df
63
52
53
db
55
ce
cd
2c
5f
54
d1
3e
59
40
80
e4
95
ea
5e
40
d
a2
60
38
4f
50
d2
43
42
57
e6
e5
d7
55
4f
da
c7
33
e1
34
5c
e1
ec
f1
2d
50
cc
14
2e
36
6b
d0
51
45
d2
da
4e
53
a5
49
eb
ee
d5
ca
4e
cd
cb
ca
d8
e9
e6
67
64
65
66
57
59
50
71
6a
ad
c1
cd
d4
65
60
58
dc
c7
40
5b
d2
45
d3
c
bb
d7
23
d1
c1
55
5b
df
99
a5
b7
bc
e0
3d
67
bb
65
40
de
b5
dc
d0
49
4d
cc
ab
c7
cb
d8
5b
d5
c
3c
e0
51
5c
5a
da
4b
bd
c9
5a
d9
51
c8
cd
58
b3
d2
d0
5b
d6
55
59
b5
a9
58
5b
5a
56
ca
5b
50
59
4b
2d
9d
33
c9
55
b6
3f
5c
59
53
cb
48
57
a0
50
5b
53
5c
35
c2
d7
df
b6
4f
c7
c4
a6
b3
b6
df
ba
df
d0
38
d3
53
5b
57
5f
56
86
51
5a
52
51
b3
d7
c9
5e
5f
b2
39
c8
60
3f
d3
bb
53
5f
a6
34
a8
60
30
5f
42
db
4d
55
a2
b9
55
2e
d6
cc
5c
cd
5c
47
df
4d
40
d9
44
59
5a
cf
61
e0
de
8e
ca
de
db
d8
db
51
d5
cf
f
c4
c1
0
df
db
a7
52
5d
55
d1
40
53
dc
4f
d7
5e
d7
dc
2b
51
f
90
d6
2e
c9
da
57
d7
d2
46
53
43
c9
d7
d0
3b
d9
e1
d2
53
32
59
bc
58
44
3d
c3
58
58
55
d6
a
c3
d6
2a
51
de
31
b8
52
53
d4
4f
48
b1
dc
b4
d1
dc
54
d3
3
d9
d9
26
24
21
de
d5
2d
ca
cd
cb
2e
e4
cf
81
e3
cc
b9
da
3c
57
d6
e7
de
d2
0
3f
53
41
da
e5
4a
af
55
d1
3b
c6
d1
c6
5a
c0
bf
55
64
60
5b
e6
d1
dd
1e
bc
bc
e7
d5
f4
3b
5d
51
e4
de
d1
a8
d4
cd
50
c4
d3
cf
2f
0
b4
80
5a
4b
59
ca
32
c1
4c
d9
c8
4f
dd
55
c3
d7
c9
54
2d
43
60
b7
d9
3f
59
54
60
c5
df
57
5b
ce
bd
50
5a
67
b9
59
de
57
be
dc
d0
4f
5e
6a
6d
69
c6
55
49
a2
54
51
ee
e5
cd
42
cc
63
54
8
47
57
57
53
53
5a
61
0
52
cd
e6
d5
37
ca
e2
a1
99
a9
49
c0
d8
38
38
d9
b8
ca
16
c4
e3
d1
4a
25
39
2f
5a
59
91
73
64
72
31
eb
d5
5d
40
d9
d4
2f
4c
cb
47
4f
5d
60
51
bc
52
55
d8
df
42
c1
2e
33
d2
da
81
d2
33
80
c9
60
d3
42
5a
5f
33
4a
ce
32
4e
ba
53
dc
50
d1
d3
ca
d6
33
4d
be
df
1c
c6
99
5b
1b
50
52
ed
de
d1
e9
35
cb
e2
6b
3b
ce
cb
5d
6a
d5
62
59
dc
44
c2
c4
41
60
8e
dd
49
da
d7
be
49
dc
e3
d5
5e
4a
b7
5f
5e
55
ab
d9
da
c6
e2
4b
d3
c8
55
57
5d
4d
d1
56
47
d0
e1
c8
cb
dc
60
c7
6c
3f
55
d4
80
4e
52
bf
e0
54
60
41
d4
57
dd
c6
5a
c2
df
c6
df
81
c9
5f
e1
c6
5c
d9
34
5e
c3
5e
3a
dc
41
53
b9
3a
a7
e1
52
c9
d2
33
c9
e9
da
5c
ec
db
dc
db
ab
43
d2
bc
5f
94
df
d6
dd
4b
34
4b
cc
d5
d8
57
6a
dc
4d
63
bc
61
6a
58
e0
80
50
ad
c2
53
df
b0
da
c0
e0
e4
23
58
e7
61
41
c0
dd
d7
ca
5d
a3
de
57
e7
bd
47
58
e8
af
c6
44
67
68
33
55
5d
1e
5b
bf
dd
51
3f
40
80
5d
35
dd
da
cd
58
b5
35
73
4b
cf
6b
4c
d9
80
c0
32
db
52
d3
49
db
4a
54
54
d1
d6
98
28
d0
57
26
ba
a0
eb
4e
54
60
64
d0
bd
b1
f1
bb
59
56
61
93
55
62
84
e8
a8
13
5a
59
4e
c0
e0
cb
c9
bc
a2
64
bb
1e
61
33
49
57
d5
cd
bd
de
d3
4c
28
59
37
a6
2d
42
96
b5
5a
59
d0
dc
60
e1
38
4d
3a
69
c
59
c4
da
be
b1
d8
c4
4c
b
53
de
49
4e
55
52
61
db
c4
d1
4a
52
e4
d6
5b
4e
61
c9
48
4d
5a
5a
b9
db
60
cc
d7
db
dd
4f
a3
cf
4d
5d
d3
2e
ca
c1
1c
e1
53
d1
53
52
34
64
d5
d1
4f
36
d
e0
d7
e0
c6
ca
5d
3d
35
46
3b
1a
da
87
e1
da
5e
4d
5b
bd
5f
52
da
4c
54
c1
c1
c5
cf
34
5c
dd
cf
44
54
ea
68
43
da
ef
d4
e8
43
5d
62
67
b9
a5
db
de
8b
dc
da
dc
61
b8
48
5a
da
48
59
d8
dd
c8
59
d8
58
52
3c
d4
c5
4e
d4
48
44
46
d9
e
35
d8
df
91
59
c2
92
5a
de
cf
49
c2
c0
ca
df
d9
df
c7
5a
e9
48
4b
d9
6a
da
d4
43
6d
e0
d8
64
44
e6
db
d2
46
6a
da
63
be
c6
5a
60
b5
d4
46
60
57
53
41
46
6e
d6
d8
c8
46
b7
e5
d2
d6
4d
54
ee
d0
da
43
2e
5f
df
30
1f
d7
5d
e5
cc
b3
5a
cd
5a
5f
5e
42
42
ce
bc
9b
c2
5f
57
47
cd
3d
ce
21
d3
43
e0
46
d7
5a
5b
58
62
a8
c5
69
cb
d1
52
3d
50
c2
db
cf
3f
d8
45
b3
b9
c8
b1
cf
65
b9
d8
cd
53
bd
e2
c3
eb
e2
6d
4d
38
a4
c3
50
1b
5d
47
47
5c
4e
bd
d7
ee
49
53
c2
67
d8
d6
5b
1a
df
5b
d0
43
d7
54
d8
5e
b1
cb
5d
64
df
57
db
51
63
72
e6
ed
6d
af
ed
67
5f
ce
25
c0
ca
e7
d4
da
c9
d5
45
c3
80
ec
c5
cb
e7
ce
b0
df
54
39
81
5b
d1
df
ab
c6
f3
80
66
2a
cd
6c
4b
ee
97
cc
c7
d8
4f
16
b6
c8
d3
db
59
c9
51
91
81
51
5e
49
5b
68
ac
e3
70
e0
48
bc
e5
3c
44
80
af
50
cf
b9
2b
64
cd
35
c3
d2
3a
b6
db
59
b4
b7
c6
57
db
67
60
e7
56
a4
3e
ef
ed
f4
3e
bc
b2
41
a5
69
d1
c2
d9
dd
c2
53
d6
4c
3f
e3
e6
e4
4e
4e
bd
59
c8
b6
de
ce
c1
d8
3c
3e
b0
55
5d
62
f
8e
40
c1
5a
da
4c
d3
5c
d5
dd
e0
c5
c6
5a
dd
42
d7
c8
dc
bd
59
8a
c6
2f
51
55
ba
4e
69
d1
31
b4
ae
40
c4
e1
81
ce
b6
c6
c9
b8
49
d5
56
53
37
d6
da
c2
54
a1
6a
63
98
d0
4f
50
23
cb
c7
42
a9
47
d4
4b
5e
0
cc
df
49
d1
69
cc
da
c2
4c
c7
b8
f3
e0
dc
da
63
b1
5a
6b
63
e7
ae
9f
cb
68
d0
46
d6
c4
d5
81
de
d7
5a
d0
bd
c4
9b
1f
d4
d1
80
bd
5c
9c
2e
da
56
48
4b
4a
42
54
da
ce
63
1d
3a
de
27
57
41
a
d4
2e
cf
3d
c1
1f
24
5e
49
c2
df
80
54
53
be
d6
db
63
bf
ec
3a
30
d8
bc
b9
e4
16
e4
db
a9
61
37
48
49
d3
45
60
56
c7
ea
5a
d0
d7
37
be
73
5d
db
5b
48
c9
52
34
3c
c6
cf
53
4e
2e
de
43
dd
b1
b6
d1
c6
55
2c
4f
37
6b
df
44
1
b0
5b
c5
47
d8
5d
d4
38
5b
dd
b9
db
58
5c
cd
21
4e
d8
59
ce
5c
d3
59
5b
b8
c6
c5
cf
48
cd
be
b9
52
80
57
cb
5e
4d
b9
46
df
60
cb
cd
51
2d
b6
d3
58
3f
3b
e2
dd
6d
52
da
5c
d2
36
ad
48
d3
5a
e4
e2
e1
da
23
dc
db
c9
ce
5a
d8
56
d1
56
d6
c1
45
2c
9f
42
db
94
53
d5
db
d4
d8
cf
b0
5e
c9
4f
3b
42
d9
31
48
43
68
db
c7
42
b5
c8
d3
b8
4e
c0
16
ac
ac
e5
cd
d6
db
d0
d8
cf
5b
49
d7
c2
45
6e
66
e8
63
5f
e6
a2
d2
ec
dc
5e
c9
5c
5f
bb
5d
d8
d7
b9
80
34
e1
57
db
4c
27
39
73
16
58
3d
a4
a5
53
46
c4
dd
b1
1f
d3
31
c0
3e
d4
e5
d4
9b
c7
40
a9
e2
3c
e1
de
46
e6
42
e9
de
39
61
5a
77
6a
57
e6
4f
0
ef
ce
21
e8
c6
59
45
26
da
e0
50
e0
c3
6f
5a
ec
5c
37
b2
65
5d
d1
d7
d1
4c
d0
d9
5d
c8
dc
1f
56
be
ac
db
5e
46
4a
de
4e
d1
41
b9
bc
54
47
65
3a
b1
3a
e0
d7
3d
d9
da
de
17
57
ea
e9
6f
ec
e3
60
c9
c2
6b
e1
e2
4c
e2
35
54
d3
5f
35
dd
cb
53
64
e5
e4
52
b8
e1
cf
e3
3b
d3
cf
45
da
61
5c
56
3b
c0
ce
57
cb
47
d7
5
32
b2
e6
5e
c6
e7
66
5b
e4
38
3e
b8
5c
c3
55
d6
db
e9
ed
e0
6b
de
58
64
4e
f2
58
14
a0
b3
e1
80
63
46
dc
57
db
ae
5d
29
40
47
cd
59
c3
73
87
be
d2
c3
dd
e5
62
53
59
d5
5d
5f
80
33
d7
59
4a
d7
d4
46
4b
bd
48
55
db
e2
6a
41
5b
c4
c5
5c
5d
c4
df
d6
56
df
d3
27
c3
e0
43
c4
c8
62
5b
5a
4d
d9
55
4f
55
d4
46
68
d7
cd
57
ae
d6
54
c0
e3
96
4c
c7
de
69
c6
d2
c9
57
c
5a
d5
da
ce
5d
58
4b
2b
9c
ae
d1
aa
5e
67
c7
d0
50
a2
56
ca
de
de
cc
cb
5a
d2
d4
51
4e
56
5f
d2
b5
bd
d5
e2
c2
2e
4b
ad
cf
9c
31
1e
5c
98
35
4f
dd
d8
29
54
34
e8
46
b4
c0
c5
b0
e7
cd
20
db
66
50
28
51
c4
cd
e2
c8
31
d2
d1
b4
5c
5a
d3
4f
3e
48
67
f
d7
66
3c
5e
5f
81
b5
4d
dc
54
bd
da
44
1f
55
53
c2
2f
cd
65
b9
54
37
63
d9
29
cf
58
3d
55
24
e0
37
57
59
c9
3b
e0
44
d2
d6
d7
da
e6
de
55
b1
5d
ce
cf
dc
5d
d9
e0
4e
dc
57
41
6d
59
4f
bd
48
e5
69
53
e1
93
3c
a5
d9
2c
ba
5b
de
cc
4e
d4
a2
52
8c
d8
5b
cd
a8
54
d3
cb
5c
da
db
5b
e5
4c
d6
4e
de
de
59
cd
af
d9
5b
19
51
de
e2
df
4f
d5
40
5d
e1
e0
c0
60
d1
9d
45
41
ce
ca
65
67
e5
c5
d0
c9
c9
40
ce
ce
4c
43
13
45
58
38
d7
6a
62
5a
18
d8
e9
52
54
d5
60
47
da
5b
45
d1
da
9c
4c
51
b4
51
5a
dc
b5
5a
b7
54
cd
ca
21
30
30
b
60
cd
5c
d7
55
5f
c8
df
5d
48
c8
36
65
5c
69
53
cf
3d
27
c2
67
dc
d5
38
de
c2
c0
47
55
5a
cd
80
33
52
5c
cf
5a
4b
a1
e9
dc
2f
c3
ae
37
c4
bf
48
41
cf
da
dc
47
49
ca
dc
c2
ed
4b
26
33
b1
56
5d
65
cd
62
65
63
5b
5a
80
e3
4f
58
e0
4f
c7
dc
b5
47
ee
de
1e
52
e7
c1
c2
2a
96
e3
4f
cc
2b
df
d8
56
10
5d
54
d0
d6
6c
ad
eb
52
d8
cb
5d
65
57
5a
db
5d
b3
5c
37
dc
52
4d
c2
58
60
1b
5e
5f
50
4f
d9
44
e8
e6
5d
c7
ae
3f
9c
c6
c2
25
69
42
d4
68
ae
d3
60
81
cb
34
99
ae
bd
80
dc
d3
68
6f
d3
e8
15
c1
6e
59
81
58
3f
47
4a
e0
b6
a8
29
70
5a
ca
df
8e
d8
b2
ce
21
e0
e6
be
cc
db
b2
ce
de
4b
6d
d8
af
51
c4
4e
c2
b0
d7
53
d2
d8
62
46
80
cf
d2
5a
d8
4b
d9
dd
50
36
df
49
c6
d8
e0
53
ab
cb
9
38
c6
4f
8b
e6
e5
d4
49
31
d7
6c
d1
e0
e4
6a
42
de
36
4b
d8
c9
d0
54
e2
0
d2
dc
e1
5a
dd
e5
52
4e
db
30
99
81
5f
31
ad
42
e0
47
57
d0
80
d7
de
30
aa
2b
e
c4
4e
e7
81
48
0
29
2d
14
c6
e0
c
e8
ee
5f
6e
b5
cb
5d
49
d0
7a
56
ed
67
5b
43
51
9e
ac
c6
ab
e3
df
b7
3c
4d
c9
8c
c3
44
34
e1
63
71
de
c6
35
ee
bc
63
4b
bb
42
58
cd
ba
48
50
80
ce
98
9b
ca
2d
5d
5c
df
d8
60
50
42
6e
c7
dc
66
92
b8
5e
66
4e
91
ce
3c
6a
64
ac
e2
da
4d
48
cf
59
da
ce
51
53
bd
45
e8
57
35
3e
44
bb
5a
34
42
be
58
b6
31
d9
44
a8
ca
47
ce
5c
de
4f
c9
a4
50
62
d4
48
4a
c5
e4
d1
ea
52
58
5c
df
c3
38
5c
c3
3a
c3
c3
66
54
dd
c5
df
5c
80
2b
93
44
cc
5b
4c
dd
55
b0
d9
5a
e0
dd
ba
58
d4
5c
5a
d7
e5
ec
3f
db
b8
70
54
5f
c9
e1
d9
35
d9
ce
de
4f
da
a1
d2
60
54
d3
db
c9
d3
51
6d
40
6b
57
d3
a9
59
46
6b
b4
bc
42
c4
52
dd
d6
ac
d5
e3
88
b7
3b
4c
64
bf
be
b6
2f
57
6c
52
cb
e4
da
ef
f5
2b
cf
cc
a1
ca
be
4f
58
b6
c9
44
9b
99
d9
e3
cf
db
5b
5c
c9
5d
27
b9
c4
4f
c5
dc
81
69
dd
bf
c9
5e
db
e8
50
31
50
3c
57
c4
4f
c1
54
52
38
ae
b9
db
60
67
53
4f
62
5a
d0
e7
cf
d2
db
d0
43
5b
60
cf
53
5f
c1
ab
2a
e5
da
e0
d4
d8
62
8b
1e
2b
9f
42
e6
e8
ea
c5
e4
56
cf
54
72
45
53
d1
3b
44
b6
bc
cd
53
41
5a
c4
5d
bc
59
d9
4e
c4
db
50
e5
61
5c
c7
a0
5b
62
db
55
53
d3
12
db
4
c7
d1
4c
ba
d4
c2
56
d3
d6
61
58
5c
80
df
56
58
d3
44
b6
34
5b
53
d9
29
22
3f
b2
1d
4a
63
68
54
bd
64
bc
b2
51
e4
e3
38
5d
cd
80
58
d4
1b
51
ca
5c
3d
50
b0
42
da
ce
3e
a6
df
e0
dd
d8
51
87
14
5a
3f
4b
5
5c
a4
d7
5a
de
d2
dc
c5
5c
cb
24
50
3d
57
dc
c5
a1
ce
5f
32
3d
63
a7
a5
5b
69
c5
d8
d6
e9
5f
49
d8
d4
db
31
db
cf
62
10
95
a6
59
5d
82
d9
d5
d0
5a
da
dc
d9
e6
e9
53
d4
de
3f
d0
ca
48
bb
d0
4f
c
d3
49
dd
32
23
de
4a
ba
55
ba
d8
59
5c
bc
e2
ef
57
41
eb
5e
51
85
48
22
df
51
3e
52
c4
c3
40
62
2e
db
dc
51
49
da
da
0
69
5a
e4
a6
3d
ed
57
d7
f8
57
d9
c6
d6
5d
cc
d8
b7
e2
80
b5
3d
f
4a
d7
60
2d
cb
4e
b8
e1
4e
c3
ed
5e
4d
dd
28
d9
ce
cf
d2
35
dd
db
22
ca
de
4e
d5
53
d5
4a
49
4d
3b
4d
90
c9
36
54
d0
bb
56
40
5d
5e
b4
4e
81
5a
d2
a2
d2
81
bc
2c
35
58
de
d8
9e
e2
5e
4d
2c
d4
df
b8
e0
bb
56
4a
68
26
4e
b7
d4
4e
b1
0
9b
99
58
d7
be
56
c5
c3
48
bb
d8
b7
56
5d
59
c3
d7
5a
10
5f
44
4d
b3
67
5a
4c
64
42
52
57
1d
e1
6c
25
de
5d
54
4f
b6
cb
c4
55
60
4e
39
3e
3b
5c
39
43
c8
e1
43
52
5a
57
13
cc
3e
2f
49
4f
80
c4
60
27
6a
11
81
6c
69
4e
4b
5b
54
59
1c
e0
58
dc
5f
46
4f
da
dc
48
cc
b
4c
c1
e1
c4
dc
53
dc
5c
e2
dd
46
c1
cd
c7
58
3a
47
5d
c3
9b
39
de
c8
ba
45
3e
a7
55
16
51
5d
3d
35
6c
c4
5a
5e
4c
e0
81
3e
45
37
b8
d8
62
5f
56
db
c3
57
9e
c6
d7
36
3f
86
d3
be
d6
41
c3
d1
4f
dd
3f
4
48
b3
e0
cd
56
ab
ce
de
ce
60
b2
32
46
da
37
dc
50
cf
ba
4b
54
b9
55
c5
e0
c7
96
d0
60
e0
ca
19
46
c7
3f
d0
dd
c0
4d
63
62
cb
5e
ca
d6
3f
e0
56
d9
e4
cf
f
cf
d8
cb
a9
59
d3
c8
c4
61
6f
55
4b
1c
a4
6f
d1
51
97
38
42
de
53
c7
dc
d4
a7
d5
31
da
33
d8
5a
5e
98
55
5d
62
5c
e2
4f
55
fa
f4
ed
4e
58
31
e7
24
21
d8
e7
44
43
c7
d5
b3
47
2a
9b
ba
c1
5a
d8
22
3e
40
d4
3d
5b
58
de
48
52
44
44
35
6a
56
a3
99
5f
60
2e
db
60
5a
44
b9
51
bd
e5
46
3e
39
c3
cb
56
45
ae
49
8e
60
5a
30
b8
9a
da
d0
30
65
a0
e3
45
af
45
50
4d
d6
81
57
d1
59
dd
9d
65
67
39
e0
64
60
e1
ee
5d
5a
bb
da
c1
5f
5b
65
aa
47
d8
d7
32
d7
de
5a
39
b
5e
f4
d6
e5
d3
aa
32
c9
d2
2c
56
34
c8
4f
d6
5a
50
54
c4
50
52
c7
c9
89
c9
de
c0
db
d9
48
51
db
bb
ad
80
56
6a
be
e0
ce
bb
58
45
34
e0
bd
44
51
d0
b2
3e
da
54
4d
45
e4
53
b4
1
bb
a5
62
a1
b9
df
d9
be
5d
f
4c
cd
bb
5a
57
61
6d
dd
35
bd
ed
59
57
dc
5f
5a
c1
b8
c2
c7
c3
57
5e
3a
c6
c9
37
38
b5
ba
33
76
61
d1
62
50
cb
50
d8
8a
20
31
ce
bb
33
d8
eb
f5
eb
e3
bf
54
45
c5
81
80
48
6b
5a
3b
de
dc
60
51
bc
c9
da
e7
22
bb
d5
d5
56
b1
5a
6d
dc
d5
15
d1
c9
80
55
5b
de
8f
b7
da
de
5c
dc
be
c4
d3
d7
1d
b8
d9
d6
aa
54
e3
e3
46
b7
3d
5f
4f
d2
5a
38
41
c3
81
4d
44
4f
b0
c0
d7
b7
1f
3d
3e
b4
cb
d9
d8
c9
61
d4
5c
42
5c
bb
db
d1
57
e0
5f
91
41
4a
d4
28
dc
4b
48
89
29
e7
c6
e5
e0
5c
cd
4e
e0
4e
a1
cf
d8
af
da
c9
c4
5a
96
61
b0
d0
3
de
cb
ce
d2
5a
d9
d3
5c
de
1a
80
61
a3
d8
c1
5e
54
30
57
ce
47
e7
52
3b
58
54
5b
61
2b
5c
68
4a
59
dc
cb
be
df
d5
e1
3c
dc
a0
5a
b6
c4
5d
31
ca
66
c7
ca
2e
97
56
67
67
64
df
3d
56
d4
59
2f
c5
38
de
51
3e
60
d9
dd
4e
d2
c9
49
c1
80
ea
5a
bd
51
5d
e8
cf
d1
1d
4
5b
1a
c8
d2
1e
d3
5e
cc
55
3a
e0
46
4e
57
35
c4
e0
cf
df
46
44
c4
5b
dd
51
3c
54
d1
db
b8
5d
67
4b
e0
bb
af
d4
b0
dc
59
60
db
d4
c7
de
1d
4f
cf
44
d4
a6
41
a4
30
4d
2a
66
d
cf
ea
be
ab
cb
d3
ca
38
e8
de
e4
5b
d7
da
de
dd
d1
2d
c3
d1
6a
57
4b
b6
d5
45
da
b6
d2
df
52
45
4d
cb
c
62
d3
5c
3c
d7
b7
c7
52
38
39
81
15
49
6c
58
c8
d0
bc
d7
38
ce
4b
5c
54
46
a8
51
c3
3c
27
9f
5e
c0
d7
c5
5a
5e
cb
c4
56
20
d2
41
4c
47
a3
d1
bc
ab
b6
b7
50
c7
bf
3d
55
56
6c
58
8d
de
da
d4
d7
c6
d5
5d
45
0
73
41
ce
41
cb
e7
38
da
47
d3
d9
d6
4b
2c
bb
b1
e0
a6
c0
c9
cc
ee
ca
3c
4d
4c
35
d5
db
44
aa
f
d
37
e0
d7
d1
e7
dd
69
31
5b
5d
65
62
0
d5
35
8e
a5
53
6c
41
5d
35
3d
53
e5
5d
e6
37
e1
d9
3d
45
cb
d3
40
5d
d5
56
9e
e1
c4
a
df
5d
da
72
cb
a9
4c
96
4e
5e
2f
cd
ce
54
55
43
28
54
19
46
2c
d7
4d
e4
55
4e
cf
60
62
3a
fc
df
e0
ed
49
42
56
e2
47
ea
60
1b
dc
5a
b4
ea
bd
e6
bd
c3
37
48
cd
d5
51
91
c7
40
d2
da
d4
e0
61
d1
c3
d9
e5
e9
54
db
d8
b1
4d
dc
66
a2
52
8b
c4
c1
32
5f
ce
4e
59
cd
6b
54
5a
68
d9
dc
d0
dd
4f
d1
d4
c8
3e
dc
49
5d
58
c3
44
68
49
22
5b
d0
db
d8
5c
d7
d5
9b
d0
c7
26
52
5a
2e
5a
cd
57
4b
53
55
21
6d
66
68
58
52
2d
4e
33
b6
d9
37
83
60
aa
d3
3c
59
a1
d9
55
60
41
d4
1a
d9
e5
bb
5b
55
9e
e4
e8
ca
bf
b9
38
ab
b1
38
dd
59
5b
47
54
51
48
5b
dd
c0
d5
58
c6
5a
c5
35
4f
5d
b8
d4
d1
63
c1
5d
d8
48
4e
b7
af
34
4b
de
68
35
d8
4a
5c
37
50
e2
9d
17
42
cf
48
db
54
dc
4f
dd
d7
5c
a4
a0
44
d9
59
73
66
67
57
d4
dd
4a
c7
4e
dc
43
c3
58
9a
61
26
80
58
3d
b3
d7
55
de
45
d6
5b
4a
34
b4
51
39
2f
bc
53
40
d6
ce
c9
a2
99
5a
90
55
c4
5e
b6
47
da
58
c9
c4
51
33
3f
4b
69
53
47
e1
ca
ca
cd
5e
b9
da
5a
48
af
60
d9
5c
41
47
da
d5
c9
5b
99
cf
c5
4c
ce
c2
24
b4
52
d3
ce
cf
db
33
d4
cb
48
d5
4f
af
cc
db
cc
bc
d2
5b
16
58
db
54
cc
d6
d6
81
ae
d7
51
d7
a4
5d
ab
25
de
e3
e7
57
b4
d1
3f
e4
31
52
b7
5d
20
de
de
d0
5b
50
2b
58
54
5a
cb
56
56
1c
cd
4d
de
d4
56
9e
c6
5d
53
d9
99
d0
dd
5a
4c
3f
9a
ac
d3
44
d9
53
5f
cd
e
c7
db
d9
5e
be
5c
cf
2d
81
bd
c8
51
3a
d6
a3
50
e1
cc
d4
e1
67
53
48
42
4d
c6
5b
c3
3d
d9
57
4c
5e
54
ca
1c
4b
5e
d9
bc
5e
a7
d1
d6
ca
c7
c9
de
c1
3d
55
48
d7
b2
46
d8
ca
56
d9
4e
d8
c4
0
59
4f
ba
db
c9
da
cf
48
e1
d2
4f
c1
3f
5e
39
e1
cb
57
ba
56
2c
c4
4f
db
9
37
b7
d1
58
51
58
0
1d
c8
45
58
bc
e0
dc
2c
b5
48
cf
d1
d6
57
dd
bd
4d
4c
da
c0
4d
57
d7
5e
59
19
5b
cd
55
59
c5
52
54
46
ca
59
a3
34
d1
d9
d5
3f
55
d3
b8
d2
5e
d5
d9
4f
54
49
be
a1
de
dd
48
5a
e0
df
bf
c4
c8
5c
d2
50
da
60
44
bc
da
ba
39
4b
36
57
db
57
d1
ce
d5
51
52
d4
bc
c4
33
d7
c6
60
4f
98
38
5e
60
d8
dc
d5
cd
42
4a
b9
55
e2
42
d5
5b
5f
d3
5e
44
57
41
3d
54
52
a3
51
51
31
45
df
34
5b
d9
80
3d
47
df
dc
da
ca
33
33
d8
e3
58
49
5b
e2
c7
cb
4d
bd
c4
4d
c1
48
46
57
52
4f
c5
de
5d
5e
d4
5f
c1
ad
ce
d0
52
dd
32
d7
b8
a6
47
cc
51
c6
d9
d4
e0
d4
dc
45
53
c2
cd
dd
4c
d3
5e
d3
27
46
ac
d1
a5
cf
bb
df
51
df
e0
4c
c9
da
53
56
b6
56
29
30
5e
48
5c
de
1c
b5
da
ba
50
d2
dc
11
e0
9d
4b
d3
3e
ac
1a
28
db
cf
50
d9
d8
57
51
db
0
5e
c1
d2
cb
60
c0
3c
c2
51
cc
df
b7
5c
4f
cf
d9
d5
cd
dd
59
91
4f
46
be
ab
dd
59
5f
58
4d
a0
10
54
5f
c4
ca
52
de
d6
d6
49
87
0
c7
d3
56
2c
5b
d2
3c
c2
53
3a
df
d9
d5
cc
b4
db
33
42
48
df
bf
45
5c
5c
49
4f
de
dc
2e
ca
5a
49
2e
41
52
59
4f
3d
c4
57
4a
df
56
d7
54
c8
d4
5d
2
46
3e
5d
59
2a
58
bd
d4
a1
d5
da
81
a2
80
d4
c3
31
c8
a0
c5
48
55
ca
d0
d9
c8
c7
e0
de
d2
3f
3c
df
d5
c5
5e
df
2a
d4
57
43
c8
d8
e0
a3
53
c5
3c
52
cb
0
d1
d4
c4
d3
d4
35
e0
be
cd
d0
57
44
0
d7
4f
dd
b2
58
b0
d4
80
4d
c3
5f
5f
bd
4d
5c
da
d0
4a
38
b5
e0
de
60
c5
58
c6
85
c9
cc
c1
23
5f
d5
43
de
5a
5a
de
51
d7
b3
97
49
57
12
df
d5
4d
d0
55
df
4a
cc
43
54
5d
45
4b
d5
3c
c0
c4
48
3d
53
c9
9c
c5
51
5e
c0
99
c9
d7
cd
3e
9a
5e
de
46
9c
95
54
52
ae
c7
c8
80
d7
d4
52
59
92
c3
92
c4
51
8
c1
3c
4c
d2
4a
d0
20
c1
5f
b3
c
4f
c2
5a
da
5f
65
36
c6
8c
dd
bf
5b
c1
c8
d3
5f
55
5c
cf
65
bb
cc
31
cf
3e
12
50
d9
58
de
8f
b0
d7
5c
4a
5e
5d
be
cf
60
94
58
4b
e0
b1
dc
c5
dc
5a
4c
c6
56
58
60
d8
64
64
a7
dd
c6
5c
cd
4b
db
b4
5e
d4
49
da
2b
d7
d4
da
c3
d9
d8
de
e0
5b
e0
57
4d
40
dd
de
de
dc
5f
c1
e0
a4
d1
4a
54
dd
dd
a5
de
da
c9
40
57
d6
d9
b0
cb
9c
dc
41
53
de
5a
d6
d2
b5
40
c3
b7
ae
c9
6d
6d
40
e2
41
4b
d6
51
52
5d
ca
c5
de
e3
ba
56
c1
ca
52
cf
bc
c1
d4
5b
e0
5d
5a
d3
52
80
a1
4f
9f
4c
5b
50
58
cf
41
d4
dc
5a
d0
28
4c
e0
58
97
d3
d3
4d
db
4a
52
41
d6
c0
e1
aa
c7
a8
26
d2
c9
43
41
d1
d5
52
28
d7
5c
dc
62
c1
cc
3a
aa
54
e2
33
59
db
dd
5a
44
db
5f
d4
51
db
d8
40
cd
d8
d9
54
4c
ce
5a
ac
34
b3
d1
c1
b8
42
c2
df
53
6a
b5
ae
45
5b
d7
d0
c6
e1
c3
d6
c8
af
3b
3f
64
5e
c4
c5
62
de
e4
72
54
80
5e
d2
a3
d8
df
c1
dc
2b
cd
2d
d7
63
ce
c9
ad
d6
d9
cf
d6
3e
67
e9
d2
cc
c3
48
4d
e7
e2
d3
59
d0
c4
4e
c7
b2
b0
d1
d9
cd
d2
2a
c2
4e
d3
c2
4d
c0
51
d3
54
59
df
19
5f
4c
37
c9
d6
ae
53
81
52
26
c4
45
c4
55
3f
de
ad
ce
5a
48
47
d4
4b
58
d1
41
1e
cd
d5
42
2b
41
44
52
e4
dd
57
cd
dd
b2
59
de
c4
40
dd
4d
52
5c
ae
2c
da
55
24
57
c1
80
e1
dd
59
31
45
56
d8
4b
e0
56
c3
d7
dc
e1
2f
c4
cd
5a
51
b9
3d
47
4b
de
22
48
b9
dd
3a
5a
e0
4c
de
4a
4f
8c
56
52
db
c9
53
d0
bf
b6
ce
42
de
c9
60
bd
cf
d4
4c
44
b7
47
dd
b3
dd
d1
db
9d
2f
de
5b
27
34
4e
c0
0
57
c2
58
56
c6
b4
5f
ce
c8
bb
d1
5b
b9
8f
4c
0
81
11
5a
4d
58
2c
d9
41
52
d7
23
56
c8
4a
cf
23
4c
57
da
41
46
60
c3
c6
80
e0
dd
d6
5e
c3
55
49
25
c5
54
39
c3
cf
dc
46
e1
e0
ce
bf
da
c9
da
d5
49
a5
df
ca
4d
5b
5a
4e
41
5f
40
89
a7
41
d5
5b
5d
51
d0
1a
c8
59
c5
dd
d7
c8
3c
e2
4a
50
9c
dd
d4
c6
50
24
39
e0
a9
d1
59
d1
b3
b7
a6
3d
59
3d
57
b4
8c
ab
5c
63
8d
3c
5a
4b
ba
42
54
64
40
d7
b8
64
d4
38
61
bc
52
ab
17
e6
48
5a
a4
df
c6
da
cf
d9
83
42
c6
5a
da
36
be
6a
51
df
65
d7
cf
9b
ca
55
dc
17
dc
d0
bd
d2
42
d8
53
3e
47
e6
51
a0
5a
af
df
d9
dd
4d
d4
25
ca
d4
db
55
d0
59
40
4a
55
ce
5a
1f
d1
5b
d7
d4
c7
d1
d8
53
58
d4
5b
56
3e
94
b6
b3
5b
5b
cb
ca
e4
52
52
db
5b
54
e9
ed
a7
32
df
64
bd
d1
4d
27
e4
4f
ac
e0
d3
28
da
d5
df
c1
49
52
55
65
c3
cb
d7
db
24
ae
55
a9
cd
50
ce
b5
51
5f
53
56
cd
63
df
c6
61
9
4f
62
a7
c8
64
54
e1
7
bb
51
94
dc
c7
4a
5c
4b
dc
c0
43
2e
4a
43
1f
55
b1
54
4b
dd
5b
56
c8
86
56
bc
35
d2
da
54
52
c6
a4
cf
c7
c7
c6
54
56
31
e0
34
d6
d9
c9
4f
3f
5e
