de
99
46
56
c6
47
d3
df
d1
c6
39
91
40
cb
55
da
24
51
df
d0
57
c1
48
4e
a7
56
a6
f
db
41
be
df
3e
59
4b
55
ab
d5
53
c6
dc
d7
54
3e
da
c1
42
84
d5
db
3c
5c
ca
ca
cd
c4
c9
2d
d9
d7
cc
b9
cf
46
31
ca
b6
cb
52
d9
4c
48
52
d1
80
d9
58
ce
ce
b0
d2
cb
d8
50
dc
c
d3
b7
ca
ce
d2
80
46
58
57
3f
58
42
dd
c9
af
37
57
40
44
38
3e
d4
4b
d0
43
2b
ca
d8
ca
d5
ce
3b
42
48
ba
bc
52
da
5b
de
9d
ce
d6
d2
71
90
9b
64
45
7a
d0
80
cc
e5
2b
d0
5d
ba
25
6b
d5
e6
ce
e6
4b
a6
60
13
9e
ce
79
31
6e
a3
4c
48
d7
cf
d0
ca
76
bf
7b
bc
61
b4
2c
6c
aa
67
ae
56
4d
34
cc
86
db
39
3f
db
b7
40
4c
63
e1
21
dd
6b
53
4e
ea
ec
5a
b6
47
64
d0
fc
d1
72
d6
d5
cf
c4
d9
d8
74
e1
7e
80
6a
cf
39
53
43
c4
55
ee
5a
55
61
d1
d9
d5
2a
dc
b3
e1
e5
6e
54
30
e7
77
c2
73
71
23
ec
de
db
29
71
e9
ca
41
4b
63
ff
b3
ef
62
6f
5b
56
4f
36
2d
ba
59
e5
d3
df
5b
d8
d6
51
f0
f2
13
d7
6b
4a
d9
e5
f5
54
b9
4c
58
56
d8
31
77
72
58
b5
4b
df
56
de
7a
d4
c7
dd
6d
cc
33
6d
35
67
58
f6
78
6b
e5
4b
c7
56
91
58
c0
de
d7
3e
d9
cb
45
ce
46
4e
db
cf
5a
9e
ba
c3
d1
54
c1
d1
10
d5
50
af
cf
db
d1
d2
27
56
ad
4a
d
db
bf
50
d4
d1
2f
0
2e
46
c7
3d
57
4c
ce
5b
d1
59
b9
0
db
da
be
d4
ba
51
33
d8
c8
4c
bf
4d
53
47
bb
49
6c
34
56
64
50
d6
6b
5a
e0
f4
64
41
60
d0
47
9b
5f
fa
7c
6f
ea
d7
3e
c5
81
cb
d9
6e
3d
e9
13
4f
41
e5
4f
bc
fa
70
cc
5d
6b
55
ee
6c
1d
e6
6f
69
66
63
62
e9
4b
f8
c5
e5
c5
c2
45
4c
ec
56
4f
af
81
e3
c4
42
33
56
b6
d8
60
6f
eb
c9
18
dc
53
fa
6a
ec
d9
a8
26
68
7b
70
1d
d0
c6
dc
71
5a
d1
d0
d8
64
bb
82
e3
57
e3
60
71
68
99
4e
f2
d1
57
7a
66
b8
62
4f
b1
75
bf
d6
e7
5a
46
d5
61
e7
da
