35
0
fffffff4
ffffffdf
86
95
ae
89
9e
10
2e
10
df
ffffffec
30
67
ffffffb3
fffffffd
ffffffec
c7
9a
fffffff9
ffffffd4
187
ffffffff
5
ffffffdb
1
10a
a2
70
fffffff9
3d
0
bb
4
2a
ffffffe9
1
3f
fffffff3
b7
66
8b
14c
9b
fffffffa
ff
1c0
110
1e
4e
ffffffff
fffffff7
78
3d
ffffffea
fffffff3
ffffffe6
fffffff8
98
ffffffe5
6
4
ba
45
10
fffffffb
fffffffd
ffffffea
fffffff1
ef
12d
5
c3
9d
ffffffc7
ef
d
fffffff3
fffffff9
3b
ffffffdd
10
78
1c2
9
8e
7b
d
fffffff2
fffffffb
10
4b
fffffff6
ac
