5c
e1
59
e8
dd
5f
ea
60
4a
73
6a
e3
a3
c9
e4
5c
65
ea
41
d9
ee
44
32
44
e7
e5
49
c6
ce
ea
2b
33
67
60
48
4a
f1
c6
bc
f1
c6
ed
e6
f3
c7
d9
c2
98
3d
5d
64
65
e4
e3
4a
47
e7
16
57
62
e5
db
69
61
e3
e8
dd
80
ea
e9
ca
c0
57
c9
5a
dd
65
63
66
df
95
cb
dc
f3
dc
50
ee
51
d0
b0
0
50
5d
d6
e8
8d
d1
6c
38
e9
ef
31
e0
d9
d2
e3
a2
91
75
c8
74
63
70
9d
63
61
7b
56
45
e3
70
5c
ce
74
68
a6
59
be
d8
6e
c8
e6
64
30
67
65
c
35
cc
43
30
ab
47
61
73
c5
f0
d1
c2
e7
67
ea
f3
dc
63
4c
65
57
36
ee
e5
cd
c8
ea
cc
63
3e
64
2b
e9
0
dc
4a
26
e3
4c
5e
e6
6a
c7
90
e8
ed
de
50
e1
f0
93
c6
dd
c2
c6
62
49
4b
5e
e8
59
da
61
23
d4
99
d7
54
bc
c0
dd
df
dd
ba
db
67
55
c6
5e
b0
c8
d0
cd
d7
6e
d3
cd
68
d6
d3
60
dd
36
54
db
61
6b
da
60
62
47
2f
6e
59
3a
e6
67
58
ba
4b
d2
56
68
c0
d9
e7
54
dd
58
dd
e3
6c
c9
68
61
c0
a9
cf
26
41
4f
42
65
6c
68
47
4c
65
b2
5f
4c
96
dc
ec
e1
d7
e2
59
45
cf
e6
51
4e
53
d8
4d
d7
66
e3
6d
e4
e5
ee
df
42
d9
d0
61
41
e3
66
67
a9
4d
ec
68
62
72
54
6b
47
58
cd
d4
4b
f5
c5
48
45
dc
45
eb
ea
dc
51
6b
5d
4a
57
e1
63
d4
53
6c
7b
4a
66
5a
e3
68
65
51
e1
37
95
cc
ed
60
dd
e4
65
6a
d9
b5
ee
ec
b5
3b
54
64
57
3d
5d
ef
dd
5f
bf
4e
6c
66
5c
54
db
64
67
4f
5b
57
db
e3
80
d0
2b
df
45
64
61
2f
dd
e0
e3
e7
ea
e8
66
dd
d2
6a
e0
62
c0
50
e3
ec
ec
db
e3
5d
65
ca
de
3f
5b
e6
dd
e8
4
68
c6
5e
69
37
e3
b4
43
54
e6
d6
48
52
ea
65
81
44
dd
c4
ca
64
41
61
62
b9
6c
d3
c4
58
5d
b7
61
d3
23
68
5c
eb
6a
c4
e0
e4
de
e8
e9
c6
e0
d8
53
b0
37
60
6c
c0
67
6a
50
62
d5
62
57
e9
97
ea
aa
22
51
29
3b
e5
37
c6
de
d5
e9
da
c4
41
6f
cb
1d
f1
f7
ee
e4
52
ec
5a
61
df
81
66
70
c9
67
db
e6
d2
ed
5a
c2
d5
62
d1
e4
69
56
cf
e9
cc
51
e3
60
69
5f
6a
4a
e5
e6
3a
e4
d8
ea
f2
de
49
4d
d7
e1
57
be
52
59
e4
d8
6d
67
e3
59
65
e7
5e
cf
55
67
62
d1
66
df
ec
c6
3d
e6
35
d8
4d
e9
57
da
ac
68
cd
6b
d0
63
e1
4c
ce
de
32
e6
cf
d2
db
e7
47
ef
42
4a
f2
ba
e1
4a
bf
32
cc
e3
d1
24
6e
6b
c5
6d
62
80
45
4f
6e
b1
ca
58
d8
da
4a
75
39
4d
e9
4c
4c
e1
b9
6a
6b
4c
e2
6a
60
68
5b
d8
df
d8
58
64
70
e4
d8
5c
a0
60
6f
4b
6e
f8
f1
f3
e6
ea
d4
f2
45
c5
e
ee
58
36
9b
d0
54
d8
e9
6c
54
da
df
e7
57
d4
e5
e3
63
c9
66
d4
de
9b
47
6f
53
54
64
eb
6b
e5
52
9b
e3
d2
6b
d6
9e
69
e4
58
5a
a2
af
55
52
e5
62
e2
e1
52
63
51
b1
bc
ec
e9
e7
ce
65
1e
bd
67
d7
63
55
51
69
66
69
6d
69
df
50
e1
81
e7
d4
e3
d2
e1
ea
c2
e3
ce
e6
63
df
d4
5c
61
ee
d4
eb
e4
62
50
c2
50
d4
dc
c5
27
c7
4b
e1
65
81
62
e6
d8
d3
ea
3c
ba
cc
cc
39
c0
5e
d9
60
3d
3e
55
54
5d
72
e9
57
66
59
dc
dd
c9
6d
55
68
4a
5d
66
54
6d
59
32
cb
60
40
c8
3d
63
4b
67
81
a4
db
ea
e7
45
11
53
c6
5c
14
42
37
4e
da
b7
55
61
5c
d4
eb
da
d7
da
d1
c1
df
e4
ca
51
dd
e9
ea
2d
e0
99
25
59
ee
e7
4d
91
c0
62
6a
29
60
68
68
e3
65
d7
d5
e5
4b
0
e4
61
59
ef
dd
51
69
2
55
6a
52
66
be
dc
58
5e
57
88
5f
41
52
e9
54
59
58
5d
4e
4d
6b
46
69
4f
be
70
ce
81
71
d9
58
70
55
57
6b
e6
d8
3a
5f
bb
e0
68
e9
e6
27
69
53
83
46
cc
dc
4e
57
d4
d7
70
b0
e3
5c
cb
df
de
c4
da
ab
b0
e4
54
ee
e5
6a
1d
56
d9
47
ed
5c
4f
a2
62
af
bf
bf
e5
62
61
c0
4f
5e
2f
e2
5a
50
e7
ce
9f
ee
5e
68
e9
df
56
60
5f
64
67
5a
ab
75
59
c8
72
cb
ca
57
bf
e4
5a
67
66
4e
e4
d8
69
e7
cf
e0
c7
de
d8
ec
e9
40
d4
d9
ec
d6
c7
24
89
cc
d7
cd
d2
4b
2c
e9
e5
e2
68
5c
56
5e
3a
db
44
e6
4b
b6
e3
78
66
69
64
5c
2a
61
63
6e
62
c2
48
59
63
63
e4
5e
5e
d7
62
53
d4
1a
61
dd
59
ca
5b
65
77
5d
5e
68
5e
ce
6f
d0
c1
ee
6d
e3
cd
70
ef
f3
ed
ea
57
f2
5f
40
c9
ef
65
68
cc
cf
eb
e0
5c
e5
0
d8
58
6a
c5
57
aa
bb
64
5b
e4
f0
bc
3d
c3
e9
69
f2
cd
d1
e8
d8
6b
d5
51
31
e4
e1
5c
3a
4c
68
48
e8
d1
6c
5e
56
53
4f
9e
d8
d0
5e
67
5f
e7
75
72
41
73
63
6a
6f
db
b9
b0
3a
5b
63
66
b2
e3
e1
e0
c4
5a
d3
55
d7
3a
d6
d7
c9
df
e5
e4
d2
ca
f8
59
cf
d3
c7
e8
e6
65
63
d4
57
42
93
e6
de
dc
52
d1
ea
db
ca
d3
d1
26
38
e2
4c
ea
69
58
c1
70
de
4a
16
d9
52
ec
4f
61
57
d9
42
d8
6a
6b
6c
c5
69
3f
6e
76
f2
eb
63
ca
eb
ce
3c
99
64
e0
d8
e5
62
e9
eb
64
cc
c9
66
81
2e
db
5d
df
cf
e8
ee
d4
ed
de
3e
f1
2d
da
c1
ca
4a
e3
de
64
d8
37
71
5c
5d
a9
df
38
5f
b5
d6
51
e3
d6
e7
65
67
32
58
69
ee
a9
e3
52
ce
ef
63
d5
b9
53
50
5b
5f
2b
8f
9
60
57
64
ea
38
3e
61
ca
66
e8
e1
cb
cf
ee
e8
d7
54
59
ec
d9
dc
e0
bc
ba
de
67
69
68
e0
5b
ea
aa
46
6b
d6
e1
e7
c8
5b
61
50
e6
57
dd
e0
92
46
77
62
a2
90
6a
5a
76
52
68
c4
61
9d
eb
e4
54
f7
ec
e6
3f
d3
52
dc
e9
e3
d6
de
4f
55
35
d6
58
4d
6d
54
cb
61
e4
e4
5d
65
e5
df
41
d5
ca
3d
6e
35
66
61
5d
55
ce
7
4c
80
e0
20
33
55
c6
50
eb
94
56
e1
53
e9
c4
7
63
5f
56
5f
65
4c
4f
0
df
57
d7
51
e8
cf
cf
56
5f
d5
c6
e8
5f
50
dd
5f
4c
56
e3
4e
57
6c
69
54
60
57
50
f0
e0
13
db
5c
ec
df
e8
3c
d3
35
64
73
75
73
70
70
30
6b
69
50
7b
38
36
56
1a
e3
63
31
67
5b
d2
60
60
68
65
ea
e3
e9
58
e6
64
d8
e9
80
55
59
da
7a
dd
67
cf
cc
5c
54
c5
68
e1
ee
3e
bc
e0
52
d9
e2
cb
62
d1
c1
47
f1
e6
ec
f4
ea
e6
50
48
44
56
cf
5c
b4
67
c8
6a
6a
65
ca
80
70
55
42
55
77
6b
74
53
c1
68
d6
e1
52
d9
53
de
b3
eb
a6
df
ea
5
bf
dc
65
68
df
66
61
d5
f3
ef
80
d6
1
d4
cc
69
69
5c
2f
60
ca
e7
55
18
64
dc
e2
55
e1
40
1f
dd
cd
3c
e4
72
3c
57
d2
63
d1
a6
e9
4d
aa
48
42
49
51
4c
e7
69
e0
56
66
eb
d7
e6
e9
eb
9a
aa
68
47
67
58
66
e0
bc
de
60
53
a0
55
e4
56
ec
df
c5
d3
d6
52
b2
3f
45
e2
63
64
5a
67
45
cc
60
68
66
4b
d4
d9
d1
e3
59
e9
ed
e5
21
cb
69
de
68
66
e8
e9
e4
48
62
45
d8
d8
c0
6d
5f
ca
e3
ce
bb
cf
c7
3e
d8
57
35
cb
a6
55
62
c1
e0
e9
da
18
33
e7
c2
e4
de
be
e5
c9
bd
47
e7
4c
be
55
46
bd
80
e7
9c
d4
20
e6
66
a5
e2
e5
c0
e4
dd
48
e8
44
49
e4
c9
d5
4d
65
d9
ea
d9
e8
e8
d9
e0
da
b7
65
a1
cf
ea
4f
69
4e
4f
db
62
5f
e3
e4
e3
55
e5
5f
e3
bb
e2
e9
57
c3
57
e9
4b
d9
27
b7
63
bc
e8
64
de
50
dc
46
e0
ec
d7
d7
66
4d
e8
5c
cd
5c
aa
bf
d9
9f
de
e4
e6
e8
e9
69
e6
5b
e6
b8
5a
bb
4d
e2
cf
3e
51
61
60
e8
5c
43
4c
e4
de
e0
62
14
b2
e8
67
e3
5e
e2
c7
dd
da
6b
51
60
56
1b
c0
ce
cd
62
c2
e9
4d
66
50
ea
41
e2
55
db
66
6b
a2
d6
60
5e
5f
d3
ca
e9
38
41
3f
56
5f
52
de
68
4a
5d
b
63
51
51
54
a7
e5
d4
c1
56
62
e7
64
4a
68
e8
ab
55
63
d5
e5
3d
c2
62
4b
e4
57
67
62
d4
d4
32
2c
61
d9
bd
61
e8
49
67
30
e9
68
3e
8e
e0
65
56
55
d3
e4
d4
d5
49
dd
57
1a
e9
51
e5
53
57
dd
4d
5f
30
cc
c2
4b
4e
4b
ce
e5
e7
48
5e
dc
54
d2
b5
3e
e5
53
ce
c6
e3
b3
6b
5f
e6
cc
de
81
e5
57
d9
5f
c4
62
2c
d5
81
e9
e2
55
bf
5f
56
e9
c2
53
eb
67
46
60
66
4d
d6
64
c7
63
53
e2
bb
66
e9
e2
e3
5d
d1
6e
65
5a
cd
49
f6
e3
9d
f1
39
ba
d5
e6
11
d7
27
69
ce
43
ec
63
6b
5c
73
5a
4e
57
67
6e
37
48
4f
b9
e0
e4
50
5b
e2
ea
e1
38
e6
66
cf
c1
e8
5c
12
5c
65
ab
55
4e
52
57
bf
df
3a
54
e6
d1
eb
cc
68
67
ce
e0
50
ee
f0
eb
75
74
72
71
74
6d
f4
a1
f2
e8
48
dd
76
ba
d4
5f
67
68
65
5a
af
e6
4b
2e
2c
c6
48
d9
4b
d3
d0
cb
3c
c4
db
e9
e7
dc
e5
dc
64
e1
5c
d3
dc
38
dd
c8
57
45
ce
e7
64
5d
55
c5
cd
d7
e0
56
c1
a4
60
66
e8
ca
ce
dc
d5
f5
f2
3d
66
81
d6
df
d5
5e
f7
f7
eb
58
af
dc
66
43
50
6b
48
c7
c1
52
56
ea
ea
c4
8c
5b
a5
e8
17
5a
e1
66
5c
ea
66
5a
57
d1
61
57
de
e8
41
69
63
e4
69
e0
be
d6
db
d9
4d
4b
6a
6a
35
dd
6c
d8
57
59
ee
58
5e
53
64
e5
44
db
bd
e1
e7
e3
d0
49
e3
ee
66
c8
cb
63
c4
6c
63
5b
3a
d9
e7
d5
6e
66
44
d2
61
4
5a
d1
c7
df
66
c9
e7
e6
4a
e1
5e
47
ce
e0
e4
e4
3b
da
d0
cd
a1
dc
d0
d1
cc
d9
eb
d9
b2
db
b4
6
e8
e5
4d
c9
33
26
67
40
d8
d9
58
cf
e2
d8
33
da
e9
d9
da
e2
65
65
dc
4f
e8
d7
e5
5f
f2
c2
41
5d
26
67
d4
6b
67
eb
d8
6f
5
6f
bd
65
d9
d7
ee
ed
ad
ef
f2
59
9d
e1
6a
ec
43
d2
c9
69
d1
ee
74
65
f5
66
dc
43
4f
c8
57
e3
62
15
c3
80
3f
e3
b9
61
5d
a6
d3
42
1f
bb
4f
37
eb
67
e5
d4
e4
ec
64
49
f5
73
5b
80
62
d9
85
e5
3f
59
f1
24
4e
f6
2f
5f
ea
6c
ca
ec
5c
62
c0
c2
65
db
e7
93
68
c5
5c
cc
6a
63
e1
46
5a
5e
d2
c3
e1
d3
9c
56
e9
3e
40
5e
4b
24
19
16
46
58
db
e2
5a
5d
d9
ea
ed
d5
d0
ed
de
56
e4
b6
eb
f0
f1
53
e6
e6
23
c8
db
f9
b4
38
e7
ba
64
51
5c
52
5c
64
e3
9d
0
e1
d4
5b
c7
df
63
62
79
76
d1
66
62
41
10
75
da
e5
d3
cf
dd
d7
d6
6a
54
e3
d4
e9
68
58
43
67
cd
b9
f4
54
5a
c7
5c
58
e0
b3
be
ef
f2
f8
4e
70
c2
e1
6b
f5
da
68
81
83
61
bb
eb
dd
e6
5f
5f
65
e4
e7
5e
5f
ea
44
e6
66
60
95
d9
34
6a
5e
e2
d6
e2
e2
5b
da
33
52
44
57
e0
dd
cc
87
ef
d4
d5
b2
4c
ba
cb
c5
dc
e8
56
dd
df
d9
db
40
ea
a9
af
5e
52
75
6e
c5
c0
5d
d3
5d
5b
5a
d6
da
ae
49
c1
de
6c
de
49
36
66
d8
d0
d9
e8
e1
c5
ed
52
66
f1
e1
22
e9
cc
52
d8
e4
d3
54
de
a8
c8
d7
c3
c8
e0
4d
f3
61
e0
5a
ad
5e
ec
54
d6
41
65
b8
e6
d4
ea
bf
67
30
70
69
5d
62
e0
df
5d
af
5a
44
71
81
5e
54
70
4c
64
5a
fc
e6
ed
e5
70
d8
f0
c7
5a
d4
cd
ce
c2
2d
41
d1
60
d3
5a
ec
41
4e
58
68
d2
49
c2
98
62
da
57
d7
6d
5c
d0
e4
47
ec
d9
c9
eb
55
d8
40
cd
da
22
ec
4f
40
e7
de
e1
ee
5d
64
dc
bb
60
e0
5b
69
db
3f
db
4f
52
c3
e6
e3
b4
9a
68
9e
63
6f
51
de
4e
4e
54
dc
e8
4f
61
cb
ce
61
43
4e
66
4b
6a
5c
b3
5b
5f
bc
19
53
4e
e0
c2
64
e8
db
58
ea
cd
d0
5c
d3
ca
9c
65
5d
86
e6
ec
ed
e8
67
a0
b8
60
ec
9d
63
4d
db
4c
18
40
b8
69
51
6d
2d
0
e1
a9
e3
49
e1
ec
de
e7
50
c7
e8
e3
4b
38
e8
5e
52
a8
64
ea
f0
d8
e9
6a
e8
53
d7
44
dc
63
e1
4f
56
65
eb
64
e0
32
6a
5e
54
39
57
f3
d9
cc
e3
2e
c3
6d
67
3b
bc
b5
e4
5d
ad
a7
b3
55
dd
e6
d9
60
49
f0
ea
e9
67
62
d7
e5
e5
59
64
b5
e7
57
ea
57
cf
d5
de
64
b5
67
39
ef
c2
ed
d8
d5
db
3c
e1
8e
e6
56
e6
60
6d
aa
ea
cc
d4
e3
e5
9f
67
4e
dd
63
de
81
5e
cf
61
e8
6c
dd
18
e7
58
67
d4
80
34
45
65
80
38
e4
bd
59
e3
dc
4b
48
d3
d7
e9
53
c3
c6
4a
57
40
bc
c7
ea
eb
3f
4b
6e
6c
f0
26
3e
4e
5b
eb
df
e3
63
60
47
4f
d6
46
e6
41
1b
d7
df
e2
52
62
a0
de
c6
e7
63
6a
ea
b4
57
ee
e6
62
eb
d3
10
d5
53
53
5a
e1
60
5c
dc
5f
5f
60
69
d7
b1
db
67
18
2e
d2
49
28
d0
d5
cc
34
62
db
64
f1
70
d2
dc
6f
6
cc
70
e4
d9
ea
46
ea
e1
ba
d6
e2
5f
63
46
cc
6c
e4
df
40
3e
81
11
eb
56
30
e9
4b
d0
d6
58
65
e5
de
50
ce
68
af
e6
6a
e8
e4
df
c8
e1
0
50
60
d8
62
49
c9
65
cd
6a
6d
47
e4
c5
de
4d
e5
d3
cd
d6
e4
c5
d7
65
5e
66
cd
da
68
e6
c0
49
62
4b
e7
d2
6d
5e
61
66
54
68
40
67
58
d8
d9
5f
d8
bb
66
cf
61
47
66
67
dc
6e
6e
52
e3
e5
56
df
ee
6b
35
43
58
cd
2c
6a
68
db
e0
eb
dd
4f
5e
ed
e5
e4
d6
d3
5e
5b
48
e8
ea
5f
d2
60
f0
48
64
e4
ef
55
de
e3
ea
9b
67
51
e7
d5
62
e1
35
4f
e7
31
39
e9
99
f1
cf
a4
d3
da
eb
b2
80
64
71
59
67
71
f0
5e
22
4d
32
ba
ac
55
38
6a
6a
44
65
d1
b5
e6
5a
a7
e4
c3
de
5e
ee
4c
64
e1
db
6c
66
71
77
70
5a
d6
d1
c3
e1
6c
62
62
69
c6
6c
d8
d4
72
bd
5b
62
ed
e1
55
51
eb
66
68
72
eb
ee
41
61
e6
3f
42
a9
5b
59
58
6b
4f
5b
5c
4e
4f
40
db
68
e6
64
56
ea
e8
e8
28
d2
e3
dd
46
4d
db
e7
50
3e
63
2
68
e9
be
64
e6
3d
e8
ec
e0
45
e6
57
71
dd
58
d1
ee
bb
57
c0
f0
f0
e3
f7
fc
69
ce
5a
66
e1
66
65
59
dd
61
ea
68
d2
51
4d
66
ea
df
46
e1
4b
e2
ee
c3
d8
d2
6d
1f
65
63
4
e0
ea
68
9e
e0
ed
64
4e
4b
e6
e6
ea
c4
dc
e9
4f
c9
17
44
3b
f5
ed
e1
d9
93
ae
48
d8
5d
75
6d
6e
67
e2
cf
63
e5
e8
49
d6
e0
5e
4b
c6
d2
f0
21
ed
df
e7
db
cf
63
49
47
52
84
9d
ae
d8
59
3c
ec
92
d7
e7
fc
bf
f6
de
f7
cf
de
e4
c7
e5
eb
5d
5c
e8
62
3d
ea
6f
d1
5d
74
4b
c7
55
67
68
67
58
63
e9
ec
c5
64
e8
e0
cb
59
d8
6f
df
e1
5d
dd
d7
dd
61
5b
57
60
64
e4
56
45
e5
e1
5f
d1
c5
4f
d8
53
70
e9
ab
65
5c
cb
e6
db
60
62
6a
3c
e3
ec
e9
e7
62
dd
64
d1
ce
e8
69
a2
c8
e4
69
d9
69
e4
df
72
ce
c5
63
cc
e4
53
66
ce
5f
66
60
55
b4
a3
4c
e1
af
d5
5d
74
bb
99
71
da
dd
6e
eb
e2
e3
d6
d0
e5
da
4c
91
be
e1
ec
e7
e6
62
aa
de
d4
c4
e8
4e
bd
9d
ee
43
da
e8
dc
da
e4
dd
e0
65
cd
ce
60
49
e7
d9
ea
e6
c2
59
b4
dc
b1
64
53
b7
65
69
25
a8
c7
c2
68
41
2e
d6
ea
ec
3f
d8
67
af
f4
68
65
e5
6e
be
ec
d8
e9
47
31
67
62
b4
54
e0
e4
d7
6f
4d
e6
da
53
68
ac
e7
e5
94
e9
cd
2d
bd
cc
e8
a
c4
c6
e8
69
af
e0
a7
34
47
4f
e2
a7
46
bf
64
d9
ba
5c
32
d1
d9
d9
62
d7
62
2f
6d
59
52
e7
d4
46
c6
57
71
3d
ad
96
62
43
e4
e6
e9
ba
63
6e
ed
e4
a4
d9
d4
d2
e0
cb
df
e8
d3
d0
69
53
a
64
67
69
bf
5c
dd
64
e0
61
50
23
e5
60
66
db
5f
57
c7
3a
47
27
de
30
d4
be
3f
52
d7
e4
18
6b
d2
4d
68
6d
da
57
cb
62
47
df
c5
d2
e4
26
b4
30
6e
56
51
e3
43
68
e5
cd
48
d5
63
c4
91
f3
da
a4
41
c3
5d
d4
45
e0
65
c9
eb
38
51
dd
63
5f
68
c7
5e
65
91
c4
62
d7
4f
cf
d0
73
64
e8
e5
47
eb
c9
ea
d8
dc
49
db
5b
61
60
e7
c8
61
ec
ca
41
5b
e7
58
60
d9
f1
75
e0
90
be
dd
e6
dc
c0
ee
75
d0
aa
f0
a7
c6
e3
ed
70
6c
6d
6e
6e
6c
72
63
b0
6c
9d
57
65
6b
66
61
d7
b8
72
59
53
3d
d
58
2d
dc
cc
53
e5
60
df
60
d8
5d
dd
5e
59
69
6a
69
43
6a
c6
5e
eb
e0
68
45
67
49
ec
ed
63
d4
f3
66
d8
f9
5c
39
6a
65
63
6c
9f
65
60
44
e1
66
4b
cf
e5
de
df
47
68
69
5e
5e
5d
e0
4c
9e
58
e0
e6
d9
e6
d4
ba
3e
4
5e
3f
e0
dc
cd
4f
ce
a5
ba
40
67
61
e7
5e
d8
a8
ee
3c
e4
5d
d9
55
e0
69
5c
62
38
70
da
d2
e8
d1
e6
ac
57
ea
d8
da
57
d1
eb
c2
49
e2
d3
46
6d
63
4b
c4
30
5e
5b
55
4a
d2
e7
68
e9
e6
5e
dc
ce
b5
dd
f8
e9
e8
ec
50
e0
ed
d9
eb
e6
e5
e2
d9
d8
e8
e0
e9
4c
63
5b
d0
14
d6
d6
65
e1
d7
1e
ee
61
3d
c2
eb
2f
84
60
e8
5b
66
5b
ca
c2
d8
bc
e0
d0
e6
5f
e4
e6
ec
4a
c3
e8
f2
37
cf
3f
3d
5a
4d
e9
66
e2
e5
ea
e3
61
ec
47
c6
70
c7
5b
c3
6d
80
6b
cb
6c
75
70
76
3f
69
c2
d2
c5
d2
bf
23
4d
e5
a6
e2
5c
42
cd
c0
e5
cc
48
ec
2b
ca
ed
3d
75
68
45
65
5a
59
bf
e3
3a
56
ba
cb
db
e5
e7
cf
df
5a
60
44
e1
e0
d7
2c
e2
54
53
5d
49
5d
56
52
ec
69
bf
4b
e5
69
cc
e3
3c
5d
52
67
68
e9
ec
5a
dd
ec
c4
da
55
eb
bf
41
79
de
e5
b7
c8
f2
c6
3e
4c
52
27
67
5c
66
da
2c
ee
c1
d5
4c
5e
e6
d0
da
81
e9
42
58
45
dc
d9
3c
e6
34
65
e4
e3
e3
6b
df
44
65
bc
de
c8
6a
e4
15
1c
de
e3
de
63
ca
59
47
5f
d9
e5
e6
d4
57
d3
de
5f
d7
5c
6a
5a
cb
d3
dd
b7
ea
b7
e1
5b
ad
e3
f0
d9
a0
d1
2f
df
e2
65
e1
64
e1
ec
73
c0
e7
a3
57
dd
4e
cd
55
53
e7
69
d1
d3
53
dc
5f
dd
4f
d6
6c
5f
e8
59
d0
3a
4d
65
61
60
e5
db
54
ef
3b
71
10
62
5e
54
4d
4c
d0
dc
ca
d7
36
a7
de
69
cd
5f
d0
61
e6
55
e6
61
66
d9
62
5d
da
39
68
e8
6f
5f
5f
4b
f2
4f
ee
5c
90
e9
68
59
d2
d4
59
c4
3e
69
ee
30
87
ed
ec
27
ed
c4
ee
dc
c5
c8
c3
6c
c6
4b
47
6d
dd
3d
e0
57
51
e8
6a
5f
65
d7
6c
e3
d5
d9
51
be
5d
e8
c9
e6
c1
61
62
b2
60
e6
e3
c8
e6
65
50
4a
e8
65
9a
d5
5f
e0
89
ec
56
ec
e5
72
73
62
48
6f
d7
19
e2
df
53
c1
e7
e1
e1
f0
44
f6
e6
46
ee
58
da
f1
e5
e6
e9
d7
4f
de
d3
e4
cc
4b
ec
bb
c6
e9
32
2a
61
5e
e2
5a
ea
db
72
60
ea
63
9c
f3
4e
5f
db
68
e6
c5
e2
5a
e9
47
e2
58
48
d6
e4
d1
dd
6c
e6
ba
4e
dd
d5
b3
80
10
5e
e4
49
42
4f
bc
36
80
c1
62
65
e4
c2
69
af
95
e9
d8
6e
4c
6b
6a
70
56
66
b8
51
c9
db
be
ae
38
55
e7
49
64
e9
e1
54
51
62
57
52
61
65
d3
e7
ba
33
4b
64
e1
cc
5d
5d
65
d1
81
51
57
b4
54
c7
40
ef
e6
e3
e5
af
d4
4c
59
61
53
58
c3
d0
1b
d3
40
64
b9
eb
66
6f
d6
d2
5a
db
54
47
64
e2
68
5b
55
67
db
c3
5e
d2
5d
5c
52
d9
5e
66
48
ea
4e
98
d2
ce
60
a4
de
e1
e5
c5
b0
63
61
4c
ec
d6
64
4a
56
de
df
bf
e3
52
dd
5e
51
51
6b
43
6e
e3
65
df
60
60
41
cf
e2
69
d5
b6
b1
dd
e3
53
63
a3
e9
e1
8a
51
5f
3b
ea
e1
d3
eb
d7
49
45
cd
df
54
e2
e6
dc
5c
49
d6
5e
ed
5b
ed
e9
f0
e3
ea
e9
55
66
d3
d9
de
69
49
bd
3a
66
56
e5
69
64
61
b7
67
b5
59
51
5e
ba
51
62
6f
e5
a4
55
cd
d0
de
e9
5f
e1
eb
e1
c5
e7
e6
d8
5f
d5
e2
15
ce
4f
34
d9
e8
c1
4d
6b
d4
53
cb
54
66
67
e7
43
d2
65
3c
66
94
4d
59
d5
48
5b
e3
df
d4
e0
49
35
d0
4c
da
dd
e3
59
aa
61
dd
d2
67
0
e4
c3
c7
e3
d9
24
60
ed
af
69
6a
3b
5f
ce
6b
6c
55
61
35
6d
64
3c
4e
da
b6
80
48
4f
57
5c
5a
5d
b9
e9
5a
62
cf
51
46
e8
c2
5f
d9
5
dc
dd
d1
59
e2
49
c5
df
53
48
e3
d1
e1
ce
b8
5e
47
e2
65
e3
e6
e5
31
5c
d7
e6
98
ec
5e
dc
ec
c4
d8
35
e0
e1
15
e3
e2
e8
69
d7
d9
d9
81
c8
69
1f
67
60
65
42
51
6f
bf
57
6d
62
cf
16
5e
61
d9
55
db
ca
38
72
72
66
6e
60
d5
ba
e3
d2
c1
46
72
54
4a
ec
d7
f3
54
d2
69
68
cf
e3
e4
d1
4d
54
d9
6c
69
e5
d5
8d
52
dd
5a
49
61
66
6a
5c
2f
5f
6e
74
eb
c8
f3
f3
4c
c3
d0
f1
47
68
d4
bf
93
c7
c7
54
3f
c6
4b
57
60
c7
46
4a
e0
2c
e4
54
56
c9
58
5a
5f
d5
56
95
bc
db
d9
d7
d8
6e
d9
5d
72
36
69
45
5f
5f
dd
58
4c
ca
5a
d9
e5
d8
cb
e2
d0
51
e9
ed
c2
4f
67
9d
da
5b
5f
68
67
5d
42
72
3a
65
74
6e
54
5b
35
cf
e3
d7
63
64
55
d6
45
39
dc
dd
e5
dc
6a
b4
59
d3
48
54
ad
37
ef
57
97
d3
3d
47
ec
db
d7
91
c2
e3
ee
5a
48
e5
48
66
ee
d5
d4
3c
e5
59
b2
61
60
66
ce
65
61
5c
e8
4f
53
e5
53
bb
e5
a1
d1
e4
eb
e5
6a
3c
39
48
52
c7
64
62
e3
e5
df
bc
53
60
e2
5d
ce
d2
df
32
b5
60
bc
33
da
5
66
d4
6e
69
56
ae
b9
56
e2
c9
de
36
e9
3c
dd
d9
5a
ea
66
e0
4a
3d
57
3b
f3
ed
e6
d9
e8
eb
2b
c0
25
fa
f9
fb
f0
56
5f
e0
69
5f
68
5f
c6
67
59
4c
dc
b6
67
d8
5f
65
5f
16
c0
63
65
44
c8
63
3a
68
d2
24
bd
65
bc
3b
d2
a0
e3
d9
e8
e6
da
f5
5e
55
e5
e0
52
e8
3a
e2
24
69
d5
da
6b
5b
d5
47
e7
c9
e6
d8
dc
57
d1
ed
ea
ed
59
e8
2c
dc
49
dd
61
e8
5f
d7
59
dd
eb
63
60
1f
6b
c2
58
55
f1
bb
38
da
ea
be
e9
eb
e4
4d
e1
d7
e2
40
4f
56
ca
b9
6b
5f
dd
e8
68
15
b2
e2
ee
e6
76
e2
b2
91
61
c3
e7
b4
0
df
d8
b9
a1
e8
50
5a
d9
d1
67
d7
c3
5e
6d
6c
67
d0
4a
57
c4
6d
4c
c9
13
e0
0
5e
6a
e1
55
58
e6
bc
4e
43
4b
6b
5e
63
5a
cc
ea
d4
56
e0
e3
cd
4c
dd
4d
4c
e0
bf
db
5e
dd
d4
5e
4c
ed
e1
1a
d8
cd
48
5e
dd
63
df
19
53
da
e8
2
e7
39
36
64
5d
e8
58
2f
65
5f
cd
69
d9
ed
dc
67
d8
61
b3
df
e3
e7
3b
42
eb
eb
db
66
d9
d4
ee
ec
e6
5d
67
d7
60
e1
67
ea
e2
e4
49
5a
e2
27
5b
62
3a
b0
ed
63
65
d4
b7
64
60
e6
d0
67
38
5b
5c
e0
69
e0
64
b0
5a
35
4c
cf
e2
e1
55
5f
e2
c5
4d
bf
33
69
6d
9e
42
61
e5
51
74
dd
1d
69
4e
94
71
2c
63
5b
4f
55
3d
e1
e1
e9
65
e5
56
e1
a
e0
32
4f
2f
ce
5e
e0
65
e9
60
e4
61
e6
cc
e5
e7
cb
de
5a
ec
ea
bc
5b
e8
31
ea
ec
bf
3a
b5
4f
c7
27
5d
34
ae
e6
e1
5c
d3
d8
47
d0
c3
6a
43
6d
66
29
de
c1
49
5f
cf
63
e5
d2
da
62
8
6c
4b
d9
5e
d0
53
5f
59
62
43
ee
ed
c0
ef
ed
b0
e4
f4
ea
eb
ef
da
f1
cd
36
76
78
71
68
6d
66
63
5e
51
62
5c
68
6c
54
5d
6f
3c
72
dc
e0
de
6a
4c
de
b2
b
ad
e9
dd
db
d9
54
f3
e0
bf
29
6e
70
64
b7
e5
f5
2e
d6
cb
69
2e
e5
bc
62
d6
63
d0
e1
d5
f2
d7
f1
eb
f1
67
51
60
eb
e5
64
d7
4d
61
d8
e4
eb
5e
6e
78
6e
4b
61
74
79
7f
6e
6b
55
c0
35
30
b3
54
65
d3
e5
67
f4
2f
de
3d
63
69
64
4c
cd
60
aa
c9
55
64
e6
23
5b
e9
d7
63
e7
db
68
f3
6a
d9
56
e3
62
40
d9
ea
d5
e7
bf
8b
65
63
66
41
cf
e9
bd
65
6a
4e
d2
dd
3f
68
be
b1
ca
62
5f
d9
56
58
50
68
d2
dd
69
c8
dc
28
31
e2
df
69
9e
d4
db
df
e9
e5
ed
62
da
e0
67
ea
66
57
9c
65
60
3f
e5
d9
ce
43
1e
73
6d
f1
bf
4b
6e
1c
62
cd
62
df
6e
55
df
5b
e8
d7
57
e3
ed
d5
ce
dc
e7
cd
e9
28
63
68
68
e0
5e
ca
de
58
35
ec
ea
69
ea
e0
e7
ea
e5
ee
e2
f5
de
d8
65
bf
67
50
e1
de
6c
d4
94
c2
ef
d2
5c
f2
e1
ce
e9
55
e7
62
66
ea
cc
e8
5e
54
59
56
9f
e6
50
54
ec
52
60
6a
69
c8
61
65
67
ce
3e
63
e6
ea
f0
f4
26
ed
5a
e7
45
54
6b
5f
6d
d0
46
6c
29
60
3e
e3
e2
45
64
61
e7
4f
64
6b
29
cd
6b
98
e5
d5
3a
5e
ac
2e
6e
e4
66
63
e8
dd
e4
e3
e1
e4
cc
60
eb
59
0
39
69
e3
4d
dd
d9
ec
eb
64
d7
64
6d
e8
c7
37
eb
d8
4d
58
dc
5f
45
4b
6a
5c
e1
64
4d
36
1d
aa
6a
ad
48
63
61
d7
bb
c0
db
3d
68
65
4a
e2
dc
4f
6f
40
c5
d7
da
69
47
e3
52
cf
5f
5d
3a
10
69
3d
36
e3
dd
53
e0
63
e5
dd
3e
e0
c1
d3
bd
e1
b3
c1
e2
66
e7
d1
53
64
63
50
d4
d1
e7
e0
d4
e3
3a
59
89
4e
d7
5e
4c
6d
63
ea
52
6d
36
cb
44
d3
d9
d6
5d
e9
68
5a
c1
4e
e1
c1
64
6a
c7
e2
e7
37
cc
6a
56
78
c0
68
6f
de
c7
64
6c
63
d9
c7
50
e3
c1
ea
cd
c1
e8
62
ec
5e
28
e9
de
5c
48
4f
c5
b6
26
9e
e2
de
68
58
d8
cd
54
e6
50
e8
b5
64
dc
62
65
55
44
4d
c0
3d
66
59
5d
5e
46
6b
66
5e
ce
4f
6d
e0
31
e8
e4
db
5f
5a
c6
6a
4f
69
c7
6e
6c
d3
e2
40
d4
41
ca
63
5c
e2
6a
66
cb
46
f2
e0
60
19
db
4b
e6
55
e0
4b
60
75
e1
6d
5b
e4
b4
da
66
9d
43
40
e7
d5
e4
d3
e8
e2
62
59
66
e3
65
59
da
e1
70
62
df
b6
66
5f
e8
c7
eb
d1
e4
5d
e9
5d
6a
5b
db
48
eb
48
68
d4
e7
5c
e6
68
e3
e6
dc
c8
4d
60
d6
e5
e3
a0
67
31
be
65
bb
d7
87
da
d2
df
49
b2
1e
44
6
58
ec
ed
62
49
df
22
6a
52
62
de
2e
dc
3c
59
ea
9d
36
b6
69
61
e3
db
65
1d
dc
60
41
dc
6e
e9
66
6f
bc
a8
65
e1
e2
e2
c7
65
69
d3
3f
61
64
c9
eb
39
5a
e2
80
e7
4d
dd
e3
3a
51
b1
5b
e9
e6
b5
de
eb
c7
c1
b2
64
64
df
db
62
68
56
67
67
4c
64
55
de
ca
25
43
d7
76
d7
32
72
c6
6a
65
c0
df
e4
52
62
dd
2
d8
a4
e7
5b
55
68
d4
bb
48
58
e9
61
5d
d5
a7
5c
c2
bf
e4
dd
6a
e4
ac
10
6a
63
df
6b
41
ed
e4
c3
66
69
e2
6a
a
66
61
58
65
68
e0
4e
e7
52
29
e1
55
c8
63
ea
55
57
ea
98
c3
48
d7
d5
d7
4b
cc
50
63
c7
56
e3
40
e0
d6
37
d3
aa
cb
e9
4d
1e
63
e4
db
43
dc
c6
31
e4
57
c6
47
40
6a
62
df
34
43
64
62
4b
4c
e2
64
5f
5c
55
ee
a9
d1
cb
42
4e
5e
ed
ed
4b
e4
16
34
0
ea
eb
ec
38
47
bf
8e
72
db
dc
5f
a7
e4
a8
65
48
43
4b
e1
ec
e9
5a
e9
5e
c8
cd
1b
ec
f1
5b
66
58
55
d2
5a
e1
4b
e3
6b
65
55
dc
e2
d3
64
5e
e0
e2
e9
e0
d0
69
3f
61
59
6f
f5
e9
28
d7
d3
e4
a8
34
2d
be
ef
cb
e6
67
e4
56
59
e1
48
df
e4
11
e6
c3
58
be
d3
e5
52
cd
ce
d9
d7
65
55
35
44
e7
f0
bc
e6
dc
8e
4a
60
d9
df
da
d1
60
de
b9
ea
6a
56
b4
67
ea
68
3e
90
bd
5e
d4
64
d0
6c
be
5c
e5
dc
e1
5d
c4
66
cf
69
b9
47
b9
d4
4b
64
6a
56
cb
eb
1f
e9
cf
4f
49
e0
e3
68
64
d6
69
63
bc
49
de
ac
ce
54
e5
26
67
d3
48
d6
d0
d2
b5
61
6a
41
9e
5a
e5
cd
e6
5b
9b
e4
e1
69
e2
5f
61
71
47
e3
e1
da
6a
5d
51
c2
de
42
59
69
6e
e4
e6
ca
c1
ba
63
d7
5f
bc
62
b7
5b
b
6e
44
6a
dc
ce
56
d1
e8
eb
dc
df
61
e3
69
45
d4
4e
dd
c8
63
5a
81
99
d8
ef
f1
54
c2
4c
94
c6
5f
5c
9f
b2
65
60
4c
e7
5a
6a
62
b4
62
c6
5a
c1
64
53
69
df
de
48
ea
e8
da
60
bf
59
6c
49
e4
e4
ea
ad
59
96
54
a8
b2
c3
a7
e6
e7
5a
53
e4
cf
19
e7
70
e4
db
e1
80
6e
ad
51
5e
ca
de
5a
93
21
38
69
5a
4a
a4
5c
d8
b1
c5
60
37
22
d2
3a
61
de
e2
d4
44
a5
40
5c
e4
63
b6
e9
ba
48
dc
c3
ec
4c
e6
44
ce
d4
81
5a
db
61
a8
d8
61
80
e3
5a
46
c6
ca
66
6a
61
67
41
cd
a0
a1
db
63
d5
5c
ab
e6
4b
6a
e4
e7
4b
5e
ea
5c
b3
3a
5b
b2
c4
2b
66
ae
6f
4d
ad
63
63
e3
63
e7
56
5d
4a
ea
e3
51
da
e6
ce
ea
69
c8
e9
9d
41
e6
ea
69
d9
4f
5b
4a
61
c9
5b
c6
69
d2
51
de
cc
3c
d1
b7
e5
9c
6a
56
bf
a5
6a
d8
d5
bc
30
64
65
d9
e0
b
6c
43
59
67
6a
b3
e5
dc
62
67
df
d1
ea
4a
5d
56
68
52
57
e7
ea
e4
5f
66
de
61
e9
d5
c8
45
df
de
65
53
d1
81
dd
c0
9e
e5
e1
e7
eb
e5
d4
dd
c2
68
ea
e4
5b
d2
e6
b0
db
e5
bf
a9
bc
de
4e
52
d6
da
c6
4a
48
b8
49
3e
e8
6e
67
6a
e1
69
e2
51
38
5b
60
57
d3
ad
36
d0
d5
27
4f
d3
38
c0
68
80
c5
69
e9
6b
6f
81
68
e8
60
59
ca
c2
e5
e8
38
a6
dd
65
64
54
e0
5c
80
c1
4a
27
56
e1
5d
e9
37
db
dd
66
ea
b8
e7
e8
d5
cb
66
6c
6a
f1
cb
d3
5d
18
e1
cb
61
ef
51
60
e8
df
61
e6
e4
58
b2
cc
e7
4f
dc
e0
db
66
80
e7
48
57
5d
65
51
64
e5
e2
ef
d5
61
5f
1c
63
e0
da
eb
bf
50
55
48
66
71
73
57
55
bb
d1
59
d1
de
cf
e2
f2
65
43
ef
ea
e1
d5
d4
d2
eb
54
59
db
ea
ce
e9
63
ea
b5
f0
42
e1
e0
d9
59
61
61
f1
e2
6c
da
49
cb
47
c4
d1
dc
68
6f
48
e6
4c
92
5d
df
62
63
1
4f
d8
69
58
cc
e1
59
da
27
61
f1
d9
db
e4
ca
4c
f5
ed
5b
e7
63
68
57
6c
50
5e
67
d9
67
d4
56
ea
28
d0
6e
c6
e8
c2
d5
5e
64
e5
e8
5b
4d
e9
66
da
e5
d2
e1
4c
e8
5f
c3
e9
d9
e4
46
cd
5c
b4
2d
58
64
64
6a
e7
65
da
e1
67
4a
cb
eb
d2
41
55
e1
5a
4f
33
53
5e
3f
4e
e4
2e
55
4c
5e
4d
5f
e2
e1
d3
62
d6
ef
cf
d3
2
6a
55
80
e9
de
ea
52
be
4c
68
40
6a
5b
70
6b
69
c8
69
44
c7
ef
e4
6a
66
e1
de
5b
46
e3
de
5b
e2
e0
67
e8
65
cd
da
eb
ca
4b
68
62
e4
cc
e7
d9
ec
47
64
ed
b9
e4
5d
4e
47
64
52
df
5e
62
38
50
46
30
de
ec
de
cd
b7
92
6a
e9
6e
79
4d
6d
bd
d4
67
6a
59
dc
5c
5b
c6
f3
c4
d1
eb
5f
e0
56
e1
46
db
4c
46
56
e4
66
80
65
cc
e3
c6
61
5f
67
c9
53
e4
4e
53
59
59
e1
23
58
4a
d0
6e
53
ae
c2
c0
b1
64
6e
f0
eb
b8
a5
5e
4e
5a
73
6a
d5
62
51
68
d9
58
ed
de
45
5d
37
69
e9
d7
c2
66
87
5a
e6
3c
de
3c
dd
5d
51
34
5b
61
e3
d1
e1
66
e7
dc
ea
d5
52
ba
c9
e3
5d
a6
d2
ec
6b
5f
6a
50
da
c6
62
eb
bb
dd
50
ec
d2
59
b1
d7
40
2c
f0
e8
ec
4b
59
31
d2
21
dd
65
54
e1
e3
e7
e2
e3
43
59
2f
e5
52
61
de
e5
63
32
ae
be
eb
d6
96
5b
5f
e0
2d
55
6b
87
e8
e2
e1
50
b8
df
24
d3
eb
d0
b4
4a
6b
d8
69
4a
e7
38
4c
e2
39
5c
2a
d5
72
93
e3
f3
d3
ea
4c
f2
ed
b8
d5
c2
5b
4f
66
9
e9
e5
b4
33
bb
6b
e5
56
5a
d6
61
e0
e5
df
d4
b4
b3
59
b7
69
5d
e3
5f
f0
e0
e4
e0
42
ce
e6
d6
a1
e1
e2
e1
da
d1
36
51
e6
c2
0
e6
8d
50
ea
e5
d8
e5
5b
e5
23
ec
58
d4
ee
dd
13
67
65
e1
2a
49
cc
d4
61
47
d2
d9
3d
ed
e0
5b
d2
e1
da
c3
9c
e3
47
53
57
41
e7
ed
fe
ed
e8
b8
49
e9
ec
df
50
68
78
7b
6d
68
6e
72
6e
6e
7b
6c
5e
c6
58
6c
47
e2
59
68
58
41
ae
68
c2
ea
ce
e3
f3
f1
dd
c9
d9
62
d3
66
39
5f
61
3b
63
dc
e5
f1
b2
bd
79
70
e8
ae
15
de
ce
ef
e1
d0
bd
a4
7
1d
e2
e6
61
e8
59
5c
e8
ea
42
d4
be
e8
65
61
66
46
70
57
4d
69
2f
57
e2
5c
d7
9b
e5
56
eb
59
55
ec
44
71
df
64
e8
80
e2
b5
d2
61
5c
cc
53
1b
ea
eb
4e
e3
e0
9b
e2
b8
4f
67
2c
df
4d
5b
49
e3
cc
cc
f0
e4
57
de
5c
45
c5
b0
d9
c9
47
d2
54
3d
e2
5d
2d
98
c8
d2
47
39
df
6a
d2
ba
51
eb
5b
6c
af
ac
38
5e
de
e6
49
d9
4d
de
45
e6
da
d2
47
cd
cc
5b
c3
5a
8c
50
1b
de
eb
61
34
73
70
27
70
4d
c8
51
41
d2
34
5a
c5
d1
d6
e1
e1
c2
6c
e6
5d
cb
63
e0
55
55
67
4e
60
da
5e
68
4d
d1
bf
eb
57
e
49
2b
41
9e
4b
e5
db
c3
ee
cb
e6
4e
81
4c
37
cd
e0
dc
60
54
c5
6c
63
56
5d
5f
60
65
e8
4f
5e
42
54
ee
41
2
c0
d3
d5
e4
5c
6a
66
df
ba
5e
c9
e7
62
e9
e9
bd
d8
62
ba
e6
61
d1
e7
5d
e2
e9
d7
c6
53
e2
ad
46
d1
e6
6a
63
67
ca
c3
db
62
d8
e0
31
47
65
c2
e7
ea
d5
4e
be
e5
5b
63
55
db
4e
eb
49
51
d9
e7
60
e5
e9
e1
5c
d1
55
63
69
e1
22
56
d5
58
56
5e
e7
6b
e4
d4
5c
cb
cb
35
20
5a
66
6d
c3
53
ec
ec
d9
e5
ef
14
4d
e6
6b
3f
49
d5
12
dd
d9
4e
d7
3a
53
e1
c4
63
63
5b
bd
d4
e0
22
e8
a0
62
65
6d
6b
66
58
57
d0
ea
bb
5a
da
5f
67
67
5b
62
e6
b5
e4
e0
ee
c1
db
ed
61
51
67
68
f2
5b
3a
e3
e8
df
ea
69
54
69
dc
e9
5b
66
45
c9
e9
41
df
e1
4b
cd
16
4d
5e
d9
be
77
74
dd
60
67
4a
ea
54
db
ab
bb
55
5b
61
d7
63
e3
4f
20
6b
dc
5c
e9
5d
56
e1
d7
ea
54
3
c5
e8
c9
db
e2
d2
64
aa
d4
34
55
d8
65
ef
cc
f0
df
c0
cc
65
69
e7
e7
60
5b
d6
5f
e7
58
69
72
da
60
d5
cf
40
67
d6
5d
a8
e5
69
ec
4c
e2
63
e5
80
6d
59
b8
c7
6a
6f
c5
c4
64
5d
d6
c8
11
e5
54
e9
62
4a
9b
e5
c7
56
57
e4
73
45
c5
af
5a
59
d1
ab
6c
61
b5
dd
5b
b0
69
3f
66
31
d7
17
d7
b4
6d
6c
5d
6a
56
61
80
cb
e2
c4
e8
f1
f0
f3
cf
e2
d2
ea
3c
3c
59
80
e3
4f
dd
cf
5e
e9
51
ca
ae
ca
6b
58
41
d4
dc
e4
df
b
b2
7
c3
62
c1
12
d6
e8
64
5b
2b
e5
e8
d4
d1
5e
42
56
ec
61
4d
5d
5e
dc
2a
6a
6b
5b
5e
5d
a7
40
4a
c9
6f
42
67
42
5b
c0
51
46
6b
62
69
6c
d5
60
4c
53
60
60
50
a6
46
4a
ec
eb
9f
b4
eb
6c
6e
e2
2f
e3
e6
d3
61
d6
58
6c
d4
45
d8
4c
e2
d8
c0
3d
e7
37
4f
a1
d7
ea
69
d1
66
a3
b
94
d7
de
57
c9
d0
bf
e4
d1
e7
e5
dc
49
5b
e7
e5
ea
e6
69
38
e7
61
c7
e5
69
63
63
da
e4
47
d9
24
e4
b4
cf
e4
4a
51
28
e7
63
e2
5c
ea
a5
57
e7
5b
c4
e1
4d
5c
de
69
ed
51
42
54
cf
d6
36
68
22
d8
e7
e7
e9
e7
bd
6d
61
56
bc
44
e5
b4
dd
ea
63
4f
67
3f
62
68
27
6b
56
68
55
32
59
df
e1
d4
e5
e4
65
ea
5a
4f
5d
66
3e
d3
eb
c5
62
d6
be
69
d8
5c
36
e2
ad
d0
6b
66
e2
67
4a
5e
e5
57
4f
39
66
81
65
be
d5
3e
d6
ee
1b
ef
de
df
e9
4d
5e
d5
48
e6
47
6a
de
d0
d3
53
50
d7
d9
40
dd
57
b3
e4
ed
e2
64
4f
73
d6
d6
6f
77
73
70
50
57
3e
62
4a
dd
e9
d7
bc
e9
d2
dd
68
bc
5d
61
6d
e2
31
a8
49
cb
46
67
2f
70
e6
d3
67
60
51
5d
e9
35
e9
e5
5d
d5
59
e4
69
0
46
dc
dd
5e
dc
bd
d5
4a
ef
3d
37
bd
52
89
66
52
d9
70
71
3e
e5
5d
4e
e4
5e
23
59
37
c2
44
58
6c
e1
e7
66
dd
5e
61
d9
4f
dd
b4
2c
a2
4b
4a
cd
d9
5d
bf
60
d2
df
55
56
4b
c8
64
2f
46
66
ed
5d
65
b7
63
5a
e5
68
e2
56
ea
59
b4
56
5f
e7
d8
db
4e
12
68
bf
e8
cb
e9
60
c5
b2
ec
c8
ab
5e
e9
de
57
a8
dd
d0
ec
37
e1
52
47
25
d2
21
24
ca
5f
6b
6a
2f
dd
da
5e
6b
19
50
eb
d8
67
ce
e7
e2
d1
55
50
6
5b
b9
6d
5b
42
d8
8c
67
f3
ce
43
81
cf
69
4f
5c
5a
da
e0
e5
d7
de
58
4a
49
c9
d4
1d
e3
c5
4f
95
4e
e8
a0
e3
61
3b
60
64
54
d5
5f
c1
9d
34
d6
e0
b1
50
44
e6
5b
ea
ea
ec
dd
dd
cd
f7
e5
9b
e3
c8
52
c3
e0
dd
d1
c0
c9
34
e4
67
63
62
aa
60
de
d3
5a
68
e7
5d
db
e3
dd
4c
ea
4b
3b
e7
3c
c7
6b
d2
54
e1
f1
e3
ed
20
ba
69
64
31
6e
da
5a
c9
d3
45
6b
44
69
6c
64
6d
50
2d
a2
53
c6
c0
15
41
e6
d1
ad
dc
51
ec
e9
88
65
6f
50
ce
61
dc
73
d3
3c
b8
e6
56
e9
68
e2
3e
c2
5c
ca
5c
56
e8
e0
e2
e9
df
ba
3b
de
70
62
56
72
4a
73
6c
68
48
95
df
e1
57
e7
ef
da
6b
3e
6a
62
cc
c2
e1
47
e0
50
64
db
80
61
59
ec
cb
4b
4d
3d
40
cd
d8
ec
d8
e7
f2
e8
ce
f5
ed
db
f0
f2
eb
e2
da
5b
dc
4d
d7
ca
f1
f4
e8
c7
e8
68
d6
67
59
b6
c5
69
e4
51
e3
65
cd
b6
24
df
3d
57
db
d3
e8
b8
c9
ef
57
ef
c8
cb
66
68
d1
48
bc
c4
67
cf
bc
6a
e6
e4
5e
c8
50
69
63
3d
6e
e3
56
67
4f
c3
58
df
65
4f
4c
c1
62
0
44
55
ca
e2
5f
e4
e2
e8
de
48
65
e6
4b
e1
56
64
1c
d7
e0
d3
dc
d6
d5
b9
63
4d
59
c9
b0
d1
58
e8
e1
62
62
37
22
d2
69
c5
67
49
1e
50
54
70
5e
66
4e
e0
59
de
e6
68
d0
e9
cf
3b
61
df
5d
e7
d5
b4
c3
f0
da
49
9d
dc
df
b9
ca
de
c6
b1
54
cf
67
d4
e4
61
7
53
ea
91
55
38
53
d6
db
d4
cb
2b
61
3e
60
d4
e6
cf
ec
58
43
5e
56
6d
4f
54
4
d0
f2
c9
f7
e4
ee
8a
49
1f
df
41
d3
41
dd
e7
64
41
c0
6d
e3
57
51
5d
54
67
6e
e4
43
36
cd
e4
da
5e
53
f2
aa
36
6a
50
e4
60
e5
b3
4b
e1
69
67
ed
da
58
ce
55
1c
d2
d6
e2
73
56
ea
b7
60
be
cd
38
e1
5a
f2
b9
c5
56
d9
4e
57
ec
f0
4b
d0
37
b6
e4
de
ec
df
4b
68
5a
63
69
3c
ce
5b
f0
e9
1f
d8
6e
d3
66
c4
5e
db
6b
6b
62
6c
d6
64
1d
6c
4d
5b
eb
e1
ec
5f
47
ca
64
b8
ae
66
69
69
68
59
64
d4
aa
4e
4f
59
f2
d0
91
ab
4e
61
4a
67
e2
55
43
bc
e7
62
52
64
38
d0
e0
cf
e9
e8
d8
cd
e2
67
52
68
61
0
da
5d
59
ce
dc
e5
e4
d4
67
51
cf
d9
e8
43
61
cf
34
e8
ea
dd
5d
d4
5f
d6
61
37
62
df
47
e3
6f
cc
69
60
ea
3b
50
5f
db
d7
d5
f1
43
bd
3f
da
e7
ea
66
53
da
4d
a0
e9
63
67
69
59
45
61
5f
bc
e8
6d
d0
46
e5
69
6a
60
df
dc
e6
66
e7
e1
48
64
5f
f1
5b
66
cc
e0
5a
e7
da
51
5f
f0
41
63
e1
d2
4a
1a
5a
44
69
48
eb
dc
dd
d1
54
db
c0
ea
c7
eb
ea
d0
e4
67
e8
2d
b4
de
44
e8
44
d0
cb
52
ef
ee
36
ee
60
e8
4e
e6
d7
d5
eb
5a
80
73
d2
bb
51
4e
d6
3c
b5
65
da
4c
e9
5e
45
e6
2f
66
e4
ec
63
4d
48
c4
0
c8
db
eb
e9
69
5c
6a
4a
58
64
e2
3b
54
62
d9
25
ec
5e
60
cb
d8
66
6f
cb
51
21
c9
53
51
d0
e7
e3
e6
6f
91
ea
43
44
5e
e6
d6
e5
c6
60
cc
4f
d7
b6
e0
56
e9
21
e2
66
d5
80
ce
5b
c7
cf
69
da
c1
e3
6a
d8
68
b9
ef
6a
e1
e8
55
5f
67
f0
d5
f0
c1
ef
df
e9
e6
f5
30
e7
d3
e8
d1
4c
d0
63
63
d1
6a
9b
e2
bd
5e
61
b2
5f
ea
6a
5b
dd
44
e1
69
65
67
5c
da
60
d6
9a
e5
57
e7
4a
dd
48
e3
d0
54
d8
56
d7
3d
23
e6
d8
5b
c7
c4
e3
e8
d4
dd
e4
53
5d
ce
e1
63
63
6b
d1
5b
2
6a
60
61
42
dc
39
c5
6b
50
58
db
ca
57
ad
13
e6
30
42
d9
1b
c9
28
df
e0
4e
e8
e6
2d
c6
3d
da
d9
64
ec
d1
ca
bc
2d
cf
e9
61
65
d4
e0
d5
d4
4f
68
e5
d9
df
42
e2
74
ba
e8
1a
64
4b
6b
61
dc
15
63
60
e6
a0
6b
ad
b1
40
66
51
64
a1
39
65
39
25
67
c6
5e
60
cc
bb
81
64
a7
55
38
60
e5
51
df
e8
69
e4
3d
5d
e3
e4
dd
b7
48
dc
d8
a1
71
e5
6b
62
c9
6b
df
b6
49
62
6f
b0
e8
51
ea
53
e5
df
e6
d9
58
6b
28
49
e4
5e
d1
73
ec
6d
68
f4
e5
d3
e8
cf
32
6a
eb
43
53
2a
57
cc
cc
e4
e5
51
c1
5f
43
e4
a8
ef
db
e8
c9
c7
d4
b2
f9
55
5b
c5
50
6d
5d
5a
d6
ef
c8
e9
65
f2
5c
4d
e6
56
33
c1
67
e
d6
63
e8
2f
d8
e9
66
d8
cd
d5
e4
66
dd
60
e1
6b
38
df
67
d8
c2
da
67
4d
15
d3
d8
68
d3
53
5c
59
58
4b
58
c8
61
46
5d
4b
d4
ed
59
d1
e5
1f
3d
ee
db
ed
ee
46
d5
db
d8
e7
d3
da
3f
e8
67
d9
e9
e3
de
e3
64
e3
e3
67
5b
57
48
5a
4e
61
d5
48
d7
58
76
49
6c
75
f0
55
59
5a
62
d2
65
e0
80
4f
e6
ea
e9
e6
df
df
80
d6
c3
61
ea
4f
e2
42
51
54
60
e2
bd
1b
dd
f0
f6
bd
72
45
e5
6b
9d
b1
59
c9
65
9e
5e
e8
d6
63
db
81
dc
4a
3c
61
d3
63
db
de
37
c8
69
a3
59
e4
bf
e8
e7
ee
e0
6e
ec
a1
4d
ce
bd
3c
57
e7
c2
f4
e5
58
d8
bb
53
67
c9
66
15
bf
5a
67
c0
4d
db
e5
62
49
d0
50
bf
5a
d9
e9
1c
a4
b8
3d
66
e7
64
dc
e3
e8
d3
3f
ea
ed
eb
c7
c1
c5
70
80
65
6f
54
ea
4f
97
5e
55
4d
0
ce
e2
e0
37
e3
e6
ed
e6
c1
c9
9b
e6
52
dd
6f
67
38
4e
5f
f3
50
60
ea
65
32
51
43
67
61
dd
65
c6
5e
5e
5c
cc
bd
d9
60
af
e5
bb
e4
ef
de
56
dc
ea
df
6f
d0
d7
c0
54
9
52
e8
5b
e1
3a
cf
36
25
d3
cb
b7
1b
e3
de
42
4f
5d
cc
63
d8
81
ab
de
e4
4c
68
c5
39
58
dd
df
49
63
e8
5b
61
e4
f1
e4
5a
c3
d0
d9
ee
69
64
21
70
52
6a
cc
61
ea
85
df
bb
dd
3b
1f
eb
3d
da
f4
62
d2
4c
e5
50
b7
d9
e8
cd
e7
e8
d3
c3
81
d4
63
e6
4e
80
d5
48
c0
58
af
45
59
74
57
59
4c
ee
6b
68
1b
6d
63
49
58
6f
68
eb
5d
eb
e3
48
30
3b
e4
be
42
ea
6c
e1
dd
63
e5
55
c4
d8
da
35
e8
d5
4f
5b
cf
df
e5
1e
5a
74
e9
e8
67
f2
d6
e8
55
58
62
d8
c8
57
e1
ea
67
4f
e4
bd
e5
6d
c5
38
5e
51
55
5b
e9
e3
6a
65
c3
62
af
e7
61
53
ce
91
5e
4b
72
e6
e0
d4
e6
bc
6b
63
5a
54
ec
cb
c2
db
5e
bb
ca
31
e9
52
5d
5b
38
11
6c
73
e0
45
de
5c
ca
38
db
57
e5
d0
47
62
60
5f
53
dc
4d
6b
92
b4
67
e8
d1
e5
d5
de
5d
dc
cc
60
e2
d9
60
c8
db
4a
28
da
57
6a
55
d1
62
5d
e7
d4
c9
4b
e1
45
d7
c3
da
e0
bd
d4
6a
cc
59
d1
ea
e1
e8
4c
51
6c
df
d3
65
1d
e5
dd
e9
54
2f
e6
d5
68
dc
dd
4a
b9
e3
e5
32
e3
9a
43
db
58
e6
e1
61
ad
e2
66
d8
31
5c
67
9a
d8
d8
dc
ea
52
42
d1
57
48
cb
e8
b7
53
5d
d8
5b
59
68
d2
2a
65
d6
bf
62
cc
53
df
43
29
d9
e5
d7
60
41
5c
57
d8
da
d4
60
65
cb
5b
cf
d4
5c
61
41
cc
d1
c5
3d
e5
dd
3b
48
5d
56
6b
dc
c9
69
d8
55
cc
6b
e6
12
e0
4c
c6
5b
9c
ca
32
65
55
5b
6a
df
c6
62
dd
9a
da
ca
9f
4a
33
49
50
e2
40
5d
58
c8
93
46
62
35
68
60
65
45
6a
ba
e4
df
e2
c7
57
42
25
59
e2
d1
e5
4b
c4
dc
5c
68
d8
80
98
39
35
4a
45
52
e0
25
df
5f
e6
5a
4b
61
b5
54
5b
23
5e
57
54
a8
e8
de
30
db
9e
80
6f
b
a7
de
68
c2
db
e6
9e
dd
62
58
ba
e3
66
ea
66
e8
57
5e
d5
61
ea
63
bb
80
56
68
4e
60
4e
c7
69
68
dd
ac
e5
df
58
d9
62
5c
e6
61
54
52
d7
6b
d3
d3
5c
5a
8b
e5
de
81
cf
4d
34
66
53
4f
4b
58
53
40
c0
4f
c9
ca
6c
71
d6
c9
a1
d6
6b
e1
68
60
a8
5b
50
ed
b7
e9
df
45
df
cb
d3
5a
69
d0
e3
4d
d6
55
a2
d8
de
69
e7
37
e9
e5
59
53
ea
55
2f
ea
e8
e0
e8
e2
42
e0
66
55
c6
3c
de
eb
cb
3e
eb
65
e9
ea
ea
d5
ea
46
d6
81
3d
e5
e4
e3
e3
53
e6
cf
e3
6a
e1
69
d0
44
e4
2e
be
69
e3
5e
5b
e9
69
68
45
d9
40
e5
e6
2b
e4
5f
cd
d3
41
9b
e2
b8
d5
d9
df
e7
65
4b
61
de
cc
eb
43
4d
e7
c1
6d
e7
dd
4f
45
d5
6a
dd
5b
dd
b0
23
5c
61
47
57
5a
d4
db
d8
88
68
58
ce
c5
39
2b
de
e9
56
1b
dc
2f
ac
ea
5e
62
69
63
da
44
ea
21
45
68
69
e9
43
6a
e9
53
3f
e6
64
52
5d
66
e9
63
70
41
df
65
e5
da
5f
e3
63
c5
1f
e8
d2
dd
5a
db
a5
49
65
e7
e0
57
4d
64
58
69
54
5e
4c
d9
65
5e
5f
6b
64
e7
47
57
d3
b
52
6e
5d
1b
9f
52
46
cf
4c
c9
62
d7
68
d4
de
50
d7
e0
50
65
c0
e7
5d
e3
c0
a8
ab
c8
69
c8
4f
ea
dc
eb
5e
d4
4f
e0
e6
dc
d5
cd
69
cc
52
e2
22
ec
d7
e6
67
d7
ea
35
eb
be
cf
49
c2
5a
72
e5
df
cf
55
5a
6a
5c
4b
e8
34
4b
62
eb
62
5a
69
c4
de
54
1a
dc
c4
5d
6d
92
48
66
de
4f
e5
5b
e9
4b
53
b2
e8
64
11
d5
50
63
e5
e8
37
64
ae
e5
3a
ea
44
de
c6
a2
ea
d6
da
ed
6b
61
e4
6a
73
e1
38
df
4f
e7
56
cf
cd
41
d4
df
cf
e9
c3
e2
5f
c8
4a
e3
ec
e7
d8
c1
f0
cf
e3
85
4f
b4
5d
b
e2
80
c0
44
5f
69
64
86
69
39
62
6d
ea
dd
65
c0
63
c7
e4
e5
e0
5b
e3
e6
db
b0
bc
4c
cc
f1
e0
e5
dd
d9
e5
e5
d4
d4
5e
a5
f3
15
4c
c3
de
e1
eb
5c
38
9b
bc
99
c7
db
4d
59
6f
b7
a5
6f
cf
e4
e9
a7
4c
5c
e4
42
63
d0
e6
e3
e6
e7
ce
be
df
64
4d
6a
5a
cc
6b
e0
d8
67
d9
3f
62
5c
d0
dc
a8
e5
e2
bb
60
66
ca
ec
e0
f0
a0
6d
c6
d0
d7
d1
69
56
cf
d2
ed
e7
e1
5d
4e
ee
c9
b0
48
1f
1d
53
29
c4
de
56
ea
5d
e6
64
cf
e6
80
c5
2d
ba
5d
94
65
57
56
5f
2
ee
3e
e3
48
36
e9
80
ca
b3
d7
64
62
ea
65
ea
3b
58
ef
c3
e6
45
61
49
c7
5a
5f
21
68
64
46
dc
e5
66
bf
c3
da
dc
5f
51
dc
45
57
72
ae
ca
f3
d0
60
e2
df
e0
ec
c3
3d
e3
51
53
bf
47
d8
59
e9
e9
bb
b9
5d
65
eb
e1
6c
e4
56
d1
6c
6d
31
74
57
53
76
4e
2a
5f
6a
ea
68
5b
dc
45
cd
67
e0
5a
4f
dd
54
55
ec
57
6a
7
dd
69
5d
cb
d2
bd
c9
e8
d6
3f
cd
ad
66
93
55
df
e5
e5
e6
2c
3b
b2
d3
76
d9
44
c4
69
d6
15
d9
64
d1
df
5e
4e
d6
d1
9a
ed
3a
c8
e3
e4
e7
ea
dd
b7
4a
52
4d
e2
d7
62
2c
4b
69
eb
c3
37
e4
64
d5
4f
67
4d
4c
e1
bb
c4
54
ee
47
ba
a6
5e
e5
f2
e9
5e
96
e6
e3
e3
da
ef
e4
60
e3
cf
4b
e2
5e
56
4d
2f
db
5d
c8
1b
6a
66
e0
e3
35
cc
f2
ee
ea
ee
ea
e9
2e
56
e8
e7
dd
38
98
e7
e8
df
bd
e7
e1
9d
4d
e8
5f
d6
e6
66
6d
60
5b
57
62
51
cf
d5
63
e9
41
e9
5b
3b
e5
65
67
c3
d2
d6
e1
62
db
da
3f
46
50
ec
33
df
4e
6e
cb
c6
dc
54
50
e5
65
e9
57
98
e5
5d
e2
e7
44
e5
37
e3
65
bb
d0
67
c1
ee
e7
ea
22
50
ee
ee
80
69
64
39
d2
5e
d5
9e
dd
ec
68
cc
eb
c2
23
e3
75
4b
63
7
d2
66
5a
e9
3f
d7
e9
c3
64
52
d4
e4
6c
df
bf
52
41
c7
80
57
de
d4
57
ec
f6
e3
4a
f2
f2
e5
c7
d8
dc
e4
be
6f
70
54
63
3b
54
70
e5
ce
ec
e6
70
4b
dd
66
25
3c
dd
5f
52
eb
e5
59
5a
de
e9
6a
67
56
df
66
57
e9
65
cb
df
d
ce
68
ef
ea
d4
3c
b6
38
63
78
5b
e1
d9
df
d3
ec
ed
ef
59
5b
e8
d8
ce
48
d9
71
3c
e6
e2
ee
65
ef
cb
ea
4b
6e
59
68
73
66
6a
72
6f
6e
e4
67
3e
96
67
b9
54
e5
dc
eb
66
76
3d
5c
70
69
59
62
db
17
e5
31
67
67
39
ca
e9
d1
6b
ef
64
60
ef
11
60
f4
64
32
ea
e2
4a
d4
66
62
34
61
d0
58
db
52
c3
e5
db
d5
d4
61
9f
d2
62
e7
39
e3
ac
e9
da
ba
e9
17
e7
48
57
e6
5b
6a
61
41
66
df
61
4c
e2
64
d6
db
d3
e6
59
2e
e9
c9
6e
54
74
c8
34
3d
e3
69
5e
51
53
ca
45
d0
ea
54
e1
dd
dd
6a
b4
cf
50
52
ce
65
42
d0
df
4c
39
e3
6a
57
df
e2
5f
c3
61
b1
c2
58
57
6a
65
4b
63
6a
e6
5c
61
d4
d9
73
ea
c7
ae
ef
de
45
f3
80
d4
e5
48
da
e3
e2
e4
4b
e0
33
d0
30
f2
2
df
e1
63
ba
d4
5a
e5
67
36
e3
e2
4a
e2
4c
65
33
e4
55
81
60
d5
a7
6f
61
da
cb
ba
bf
e7
31
ca
4b
e2
f2
e0
c7
ea
e6
eb
e1
a9
49
63
de
52
e3
df
dd
d8
46
e9
e7
d1
51
4e
42
f7
e9
f9
50
5c
cd
ce
c7
c6
4a
c7
52
f1
4a
cb
80
69
39
e5
e1
f3
d3
65
63
83
46
66
a3
c5
50
cf
75
a3
ed
b5
cd
f8
d1
f4
6f
61
6a
62
54
53
f0
ce
db
6b
3d
58
6c
66
31
47
4d
5c
d1
62
d5
e1
61
e2
54
dd
e3
c1
d8
df
ed
cf
dd
65
36
58
5c
67
6c
5e
67
67
cc
b8
61
dd
48
d9
66
e7
5c
28
ea
ad
d
e2
f3
e3
4c
81
d7
e5
ee
62
67
b0
eb
e5
88
e3
e5
9a
99
4d
d8
c8
65
58
43
69
36
57
dc
cc
40
eb
6a
cb
60
5c
8b
65
c9
69
cb
9e
5d
48
c6
e4
5c
dd
e1
e9
e4
c9
e5
c4
66
e0
4d
e7
d4
e8
65
d2
e9
bc
96
5a
9d
5c
e5
e1
32
e6
70
73
78
4a
b2
58
e8
e7
3f
ec
bd
ef
56
d8
e1
ef
4f
34
66
d0
68
5c
b0
66
68
51
7d
e2
63
4f
44
51
e8
e3
62
e4
d8
4e
6a
8d
c8
3b
68
5e
2b
cb
e1
eb
80
67
2d
2e
d8
94
de
b1
5f
e3
4c
68
6d
d4
31
65
5d
61
58
20
69
6a
42
bb
ea
d6
cd
67
22
b8
5e
65
68
65
db
60
cc
68
df
e2
c0
d1
61
34
6b
e5
57
da
61
d9
58
4c
dc
81
52
5a
e0
b6
eb
e5
64
e1
b9
0
ea
d9
de
db
68
5b
dc
be
e2
db
b4
e1
54
b2
d6
65
59
81
57
d6
d2
4d
e5
c
e5
56
e8
68
cb
53
c9
d2
2e
e0
52
e2
cb
e7
eb
62
d4
34
d5
66
ce
56
62
cf
65
e1
36
40
cb
5f
d9
e9
2b
4e
5f
d8
9c
5f
e1
58
5b
c6
3f
a7
dd
eb
6a
65
5a
d5
6a
56
cc
d7
de
65
3b
66
5d
43
e9
68
39
5f
62
e6
cf
d5
69
e0
5f
56
ca
e5
2
c7
e4
a2
e5
d6
ce
e1
d9
d4
66
e6
e7
ea
db
5b
5b
df
c8
df
17
59
37
cf
d1
c0
67
69
5f
5d
cf
a6
e9
63
60
dd
e7
cb
e3
55
dc
54
67
4c
62
5b
e7
65
ae
4c
e7
e2
0
63
e7
c8
4c
be
d9
e1
61
46
64
ea
e3
e2
df
5c
67
d2
d9
c3
67
65
e5
2b
d8
e5
36
e6
67
7
e6
ce
e9
df
24
2e
e5
69
d0
6a
19
80
66
30
de
cc
64
50
d7
6a
5b
5a
df
e5
4a
51
cd
e3
e1
5a
c8
62
ea
2c
d5
df
d3
66
dc
63
aa
62
62
5c
de
56
d5
55
b0
68
d6
58
6a
43
4f
e4
e7
41
e6
d7
db
22
63
46
b2
64
b8
1b
25
36
e5
66
46
4c
b2
dc
e4
d
e6
e6
de
61
98
6b
30
30
5d
44
d2
de
e2
b2
e6
e9
bd
c3
2
da
cf
c0
eb
e9
d7
68
c6
ec
e8
b4
ea
e8
d5
e6
eb
e1
ed
da
e1
e0
5c
cb
68
e3
d9
63
e0
62
3c
4d
65
d9
53
5d
5f
60
60
d3
3b
ce
63
6c
61
59
dd
80
d5
43
c7
70
71
c9
52
ef
c9
d6
eb
d9
d2
6d
4b
63
e5
df
38
e7
e7
e2
56
e8
3c
4b
cf
20
59
69
de
1a
51
47
c7
d9
62
e5
a0
ed
35
65
63
dd
c9
e9
9a
60
5a
ea
61
6b
6c
64
2f
ec
e1
eb
51
cd
61
4a
58
60
63
64
c6
16
db
57
d7
e4
dd
5b
dd
2a
cd
db
c8
31
65
64
6d
d4
db
db
4e
cb
3f
64
2c
59
54
69
5b
5b
56
ed
df
6b
4d
5a
df
62
45
d5
d7
68
62
94
e8
d0
e5
da
bd
5e
b8
cc
97
66
69
b4
e9
5e
d2
cc
68
4e
c5
5b
67
cf
6d
5f
41
e7
b0
58
da
c8
7a
58
79
62
61
c3
4d
3b
de
e8
e1
50
50
52
67
d2
53
8e
cc
b9
ee
e1
67
62
5c
61
b4
d6
66
da
4b
c7
50
67
c0
e9
70
76
5e
60
5e
e9
e2
f6
be
2e
6b
5a
65
56
ee
d2
f3
2b
90
e7
ea
2d
c3
6c
66
65
b6
55
45
60
59
ea
e8
e6
9a
5f
d9
e5
4b
60
2b
5e
56
e9
4e
87
e0
5a
57
36
e6
e0
e9
c8
cb
ed
ea
de
51
da
2e
5f
4f
66
41
3a
48
e1
d4
df
e9
eb
6f
c3
6a
62
2f
ee
db
5b
5a
d7
dc
56
69
59
63
af
61
d0
99
69
55
ea
4c
56
e5
4d
4d
54
d2
da
66
3c
65
e8
4f
5a
60
b4
65
ce
6a
59
6d
64
db
ee
e6
4c
d1
62
e0
d7
e7
eb
e3
d0
61
64
cc
64
55
68
66
5e
8e
d7
db
5d
56
48
e4
5a
2e
5b
dc
62
5a
50
6f
c9
4c
eb
44
e2
f0
eb
d9
d7
5f
5f
5e
ac
4a
e3
e8
5d
3f
6c
71
64
65
d8
d4
a5
18
bf
81
19
e7
e4
ca
e2
4f
e9
ec
ea
ef
d7
3a
58
80
61
3b
ec
e7
e6
4c
5e
98
e7
3a
da
df
69
1b
5b
da
52
66
e3
e2
67
35
de
32
e0
64
4e
5e
5b
5f
0
e3
b2
cd
4c
ce
5f
61
6a
66
da
5f
64
4b
de
e3
62
9d
e1
3d
ec
d9
ec
e7
f2
d6
5a
a9
81
71
d2
e3
b6
54
ed
6c
2d
4
66
4e
3a
ef
e5
e8
e7
eb
d6
e7
61
e6
e8
3b
40
e8
62
46
55
63
cb
6b
5f
de
67
4e
d6
e9
d4
65
b5
5f
45
62
2b
71
df
d2
be
d0
4a
43
d3
ab
46
5b
6b
57
e6
d7
67
64
61
dd
56
6d
3a
5d
95
4f
64
6d
d0
71
6a
6c
5d
d5
58
6c
58
55
e9
4c
ed
63
4f
d3
55
a3
c3
c7
51
8b
6b
a0
3f
6c
df
de
64
38
ed
57
dd
f3
56
dc
29
e3
45
e4
e3
50
ce
d3
b7
eb
e0
f0
d1
4d
56
f0
cd
dd
e7
e7
67
e7
e8
62
68
d3
af
d0
58
67
49
4b
c4
cc
d2
60
eb
d4
5f
d7
6d
63
78
76
77
71
e2
5f
ec
ec
dd
eb
35
e0
e8
d9
55
57
65
52
45
3b
df
ee
6b
60
47
a4
3c
ce
63
55
28
c1
e8
a6
e0
a7
e1
b0
ed
e3
5c
5e
62
58
e1
41
cc
57
4b
ea
e7
d3
26
e4
36
48
f2
e1
66
56
ce
bd
e0
5f
63
47
d3
db
ee
3d
68
45
e1
e3
ec
ca
e3
24
80
d0
6c
8d
de
b7
be
ea
6a
62
59
3e
67
64
5e
55
a3
ed
dd
63
ed
e7
e9
4f
d7
69
e9
5f
68
61
df
dd
c6
c9
66
dd
be
5c
b1
3f
22
68
e1
45
d5
d1
48
53
d2
5c
6b
e8
df
5a
f0
58
59
e7
67
4d
de
ea
70
70
ec
66
5a
ef
d8
3d
66
4d
e7
48
dd
66
c6
64
12
b3
5e
2c
c7
74
6a
68
56
93
e7
51
2e
51
e8
5f
e1
e9
68
b8
65
55
41
50
da
b1
de
56
ea
d8
e0
5d
da
c2
43
bc
ef
d1
9d
65
de
68
56
80
e6
e7
62
6c
35
f3
c4
65
37
b5
3e
4f
67
3b
5a
23
ec
e3
48
54
66
e5
db
61
eb
48
e4
c9
55
57
57
d5
4c
51
28
5a
e
e5
f3
f1
eb
66
68
63
48
a1
b9
51
11
db
58
e9
cd
ea
ea
d6
d7
57
43
e8
43
cb
e4
d9
5a
b3
63
e0
5c
dd
24
c5
d8
ea
5c
e2
69
e8
de
44
51
cd
e5
31
e8
ee
50
72
b4
6d
72
c4
ef
26
4f
62
5b
dc
b9
d4
23
35
e7
ee
ef
e3
46
db
5f
db
5f
cb
ef
e6
27
df
d3
62
63
e8
ea
e5
e1
4a
51
4a
c6
5e
de
50
ec
e5
12
49
cc
4d
e3
a5
d5
f2
5
54
6d
df
70
c2
5d
ea
c7
e3
e5
69
e8
5c
e6
e9
d8
e7
bb
d6
5d
6d
e0
36
6b
53
61
6d
57
5b
59
e1
d1
4a
23
4e
de
50
ea
3c
5d
d2
d0
5e
59
66
38
63
5e
6a
5c
d3
e5
4f
ea
c1
e2
e4
e4
55
64
db
e6
ea
e3
54
b4
b1
67
63
57
5c
9e
dc
94
3a
64
54
31
c7
6c
a3
b2
72
de
2f
64
54
57
44
80
cc
c1
54
e1
d6
44
c9
e9
e8
e0
d7
26
c2
59
da
ec
d4
c0
e8
6b
e8
5c
57
e2
5f
69
41
81
b8
e4
5d
39
51
c6
56
e7
c6
b7
4d
50
da
dc
e2
df
dd
e4
69
66
69
3d
4c
4b
4d
68
cb
63
6a
61
65
e7
c7
aa
c2
d6
ea
cc
c5
cc
60
e3
e0
c6
b5
eb
33
45
60
17
66
dc
64
e1
d5
e0
6a
c2
cd
39
5a
51
ac
ce
e1
58
ec
a9
23
d5
c8
eb
5e
64
6f
69
e5
e5
61
e0
3d
1b
dc
c6
b7
e9
dd
ce
e1
5c
e2
e8
de
db
cc
e0
de
e9
48
b2
e9
3b
b2
32
e5
d4
99
e9
b9
de
cc
66
d5
6b
d7
30
64
5d
54
e4
0
6f
17
19
e8
e8
5d
dc
68
3d
e8
58
d2
85
ac
e0
ea
5d
ed
d6
eb
d1
cb
62
2a
cd
cf
e7
dc
da
65
be
df
69
80
db
53
ea
68
70
80
64
a2
e8
57
4f
40
67
e
e8
34
59
5f
3f
5a
8d
e7
34
eb
5e
91
65
ea
62
44
87
42
ed
e9
64
50
63
4f
2b
c9
60
4e
4d
53
6a
ae
4b
54
d7
d4
20
e0
ea
b1
2c
67
dd
df
eb
67
e6
b7
66
60
4b
e9
46
ef
48
c9
5b
b9
60
c4
a8
e8
d7
4c
81
cd
e3
5e
d2
d5
67
62
e1
e5
62
e4
56
62
9e
e2
d3
e6
4f
d9
e1
62
e3
5f
e1
de
62
64
52
ed
be
60
65
5c
c8
67
64
5c
5a
ab
e8
bc
ea
3d
49
e6
df
e2
e8
e5
cc
51
65
b6
51
5c
53
e3
d4
6a
56
62
63
50
61
f4
ee
e7
cc
6a
60
e4
5f
64
e3
ef
de
40
58
ce
69
9c
db
d7
54
ca
66
c0
53
4e
c4
db
63
d8
61
db
50
3b
5b
ba
ea
de
e0
5b
bc
63
e3
d7
50
e6
b0
cf
66
c1
d3
48
0
53
53
da
d6
f1
dc
5c
e3
51
5b
c8
ea
c2
d4
48
dd
63
d8
34
65
e3
65
de
ea
dc
ef
2c
cf
e3
ec
21
5d
55
69
ba
57
b2
e5
3a
d9
40
63
37
42
6d
4b
e1
4d
66
ce
d1
af
68
cd
54
bb
61
3e
5f
d1
5d
4f
ee
6d
f0
de
bb
2f
3d
db
24
ce
e5
e9
e3
5f
14
5d
e3
61
e1
54
aa
69
c7
5f
66
d1
47
c9
66
45
65
50
80
d5
62
6a
4e
6c
a2
54
67
e3
f1
c9
e0
ec
1c
d6
ec
e3
f0
9c
b7
58
bb
de
50
d1
63
3f
6a
6a
e1
eb
dc
c5
de
e0
c3
63
17
34
ea
4d
ae
25
da
43
50
e3
41
c5
d8
57
5d
35
2e
dd
62
3d
df
40
dc
ea
5c
e2
53
b1
59
d5
54
ec
65
63
60
3c
48
63
e8
68
c9
db
d8
63
5f
b7
e7
6a
eb
5c
61
62
31
58
71
59
6c
73
69
1d
6b
f0
f6
4d
c0
99
de
45
e3
61
f1
e0
d4
4a
4e
aa
4f
d3
61
52
34
57
ba
3b
60
be
c5
5c
1f
5b
c9
ea
6b
66
e5
67
50
a6
eb
e8
62
63
dc
64
57
62
d2
30
80
51
40
6a
d2
d6
e7
ab
cb
6a
e6
47
d7
5c
e7
e0
e7
44
cd
e4
e5
e5
d6
4d
86
df
4f
58
5c
56
af
49
cc
61
4a
f4
24
6b
e0
12
d0
ec
58
94
6b
6b
76
5b
60
6b
dd
e8
68
c6
60
d6
f3
ef
db
3c
52
5e
e9
c5
e1
65
59
57
e9
25
40
5b
70
97
4a
7c
57
c7
c9
f0
cd
5d
c5
0
e8
66
da
ca
dd
db
d2
34
53
ca
64
ee
e2
58
ed
bb
21
e0
d3
de
ce
b9
e0
7b
49
1c
56
e1
5c
63
e0
e2
c1
98
ee
be
67
e3
e1
d7
f1
63
c9
45
d4
68
5d
ce
df
5e
e9
4d
d6
dc
65
cc
df
da
e1
a2
53
d4
b4
c7
43
a9
3e
6b
f6
de
74
cc
c4
56
dd
45
39
68
65
e6
e5
e9
e7
66
d5
45
9a
df
c1
b7
e6
33
b2
d6
e8
ee
dd
62
e2
4d
e1
e2
f0
56
43
e6
b4
e2
e4
67
c6
ae
ce
e6
47
66
33
22
61
66
e5
5f
63
5e
69
2c
69
90
5c
31
d5
43
d5
e7
cc
be
67
68
65
cc
57
56
da
49
62
68
69
da
d7
e7
6b
30
4b
d0
b3
53
db
61
e8
46
c7
56
6d
ed
4c
a6
f3
e1
a2
e8
5c
4d
54
c6
db
6a
ea
e5
be
5e
69
bb
5a
52
cc
4b
d7
d8
e1
e8
ea
60
d3
e6
ec
54
5b
5c
5b
b8
89
c1
81
de
f
67
ec
19
ed
54
30
68
69
51
e4
5a
cb
e1
e6
c2
5e
cf
dc
80
67
62
eb
56
61
4b
86
e5
bb
44
bf
c9
52
5e
50
e5
46
59
5e
e1
5d
e2
d0
6a
a5
4c
ce
b4
55
62
5b
65
8b
de
cf
c9
c5
41
d2
a9
50
d4
cc
61
5b
3a
de
6a
df
47
24
48
e8
f
e5
2b
d2
77
78
7b
c7
db
49
dd
e3
e0
6b
e0
60
50
6d
65
31
eb
66
66
e7
27
e3
42
be
5b
dc
56
da
d2
50
e8
e5
5a
45
36
4b
72
77
7b
df
65
d8
5b
cb
80
d2
d0
e6
5e
58
f0
3f
dc
21
e5
e1
eb
b7
64
e6
39
eb
58
de
40
5f
e5
a7
e5
49
60
64
54
60
e8
0
55
5a
e5
3f
21
6c
5c
e2
a8
67
db
67
3e
5e
65
64
cd
dd
c4
57
da
c1
5a
5e
5a
4b
63
58
67
c9
c0
32
61
da
ee
e2
69
80
dd
d7
68
cd
e4
69
62
db
5c
dd
d5
d5
53
61
d1
44
40
40
55
57
64
6b
e2
64
29
6a
dd
d6
d1
dc
65
55
e1
5c
5c
c0
2d
61
6b
68
d9
e5
5f
ea
ea
d2
52
eb
61
6a
57
d0
29
dd
c0
54
39
66
5d
68
e7
b6
57
b0
ea
67
51
68
e8
43
e2
54
e2
66
58
e3
e1
5a
4d
5b
c6
45
d3
c5
e1
df
e1
e9
56
ef
eb
d6
e0
d4
eb
f6
d9
d4
f4
d9
30
22
49
de
ae
88
59
da
67
62
d8
ea
e6
e8
27
59
d6
da
e8
37
56
55
d3
6c
5f
3a
c7
be
46
e0
d6
e0
e9
cc
62
2a
d7
61
d7
54
ce
cf
4e
53
cc
2a
e9
5e
37
e7
5c
46
c7
3a
e5
80
5c
22
4f
d3
6a
e6
55
d5
e9
df
51
c3
45
e6
18
29
da
de
e4
80
ee
49
cc
df
eb
5a
e3
5c
56
69
b8
58
bc
f1
e9
d4
d2
d1
ae
6c
4c
d5
6f
5f
b9
57
ac
c3
3e
e6
6a
5f
bc
4f
6f
df
d1
e5
f0
e0
ca
ce
e9
59
dc
43
a0
de
e8
e4
62
4b
e8
4f
19
34
c8
cb
65
4c
d9
36
6e
b3
52
de
bf
6f
67
55
6f
53
dd
6b
37
ea
73
ef
3c
47
54
c3
d6
e7
20
e8
46
e4
bc
5b
61
d4
c5
6d
db
b2
4a
df
56
80
50
6a
e8
62
5c
5a
33
d6
68
d5
4e
ca
eb
e1
55
4b
e8
e1
5a
ed
ea
cf
5e
e9
d0
60
dc
ed
d6
59
2e
5e
ee
56
dc
ee
8
4d
b7
63
c3
e4
e8
4d
53
5e
60
53
c4
e7
a
0
a4
de
eb
55
31
e6
ee
dd
db
53
ef
d7
e0
64
49
5c
59
e8
db
80
64
e3
de
4d
ce
e6
63
dc
63
e7
bb
a0
bd
d6
2c
e0
67
d0
b8
51
66
98
e8
e6
e5
51
c2
da
4b
6a
43
d8
5a
60
f5
dd
6a
61
f4
6b
5c
f6
6e
70
ce
5e
e0
5e
de
d9
dc
37
6c
65
d4
2c
71
8d
4a
c0
5c
5d
58
67
cb
62
e4
67
e8
e3
0
e0
6b
43
64
49
55
d8
30
de
0
64
e4
69
ce
5b
b6
ca
5c
5a
63
96
da
d9
cb
ea
58
42
51
b5
e7
26
5c
51
d8
22
de
64
e7
66
2f
ea
6b
53
25
62
d6
20
57
2b
e9
da
ce
67
49
a1
5d
4f
d4
53
3f
be
d6
c7
df
e9
df
65
47
56
67
ef
eb
f2
dd
b4
4f
e6
db
a9
e7
5b
e0
70
53
68
54
5f
e7
c4
47
e1
aa
d5
e3
58
58
68
e1
e8
cf
e9
67
d7
6a
68
e9
e6
3f
c5
55
66
6a
53
e4
eb
df
e1
e7
71
6c
d8
4b
5a
41
dd
cf
aa
64
63
cf
de
45
d4
d2
56
d6
d8
e8
5a
ee
61
dd
f0
ec
ed
d4
d7
6b
57
59
ec
95
e5
a3
d8
ea
6a
50
de
df
63
5a
1d
6b
57
d9
12
67
bc
d4
e3
48
d3
e3
d5
df
ce
d0
4e
e2
68
a8
68
50
6a
32
4a
d6
63
eb
81
3f
47
de
67
cf
61
ea
e2
9f
29
d8
d9
e9
da
e9
de
de
70
50
27
55
68
51
5d
e2
d6
69
d2
c5
d2
68
a7
69
5f
d8
c1
69
81
51
6b
6c
d5
e7
cf
64
d8
45
e4
66
a1
e6
e4
c7
63
6e
de
3f
ba
e7
c3
51
ea
56
68
24
f
63
e1
af
cb
47
dd
59
6a
63
d2
60
69
ab
d8
61
db
66
66
e1
d2
d8
60
5e
5b
c7
61
60
e3
9b
50
5c
59
3b
cb
4e
48
e5
62
6f
cd
52
56
e6
cb
cc
4d
c0
dd
e5
c4
f7
a4
f0
ea
d5
c2
e2
96
e9
3b
66
d5
5e
66
69
ce
5d
23
5a
5e
b2
de
53
e0
5a
5d
cf
e7
de
df
63
c3
42
1d
64
3b
c4
67
e2
5b
62
2f
58
e4
5b
e5
54
f0
53
a2
e9
db
56
ea
77
61
b9
76
47
e0
65
48
c5
dc
58
ed
b6
cd
e8
56
51
3e
90
dc
67
e7
e5
2f
c8
5d
dd
49
52
73
6e
cc
63
e8
70
6c
e8
e4
ec
e7
39
4f
e6
e6
60
e2
d0
46
54
48
da
ea
55
3
4d
e1
4c
e6
e9
4d
5f
a5
5b
ea
e7
f6
db
cd
ca
5f
38
32
62
74
d6
45
e1
52
a6
42
44
de
c5
e4
22
bb
68
67
e9
de
38
df
eb
49
cc
60
5e
e6
db
44
61
d2
ca
d1
80
50
61
63
57
6b
81
5c
ce
d7
5b
c2
5d
27
4e
e6
5d
db
2a
eb
58
51
a0
27
61
29
e5
63
b8
4c
e8
3e
72
e3
cc
a9
41
51
60
ea
16
e2
dd
dd
d5
2e
68
68
cf
0
c8
e3
5b
db
45
4a
63
db
ea
4d
d9
c9
6a
5c
b1
b8
3a
4f
df
5d
c9
52
e5
ed
40
e0
cd
e9
91
da
5e
d0
63
59
10
bf
e5
ca
54
53
4b
20
2d
2f
56
de
b5
c5
32
e4
c3
c1
58
e6
64
cd
e1
62
5f
63
6b
5f
60
68
b6
de
c8
e8
dd
e2
dc
6f
3f
ed
2
61
e0
27
dd
4d
db
cb
e9
62
3
e1
57
e8
5a
ab
a3
6c
c4
e2
6d
ce
69
5e
56
1c
f1
59
66
d0
c7
c2
e2
67
d3
3e
5f
d3
5c
3c
3a
d0
a4
61
e0
f1
5f
dc
58
55
32
6c
63
e8
de
64
dc
61
59
5c
53
5e
6d
72
e6
5f
68
27
5a
5e
e7
55
cb
f1
eb
63
e9
3e
6e
52
e3
c9
39
5e
c8
5a
df
81
6a
bf
63
c4
d6
51
56
d8
6f
d2
c5
6f
de
df
d6
d4
55
55
4c
ee
51
d9
e5
5f
ed
f8
64
d6
e3
11
3e
55
d3
dd
5c
bd
f2
5b
dd
f3
e3
d6
36
6a
60
4d
57
5f
56
e3
49
cf
5f
69
d4
51
55
55
e3
51
ea
68
d6
ee
e7
eb
cb
62
e5
d0
ed
e6
de
4c
e0
66
d5
54
e7
d8
63
2f
b9
5e
cc
4b
e9
e2
e8
b5
e2
df
66
42
68
df
dd
62
63
64
f6
57
5e
a0
39
19
c7
37
4c
70
d9
45
e2
4e
3f
42
66
6b
6b
de
e6
64
50
34
68
5b
de
cf
eb
5c
e6
f2
d3
e3
dc
66
e2
ea
4e
d6
54
cf
6a
e6
ad
66
d6
e5
da
d9
53
d4
d0
e6
f4
6c
d5
f2
6d
61
e2
20
69
66
4d
d3
cc
d6
69
5f
ed
ea
d9
2a
d6
d1
e2
51
da
20
59
e6
d4
e4
c3
5d
ea
34
c4
e2
5d
5f
c1
4d
e1
57
b4
c4
d6
d4
c6
e6
ea
61
e5
eb
62
40
5c
40
cd
69
d9
e9
e4
c3
e9
2e
e2
6a
e7
6b
b7
dd
da
ec
ef
a1
70
55
d8
e6
5c
30
e7
e1
5f
b9
df
3a
4d
c2
e5
63
d7
eb
47
4d
54
5a
6b
3f
e9
d7
6c
6b
53
ca
67
5e
ee
2e
fb
da
9f
56
99
80
de
c7
90
f1
d8
dc
e1
eb
d5
e1
4b
dd
4a
69
6a
25
6b
3c
65
d9
47
ec
e7
db
1f
6e
d3
da
61
dc
e0
e3
af
62
55
59
5f
59
f0
ea
eb
4b
c0
54
e9
ed
e0
d4
ca
d1
60
d9
57
16
5d
de
5b
f0
ba
cf
16
59
27
f2
e8
ce
54
b1
dd
c0
c1
6a
61
5e
b0
3c
5e
67
cf
e3
68
66
22
d9
c2
56
4c
5f
65
68
e4
ea
3d
29
2f
da
62
e1
2c
43
6a
68
e4
68
c4
61
97
e9
66
e1
eb
49
0
df
63
54
61
dc
5a
65
5c
68
58
53
17
58
51
d1
62
6f
61
be
3d
e1
6a
d9
e8
c3
5d
3d
5f
69
62
5e
5d
ee
51
59
53
66
c5
e0
5c
e7
2f
65
66
d2
95
65
65
eb
6a
5c
80
51
d9
4e
ca
6e
67
e2
71
61
51
6e
b4
70
6a
e9
57
d9
b8
47
bd
58
dd
59
d1
b6
4c
4c
66
e5
41
d9
eb
5f
55
ed
c9
eb
e1
d2
81
59
cf
cb
57
ea
61
1f
5c
52
ee
da
44
d1
df
5c
60
40
ab
b1
d4
4a
e4
d3
1c
33
58
48
c9
56
54
ab
5b
e8
c3
ae
db
32
46
bd
f3
5e
ac
e3
4e
2c
cc
e6
b0
64
5b
5c
ea
6a
d0
64
c0
c1
45
e1
72
49
e6
cd
a0
db
4b
f9
d7
e5
5a
78
cc
d5
6f
65
f2
dd
e6
6d
48
ce
eb
61
4c
f0
e4
ce
e2
46
e3
db
29
e6
e6
4e
f4
60
da
30
5b
eb
e9
50
3a
df
68
a3
36
de
67
3f
db
37
46
e4
b5
e4
46
56
65
e3
b4
e5
5f
71
68
da
2a
dd
cf
50
61
56
47
5e
e4
54
e9
ea
9a
c9
67
c0
65
e9
4e
dc
22
5a
57
43
b0
6c
60
4e
49
59
e9
b0
6a
64
69
e1
e0
c9
6c
59
35
cf
6d
d3
51
4
d2
4a
f1
db
d3
e6
d5
d3
e4
d0
0
e7
43
5e
c7
53
e9
d9
4d
e5
5f
e9
65
a0
52
51
c5
df
cb
70
c7
63
5e
75
ea
58
dc
69
9d
44
cb
da
66
58
46
dc
cc
43
80
ca
5f
52
6c
60
e2
ef
e2
e7
e4
dc
d8
d0
db
58
64
cb
d9
b5
4b
6a
cf
69
4b
5b
5f
67
c1
de
a6
37
74
65
67
e2
e0
45
b7
e8
ab
60
65
d7
65
ed
e2
dc
dc
58
5c
20
e0
e0
ce
e5
ad
59
e5
64
e4
b6
59
43
62
65
da
a5
d6
e5
e4
66
dd
d5
3f
58
d9
d8
e5
69
69
5e
ca
4a
d6
cc
73
5e
c3
de
35
60
4f
e5
d5
67
5a
62
e1
e7
dd
dc
e4
58
e3
62
6d
17
b8
6e
d9
40
67
3
d6
52
3f
67
49
e1
cf
ca
e3
44
bf
67
be
d8
64
d5
d3
5a
db
e8
f1
ec
cf
55
db
e9
ed
aa
54
de
74
da
2b
70
63
b3
70
d6
60
67
6f
56
e6
70
c8
e6
6a
b8
e2
bd
ce
d7
47
62
a6
5b
dd
55
54
e1
36
43
dc
62
a5
e3
3d
49
60
80
cf
63
e3
e0
5b
c1
45
67
e6
d3
5d
c8
62
64
45
e0
d5
64
62
4a
65
3b
df
5e
3f
dc
2d
bf
db
b1
dc
db
d8
4b
b9
4d
5d
32
b7
46
dc
69
62
e5
b0
4c
64
d1
c2
53
dd
4d
e2
e2
9d
e9
58
75
c3
61
74
6c
dd
6b
a4
cc
e9
e0
cb
55
cb
58
c2
cd
65
33
9f
4c
dc
66
a0
cb
ea
c7
df
eb
dc
e7
5e
df
d4
5c
e0
c0
e5
c1
d0
63
d8
6d
ec
5e
63
69
67
cc
49
65
4d
dc
60
e7
4c
51
e6
e1
30
c6
e4
5d
6b
1c
61
3e
69
22
e3
66
65
eb
b6
eb
bf
80
b5
e9
58
b9
5c
53
e0
e9
51
c9
81
65
55
bd
61
43
e9
e1
8f
c0
df
d3
de
3e
db
66
e7
6b
c2
a5
57
e8
5c
e5
c8
80
e2
e3
47
60
4a
66
64
ea
e6
69
64
80
e4
db
3d
61
e1
e7
e4
e4
b7
d4
67
e0
65
8e
ce
6b
e7
61
e0
c1
13
e7
da
3e
a3
4b
b1
4a
49
e0
47
64
ba
63
8e
e8
45
a3
b4
35
de
56
67
be
dc
65
cd
e7
4b
64
e1
68
1a
be
ea
c9
e4
67
43
d0
ca
ed
e2
4a
e2
a4
5a
e5
55
95
ec
70
e4
e2
4e
a5
61
c6
cf
da
e3
61
66
68
63
28
64
5e
5e
5c
68
6b
5d
e3
d6
65
e3
43
d3
ae
c4
eb
df
63
4e
51
a8
46
68
5a
e5
5c
e3
5d
45
cd
49
37
c7
9
ea
51
bf
de
e7
95
9e
63
ee
51
e3
67
4d
e8
61
46
5a
65
67
e8
55
4f
e8
5a
4e
6a
5f
5e
e6
80
db
e2
d5
64
e1
20
3b
c1
e1
6a
d3
68
62
d0
d7
64
68
c3
e6
55
5f
6a
dd
69
e8
e6
4c
3b
dc
3b
4b
e3
da
40
57
e6
de
63
a4
5c
e4
5c
b6
e1
58
34
eb
39
45
e2
a9
d2
cc
47
da
d3
ec
ea
da
c9
61
3f
ea
ea
e8
c1
5d
e8
e2
e3
ed
45
80
53
d9
32
62
50
5e
37
5c
6a
4b
58
5e
ce
64
e4
4f
52
cd
e4
43
5e
a4
64
5f
54
be
eb
65
bd
20
c5
64
63
dd
5c
35
ea
5f
55
c0
33
a6
63
5f
e7
6a
68
c9
61
5f
e1
67
e9
5e
e2
47
c2
62
d4
d2
a0
68
e6
61
48
e0
e3
25
6a
4f
6a
49
63
e5
d4
d9
bc
db
5c
e9
55
6d
72
72
e2
81
db
ba
61
d9
b
e9
e7
62
58
cd
60
67
de
6b
d
5a
d3
0
de
68
6a
48
23
c9
b8
5c
e3
45
54
69
38
32
51
d0
e4
f2
f2
ea
e9
ed
db
d6
e1
47
de
68
b5
60
72
45
cf
4d
58
da
e0
ea
e8
dd
e9
e8
de
ea
5e
a9
60
e7
e6
19
55
45
66
56
0
5e
81
b7
5c
13
60
b6
dc
ed
39
58
53
5f
e2
e9
45
0
e0
e8
5f
41
58
51
6a
e2
d7
d9
dd
5d
65
5f
36
62
58
dc
5a
31
61
53
e3
e1
5c
e9
c1
47
c6
a3
63
25
64
e4
e0
e5
ea
6a
5a
c8
dc
93
69
e9
e6
d8
e2
36
e8
e7
5b
e3
5a
65
ea
5c
d3
c8
e5
51
62
24
a7
c5
6b
61
ea
65
5d
5a
51
3a
df
67
6b
d4
e8
5b
de
e3
df
33
e5
55
ee
be
eb
1f
5e
58
6b
46
da
4e
91
cc
68
80
e3
61
60
ad
c5
69
66
e0
68
e7
66
e5
54
db
cf
64
58
50
5c
e7
39
66
da
56
d4
5f
e4
18
71
e3
df
69
eb
e4
c1
af
c5
df
b6
b8
e4
da
e4
e5
eb
43
e2
66
5a
55
de
e5
d9
64
e6
6c
5e
d9
6d
49
e2
5a
54
b0
e7
c3
5b
4d
44
47
51
ea
60
36
e0
d8
e1
d4
4d
e0
51
51
1d
58
4d
39
e9
d6
4f
ea
16
e8
5d
e6
58
d7
9b
4e
cd
5f
d4
d6
5e
d9
de
b6
b6
e3
e7
34
37
54
17
48
bb
e1
59
da
4e
b0
5d
68
e3
61
de
e3
35
63
69
a9
bd
5c
d8
55
ee
57
d2
e0
d1
59
e7
e7
e5
d6
ed
4e
5f
e9
cb
eb
a2
4d
5c
65
49
a1
da
4e
49
e2
64
d8
c5
cd
ea
de
ea
bb
3a
65
eb
cb
68
af
d8
c5
55
35
65
65
4d
5b
6c
bd
64
a8
e4
e1
72
d7
e4
6e
65
56
c4
64
5b
e0
5e
c8
e5
4a
e4
e3
bf
52
b9
de
d5
4b
b0
63
91
d6
da
de
51
68
e9
e7
eb
58
3c
64
d2
41
3c
ce
ba
6a
d6
e2
5d
d7
50
67
d5
8a
c5
50
5a
56
6c
54
ea
97
5a
b1
d0
d2
e5
d4
d8
61
67
b1
55
23
5f
de
60
c7
c2
5f
47
de
40
d3
6a
4d
bf
64
41
d7
62
ed
e5
32
e7
55
e7
4a
a3
df
d1
e8
64
d7
e4
52
ae
e8
d9
43
e9
5
4f
59
38
dd
62
ea
58
4c
58
6a
b5
dc
d4
ce
68
63
e2
67
e3
e8
5b
6e
e6
ce
dd
c7
c8
6d
53
d9
66
6a
c7
54
cd
ea
64
4c
55
58
e8
dc
17
4c
5d
63
69
54
d6
c7
51
6c
dd
4e
2c
34
db
5d
e2
57
41
e8
98
d2
52
c8
f0
11
68
e4
e3
69
f0
12
db
a5
b5
e1
d5
da
d2
b7
e0
68
57
df
63
61
5f
25
68
21
45
da
54
be
23
44
6b
ea
f2
6b
c8
ce
80
f0
e3
63
ea
68
e2
bf
40
e0
cd
e3
e1
5f
ad
59
4d
65
62
6e
67
52
f2
54
5a
d8
e3
25
db
b6
64
5b
33
72
49
57
65
6b
37
74
55
c4
ec
5b
5f
51
ef
ef
51
46
ba
50
55
62
de
e4
6a
cf
67
e5
e6
e3
c9
db
cf
d8
bf
3d
f0
dc
68
ea
eb
64
e0
57
e9
5a
f6
ef
5e
f2
e6
e6
14
65
64
63
52
e1
d1
a0
59
e6
47
65
6b
eb
da
55
d0
5a
54
67
da
f0
dd
df
38
56
e3
f3
51
e6
ea
d1
63
67
e3
dc
46
19
b1
5a
ed
54
69
5c
69
5b
59
d2
25
60
66
e6
94
c8
ac
3b
cc
5b
e4
d3
ea
65
56
64
37
d9
db
de
5d
5f
57
5f
5d
ba
ec
e8
c9
ef
d5
59
c5
44
e2
50
ec
dc
31
64
6c
bd
64
65
5a
df
dd
5e
c2
42
e1
80
b6
38
d4
e7
57
5a
4c
d3
65
e2
e6
d8
cf
46
e9
eb
d9
d9
d5
4e
60
e6
6b
39
bf
e1
da
6a
fa
ea
5c
f5
41
6b
f1
e8
d9
5e
d1
9f
65
ed
6c
29
59
75
6b
76
5f
54
6c
4c
62
73
63
ae
ec
e9
c9
5d
d6
85
43
98
ca
b9
6b
45
c5
62
cd
6f
4e
9c
1b
4a
63
4c
d7
ea
52
ba
f1
d7
5a
c5
e3
e6
b1
d3
e4
5e
6b
31
45
57
e4
42
eb
e4
6d
6c
55
b6
54
f5
f1
f8
ea
c2
de
47
ca
d7
5b
d8
b9
aa
97
52
eb
65
64
56
1f
58
ea
5c
57
e2
68
64
c1
e5
a3
6f
70
73
db
e4
59
4d
eb
e2
c1
62
51
e7
a
d9
f3
e2
a3
58
80
62
5e
c4
5d
4a
4f
5f
d9
54
6a
3a
80
5b
ea
4b
dd
d5
d8
e6
ed
af
e6
be
a6
9f
46
d0
6c
ca
cd
aa
5b
bc
e4
cd
ad
56
e2
e8
e3
d0
eb
4e
62
d7
f3
be
54
ee
ec
3f
59
c3
ca
e5
67
67
ed
ee
ef
da
46
d0
66
5d
d5
49
4d
cf
e7
d9
54
59
e2
ea
4d
46
6a
65
e8
e2
76
43
e4
d2
eb
d8
da
ea
4d
33
d7
3f
e1
bb
da
cb
64
dd
d0
dc
48
37
68
dd
5d
e4
d7
44
d3
be
62
a7
d5
21
61
6d
6b
c9
c8
70
ed
cb
60
d4
58
58
e5
64
42
d5
63
ea
6a
68
db
59
39
36
4a
67
6b
e3
9c
5c
49
62
5d
b7
33
6b
da
e9
41
bb
37
6c
cc
5e
df
ea
bf
3e
e4
d3
50
de
c3
e8
4d
50
e3
68
65
dd
6e
61
64
c1
53
e5
56
d3
70
56
40
5b
b9
e8
e9
62
60
43
b6
41
de
ea
dd
65
5d
64
80
49
74
d3
db
56
51
81
d1
62
f2
5c
e7
80
af
0
69
d7
96
d8
dd
c9
65
d1
6d
69
c9
54
68
4f
e3
6e
60
6f
e
63
6c
6f
b2
6b
8c
dc
65
b9
6a
69
e2
d2
d1
e4
ec
3a
ea
ef
9
dc
ef
eb
78
5c
52
75
e1
e6
5d
56
cd
dc
f7
ba
e8
d9
bb
f2
b5
e0
e7
e9
cc
92
e1
64
6a
54
5d
c8
ca
64
3f
d2
c5
6e
d4
ea
c6
0
76
6e
a5
73
3d
5e
70
c4
69
4c
30
5d
ca
c9
e7
61
d6
4d
47
e4
61
4a
c9
ca
6b
67
36
58
e7
5e
b7
de
be
d6
eb
b3
f6
47
6d
e5
e9
db
51
be
ef
5a
e1
d3
43
f9
f4
60
65
6a
5a
cd
32
60
3d
6b
d7
5f
6b
5c
69
d0
e4
58
e0
c6
6d
43
d9
69
42
ac
67
27
68
69
e6
1d
68
d5
61
57
db
5f
4b
2a
c4
c5
50
3c
ec
c0
d6
80
dd
6b
da
e3
dd
de
58
e7
28
e8
da
58
27
da
75
e1
ea
4e
69
e6
e4
2a
46
39
ce
61
80
c6
6d
e8
de
53
dd
6d
b8
61
51
3a
6a
9e
bc
c3
5d
68
f4
d7
5a
e3
64
67
cf
e3
70
e0
57
4c
e6
eb
27
ae
d3
cf
d6
e1
e3
53
e8
ea
55
d4
eb
6b
e9
5f
6c
57
65
6a
d6
66
e7
62
cf
e7
50
e7
5a
eb
d8
99
63
51
a9
d1
e9
d2
5f
11
6a
bb
e3
68
5f
e3
ec
5d
0
70
4f
db
49
c8
5f
5d
d3
69
e1
4d
52
68
e4
61
46
e7
52
72
64
e9
61
61
da
d5
e2
d9
e6
5e
65
e9
68
6a
53
6b
aa
e3
e1
60
e1
5a
cf
ef
5b
d7
e6
e3
e4
50
e9
e7
df
de
e4
4f
ed
b9
69
ed
e8
14
da
eb
e8
6f
cb
6c
64
32
e4
d9
5e
43
e7
60
67
46
d2
5a
dc
57
10
d0
5e
d5
cd
e8
c8
61
eb
61
62
5e
54
35
e5
da
9c
66
60
60
c7
54
d7
63
51
98
be
db
25
e3
20
c1
d0
c4
e2
db
b2
ce
ce
ce
80
e9
ed
4e
3a
e0
c1
63
ba
c1
e8
36
c3
43
4c
6a
e4
5f
60
21
85
4e
10
5e
62
d9
4c
55
5a
3e
47
b8
66
5e
4d
c4
d1
62
c1
6d
d9
5b
62
5d
d9
60
5d
c0
e0
c7
ea
d8
65
56
80
a7
21
d5
ce
4b
dc
d3
db
c3
c8
d4
cc
e5
e7
d6
d2
45
e0
dd
4f
df
e8
ce
d5
e9
e7
2b
66
e8
54
45
92
cb
e8
64
6a
50
64
58
be
e4
d9
41
df
e6
e8
52
e3
65
da
41
68
e0
5c
b0
c9
40
5c
f7
51
56
e8
6f
d0
69
da
65
e1
c7
6a
67
ea
52
e0
51
b6
e6
e0
b3
da
e9
5c
6b
68
83
e6
2e
5c
e5
4d
d7
eb
65
45
68
d7
46
de
65
57
45
65
d9
d7
de
4b
56
48
59
5e
d8
66
60
ee
d1
65
e1
36
6b
70
d4
52
5b
d0
52
0
58
da
5d
d6
54
49
58
6e
d4
e7
32
dd
e6
e9
e5
da
d3
58
58
d6
df
c6
d3
e1
52
e3
bc
dc
e9
68
4b
4f
e4
ec
e8
e6
d8
ed
ca
42
ed
9c
ec
3c
f0
d7
67
e0
cf
59
5a
a7
54
4e
db
6d
dd
e4
b4
69
65
d3
4e
67
1c
b2
a3
5d
56
e7
e1
e2
67
df
ab
65
d4
db
e0
6b
c7
4a
e7
66
b6
67
dd
d6
65
57
d1
4a
d9
66
d2
3b
3c
56
46
5d
c2
a1
48
eb
da
5e
d2
d7
dc
4c
57
de
e7
64
28
63
64
93
5b
67
e0
63
1f
52
d8
e5
e2
d3
98
b4
64
4a
e3
e8
3d
d9
55
6c
e6
dd
d6
68
5d
e8
64
3b
63
96
ea
eb
1a
6a
df
ca
db
ea
e5
67
55
c7
6a
dc
b8
3b
e5
d5
62
d6
5c
64
22
e3
62
ab
e4
b7
e7
d8
e5
ea
4c
d2
67
ea
b2
33
55
b5
5c
44
e3
65
e0
50
66
4d
5c
4f
de
67
5c
5b
65
bb
57
d3
60
5c
63
da
e8
eb
ea
e9
bc
ec
67
62
54
60
52
6d
df
71
ce
1d
dc
dd
52
60
4b
5a
d2
54
83
d1
db
d0
e7
e7
cc
60
ea
49
d1
ac
e0
5a
98
68
45
70
58
6c
ca
6c
27
dd
81
3d
4c
41
6a
6b
80
df
4e
f0
ca
e3
54
f1
f2
e6
f0
ec
e6
f1
cc
eb
e6
e1
52
79
6a
5b
ca
64
5f
60
ea
48
62
6f
de
d1
c7
59
ec
c9
2f
63
e8
52
e5
62
d6
e6
e8
bc
63
5c
e7
e8
63
e7
ec
d3
d9
61
ec
e1
d4
a8
bf
d1
ec
e6
60
41
df
5a
5b
31
80
3b
af
69
9c
52
51
df
2f
e4
5d
61
c9
e0
5f
42
df
c8
6a
6a
3f
4d
bd
6e
70
57
cb
5e
64
de
ed
ea
54
dc
40
e6
ee
e1
c6
51
64
6c
67
5e
c7
d7
5f
80
6a
e1
ea
eb
2e
5f
4d
d8
56
f2
d8
f0
41
df
b9
bf
ed
e5
d7
61
63
65
9d
44
4c
64
dc
d5
d6
66
de
66
53
c3
e6
e7
5b
52
61
a1
61
ed
a4
69
d7
d2
5d
d9
9b
e7
67
4a
64
e5
5e
68
63
61
4d
e8
80
d8
3b
e4
c1
60
b7
49
32
21
5e
e1
6b
6d
6b
e4
d9
e2
5f
38
49
7e
75
77
e7
5e
52
f1
c5
ee
bf
e4
e9
5b
e9
ea
e1
e4
5e
5e
59
97
c5
54
60
1f
6d
3f
33
af
d8
5d
e2
eb
54
d3
dc
db
5d
df
41
60
cd
d4
ce
5f
dd
5a
d3
3c
5b
4d
4c
5b
47
d6
29
e2
6e
d0
dc
80
17
5d
c8
57
4d
68
dd
0
43
65
61
51
5b
d7
eb
69
da
e8
e5
ce
62
35
3f
13
5e
68
6c
62
e6
35
4f
ef
5f
c6
56
5b
ab
6a
c1
ad
81
ea
30
c3
dd
65
6a
b9
5e
e1
37
56
5d
65
dd
e8
48
d8
d3
69
6e
22
cc
67
21
d7
e1
29
31
4b
69
c6
c9
e8
66
62
d6
da
5a
5c
60
d2
de
ed
db
e5
de
db
df
ee
e7
d8
ed
58
4e
e9
81
d9
c
c6
51
6e
44
74
69
66
66
6f
69
72
e0
d6
dc
e1
e0
63
db
68
59
64
5b
50
e7
63
47
64
4b
63
e5
ae
48
e6
e8
ee
b0
aa
ed
71
80
e6
52
da
d3
60
e7
5d
ae
57
35
62
6d
66
c0
67
d4
52
d9
db
e9
64
e8
e4
e0
a0
62
d5
6d
41
d1
5b
38
d9
f0
4d
c8
40
7
d1
2f
47
e8
ea
65
5e
e0
e3
64
1c
b5
5b
a3
98
4e
4c
5b
61
d0
59
ce
68
1
65
67
da
e5
34
4f
e3
c8
66
5e
80
c1
6a
b2
e4
3e
df
ce
51
d9
cc
8b
ed
4e
cc
d7
6d
c4
69
a8
e6
56
eb
d3
55
e9
64
5e
d9
65
63
ea
63
5d
dc
5c
9b
63
cb
58
1a
e7
e9
d8
69
52
54
44
51
da
65
5d
68
60
c0
d5
37
6d
c5
20
c5
6e
6f
e3
c0
49
d8
50
d2
3b
69
dc
a2
e9
64
68
e0
d8
48
e1
c2
d4
56
e0
1f
50
5f
d8
3c
ea
b6
ed
e6
50
d3
69
6a
ec
21
e7
f1
50
b1
eb
d4
de
ef
5b
70
65
6b
4a
c5
ec
10
db
44
29
c5
63
ec
64
e1
d9
d8
4a
e9
5f
5e
d9
b3
c7
e1
4d
6e
c9
ea
71
69
d2
32
ef
db
37
de
5e
6a
e4
5d
67
6a
47
e6
c3
a8
27
39
4c
e6
db
e5
e3
bf
e5
32
d6
e7
d3
ef
61
b7
c5
6c
59
c9
df
c7
ec
f2
63
e7
4b
25
cb
f2
d9
47
d9
e9
40
da
3e
59
a2
d9
9a
eb
e5
db
d5
66
e1
cd
e3
62
59
69
47
65
e2
b5
68
51
53
3f
5c
64
c2
e9
5c
c8
dc
5c
cd
64
c4
4a
e6
48
2c
ec
4b
5e
2c
ec
db
e8
cc
61
e2
28
ef
dc
4d
eb
4a
dd
b8
c7
f0
e0
be
5c
3f
5c
e2
d2
5c
5f
5d
9a
72
cb
61
5b
61
ca
68
dd
54
6d
65
71
76
ea
5c
46
e0
e5
9e
55
e9
66
b2
dd
c9
d9
dd
bc
66
69
2c
71
6b
de
cb
57
e5
e8
5a
63
d3
dd
cb
ec
e8
ea
f3
78
d8
c1
57
f5
cf
e5
ca
d3
66
3e
6a
67
d7
2e
cc
b2
80
e8
e6
cc
63
5c
d1
51
c8
bc
34
52
d4
48
d4
b9
f6
cd
62
a8
69
4e
41
97
0
e4
65
5c
89
c1
d4
eb
81
d5
a5
61
1c
65
68
64
5e
d2
46
e9
d3
61
8d
67
48
72
52
98
4b
e2
42
a0
5e
e8
e1
de
65
15
66
e8
63
e4
70
b7
59
cd
6a
2e
a4
62
61
0
d7
12
e9
f2
ea
41
f6
ce
d3
d3
16
24
65
56
21
2c
4e
e4
e4
45
e7
59
43
e1
63
55
56
5a
44
5c
5c
3f
c3
63
cf
59
e9
e8
5c
df
69
d8
5a
e4
dd
5f
62
eb
d3
f6
e6
e2
dd
b6
5f
e2
73
77
63
3e
aa
5f
e4
4d
68
56
57
63
e8
3f
5f
eb
d8
d4
ca
e3
d7
23
dd
57
6c
55
d2
d6
71
6a
4a
56
ba
e9
65
c9
e5
d2
5d
e9
ed
65
ec
5b
61
67
68
e0
5c
5b
d0
d3
4b
cc
b0
d6
60
db
51
e6
cf
64
69
d8
58
f0
e5
e8
34
24
5c
48
61
df
67
b8
65
58
ef
e2
d3
61
4f
4a
e8
5f
80
6a
a9
5d
66
d8
3d
cd
ae
64
e6
bd
e7
dd
dd
d0
dc
d1
db
5a
59
e0
e4
d7
5c
e0
db
b8
4b
de
64
5f
dd
56
45
e3
0
b0
5d
65
5e
6c
e1
59
66
ec
3b
e1
e5
7a
58
76
5e
57
59
df
ca
cd
d0
61
4f
e0
63
67
57
c6
61
6d
5a
66
e4
c6
d1
65
ba
56
4c
62
e7
e4
2d
6a
d2
e0
63
c5
d2
80
df
48
e8
4c
e5
bd
3e
68
d9
b3
55
52
43
54
54
d9
52
69
e6
6a
53
61
db
69
4e
cf
57
53
e8
53
69
54
5a
55
57
e6
51
66
bc
cc
df
67
dc
d7
5f
e6
68
2d
e7
c0
e0
e7
e3
2a
b9
dc
c7
65
8c
eb
6b
61
e1
4f
e0
52
d5
cf
c9
cb
d2
60
65
c6
d0
45
6e
d6
63
e1
30
55
5e
4f
74
e6
4c
ce
57
e3
41
55
68
d9
eb
ea
61
e1
e1
ec
de
50
54
65
e3
6b
db
2b
73
6b
93
66
5e
8a
ca
e5
cc
61
ca
d1
6e
de
e1
cd
e6
ce
a8
b5
db
c2
d4
d2
3f
6d
72
68
6f
6c
39
e0
6d
c1
5f
61
2b
ee
d8
d7
cd
e8
4f
c1
59
cb
40
e6
d1
62
e6
81
c3
6e
b6
c4
ca
5c
52
52
de
69
d7
68
e5
da
5e
e7
52
ca
df
e6
ee
be
d1
d6
e9
d7
ea
26
d0
5a
64
d5
5a
69
6d
e6
da
60
cf
5f
e5
86
66
e1
61
5a
64
dd
e6
b8
e5
5d
5f
69
61
c9
65
5c
e4
a6
4a
61
58
59
e5
69
e6
81
b4
df
5d
66
9c
e3
65
6a
64
eb
68
d6
30
57
d9
d4
62
56
c8
bd
20
f1
e2
64
36
a4
d9
71
31
d1
32
de
e0
dc
e1
db
e8
62
c7
e7
4e
2e
58
de
63
ed
eb
5b
e4
e9
dd
58
e7
de
dd
60
b7
1f
ea
45
f4
e9
21
f2
c7
c8
56
af
41
3f
e8
e5
c3
6a
5e
48
55
d1
26
2e
d1
e9
4f
e9
e6
67
5f
de
e1
e4
c5
63
c8
e0
4a
34
44
de
55
cd
c1
d3
5d
5d
56
e3
62
e4
d1
ea
bc
9a
67
6a
d5
d4
e9
cd
62
55
ea
49
ed
c4
b4
af
cb
c7
e5
98
ed
82
9d
69
4f
31
78
77
e8
e5
ef
68
ef
d5
7b
5a
73
ce
3b
d3
4b
68
69
8b
4d
e6
d1
5c
65
d3
5b
ea
ea
e1
52
3e
68
aa
c9
6c
80
4f
4e
69
c5
42
cb
2c
50
c1
7e
77
6e
62
c4
ec
e6
e7
8f
6d
66
e3
b6
d0
64
e2
4a
63
e5
61
5f
81
65
e8
e4
b1
e4
5d
5c
2c
61
ec
e7
e1
c7
e9
9d
5c
64
e2
4f
5a
dc
23
ea
3b
cf
66
5c
e4
5a
d3
6a
de
65
5f
6
1a
e6
e6
ce
62
63
e6
ea
ea
5d
34
d4
b1
4f
ca
d8
67
63
e8
63
60
67
62
c8
19
55
de
df
43
59
e3
db
52
6d
61
ca
1e
3b
d5
59
e6
db
b9
6d
58
43
de
cc
cd
ea
4c
5e
b9
e4
e5
ca
cc
c7
51
5c
e6
d2
43
dd
e0
45
45
cd
33
47
6a
3a
f3
e5
f6
5d
cc
de
6e
70
de
aa
94
e8
59
e5
d9
cb
e2
3b
32
c5
5e
60
c8
d8
e5
f0
ac
e9
d5
e1
e6
68
6b
5d
67
e4
f6
df
f2
f6
e5
e9
f4
d2
c5
eb
d6
e0
d6
24
d2
5e
df
34
d9
b9
4e
5f
49
52
d3
df
e9
c8
e9
da
e9
e0
d5
e9
b6
ef
5f
51
51
eb
5d
56
60
e5
49
f6
e7
67
f4
e6
68
bf
e6
e4
da
67
c0
4f
61
6e
d5
65
67
45
64
6c
c7
44
60
e1
e9
f0
f6
e9
e7
dd
70
5d
f1
cf
d5
48
63
49
55
6c
b6
fb
65
b8
55
56
ea
57
4e
6a
d5
df
54
d7
34
e9
d8
ea
62
58
e1
e8
e5
bf
53
ee
dc
cd
e9
d1
eb
5f
eb
f4
6c
6e
e0
c0
e0
ec
ed
5f
de
e2
49
58
dd
d4
d7
df
e7
a6
e5
e7
4f
25
4f
5a
c9
6a
1f
61
bd
e0
55
e3
4b
e1
cd
98
3a
99
4b
b6
e9
6b
45
cf
67
b3
d5
67
ed
53
d1
5b
69
64
59
ca
ca
54
e2
df
10
ed
f2
e2
a7
ef
df
dd
e4
51
80
ee
e6
e3
e0
af
e1
c3
5f
d0
57
e2
51
4e
50
6a
3d
68
6e
5d
d0
65
68
e0
b3
5b
95
6f
75
e5
6d
72
1a
d4
61
67
e9
30
cd
d7
c0
cd
69
db
d0
81
ea
64
e1
68
d0
98
38
80
e6
6a
df
6d
4f
e3
62
e2
da
f7
f2
6d
51
e3
d5
75
eb
3d
60
4c
e7
c8
5c
69
d7
47
e5
4f
44
5e
5b
e2
14
5a
b1
e0
6a
63
4f
e2
55
d7
ce
3a
4f
ef
26
38
eb
b9
0
d1
d0
dd
f1
3a
d2
b9
eb
a8
c2
5b
6a
dd
e1
dc
cd
63
ec
51
e9
cf
eb
e7
b5
6c
3b
6b
6e
5f
48
e0
5d
57
db
99
da
e4
57
d5
64
d4
6a
8f
66
76
63
67
ec
dd
bb
20
d6
df
eb
d7
c4
fa
cd
e6
32
56
51
eb
60
c0
b8
ce
66
69
d4
71
23
5e
70
c5
50
b6
52
a3
65
98
52
64
66
d8
e6
5f
e5
1e
c0
5b
da
a6
64
64
c5
e2
5c
e1
e9
4e
53
65
59
5b
ba
66
d1
58
73
da
e6
d2
b7
5a
56
71
52
6a
e4
dc
f3
ea
54
ed
f8
f2
0
e0
d7
d5
55
5a
4f
d2
b1
e7
17
4f
49
e8
36
e0
49
30
57
46
d7
df
b7
4b
e0
6a
68
5f
d5
df
e0
da
e2
d6
57
64
e9
5e
e7
59
d2
b1
dc
5e
4f
e1
cf
56
6f
dc
e8
c4
6b
6c
38
6a
6d
df
60
e3
18
53
d0
e9
d3
2
e5
29
ce
bb
bc
37
de
d9
e9
63
ce
e2
c7
c4
6d
d7
8e
63
ed
e1
da
d5
f0
c0
b9
60
5e
25
e2
5c
5f
66
be
cc
ea
66
b4
59
64
57
67
58
60
e6
e2
d4
4b
c8
54
e7
56
62
be
eb
cf
e8
1e
4a
57
5d
cb
ce
e1
d5
58
4c
4e
63
ca
43
be
3f
69
6b
3c
e3
4f
6a
e6
e3
55
60
6a
60
5b
d2
59
59
81
d7
e3
e4
ea
ed
df
e8
cc
e6
ce
e1
f1
97
c1
f2
3f
dd
e6
e6
64
ea
d4
d6
ec
e8
e3
43
6d
1a
ce
62
58
64
af
b1
63
43
bb
ce
65
cf
51
39
e7
e8
2e
c8
6a
2d
e6
eb
e5
51
e3
c5
b2
e1
d1
ee
52
ed
59
66
dd
72
e9
d5
6d
6e
69
dc
67
c7
50
4e
cf
45
55
e1
cb
ca
de
50
5f
f0
cc
19
33
dc
4b
e3
57
e8
e7
64
e6
b5
65
81
ba
e5
e5
df
d4
e0
cb
b3
50
c1
dd
46
6d
6c
ed
e4
c5
64
5c
67
5b
4d
d4
38
db
15
e3
5d
d6
4
e4
c6
55
e1
3d
5e
d9
dd
e2
4c
e7
f
df
c8
dc
55
dd
dc
68
e5
68
e4
a0
8b
d2
57
e7
cd
67
68
58
eb
e7
5f
d4
bb
e0
5a
e7
e1
cf
b4
67
56
e5
6b
53
4f
d0
c2
c8
dd
db
53
d9
4f
9d
4c
6a
6c
64
59
af
b1
5e
59
59
41
48
ea
b2
a9
d5
54
16
67
53
df
c4
ca
55
bd
e8
68
dd
e2
be
46
50
e2
67
de
80
62
cf
eb
dc
db
ce
4e
d8
de
63
5a
c7
53
64
e2
68
ea
45
e2
5d
cd
e4
49
e2
aa
61
e7
67
3d
bc
eb
dd
da
5d
62
d9
ef
ec
9b
4f
a
66
63
d0
e7
e1
ba
d6
4b
64
55
52
6e
5f
28
5b
2e
d3
e5
53
5e
66
67
cf
ea
54
64
2f
68
c1
5a
50
f1
d9
85
69
6c
5d
4b
b4
d9
e9
dc
55
4a
44
20
e4
5c
61
92
d9
dc
60
e5
63
62
6d
d7
e5
e3
63
0
df
5e
c8
88
df
bb
b7
c1
db
67
12
33
3d
5b
d3
64
21
ce
b1
62
e0
3e
e1
3e
d3
55
57
e4
47
e6
da
d8
53
80
4a
ba
4e
6a
e0
ef
ed
e6
5f
74
df
cd
c7
5d
62
f6
c8
ee
d8
34
58
e0
df
2c
d5
45
66
e7
4d
40
e6
39
65
f0
2b
ca
73
5a
cb
67
5e
63
d7
2e
cd
62
2e
f0
e0
ce
58
ed
d3
de
6b
3d
52
57
cd
b9
67
5d
d3
28
cb
63
6b
56
47
51
4b
b6
72
69
67
71
4e
64
69
6a
58
2d
43
b0
c5
54
5b
ce
ee
e1
42
6d
cc
69
4d
6e
8b
25
66
66
c6
d6
24
63
cd
df
d0
64
f4
c1
e8
d5
60
e8
ed
da
dc
ec
bc
5e
52
64
d9
ea
d2
e1
64
b8
d0
aa
5e
68
e2
cf
55
67
5c
d4
db
e1
5a
55
3c
5a
57
40
65
29
2d
45
65
4f
53
80
d4
6a
6b
ea
e8
67
df
e0
d3
1d
5b
dc
e7
68
5f
ce
b5
e2
68
63
bb
eb
da
5c
ec
c5
55
43
c8
6e
29
ee
66
e5
eb
e6
dc
aa
bc
de
ea
d5
e9
62
ec
f0
3f
59
c1
53
c3
3c
67
51
41
e9
51
57
6a
5e
4a
69
f1
c8
68
f0
52
df
b3
d9
6c
e6
67
62
56
d9
d2
d2
59
53
0
69
38
5d
62
e4
65
81
62
ca
53
20
74
1d
a2
d1
b2
61
50
58
ea
66
2d
e7
e0
e5
32
e5
61
b0
57
c9
60
d7
e9
1c
ec
5f
e0
64
5a
96
72
d4
e8
d7
e3
6f
71
53
c8
66
80
d3
ac
ea
e7
e1
6a
40
b9
68
af
39
59
47
c9
e8
d1
6d
dc
d9
49
d5
e9
62
56
e5
51
d8
c2
4f
d3
4e
dd
24
38
d6
de
b0
c9
f5
d9
e7
55
d9
f5
f1
59
d3
0
e3
b1
c8
d0
69
d4
4e
ce
59
6b
4f
ec
e4
59
0
11
db
d4
d9
e4
65
36
d5
60
d7
6a
d8
9d
ec
47
e9
31
cd
5d
67
48
5b
61
ea
e6
d4
5a
d5
6d
df
c9
5f
d0
54
6c
e7
60
c3
c4
e6
5f
64
df
94
ea
50
d1
df
54
3c
e1
e3
ef
4b
37
d1
d8
67
5f
49
48
ed
64
e8
80
d3
67
6b
68
c9
94
2f
4f
5e
d1
5f
4e
51
40
5b
6b
65
eb
ce
b7
b1
dc
e3
cf
e7
41
b4
65
c3
41
5e
cb
69
ea
16
ea
1d
5e
cd
80
27
4f
b7
58
e7
66
ed
e7
5f
ec
59
5c
e8
de
34
64
68
38
df
e8
d6
63
5a
eb
53
cf
4f
3c
49
4e
3d
b3
69
a8
64
5e
67
65
57
d3
d5
3c
b1
61
61
eb
57
66
59
70
c0
cd
b3
6d
d0
49
d5
6b
74
6a
6b
d5
eb
e3
6b
59
53
db
e2
e7
cf
ce
48
db
e1
c8
86
3e
47
c6
a7
63
e8
26
52
58
d0
ea
e0
42
42
2e
e5
3e
e8
6a
46
47
5e
bf
67
4b
60
5f
5e
5a
63
dd
5c
ea
e5
5b
3b
d3
cc
b6
75
73
c1
66
db
ba
ae
b0
2b
e0
48
d3
60
80
e4
4f
e3
d8
e1
5b
ec
58
5b
ea
ba
e7
6b
5a
54
e6
5b
64
59
56
e4
c3
e2
66
57
4e
de
53
d6
df
ec
bd
47
53
e1
e9
44
cf
5f
d8
6e
67
6e
c0
df
d3
4a
da
55
e8
61
e2
49
c3
d7
ec
d6
55
cb
65
59
e2
e2
e0
67
68
65
dd
e3
ba
20
5f
e5
28
99
e6
94
53
63
d5
57
ea
43
c5
68
14
5a
60
4a
66
63
68
e7
b3
45
e8
66
b5
5d
e9
dd
e4
5c
d2
e8
46
96
e7
57
df
33
34
2f
e1
66
e6
b7
67
5e
65
63
42
e8
5b
47
c5
45
d9
30
59
5e
5a
e2
b9
5a
e8
bc
e9
4e
6a
e3
4a
3d
63
69
43
ce
6a
ab
e9
49
3
56
c9
e7
eb
62
e2
e1
e3
2e
48
25
c1
50
56
de
e5
b5
db
45
50
9f
62
e4
d4
ea
c5
e2
dd
d1
b7
4
67
67
54
d3
c9
64
de
b0
e8
b9
c8
d7
5f
d3
5d
46
a8
63
c2
e8
d4
d4
cb
4a
e4
e9
52
56
cc
68
cb
63
dd
66
81
57
6d
5a
af
e2
64
db
a4
cc
c1
eb
1f
5c
da
4e
45
d7
33
e0
c3
c1
e1
e7
d5
6b
40
d0
6a
d9
42
6a
5c
e6
d1
e2
63
5a
e8
5e
a6
ae
dc
5f
5c
68
ef
69
63
63
61
e2
e1
df
e7
e2
9
3f
99
ea
e2
4e
72
5f
df
61
4d
57
c1
51
e8
63
e1
52
50
50
e1
9c
51
d5
ce
64
55
26
56
e0
cb
67
51
ae
65
5c
6d
48
63
da
c7
d1
63
f0
f8
67
e7
d6
6a
eb
e2
b8
e9
63
e1
ea
71
f2
e4
4a
63
8
ce
2c
e7
5f
58
dd
e2
54
5d
35
d6
60
69
5
e2
5d
5a
e1
65
b1
51
ea
2f
df
e7
2c
c0
d9
5b
dd
dd
da
6c
49
5c
54
55
74
67
56
73
2b
67
64
b1
af
65
54
e7
e8
ea
b7
df
db
4d
df
cc
69
d3
55
54
40
d5
e5
db
53
e7
67
80
e2
10
c7
d2
e9
e3
90
ea
e0
4f
5c
e7
c6
56
e1
4f
5f
cc
bf
67
60
cf
a8
4d
b
31
71
66
df
69
d5
5c
67
d2
c3
3c
50
66
50
4e
e8
1e
50
e
60
80
79
79
5e
c0
0
60
6a
25
5f
45
c4
67
60
ef
69
47
d9
5c
e6
64
d3
ea
4c
e0
cf
68
81
d2
b7
c
a5
55
66
df
36
40
68
67
d2
5d
5d
63
ce
b4
d8
5a
d8
df
a7
ab
51
49
c4
bd
14
71
41
61
6a
dd
b3
62
e5
65
42
63
eb
22
d6
e9
e7
3d
cf
ed
b8
e0
d1
d9
c0
e4
d4
b8
45
5f
46
dd
5d
cc
44
5a
cb
5c
ce
b5
3b
2f
df
e4
33
e6
cf
5e
55
d9
58
67
73
61
e2
e7
e0
69
65
e6
6e
75
d3
68
bb
64
d1
df
54
e9
67
d3
e4
dc
d7
e7
39
36
cb
40
70
e2
ce
bb
65
50
cb
59
5c
d3
cb
e1
c4
2a
4d
4b
62
24
63
f7
f3
eb
e5
d4
ea
48
c6
b5
e9
a3
e8
5f
bd
c7
ce
e0
b0
80
5d
68
e6
63
be
b8
5f
5f
e8
46
61
48
cf
5c
cf
bd
65
65
5b
57
e9
6a
ea
e4
c3
eb
5a
63
6a
6a
e7
50
d9
69
b8
5c
42
60
6a
de
0
5f
67
c2
dc
65
42
de
ae
dd
63
c9
69
d4
29
2a
e2
62
ee
87
dc
ee
35
c5
64
c9
e3
80
de
d9
e7
e4
55
4d
66
4a
e2
6a
6a
2b
5c
61
65
e5
e1
c6
d2
6
dd
c
de
e5
d1
63
e1
68
56
69
9a
33
45
c8
63
5c
e4
62
d4
59
ba
6a
33
c1
5e
5d
60
d4
df
bc
61
d6
e5
c8
67
e2
e8
a2
5f
27
5c
cf
b0
c4
e0
d3
5f
e6
58
53
60
64
e9
5b
d1
63
d9
65
d6
54
d4
ca
b2
64
d5
42
6a
65
c3
e4
3b
64
50
6e
cc
cd
61
69
64
46
d1
e6
96
b8
38
a8
64
63
56
c4
81
5a
e7
b
c3
6b
c8
6a
67
42
cd
e1
da
64
1f
64
e5
de
51
37
e4
82
ed
54
ec
c2
55
e8
f2
e2
d9
e9
4b
e6
e1
d0
de
4b
d9
d8
e2
e1
54
32
ed
e3
66
f1
d5
d6
6b
d1
de
d4
db
56
4e
7b
cd
71
69
e2
61
73
3f
3f
78
d9
d3
64
f5
59
63
69
0
e5
68
58
c7
e9
e8
5e
e4
e3
ef
e6
5e
da
d3
b5
4b
d4
66
51
e6
72
47
e6
93
59
77
d4
5b
44
ce
5c
55
31
44
c2
da
de
b2
6a
3a
d9
2c
69
65
3a
4e
df
53
e7
6c
d4
e8
6c
c1
65
4f
6c
75
91
bc
2f
ed
5c
c9
53
2a
46
ea
50
59
f0
da
e3
1a
eb
d5
e3
47
3e
66
3b
e3
e4
e8
ea
ab
a4
52
56
44
55
61
da
ab
de
ee
bf
e5
81
e4
e8
5d
9d
c8
cb
f2
45
69
68
e2
d7
30
ba
dd
dd
d5
ea
64
d5
db
68
93
6a
60
e6
da
45
b3
b1
e3
ec
e3
59
d8
5d
32
49
4f
dd
c4
e1
63
4f
cc
69
62
61
e6
e5
66
ce
e1
ef
c8
e8
96
ef
c8
4a
14
6b
d3
aa
6e
48
55
5a
6b
6c
d3
52
4f
5b
56
eb
dd
d3
54
56
bb
aa
55
5d
d0
5a
e5
49
ea
3c
5d
5a
6b
bd
52
65
e6
e9
3f
dc
c1
d9
da
ec
e0
d2
ea
f3
bf
e3
ca
f4
50
ec
8b
1b
67
40
72
df
80
76
6d
e6
0
e6
58
ce
62
6a
6e
5a
5e
e1
e4
eb
5e
5d
cc
35
53
e3
6b
6a
e4
6b
5b
e4
5d
f1
f1
e4
d8
5b
dc
ee
e9
ab
c6
d7
6d
54
da
69
3f
be
38
35
42
ce
5e
ea
59
e1
e7
60
48
5f
4a
66
dd
69
6f
61
eb
e6
df
ba
42
e2
30
57
df
5e
e4
55
e0
e3
58
e8
dd
60
e5
d2
54
57
69
5e
b6
2a
f
df
66
da
e5
e5
28
cf
d2
5f
df
5d
53
f2
be
f6
53
eb
e2
a7
e8
f7
da
28
ee
e4
53
53
31
cb
62
dc
3d
af
da
64
57
ec
3a
df
61
43
71
64
6d
45
2e
db
c3
e8
e5
f1
53
b0
ed
f2
e0
35
d4
cc
d7
5b
d9
5d
d7
2d
e2
5a
ed
66
c1
ea
d3
e0
e8
68
dc
4c
67
dd
69
52
68
5d
66
da
5e
48
68
eb
6a
de
55
e8
67
4f
48
6a
5a
b3
e0
e5
55
e2
ea
ec
42
5c
ec
4b
50
ec
c4
4f
e7
d8
e3
3a
63
e9
5f
66
95
19
5f
4c
be
a9
eb
67
1b
e6
81
e7
60
cd
9d
ba
53
5e
66
71
58
ca
65
39
c5
52
5b
70
3a
6c
6f
b7
74
6f
d1
da
5b
de
5b
65
45
4d
ec
67
57
65
67
eb
6a
41
e6
e2
e4
6d
67
71
b4
43
5b
6d
47
da
68
5d
c0
5f
bf
1b
46
e2
f1
c2
57
da
4b
69
d9
e2
bc
ea
1d
d2
71
ec
de
9f
de
5e
dd
44
c0
61
68
4e
ce
65
c8
89
94
4e
c8
d4
5f
39
c6
26
21
ee
1f
c9
e4
b1
46
b7
eb
94
f4
e5
e5
44
cb
f7
db
c6
f1
5f
b4
5d
e8
4f
d9
ed
d5
df
e4
3f
5f
d8
5a
dd
11
f4
f1
3d
dc
69
5e
5a
26
e4
55
dd
c7
d9
4c
24
ca
60
e9
d9
5e
db
5d
8c
43
dc
ef
ca
43
e0
69
5e
33
b5
4c
c8
ec
b8
55
e0
68
81
59
5f
4e
c1
ec
f0
60
5a
cb
6a
42
59
6d
68
de
6a
4f
67
e1
e7
63
e9
3c
ed
ea
57
60
dd
5c
20
e1
d5
a5
e8
59
6f
e5
6b
dd
3a
65
d5
dc
8b
d1
d1
4b
55
e8
bf
52
f1
de
f1
51
db
36
e9
60
e9
c6
68
b6
67
62
ac
43
64
6c
66
ea
e7
36
69
b3
db
21
64
e6
27
e2
ea
d2
e6
e6
de
cb
67
85
60
5e
e5
63
e9
cc
96
4c
bc
5c
4e
a
d0
dd
e6
64
6a
66
61
31
db
ea
4f
e5
e7
5e
6e
6f
63
68
d7
c1
c2
c0
79
76
78
d8
54
d0
4f
c1
ea
e5
d0
80
db
5f
5a
69
de
cd
e
56
e0
65
4c
46
68
cf
6c
bc
dd
5c
bf
e4
e7
4d
ea
62
ea
55
c5
4e
dc
c8
d6
cd
2d
80
53
cf
d2
d2
61
d9
ea
e4
5b
52
e3
68
6c
45
c9
57
db
6c
65
e8
d1
dd
50
3b
58
60
71
56
66
d4
6c
6c
50
58
6d
c2
e7
59
0
5c
5f
81
5a
df
b7
c1
e6
df
4e
d8
20
de
64
f9
f2
d3
ed
ea
d6
d8
5
c2
6d
71
c7
df
c6
c7
49
ec
b5
55
76
61
5b
dc
c4
e0
ce
f2
5c
e8
58
9
e5
df
3c
63
dc
dd
5d
ba
ad
52
de
d0
53
de
be
3a
d8
57
e2
d5
ee
5c
dd
7e
5a
e1
2b
44
59
f3
e5
f1
5f
64
2c
d9
ee
0
ea
f2
ee
55
50
ea
be
e5
69
d9
4e
52
db
ce
65
ca
9
d8
5b
de
ec
cf
50
64
54
51
e0
38
5a
c4
ba
5f
45
64
59
41
66
b7
e7
e3
55
ea
ea
65
aa
c8
d9
e4
de
a4
fb
dd
ec
eb
65
57
2e
42
d5
c
d5
68
44
26
cf
4c
80
dc
49
e5
22
68
57
2d
69
50
51
dd
61
a5
5f
67
d3
66
76
6f
6c
58
63
47
b8
63
4c
d4
ce
8c
59
c4
ea
bb
e6
63
5f
6d
27
5d
60
6a
ea
ea
d3
da
dd
6e
57
b1
67
6e
5c
df
6e
5c
72
61
c9
e0
95
e7
d6
51
e9
e9
62
bf
da
c9
56
d5
ba
59
54
c9
53
6b
6f
6b
52
ea
69
e4
a9
e8
e8
5d
59
dc
44
cb
35
42
46
63
d7
d8
41
5b
27
59
5d
5c
47
69
55
74
d0
5e
47
5c
e7
50
41
5d
69
4c
69
1e
d2
c5
ce
2d
5b
81
45
e3
63
6c
bc
5b
1e
49
e9
c6
53
53
15
64
68
bd
d6
dc
ab
61
ca
5a
60
f0
71
81
df
4d
ea
f0
6d
47
bf
5c
67
63
da
d7
50
eb
b4
5b
59
ec
dc
e3
cd
e9
62
e0
c0
de
4b
64
65
ce
29
dc
bf
65
e9
69
e5
d1
df
57
d5
54
4a
e9
5f
d6
a8
b0
3d
59
14
44
55
de
68
f9
e6
ec
50
e8
4a
b2
6b
65
e5
dc
54
53
e5
58
3e
a6
ca
67
5b
e3
da
cd
c9
e8
df
d0
e9
dd
44
e1
60
e2
e7
60
59
59
4c
b0
60
e2
d3
55
4f
bd
6b
18
50
10
c8
d3
8f
57
53
62
5f
bc
da
db
2f
d1
31
5d
5f
ce
4d
da
f3
ec
5f
52
d8
67
5f
ac
67
b8
57
d9
66
47
62
45
e4
54
52
61
2e
e6
d8
db
47
38
61
65
e3
ca
e4
66
df
d8
f0
d4
2f
dc
6f
5c
f3
3a
61
e8
e0
e9
60
e9
d9
48
d9
ca
cf
3d
65
6a
e7
e0
e1
67
4a
68
42
a6
2e
6b
67
6b
70
6a
4f
ea
e4
63
d8
5b
4f
e9
e1
e0
cc
eb
54
df
e3
dd
d5
e4
46
2a
dc
5f
62
c7
6c
64
64
3c
4b
d6
e6
34
c0
46
6c
69
6c
df
f2
42
e3
61
5e
64
e8
4a
57
db
1e
6c
80
e4
ec
5d
e8
62
0
5f
d2
5c
41
5b
e0
b4
ec
64
ea
b1
ec
ed
61
c9
d9
e5
ee
4e
ea
5f
67
cd
4b
e6
25
62
dd
e7
36
e7
ec
ce
e3
ec
a9
6b
e9
3e
31
eb
db
33
9a
52
5a
de
47
e5
61
d2
64
e6
5d
57
5b
65
68
40
ea
5b
44
ec
28
ea
59
4c
66
d1
e9
64
a9
6b
de
e8
e0
5d
63
65
8e
48
e4
c2
40
47
e3
1
d1
6a
69
cd
e6
e1
d9
f5
4f
59
ed
54
63
ea
6d
75
5f
c2
df
db
64
5e
e0
61
cb
ce
5f
43
18
5a
42
e9
80
65
55
3b
c1
ea
d6
99
56
4f
ee
c0
4f
ec
e4
5b
e6
5d
ea
2c
6a
4f
cf
c7
46
b3
5f
a1
62
49
d1
e6
4d
3f
29
d6
55
dc
50
3c
a0
d8
56
e5
64
97
d4
60
e3
69
c8
e6
4f
d5
3d
65
4f
e3
3f
dc
e7
e2
d5
e7
e7
5d
e1
62
3d
d7
8
e9
d9
66
e8
d6
5a
57
e8
c9
d5
55
6e
e0
34
ad
61
66
40
62
64
58
e6
d7
5e
e7
c8
80
dd
9f
e3
80
66
58
5c
49
3c
cd
69
6c
35
c6
47
e6
e6
53
ed
e1
6c
39
e8
e5
e0
58
5b
e1
4d
5e
e0
65
c5
6d
6a
4f
6a
e1
e8
80
66
3e
e0
cb
a1
e4
4e
56
42
d2
e5
5b
40
eb
35
ab
f2
d0
c8
ef
6a
e0
d4
61
5f
55
64
4b
d5
a1
5d
b4
eb
e1
67
c7
db
24
d8
5f
e8
d4
5b
e8
de
63
b1
55
dc
9f
ba
eb
c6
6c
5b
6d
47
5d
41
de
6c
51
ba
d3
ec
80
53
eb
51
e9
51
4e
c9
73
f5
8f
d9
38
53
5f
65
4d
f1
25
e0
e1
e4
e0
ee
d2
4b
cf
50
db
5f
2f
36
cb
55
69
48
e1
96
63
d8
52
67
68
69
56
69
53
9f
96
b0
ea
80
6a
cf
e5
da
b3
e1
61
67
dc
ec
bb
cf
65
e4
df
6c
5c
5d
e0
9b
e9
11
4e
4f
e6
43
ba
9
48
de
5e
d8
63
5a
5c
5c
61
e7
d5
e2
56
ca
ed
24
4d
ec
e5
61
4c
6e
eb
d8
57
e2
dc
49
41
cc
d7
ed
60
65
53
e5
6a
66
e3
ea
c7
5a
68
60
59
b0
52
e9
96
5f
e9
e8
e0
e0
c9
e7
4b
f0
55
ba
ef
50
eb
b7
c2
5d
e7
6a
e
5d
56
cf
50
66
52
b2
51
52
5b
9b
da
e3
d7
55
55
e3
5e
e8
6b
62
e0
e3
61
58
e5
39
67
c2
de
e7
5f
3b
df
40
35
65
64
66
5b
3d
e3
5f
4d
5d
80
4e
c5
68
5b
e6
de
67
58
4a
68
e3
e3
4d
da
26
d3
66
e5
4d
4e
e9
e0
60
d0
0
c8
e9
c6
ea
cb
a7
65
c8
e6
62
e5
31
5e
63
ba
db
69
db
d6
51
6b
41
44
3f
ec
e3
58
b5
70
67
ad
16
e6
e3
65
d3
da
4b
3f
da
cc
dd
e3
e5
e2
3a
d4
e7
63
e5
de
cf
e7
5e
61
49
70
67
36
6f
b9
9b
d4
d1
eb
c0
55
51
18
60
66
a6
e3
e7
30
e2
ca
eb
65
df
eb
eb
1a
60
54
65
bf
e3
b1
41
80
55
77
bd
4d
70
45
41
39
c9
6f
6a
5e
e1
62
5e
db
95
36
42
e4
ef
ed
e7
d8
31
de
39
57
76
4a
d9
c6
e5
c9
60
1a
ef
e4
bf
ef
80
37
e8
ef
e8
d6
60
cf
6f
53
d3
4d
76
44
64
de
c4
5e
e7
61
61
c9
61
ed
30
4c
77
71
be
6c
66
67
67
bf
6f
dc
ba
e2
de
6e
e2
61
64
5a
51
6d
69
6e
66
cd
17
d4
69
5b
59
dd
b4
b0
dd
e6
d4
ee
e6
6f
37
e7
d8
df
e4
66
64
6b
d7
62
50
f2
ea
64
e2
a4
6a
e2
80
5d
e5
5c
49
4e
69
53
68
53
ec
6b
8a
e9
e4
e9
63
36
e
e4
e3
b2
ce
d4
ea
64
d9
e0
1f
e5
de
62
49
60
81
e0
c8
69
60
37
68
c6
d9
58
56
e8
55
f2
5
2c
21
c3
e3
d7
c1
ea
d9
e6
48
bc
67
6e
6f
3f
d5
25
62
df
62
4e
6d
61
5f
4a
e0
69
68
59
1f
e4
de
cd
df
db
46
80
58
cf
4a
c5
4a
54
54
d3
5e
cd
b4
59
c4
1b
dc
eb
5c
d2
51
aa
20
cb
e2
65
61
ea
eb
62
e8
b9
d0
cc
5b
5c
dd
d3
54
51
9e
cd
60
4e
47
4e
60
45
43
57
4e
ca
32
3f
d8
6b
e2
df
e0
e9
6a
27
52
e5
d7
5c
11
d2
bf
e4
5a
d2
d6
34
d7
e1
ae
e7
c0
ae
d4
ea
e5
71
58
74
de
d4
69
e2
e0
3a
68
e1
ce
b7
60
5a
53
dc
3f
93
63
b8
be
c6
dd
64
e9
eb
31
5d
6e
54
6a
65
bd
62
80
bd
67
67
52
e3
cb
d0
e8
e1
94
4f
6f
62
42
2c
dd
53
63
57
60
e0
6c
66
c6
49
6b
3e
ed
bf
43
64
eb
e1
d9
e0
4e
42
d0
4b
18
c8
f0
cc
f3
55
df
b4
f0
e9
cd
d8
df
e7
db
18
e2
e9
60
b8
ea
cf
66
23
a3
d0
2a
d3
dd
e0
db
2c
4e
ea
33
e2
61
d3
d0
ea
62
4d
da
ea
eb
e5
e8
53
5a
e4
68
da
d3
59
2b
d8
e1
ac
ea
b0
c2
e8
b3
34
a2
66
dd
4f
5f
58
68
61
e3
df
57
3c
66
8d
2e
d5
c3
62
28
5b
e6
e1
68
dd
d6
be
d6
56
bf
54
32
e5
bd
80
e6
d4
95
91
f1
d9
5f
aa
6b
6f
66
59
e5
50
e1
ad
62
6a
5d
33
61
47
4b
71
6f
68
44
24
dd
5d
65
cd
e3
5d
34
e1
60
2b
31
d3
49
62
60
f4
f3
f4
e8
eb
f1
e6
ce
ee
5e
42
44
eb
e4
e2
67
d1
dc
46
e0
3e
d8
6d
6f
c8
67
d3
67
d3
4e
54
d5
df
5a
49
5e
62
d9
e3
b1
59
58
53
a7
5d
5f
6b
d8
58
c8
d1
6c
2c
dd
62
db
58
66
d8
b7
ec
c4
a7
bf
da
5f
e8
de
e1
e0
e3
5d
28
cf
5b
4f
62
5b
62
d7
e6
cd
e8
4e
62
4b
68
e5
e6
d7
ea
52
ea
e9
de
f
c8
da
e3
68
df
e9
e9
5f
eb
d7
4d
68
d8
e6
4b
69
47
61
e3
5d
4f
c5
62
66
d2
e2
dd
64
6a
c5
66
e5
59
61
d7
53
67
31
d6
e5
3e
e0
bd
d7
5d
5a
62
e0
54
a2
59
e5
51
5c
e9
5a
3c
80
df
e9
e5
3b
e7
88
d4
62
3a
c3
57
e8
58
e4
5d
6a
db
52
54
df
e5
eb
a4
91
eb
e8
e5
d5
61
e6
e4
81
89
63
c8
ea
e3
5b
d6
e9
6b
e9
3b
c6
5c
e4
c2
e8
a4
64
68
60
d0
58
a6
eb
66
e1
e3
62
68
1a
d3
59
58
3c
c7
63
ce
9f
ea
68
d2
64
63
59
64
59
de
4e
2c
dd
eb
c6
c6
b1
63
51
e3
eb
d3
5d
65
e5
ea
5c
57
dd
cb
63
5e
c2
b4
6a
51
e9
d7
5b
e8
eb
3a
69
52
4e
bb
46
66
cc
30
d0
58
dc
b3
1d
5e
22
5b
dc
4a
da
d5
e3
e2
30
dc
c5
65
55
6b
cb
3f
6c
67
df
d6
c6
95
dd
d2
62
de
d3
58
c4
5a
5e
ea
6a
d7
15
5e
56
c6
e8
cf
54
d6
d8
6a
61
b3
55
95
e0
1a
80
72
0
71
3e
ea
50
f0
84
d9
f1
e7
db
ec
64
f1
ec
4c
ec
dc
3c
e4
af
62
5d
57
67
59
6b
dd
67
da
e8
5b
3f
56
4d
63
4c
65
35
0
68
53
5f
4e
df
64
de
d1
eb
bb
2c
e5
d4
47
70
48
d8
4f
c7
aa
e9
5a
76
69
6e
52
66
6d
eb
e3
5e
e9
e7
cf
66
5e
45
e4
bb
de
bc
62
56
ce
ee
e5
65
ed
d3
b3
d0
53
cd
df
cb
67
4b
cb
64
6d
61
58
4d
5f
cc
62
37
b6
e1
e1
66
5f
41
59
ec
a2
ef
48
e9
42
3d
e6
6b
68
5a
2c
d9
64
df
e5
e4
49
d6
5c
c7
62
ae
f0
46
ef
da
e1
ee
9
c7
e7
a1
68
e0
52
e4
be
b0
67
e6
88
61
61
d3
da
5c
59
c1
e2
dc
e9
6c
ee
d4
ea
ac
b4
d9
e3
61
0
64
e5
e3
68
d3
dc
69
e1
c2
68
e7
5a
e4
de
33
63
67
d8
45
42
e6
cc
42
47
6c
6f
62
df
a6
6e
4a
44
69
5f
60
6a
e2
5a
6e
67
6e
de
6d
e2
81
3f
58
44
ef
57
e8
80
4e
ca
d2
dc
40
d2
e1
b9
75
44
be
5f
ad
59
80
eb
9d
e2
4a
4e
e8
ea
e6
c5
c7
54
b3
e8
ec
db
5a
dd
db
57
dd
c5
e0
68
dc
62
3c
57
dc
e1
63
67
6c
dc
99
66
56
6a
5b
33
53
e8
b8
d8
2b
ed
ce
63
de
b9
f1
6a
d3
46
64
69
65
5c
ef
b4
30
50
1b
6e
70
52
65
46
50
69
4f
dd
d7
27
ef
c7
e5
e8
d6
e3
d1
cd
60
c9
9f
65
65
e5
e9
68
cc
30
e9
5f
69
4d
e1
dc
53
f0
d8
bc
e0
63
e1
72
6e
80
e7
e4
e0
f3
54
6f
59
dc
5a
34
65
73
eb
e6
e8
e8
80
36
5c
ed
38
e5
d3
da
de
d8
52
53
60
61
e6
5c
db
58
52
ed
59
da
dc
5f
e4
e9
53
65
ee
5c
c5
45
6c
d5
45
26
5e
d1
62
6b
31
64
27
5f
3a
c8
d1
45
48
36
5e
43
67
b4
dd
1a
c5
e3
67
aa
5c
e3
61
ad
ec
61
6f
a0
e9
ea
52
3e
bc
45
53
e5
58
b1
5d
d4
63
de
e5
66
df
5e
34
32
e6
14
3c
e4
d5
5e
ef
d8
5a
d4
69
66
67
6a
59
4c
a9
c9
d1
60
cd
66
4b
6c
64
5a
5c
ed
5c
25
21
58
6d
d3
e7
9d
5e
54
5e
55
eb
ec
de
ee
e6
64
ed
83
d0
5f
68
e5
e6
e5
66
92
68
d6
db
67
e3
ea
cd
dd
56
69
db
e6
d0
9d
35
4f
de
c6
e9
d6
5c
59
d1
59
e3
cb
56
c9
4f
61
62
1a
59
53
e3
4f
31
d6
ec
6d
43
ca
e6
b0
f0
d9
5c
f4
58
3e
ef
e5
55
d4
df
2c
53
ea
b5
5e
ed
c0
54
a9
e4
3f
b7
b6
ee
e8
d9
d1
43
e0
ed
e9
ca
de
aa
f5
ee
44
e8
3c
d9
e7
59
62
7e
6b
65
74
d3
6c
5b
46
9f
63
42
ca
63
ca
67
4c
e0
e7
e4
ea
dd
d6
e2
e1
63
51
e3
e3
cf
e8
49
aa
5c
68
e4
60
6e
e4
26
5e
67
e0
64
6e
6a
70
ec
56
de
e4
d3
df
ee
b6
cb
42
e2
cb
3c
58
5a
d8
4c
ee
cd
e9
e3
de
e5
17
76
4b
67
71
5c
c3
54
6d
67
d0
62
5c
e1
d0
b1
60
49
d8
db
c2
e0
e9
e1
e7
64
25
e2
e6
66
68
ac
5e
e4
59
42
cc
51
3d
ed
f0
e8
e1
f
65
bf
eb
cd
5a
ef
41
99
cc
df
4a
6a
df
22
8b
db
4f
df
5f
5e
e4
40
1f
51
d4
db
45
64
d4
ee
5d
65
b9
19
e3
c4
ca
e9
5e
ea
dc
e0
25
ba
d8
6a
53
e8
d1
e8
d9
ec
55
ec
dc
a9
54
f4
e5
2e
54
e4
3f
53
62
7b
6f
7a
c1
5a
6c
68
c5
5d
22
af
69
4d
6f
96
ce
c8
52
d1
54
e2
ce
b8
e3
ec
df
ea
4d
db
c8
6a
3e
42
5a
e6
69
61
ba
73
67
da
4e
da
3e
bb
d7
e3
ec
cc
ed
dc
ec
dd
ae
60
e5
5c
0
d8
60
62
c8
3c
3f
59
64
de
e9
31
6b
d4
cb
5c
82
58
d5
64
1c
45
d4
b7
e0
c7
ef
e9
52
22
59
de
60
3c
e2
d3
6c
de
ce
5d
5d
d2
6e
5a
44
52
50
e9
6c
d9
d0
e3
4d
48
5a
dc
d3
ac
d8
53
e6
e3
f1
65
56
5b
e4
ef
af
5a
cd
e5
50
e3
60
6a
4b
d5
5c
64
e8
5a
5e
2e
5d
b7
da
f0
5b
54
5b
6a
64
60
4b
60
4f
c6
e4
4e
62
cc
e5
cc
e9
c0
5f
45
59
6c
e2
d7
e3
6a
61
d2
64
e5
5d
49
34
48
d6
e7
6e
dd
2d
5d
c8
6a
da
d9
6a
67
62
4c
e6
4c
5f
59
42
df
dc
eb
62
d7
e9
81
d3
c2
67
5b
5f
62
64
d9
0
14
1d
3b
dd
dd
e3
f1
e8
8a
b1
ec
53
e0
69
62
69
6f
9b
44
63
dd
d2
ea
d4
e6
4b
42
62
6a
55
5a
33
65
55
65
e0
d1
ed
6d
eb
59
ba
4c
e8
b4
ea
e2
e1
d9
67
bf
e2
db
66
e8
68
ce
e2
ea
da
dd
55
da
e7
53
5c
60
e5
d2
58
ce
e4
aa
4a
f5
c9
be
ef
66
3c
b0
d3
9f
53
e9
e4
31
67
e7
e8
5b
e3
ed
60
29
ec
60
ea
5d
cc
63
57
da
3f
c4
5c
cd
db
e0
64
c0
64
6a
23
bb
69
4e
be
da
d3
66
4
37
65
c5
6e
e6
da
5b
e6
d3
e4
cd
68
ed
e5
e9
e1
5a
66
d0
64
49
50
d5
e4
c8
df
bc
d5
6b
69
de
66
5b
ea
ec
c1
e3
bd
32
e9
3b
4e
59
0
db
4e
55
c2
b2
34
6f
60
2a
6e
60
8f
4f
db
da
ee
f4
c1
0
db
cf
44
d1
dc
c1
4c
bf
5b
6c
c2
4e
ec
4d
e4
80
e3
d7
e0
57
9c
62
cb
d2
48
d5
d8
ea
68
c5
e
da
e6
e1
56
cf
cc
5e
3c
d5
86
df
6a
d6
c6
4f
63
cf
66
22
58
da
49
e9
d3
65
da
16
4a
bf
c6
22
56
eb
61
47
e7
bc
e9
3f
e2
58
60
49
60
ce
57
df
56
cf
5f
4c
65
56
e9
46
70
bb
e8
6f
e3
58
43
53
e9
6d
8a
42
4d
5a
59
65
d6
32
d1
38
ea
e7
40
69
db
de
d8
e4
db
b7
38
8f
5b
5c
f4
cb
e5
cc
c3
d9
e5
e7
e3
ea
e2
da
d5
75
71
3d
5d
5b
50
d6
6d
5e
7a
5a
cb
62
5d
ee
70
50
e8
5f
d4
65
5e
68
9f
e7
67
22
e2
35
d0
56
e7
de
64
44
f1
81
4f
d0
a3
48
46
61
48
f2
f3
d7
71
66
54
b3
69
f1
e9
bf
43
68
e6
27
57
c0
4e
be
3d
54
60
e2
4b
c8
dc
54
cd
d5
d1
64
55
66
e7
de
5d
cd
d0
d8
d9
e5
60
41
24
62
6c
ee
56
d5
e6
ca
9e
48
e2
56
67
d6
4a
ce
4a
c7
e1
eb
e3
e6
c9
1e
61
aa
6e
69
57
50
e3
a1
5d
d0
69
e1
43
e1
9b
cc
61
52
67
e9
cd
d3
ca
da
34
cf
6e
a9
d9
79
47
48
60
e7
de
6e
c8
d7
6a
71
67
2d
5a
d
e1
5b
df
c6
e9
6a
df
c7
4b
66
e8
d6
be
80
c8
8f
c0
e7
e9
39
40
b0
27
e7
3b
d5
69
9e
63
5c
e6
c2
dc
d9
d7
eb
e0
ce
e6
55
e6
e1
be
e0
e3
db
ee
5f
e5
31
e4
d3
3a
50
89
e3
53
62
38
c5
cb
63
68
da
e3
5e
65
e9
d5
69
d2
eb
e2
68
c0
d5
46
69
55
d3
61
c5
4d
ec
b4
59
44
6a
5e
e9
c0
61
5f
d3
cd
5c
69
5d
67
63
5c
d8
65
a2
47
4d
0
29
5f
dc
64
dd
d8
56
c8
e6
55
dc
5f
dd
65
5f
5f
ca
1d
4d
d5
d2
54
e1
35
c8
69
1d
d3
54
e5
58
e3
3c
dd
d8
59
5c
22
68
3f
32
c7
e3
61
e6
c9
50
42
5a
e6
5a
be
ea
2e
63
db
cb
5e
5b
5e
3e
da
c8
cc
5d
eb
6b
de
63
e1
69
dc
e8
37
62
e4
49
cf
ec
56
5b
60
37
4e
c1
68
44
c6
df
5d
c7
ce
d6
42
53
e7
64
e8
5c
cd
48
e5
d1
65
61
54
68
af
c3
5f
dc
ea
e9
c0
67
6b
da
e1
6c
da
4a
6f
dd
eb
e8
d8
66
57
67
be
d5
58
59
64
e5
61
ce
37
4c
e8
65
5c
d2
3d
59
5d
8e
69
e3
e0
b5
ca
59
68
65
b0
ca
e1
68
3d
d4
ec
1f
32
d7
eb
eb
52
54
80
b9
9d
d5
64
59
b3
58
d4
da
1a
62
e7
5a
5f
d5
ea
d7
ef
61
ea
b0
dd
d7
dc
dc
e9
da
67
44
e7
9d
d2
64
d7
da
56
63
e0
5c
cf
e1
63
c4
50
bf
5a
6e
56
6d
63
a2
65
e5
e0
d7
d1
d1
67
db
dc
eb
c2
4e
66
3b
e9
a3
41
d4
36
eb
e3
61
e2
d7
69
59
ec
d0
d8
67
53
5c
66
5f
e
42
e7
4b
47
e6
3c
4d
66
6b
d8
dd
66
60
b8
df
5c
d4
ee
ee
e8
cd
5a
bf
69
bc
56
e5
4b
e8
21
8e
da
d2
4b
67
6a
ec
f1
d7
5b
65
ca
5b
6b
5d
a3
e5
bc
60
de
50
64
5b
ae
e8
a1
f
6c
39
ea
d8
6b
68
e8
bf
c9
e0
e8
45
b6
e8
57
4d
43
cc
3a
67
61
53
50
ea
5d
66
e0
3e
ae
ea
ab
59
54
54
de
d3
4d
5d
de
50
54
d4
e6
26
df
e4
9a
c5
dc
db
62
e8
e1
dc
67
df
d8
d5
56
eb
dd
3b
e5
e6
68
d7
45
d1
e2
6a
cb
33
d2
6b
5f
e3
d9
68
dd
da
4e
e5
d4
17
54
c9
e5
73
d9
6d
6a
4f
dd
ce
3b
d9
47
6f
d0
5d
cd
68
bc
ce
4
69
3a
58
cd
e4
e4
e6
51
e1
bf
4a
0
66
ce
63
e2
5f
44
e3
6b
b3
61
63
58
eb
de
63
dd
e3
5d
41
91
ef
66
66
40
0
db
db
64
5d
57
67
e3
5f
d2
5f
d8
60
5d
ca
cd
62
e7
d6
a2
64
e1
d9
d4
d0
e4
e6
28
e8
e9
d2
2b
44
48
66
bd
de
d2
e3
d5
e3
49
c8
e3
ac
e3
61
e8
2c
f1
96
da
df
dc
f1
e3
cf
3a
66
71
e6
49
47
51
d8
e3
64
d5
49
6a
55
5c
30
e0
e9
5a
5b
e4
df
64
5b
c7
eb
42
1f
1b
e8
b9
e8
e0
60
61
4f
c6
5b
d4
19
ea
e4
e7
e8
52
e4
d4
50
64
54
ec
eb
ea
69
5c
dd
56
4a
dd
e1
5c
c9
e0
60
ac
d8
ec
40
e9
9a
e1
57
cd
45
88
48
3d
dc
67
5d
61
69
66
d9
5e
40
60
e9
d2
60
e3
67
a5
e7
66
dc
57
e5
df
e9
65
e8
66
cd
c8
cd
a3
5c
da
2b
48
da
68
d2
5f
dc
57
66
d5
b9
68
aa
cf
e1
e3
5c
60
e9
e7
13
91
54
41
5e
e7
d7
da
57
cf
56
6e
4c
ed
6b
44
b2
db
d6
68
43
ba
4a
e4
5f
60
bd
63
e0
b2
ca
4b
b9
e1
55
24
64
4c
4d
c7
e2
67
59
75
41
36
6b
65
48
ef
db
49
d0
66
e3
dd
e6
5b
2d
ee
e7
51
47
69
ea
30
ea
be
52
d9
63
db
55
96
dc
68
8a
49
35
66
b9
83
bb
e1
1c
be
55
57
dc
de
57
4d
d9
44
ed
ba
e9
6e
75
d6
e8
cc
b9
6b
e7
e2
64
de
49
60
ec
67
80
57
e4
9a
ca
69
cd
e0
59
e3
e9
ec
68
d5
e1
e4
8b
63
3e
e4
4c
5e
e4
df
e2
e4
dc
e7
3f
4b
a4
20
64
db
65
45
66
dd
bd
f0
f5
f3
be
e7
e7
ec
c2
75
65
64
e5
d2
e8
52
df
4c
ee
6b
74
66
e1
5c
37
a9
3e
67
e1
e7
e2
d4
59
ec
8a
64
db
df
c7
69
5a
4a
d8
43
48
de
3d
40
59
ea
5e
e6
e4
eb
4d
d9
ae
d9
4f
6a
bc
d0
58
e4
5e
56
b9
57
e0
d3
48
65
ce
65
df
d5
53
36
5e
e4
df
eb
e2
49
56
41
e7
d2
c8
5c
ba
46
e9
d1
aa
52
e5
c6
50
e9
d4
d0
dc
d5
e5
e1
ca
e6
53
df
66
db
24
cd
34
d9
e9
64
dc
53
60
eb
aa
d9
e8
2f
4d
48
ec
63
e7
52
de
5e
51
e7
de
ec
c1
a8
e0
e8
5e
e9
58
61
4e
df
40
dd
35
e9
db
5b
61
4b
4d
ca
bd
3d
57
6a
e0
66
40
e1
e9
ba
b9
c9
d9
80
4e
ea
de
f
5a
a9
db
4e
bc
d3
e5
d6
70
70
e6
a4
16
a3
e3
6e
4c
68
bc
64
5b
5c
ea
5e
e9
bb
d3
e3
5e
36
dd
af
70
51
ed
69
56
db
ca
ea
61
e4
4b
e4
e5
33
d4
eb
e7
5e
67
63
5c
66
e7
69
be
40
39
4d
52
a7
d6
dc
66
60
60
65
e4
e2
65
e1
db
dd
db
ec
67
56
81
dc
69
60
af
e1
57
d5
e4
62
57
e0
e2
dd
dd
b5
60
81
ba
b4
dc
e8
d5
66
51
57
e4
c0
60
e5
e7
e8
84
e4
e7
4b
c0
e4
eb
e7
e6
ea
45
e7
ba
4d
3a
66
5c
54
68
68
ea
cc
46
d0
54
e4
65
5c
bf
38
5f
bf
c6
eb
e8
ca
d4
e8
64
df
e6
de
d5
e7
16
e6
e2
bf
65
43
e2
3e
e4
68
e8
43
e9
30
41
be
b5
ba
59
e3
5c
a5
5d
e7
3a
b4
ea
da
df
25
67
80
63
65
3a
e5
ce
5f
dd
55
61
5b
e9
e9
52
5c
55
6a
49
2f
dd
b8
57
98
50
eb
3e
5e
98
d0
65
b7
e5
d8
4c
53
30
4b
5a
e6
e0
44
e3
e9
67
df
e3
e4
89
db
3c
6a
c5
cd
e9
60
d9
53
44
6b
69
63
d4
40
4c
44
48
cb
51
e4
ae
5c
5f
4a
10
bd
ea
1e
e2
44
9f
68
4a
cf
d8
5c
6a
d6
66
aa
51
a6
8c
4f
48
c5
64
1e
d3
e5
e6
59
d8
84
57
e0
6b
64
bf
d5
5c
5c
de
63
d0
e3
ec
5d
65
e7
44
63
e8
54
ea
55
e1
b8
cb
a5
47
e9
da
66
ba
e5
e6
51
db
df
e5
5e
da
4a
5b
48
62
cd
d4
db
e3
e5
66
e6
df
b5
35
65
5f
e0
e4
43
30
43
b7
54
6f
ce
64
36
5d
52
60
4b
6e
43
da
f2
e6
6b
cb
e8
e2
60
6c
5b
e5
d6
10
66
69
62
48
66
ea
f1
b9
e1
d6
d2
42
dd
5c
2d
e2
c5
5e
eb
60
b8
51
d7
d4
d8
57
60
28
57
4e
e5
4e
d3
ec
d8
92
73
3f
e6
65
59
d8
5d
eb
44
2e
c7
38
db
63
be
80
dc
d7
5b
66
3e
56
54
b9
d7
64
48
df
53
5e
65
c4
d8
cd
5b
4b
e7
44
64
a9
be
4f
8c
60
c4
4d
49
62
48
e1
68
e1
57
e3
62
dc
e0
e9
43
33
a7
62
37
d6
e7
ec
39
ec
e3
8
66
4f
de
da
e1
df
58
d5
ee
ea
46
e4
e7
b4
c3
65
89
d7
df
4e
e3
70
65
0
57
62
54
d2
51
61
6b
c9
6c
61
47
68
e0
c1
4a
af
68
cc
e6
69
60
e4
b
59
cf
e5
5c
ab
1d
d3
e1
cc
e8
4b
58
e7
d6
68
e7
53
53
eb
e6
ef
6d
4c
c9
66
e3
af
e0
e0
66
39
e8
db
56
ce
3f
cc
e7
e7
51
58
68
68
d8
5c
de
1a
e9
df
4c
60
d9
e1
46
ed
64
d1
31
e0
d5
b3
5a
db
df
e4
d2
ef
5b
bf
3d
d0
5d
3f
5f
59
ec
dc
e8
ea
bf
69
bb
eb
61
5f
ac
51
be
31
c3
a4
dd
e0
ec
dd
e4
d5
e8
d8
50
d5
e5
f0
eb
d3
6
a6
e5
56
4f
78
40
61
6c
ea
b2
4a
59
dd
5f
e1
ea
dc
d3
c1
42
c2
0
dd
2c
bc
4b
eb
80
e6
f9
60
70
df
6f
6c
e1
66
d7
c7
d3
bc
66
81
e9
db
65
54
e1
81
c3
61
61
81
63
d3
d8
dd
4b
e6
ec
d5
d3
f0
a5
eb
2c
b2
36
60
61
57
e7
5d
ef
d4
cf
dd
e7
e0
65
ef
d8
81
e5
e9
de
e7
db
c8
eb
e2
60
a1
61
37
65
5e
c3
c5
59
9b
e7
e0
65
ea
0
e3
e4
63
54
3d
eb
52
b0
d2
c8
ad
35
59
67
d2
54
a5
a8
3c
66
4c
d1
d4
d1
e3
40
52
f7
41
eb
f5
df
f0
5c
59
bb
53
ca
dc
c3
40
bd
d1
41
43
d1
b4
e7
e1
e4
66
63
9b
ab
60
dc
d9
67
e1
5a
7c
54
5f
75
48
69
6f
60
46
69
68
5e
4c
49
53
ab
b2
e6
dd
6b
57
50
70
6f
c0
4e
ec
dc
2f
df
d8
d4
bd
e5
c1
eb
fa
d7
70
40
f8
49
e2
dd
56
c2
61
e7
4d
d4
33
32
57
e7
50
5e
cb
d7
a0
60
c3
e6
ca
df
5b
64
33
e5
d2
d8
d3
da
e7
d6
4b
ce
cf
48
63
de
4e
40
5d
d5
61
65
e3
5b
81
64
6a
52
48
bf
d3
41
e4
d7
d1
c2
b1
60
a7
42
6e
63
d7
66
df
59
e7
64
5f
d6
c8
dc
63
e1
e6
e3
5f
59
d1
dc
80
c5
5d
70
69
d2
3f
44
bf
66
cb
d5
ce
70
57
dd
3c
d0
d8
5e
e9
e7
3a
eb
4a
cb
d6
e3
5e
b5
70
d9
56
77
62
d1
5f
e3
54
67
68
56
db
61
5a
ce
e9
66
69
b3
62
62
59
d4
ec
f0
57
50
60
d8
52
58
cb
f3
d2
ea
de
e6
e8
c9
5a
48
61
a7
d0
5c
3b
da
70
66
58
cf
e0
af
1b
6a
55
4e
ea
de
c8
e6
b8
62
c9
cb
e7
65
69
d7
a3
b7
67
c8
9f
5c
3c
53
69
29
cc
e6
65
db
65
69
6a
3e
5c
d8
6a
64
e9
db
e8
49
62
de
c5
4e
e1
b9
e8
5d
cb
f1
f0
bf
e6
5b
1d
e3
45
6a
e8
69
e7
36
ba
3b
de
5f
dd
c9
cc
17
e1
66
57
d9
4d
e2
cb
99
e0
3c
58
5c
6e
58
be
31
c9
c8
e6
43
be
a7
a6
61
46
5c
d0
de
e6
61
c9
d9
e6
4c
ce
bc
d9
57
3d
4a
68
e1
ec
4d
cb
e8
e7
30
3c
d6
ea
6a
bd
c6
5a
d1
d9
65
5d
58
e9
ea
c7
60
c9
13
ec
da
46
e0
46
e0
66
38
2e
5d
81
41
51
dc
d0
e7
c8
5d
ec
39
65
3d
df
e4
58
6e
6a
5b
d2
c9
47
d8
46
e7
c9
80
81
e7
63
ea
d6
59
e7
6a
4a
d5
64
d1
ee
d9
60
42
d9
59
e8
e1
57
66
d8
c0
c4
e5
e7
c8
bd
c7
e7
c2
57
e8
d8
f1
aa
81
ee
ad
73
57
5f
cb
ce
66
e8
70
92
54
64
4f
81
52
af
de
da
d8
d5
d8
ca
66
5c
56
e0
d5
e4
4d
dd
62
5b
df
e2
63
67
cf
57
50
60
66
64
d2
cc
e0
61
69
5e
63
c8
6a
b6
44
c1
e8
67
db
45
c5
ef
e2
e2
51
cf
59
53
e8
eb
c8
e1
a6
eb
db
bf
c7
dd
da
e9
53
d8
48
cb
60
e0
59
e2
d8
54
60
e8
e4
6e
6c
d7
b9
6f
57
e8
de
eb
e3
db
ed
d3
e7
dd
ec
dd
c2
c9
50
e1
63
ea
36
33
da
71
da
c8
2c
e9
de
67
db
d5
5f
df
33
ce
e0
db
63
d2
c8
4c
6a
dc
e7
9d
b6
e8
56
e2
df
d5
65
66
de
e2
d0
e0
cb
a1
dd
ef
c3
63
d5
d1
47
5b
1e
69
4a
62
e5
35
eb
d4
de
80
e9
60
6c
66
d1
61
5d
65
1a
49
5e
b6
6e
6d
a8
62
dc
e3
d7
ea
44
d8
51
e0
be
c8
3f
e8
e6
ce
6a
e1
e3
d4
d4
68
50
9e
4f
d6
4a
37
db
65
6a
28
db
cc
ce
48
cc
d5
e5
d5
50
4a
52
5e
2f
61
56
e4
a6
26
62
f2
2e
52
57
59
e4
31
b9
8c
cd
61
d7
64
e5
43
46
e6
47
db
b4
dd
de
db
47
5f
5d
ca
db
69
e7
67
e2
b8
e9
59
ed
56
48
ea
29
65
db
4d
3d
65
e3
5e
ea
e0
4e
e9
b6
66
6c
e1
e8
6d
60
6e
66
cb
dd
11
4e
52
e4
80
60
5e
c3
ee
b7
6c
dc
da
e9
51
bb
d8
e4
53
d4
0
69
dd
bf
62
ca
51
cf
dd
69
e5
47
b5
e3
cd
e4
5f
62
3c
e2
53
5f
ee
d8
49
6a
e5
7
5d
f1
62
5e
c1
d6
c9
d8
56
4f
65
ca
5b
d9
cb
3f
68
e9
df
69
45
ea
cb
4b
e4
6d
18
3b
df
c4
e3
59
db
8f
2d
d1
a9
6b
a0
67
eb
e7
ea
e2
e0
e6
58
e7
4c
5c
ba
c4
64
18
e4
6a
6a
63
b8
73
df
db
a
e4
db
5d
e1
e
0
ca
28
ea
37
80
2a
2c
44
54
5c
2e
e8
69
6a
54
a1
5d
b5
d2
ae
22
67
dd
68
e7
e5
4d
54
cf
ca
d0
c8
d4
64
80
d3
62
e1
35
6a
56
65
e6
0
63
57
51
ce
af
be
63
80
6b
c8
3c
e7
6d
61
5c
53
d8
e5
be
46
45
3b
6e
f1
de
65
d3
e6
62
da
c0
d4
4e
67
5f
ee
65
be
cf
af
cb
dc
68
b4
4c
52
67
b3
e6
df
e8
61
58
5f
61
d4
e7
70
62
c6
64
57
db
e7
e8
6e
c4
e2
6a
d5
e7
66
a4
54
b8
e0
6a
d6
39
d7
e4
3b
5c
c1
59
e5
54
6a
c7
6b
b2
ed
4b
e1
de
67
e6
e2
4a
c5
de
df
6a
41
ee
56
d4
e5
c3
6f
d6
c5
d5
69
e4
ca
51
5d
68
e2
4c
63
5c
47
e4
69
c3
46
49
5b
e3
5b
d7
e7
36
c0
e4
e2
60
b8
e7
cb
eb
46
66
3d
55
4f
60
e
30
ea
d8
da
51
6e
61
34
bc
69
a2
5e
f0
65
e3
e8
5a
16
68
d4
c7
6b
68
da
9f
ca
eb
eb
e4
43
5e
d8
d4
cd
54
b8
c8
d1
63
e6
35
67
65
de
62
35
c3
ca
b7
46
60
58
c4
5e
4a
db
5d
ce
6a
37
ce
de
61
45
c4
67
3c
d0
50
45
ca
4f
a0
cb
5c
59
e7
c3
dc
61
e9
55
c2
d5
68
46
5a
69
f3
df
59
e1
c3
ee
f0
6e
5a
ef
6e
dc
5d
64
e6
38
dc
eb
c7
e0
b6
e
d8
68
67
e3
5c
5e
c6
3e
dc
61
e3
ac
db
56
41
4a
5e
c6
da
3e
4f
4a
6a
63
dc
62
65
5f
67
1a
e3
6a
64
da
cf
67
44
6f
59
d9
60
63
98
62
50
ee
e8
b0
f2
55
64
e7
15
2
9d
3a
64
80
c4
e5
df
44
67
48
db
e7
6f
bf
53
60
35
62
d6
e9
b2
e4
e6
64
e9
a1
b1
59
52
e7
cf
c1
5e
b9
af
65
66
ec
d3
64
db
ad
55
e6
d2
58
65
b7
57
d9
c3
e9
5f
61
5d
d4
47
60
c1
44
f1
50
d5
e4
c6
59
e6
e0
ec
43
d4
cc
6b
63
d5
5c
dd
dd
b2
60
e9
e0
64
3d
d7
da
37
9f
a1
55
59
62
e0
db
d3
5d
d4
ec
4b
70
6f
ea
60
5a
c6
6e
a1
80
52
5e
da
e6
bc
a8
11
6b
5d
dd
df
47
d4
e4
50
e8
d5
69
bf
dc
55
6f
cf
db
5d
5d
5c
48
41
dd
41
cb
ef
63
e2
dc
f3
e0
ed
bc
68
3c
6a
63
0
d6
5e
cc
66
e1
cd
6a
c8
ae
6a
48
5a
c8
4f
e3
cc
51
59
e4
d9
5c
e2
cf
51
9b
5a
c5
59
58
e0
e4
e7
55
d3
da
ed
3b
62
77
e9
55
49
ea
69
70
64
5a
d9
65
e5
aa
cb
66
5b
de
d4
e4
e1
17
f0
c4
2a
cf
8f
4b
17
68
60
43
36
6c
d6
5c
2a
dd
3e
2c
e8
47
8a
69
63
6a
64
ca
d8
58
54
d4
3f
db
d5
da
a9
4f
5e
60
af
ca
e5
c1
e1
31
d9
d7
5a
5f
60
67
e4
d2
da
57
c2
e2
5a
e2
59
6e
7c
68
68
72
4f
5b
7e
e3
e1
ae
f4
5a
e6
ed
44
ec
c3
b2
de
44
e6
e4
d1
e0
df
6f
42
5c
e9
68
d7
46
50
d3
63
31
e5
d1
67
5e
5c
e7
2f
f0
e3
a8
da
bf
e3
e4
d3
4d
4a
42
d0
ec
ee
ec
53
c9
90
53
c8
e5
63
e6
d2
bd
dd
66
be
6a
e9
4d
50
e3
e2
ed
dc
63
e7
e7
b9
65
da
32
d5
5c
6a
55
6d
58
3b
48
eb
e4
51
5b
54
53
74
dc
5d
53
6c
d1
68
6c
60
57
5
55
e1
db
dc
e4
84
d7
ed
bf
f1
6d
60
ce
cc
f2
ca
44
d5
f1
76
65
80
3b
cb
80
c1
d6
e0
52
4f
b8
37
d4
6f
af
67
2a
57
25
be
65
d8
e8
cd
6c
57
80
68
6c
f0
d0
f2
9c
3b
cc
6a
d1
5a
c2
cb
eb
4d
54
d9
76
b7
da
c3
6d
5b
e5
60
1f
e7
6c
68
da
80
59
e9
d4
cd
53
40
e4
43
e0
69
ea
dc
c5
59
43
e7
5e
68
b5
aa
58
df
6b
69
6e
e0
5c
6a
32
d6
60
dc
20
65
e6
0
ec
5c
d7
e0
49
59
2d
df
bc
25
e3
65
d6
e1
4a
6a
dd
e6
5d
56
44
5f
d2
ea
67
5c
63
e9
d9
52
37
5f
df
ea
cf
64
e4
29
6d
5c
52
6c
5b
e5
9e
e8
e3
e3
e4
db
54
69
31
e5
e8
d6
63
64
e6
e3
60
aa
61
b2
c9
64
67
5e
a6
69
f1
ab
43
56
d4
90
bd
e4
e9
5e
62
67
a8
e6
61
ce
cb
5a
56
ce
dc
eb
69
5b
f0
a7
e9
5e
61
38
e5
6a
d9
27
68
de
df
ef
e3
f3
e5
e4
fc
ed
f0
db
da
d8
db
de
ce
54
49
d3
cf
6d
be
6c
6d
de
e1
63
5b
57
eb
53
2d
bf
da
eb
b9
49
3e
e1
62
ca
d0
5e
cc
4f
50
a5
3b
ea
e0
5f
3d
6b
41
64
61
d0
5e
e7
40
d6
ce
58
da
d9
5f
d3
c6
6a
68
5d
60
5e
43
70
dd
3e
cb
65
63
e0
32
63
db
5a
e2
5d
6e
e6
12
79
e8
56
4a
ea
e5
b7
c5
4f
c0
cf
5b
cd
6d
61
6b
5d
69
54
f2
dc
e5
e7
e9
b1
f2
da
e8
2b
5b
d9
ce
a7
41
60
70
69
5d
66
6b
e1
69
b5
67
b7
59
eb
cb
3e
68
9d
52
65
e1
36
bf
25
4e
6b
68
44
d6
da
64
ed
ec
d8
cd
d2
d4
e8
c2
ae
e9
53
e6
6a
bb
ee
df
60
d8
41
60
d5
5c
67
67
57
5c
e4
67
0
61
e4
d9
57
cd
eb
d1
cf
60
59
53
d1
42
66
62
44
56
e9
da
67
61
34
57
e4
67
d7
d4
6a
db
4e
ea
e2
35
8c
cd
c9
68
5e
5a
e0
5f
d9
63
eb
e6
d4
96
da
9d
eb
5e
27
66
6a
e0
b1
46
3b
44
69
5a
d9
f0
eb
e9
c0
ee
c5
dc
cb
e2
aa
59
54
d6
51
ab
c9
76
ea
63
58
60
68
d6
c3
cb
45
e5
c4
a1
e6
36
e0
5b
ea
eb
e7
4f
d3
4e
e5
db
2f
65
30
5b
ee
b9
e3
e6
59
a8
2e
e4
45
e0
e6
e5
b1
4b
60
ec
e1
69
d4
e7
e9
63
81
9d
67
ad
47
e4
41
65
69
c7
6c
4f
93
c7
60
63
ad
dd
53
ce
6c
5e
df
5e
dd
de
e0
6c
d5
ec
41
67
37
e0
65
63
de
5c
99
67
52
a0
81
de
39
ed
e4
6c
b1
5c
e5
e0
c3
d9
27
75
c2
62
73
4d
6c
3f
31
cd
7b
5e
6c
ca
c2
50
de
64
d8
dd
de
62
5d
e3
63
63
5e
e3
e9
14
e9
64
49
ca
72
5d
3f
7b
6d
52
fc
9f
e3
f8
b2
60
e7
59
69
6f
ea
e2
69
ec
e3
d2
f7
cd
e8
56
6a
db
6b
61
24
65
63
e6
d1
ec
61
e6
d2
5d
e4
f0
74
d9
dc
56
69
65
5c
51
d6
64
e0
e5
65
ca
57
61
68
dc
5a
61
d7
be
b9
e9
49
56
4e
e8
f3
d1
d0
5a
6d
4f
d3
d7
46
ed
46
56
5e
4c
6c
c3
5b
66
54
d9
49
59
4e
66
e7
58
3f
63
60
c5
50
52
a3
4f
67
69
e5
bb
2d
cd
46
4c
e2
e2
c0
5f
51
49
2d
e4
57
5b
5a
66
65
f
64
e4
de
ce
e9
47
be
ce
ea
1f
f1
59
d0
43
58
e3
ee
e5
ed
64
52
e9
f0
a3
4b
64
6b
69
4d
68
c6
47
38
66
d2
50
58
de
c7
42
5c
62
e7
ac
a8
4d
a6
64
66
62
2a
d2
ea
ee
e7
c9
ba
dd
9c
de
cd
62
d2
d7
56
d7
60
5d
d1
36
d5
db
46
43
d1
ed
66
9e
4a
4f
e1
e0
40
35
3e
c2
c9
b8
bd
68
6d
cf
4a
d8
d8
df
e5
db
ca
56
e8
e4
39
62
c9
62
61
80
69
e4
e1
5d
d4
5b
50
da
e2
2e
f2
5b
5a
43
df
ec
b1
62
e7
67
d9
57
d4
58
e0
e4
df
be
e6
4b
3c
38
ef
62
4c
d1
6b
be
4c
e0
d6
c1
66
d3
e1
66
57
55
56
c9
66
bd
f3
d5
69
ec
4c
3e
61
60
dd
50
78
99
c5
67
6b
17
e5
58
48
e2
62
6c
9
43
5f
eb
c1
3e
e5
e4
e6
c0
62
d5
ed
66
d6
df
d5
61
ef
dc
dd
ec
9f
ac
dc
c9
d6
21
50
66
e6
ef
d9
5a
22
dd
dd
b0
dc
ea
28
d5
c3
e5
ea
c1
e5
df
68
2f
61
1d
69
e4
44
54
64
8e
70
e8
dc
63
e7
c7
59
5
49
d6
df
50
b3
3e
41
da
dc
dc
e7
53
63
54
64
31
3c
e2
e1
e0
e1
6e
db
e3
ab
e5
5d
d9
e3
d4
68
56
e1
e4
1b
4c
43
ea
39
d4
e6
db
d1
9a
92
d7
4d
c3
5b
59
e5
e5
c6
65
ea
4f
e2
6a
c5
e1
49
2e
e8
6d
d2
63
eb
65
dd
da
dc
e4
bb
63
6c
bd
46
6a
5e
61
68
c5
4e
67
57
d2
57
d9
de
63
31
62
74
40
9e
b5
6c
d3
5e
4a
cf
ef
4b
69
e8
96
69
ca
aa
12
5b
61
5a
e0
67
58
60
ba
9a
ee
37
db
ea
cc
65
e8
46
31
49
cf
e5
d9
c6
5f
d9
5b
48
a9
de
5f
5f
62
d4
64
6c
b0
5f
db
e3
df
ca
5a
23
66
ea
ec
e1
32
e9
59
e3
0
d7
19
5a
67
4a
cb
4c
69
d7
69
46
53
64
70
64
c6
5d
d5
65
ea
5c
e7
5a
e4
cf
cc
66
e7
bf
49
df
60
57
dd
52
2a
6b
65
d5
e9
ea
19
ec
ec
e5
eb
54
80
d0
e5
59
65
58
30
63
40
48
45
6f
d0
b2
63
64
d3
e5
e3
dc
d8
e9
e8
3f
55
ea
95
64
6a
e7
63
e1
cd
26
a2
54
4d
80
d3
62
44
80
e5
be
81
69
e2
d1
6e
e0
58
5f
66
e3
64
6a
50
33
33
dc
e4
ca
5b
e2
ba
e6
d6
43
62
46
68
e5
57
c2
da
ae
d5
ce
b8
e1
e2
37
da
55
53
35
e0
2a
d0
52
9d
66
de
56
cd
67
e9
de
bc
e2
56
e4
62
ea
d6
55
e1
e3
c7
3a
68
64
5d
4a
e5
5b
69
e7
c7
2b
cc
ce
59
9a
ca
60
c5
dd
d9
5e
ec
e4
60
e9
74
c6
63
4f
b5
ba
dc
6e
b3
55
6f
68
5e
64
56
69
55
67
1b
45
6b
bb
c5
df
50
c7
cd
5e
3f
e2
e2
87
58
bb
d3
5b
e7
69
3d
2d
82
e3
60
49
d3
ea
d1
c5
d1
64
c6
e7
e9
e4
65
55
ea
48
45
e3
30
eb
ca
6c
69
47
5b
d3
3a
55
68
69
46
67
6b
d8
b6
69
59
c3
45
e4
de
9a
5a
65
5c
6c
e4
de
6f
66
ed
d7
d8
e1
d8
9e
5f
e9
c5
ea
e7
eb
5c
ea
66
dd
49
e2
c3
5f
b5
81
e7
de
62
6e
69
d8
e2
e3
da
f0
eb
ea
e1
67
e5
47
56
3e
0
6b
61
e1
80
42
5e
d7
56
ee
4f
e2
68
68
e6
c5
56
e7
23
6d
32
dc
d2
56
63
ea
2d
3f
cd
65
5e
38
c5
5a
15
e2
44
e7
c6
63
ce
e0
e5
9a
df
67
d3
53
c9
dd
62
c6
e9
e2
56
da
eb
51
e8
40
e1
1b
64
68
55
5b
e0
62
5c
6b
32
e1
43
44
9b
ae
67
37
eb
ca
94
bd
eb
e0
e3
35
e1
5a
e1
49
d0
b5
db
ea
c4
c5
5e
63
48
de
6a
a4
5b
c7
4b
4c
6a
58
e7
e8
69
25
ea
58
eb
60
a4
3b
de
55
74
56
64
dc
5b
e1
54
5d
61
e8
6b
44
4d
f
61
d3
ea
d6
65
68
51
42
65
62
d8
d6
69
5b
41
54
e9
29
e5
d1
65
af
47
67
ba
5e
de
c4
4f
81
61
58
ab
bb
da
e9
d1
e4
eb
cb
55
45
d9
ec
c5
2a
a7
70
cc
4
e7
5c
48
e4
e4
60
e0
e4
dd
e4
52
bb
59
eb
64
48
81
df
47
60
c1
56
53
c4
dd
bf
c9
3d
4d
df
e9
b2
d8
58
ac
d1
62
38
67
e9
b4
d9
56
60
cd
e6
e9
eb
65
cb
b9
31
5b
d7
e2
dd
cf
56
56
ed
e4
e5
cc
db
67
ba
60
63
e9
49
74
e7
6d
58
6d
d8
5b
df
e5
e9
e5
80
50
46
e7
56
2c
ed
b6
e7
cd
68
e9
6a
5d
f9
73
e1
65
bb
e6
18
d2
d3
5d
69
68
be
58
4b
5a
66
47
6c
ab
da
e0
30
5a
c3
ef
e9
f1
ce
e1
5a
f1
d3
59
65
d1
60
62
ce
ea
5a
d9
f1
66
93
e4
86
5e
45
e7
e4
df
e4
60
dd
66
ca
5f
48
45
61
4f
51
63
42
2a
df
d6
2d
df
e5
cd
5c
ce
4a
64
57
6d
e1
e4
dd
66
e6
6b
cb
32
56
49
cc
5c
5a
e0
e2
48
e6
f1
d9
c1
dd
e8
d5
f3
ea
c3
32
ee
33
ea
e5
ee
dc
b8
c8
e7
61
5c
49
6a
68
e5
e1
70
6d
67
5d
70
48
54
68
de
41
3f
de
67
b3
59
6c
6f
b9
45
e3
4e
b2
88
5e
3e
52
e6
18
ea
52
d6
50
de
d8
e8
e9
e8
ef
db
e8
66
d3
e4
5d
f0
d1
f0
da
5a
e4
be
67
e8
68
cf
48
3a
eb
d7
96
5d
dc
17
ec
66
dd
e4
3d
c1
3c
e8
e8
5a
6b
59
5a
60
80
5f
56
e9
60
e8
5c
f3
55
32
63
aa
e6
e7
f2
e9
ee
d0
57
33
69
ea
66
c7
6a
5b
50
4b
ec
e8
e1
63
4c
d8
5d
c6
61
4b
bd
e4
41
6a
5e
c5
4d
68
5f
6d
ca
c4
ab
e4
de
66
63
ce
a0
b0
c1
e9
9f
28
5a
eb
45
ba
f4
e7
f6
f1
df
ea
f1
36
3a
ae
5a
46
44
d5
5d
bd
e4
63
32
5a
60
64
d8
68
5e
ce
c3
d1
aa
6b
94
ae
e5
62
df
e7
93
5a
2b
3f
ac
dc
4a
51
4a
1c
32
4e
e6
4e
5d
53
42
e9
74
74
43
df
b0
8b
22
e9
58
d5
e0
59
bf
34
ca
6a
45
a4
58
dd
41
6b
dd
e2
6b
4d
35
4c
6a
6c
ca
5e
cb
66
59
dc
63
a3
e2
41
54
5b
e7
eb
d3
d3
6a
77
5c
e4
45
61
68
5f
e4
62
69
2a
68
ab
e4
62
5b
ec
e7
f2
bf
65
e0
df
d7
e8
c3
65
4d
38
d3
e4
e9
e9
c2
5a
65
ba
44
4c
62
d5
29
e6
44
d9
59
d7
d3
d5
bf
5f
5b
de
4a
53
9e
36
d9
17
61
5e
df
a5
5a
5b
58
55
5c
47
4a
e7
1f
3c
49
48
cc
ce
1a
ea
58
64
79
e7
e1
4d
61
5d
6d
6e
d9
de
b6
57
d5
3d
e9
33
6d
e1
3f
34
66
e9
67
e1
d0
e2
57
2a
5b
39
57
5f
c1
67
ea
67
64
e7
62
45
dc
e7
5d
56
a4
44
e8
b1
67
db
d8
60
ed
e9
d8
bd
63
d8
e3
60
a7
d9
49
57
e8
51
44
51
e2
5f
e4
d1
4a
e4
63
5e
5e
3d
58
e0
ae
b2
3f
3f
57
38
d5
62
81
e6
5a
dc
dd
e5
68
66
cc
74
57
63
5
66
c6
4c
5b
6c
e8
d5
e5
bc
5b
65
5b
69
e9
71
56
dd
6e
57
6a
e1
d8
e5
62
e1
d2
1f
5d
65
70
3b
30
d8
d3
61
df
67
d1
ea
43
43
df
80
e6
59
65
4a
ea
58
42
81
54
f0
e7
df
dd
6e
ac
52
ea
46
3c
3c
d4
46
f0
ce
d9
62
6f
5f
af
5a
d8
36
68
c9
4f
dd
61
e5
5d
50
e7
de
a7
63
e7
59
34
42
5a
54
ea
da
c9
6a
4d
da
ce
63
4f
58
5c
d5
6d
6b
4d
53
dd
1d
50
40
6a
42
38
d6
d4
5e
69
65
e1
4b
d6
54
ca
e5
63
e4
e2
ea
59
68
d0
d9
50
aa
cf
d0
e5
c6
59
bf
d3
a9
39
b3
e2
e1
5b
e5
e8
57
e3
29
65
e8
4c
59
6c
5d
58
68
1e
6c
69
d7
5a
62
3c
d8
e1
ea
5f
5d
3a
62
c9
d3
4f
a9
5d
49
df
62
66
dd
58
d2
56
56
4d
62
cc
df
ea
e3
52
e7
e3
e6
ed
d5
ea
63
e0
5a
d1
5a
9f
22
66
a9
4a
de
39
d6
b7
d6
e2
e5
ce
bc
47
de
69
e9
d4
62
5e
e6
50
de
e7
e2
e4
df
e2
5d
df
cf
44
46
dd
43
95
c6
b6
53
c7
d6
d9
df
58
63
4c
5b
5d
68
b2
b6
e0
50
6b
65
5f
b9
e1
df
e9
eb
ed
ee
dd
4b
e6
59
da
c7
e5
d6
f3
e9
e6
dc
e6
e5
a5
bf
5a
54
ec
69
be
da
49
60
57
62
ad
b7
58
68
6e
51
55
bc
71
69
6f
4c
2d
60
6c
e7
c5
61
ca
eb
6a
56
5f
51
3c
6a
dd
bd
c1
66
55
6d
64
5b
38
59
4a
6f
af
63
b7
70
6c
d9
28
25
a3
67
e5
53
5e
f8
69
c4
f7
81
d0
5c
f0
e8
41
e7
e8
0
c2
54
d5
d9
e0
e1
e1
ec
d5
4e
57
c1
55
e7
c6
d2
2e
de
c7
45
70
80
dd
9a
c8
e7
81
da
ce
c8
ab
5a
e0
d4
e6
4c
5b
e1
d5
1d
ea
ea
3e
69
dd
67
bc
ed
69
6c
dd
63
68
df
61
ea
5b
58
ed
bb
cb
10
5e
62
e5
d8
60
bb
46
56
d7
dc
ce
e2
eb
e5
d0
57
45
61
de
e4
4d
e3
e7
45
64
59
2c
ac
a2
55
e1
dd
4b
62
cc
e4
57
45
e2
4f
68
55
5b
8c
50
5f
68
49
d8
e9
e4
4e
cc
c9
dd
47
64
3d
5f
e4
c0
bf
d5
ed
d6
48
6a
6e
55
5b
2d
65
42
e8
66
d9
6d
53
e7
cf
ec
c4
39
61
48
e8
6a
45
6b
32
e0
61
5b
a8
62
66
4e
d8
bc
59
63
5d
6f
d0
37
5f
e4
da
5b
f8
d7
80
68
e8
e1
b9
62
ed
55
ce
d7
6a
5d
cc
d7
60
e5
