15e
8e
ffffffaa
89
ffffffa6
17c
165
ffffffff
193
fffffef5
13f
16b
1b2
1a4
a
0
ffffffa0
30
2a1
83
a5
ffffff5f
413
188
fffffef9
164
fffffe33
fffffcde
379
21
2dc
1d1
234
ffffff5b
56
fffffc06
fffffed4
ffffffdb
141
fffffe87
fffffee3
8e
1ac
1d4
fffffff0
c
fffffe2e
222
204
ffffff8c
2d7
355
91
22c
dd
fffffea3
fffffee3
ffffff06
60
384
fffffcb5
fffffd45
ffffffb8
574
1ff
dc
2b3
ffffffa6
191
1bf
ffffff5b
fffffd73
18d
9b
129
ffffffe5
293
fffffedf
11c
aa
16b
2d1
1ea
78
ffffff9d
2fb
b9
1cd
59
3e
110
ffffffe3
1f8
12a
2e2
9
