dd
53
5d
5e
d2
47
ad
53
8a
5f
c6
c7
dc
1b
b7
57
df
58
36
d9
db
b1
45
cf
52
5e
63
57
3b
de
5d
d7
44
5c
5a
d6
28
cb
39
d0
5d
35
dc
8a
46
50
dc
40
2d
56
53
45
9d
3f
59
b4
6a
4e
56
80
d8
3d
bc
54
55
2f
59
ad
3a
d9
4c
53
b5
54
54
e3
81
1b
57
59
61
46
52
49
d9
ba
58
56
45
c0
4
57
48
4b
47
9f
65
4d
cb
6e
5a
bc
e4
51
47
d1
61
de
5d
d7
aa
d9
b1
2f
b4
ee
cb
dc
78
49
65
6d
c0
c9
d1
bd
bb
e1
6e
4f
df
a4
20
6b
c3
df
d0
a5
60
60
c6
61
98
14
dd
d1
39
63
57
2a
c7
eb
e8
dd
ac
e3
62
5a
5c
e4
4f
56
24
cd
6d
64
d7
58
ba
c4
51
45
5f
59
3a
bf
c2
c5
de
bd
d1
63
dd
6f
e9
a8
81
d3
63
5d
e1
e0
da
4a
47
49
60
59
d7
3b
50
a1
c6
ce
be
bd
ab
d8
31
56
2c
20
db
d9
be
5b
ce
d0
d1
44
47
d0
51
da
d8
4a
81
4e
54
81
40
dc
dd
45
d9
49
41
b7
47
59
5c
57
61
50
d4
44
ca
5b
49
b4
54
d5
50
bf
d0
ac
12
9a
48
da
d8
36
3d
d9
cf
dc
c7
c7
56
ce
de
1b
e0
c4
50
de
4b
18
1c
40
37
d7
4a
d6
17
33
dc
41
49
d7
5d
cb
4b
4f
c2
d6
d9
5d
c9
db
1f
a1
43
d3
2b
e0
42
4b
32
b9
60
34
2f
5c
4c
19
d9
5b
c0
43
ca
65
d7
68
39
5c
c5
da
30
a9
d7
28
d7
39
da
5e
d1
d8
da
38
c6
81
32
8c
ce
d3
36
80
d4
4c
54
2d
d9
d1
e1
eb
c2
db
48
45
60
be
52
4d
d3
57
65
58
d8
57
52
3f
c9
b3
d8
81
ce
d5
a4
44
d0
4f
5a
cf
db
dc
4e
cb
52
b2
b0
41
d1
be
d3
a1
3c
c3
59
d6
40
45
d9
55
58
5a
ca
e
9a
5b
48
59
24
56
5a
d7
c7
81
c7
55
b8
41
da
53
d7
d7
4e
be
55
49
ca
c1
51
d9
b2
b6
3b
ca
bf
da
45
de
3e
51
40
d8
c4
53
55
d8
50
db
46
ac
57
9f
3c
d1
5a
d0
c8
5a
27
d8
55
ba
ce
a1
db
ca
d8
56
59
4d
d8
43
d4
56
4e
99
52
cb
cc
d1
57
41
59
45
3c
45
50
bf
e2
a1
55
4e
43
48
57
d1
5c
cf
26
57
3e
5b
c6
d8
53
bc
c6
1d
8e
4f
bd
cf
2a
e0
4a
11
bf
5c
d7
37
42
cb
5b
d7
38
d4
46
56
c5
54
32
80
47
3f
b0
d8
c0
49
41
d8
d9
ca
58
e0
d2
dd
8
52
da
9f
5e
3b
27
cb
bb
d5
c4
cd
c7
57
ad
53
da
4d
d4
47
a4
c7
47
db
58
c9
52
d0
33
d2
c7
69
d9
9f
8c
d7
d7
d4
cb
18
cc
c8
61
a7
53
ce
45
5c
69
4a
c9
b2
58
56
57
cf
99
d3
d
cf
57
58
c2
3c
51
dd
4b
59
da
e0
81
30
ba
ca
52
d9
bf
64
60
d8
63
50
55
bc
c2
63
25
64
d2
2b
c1
56
d8
be
49
5c
43
e2
80
d9
35
db
ca
5d
64
3d
3f
4d
2a
c9
0
5f
57
58
4a
63
ad
3c
54
c6
93
34
50
51
c7
9e
80
35
69
6a
5b
6f
5a
bd
a1
43
4c
9c
d9
cd
e7
5b
53
50
5a
d2
cf
6f
e5
d3
58
c5
9f
be
b9
5e
cd
da
d1
4b
c3
42
39
dd
c6
66
d8
5b
5d
d2
61
51
bb
62
77
64
58
e1
45
6f
ec
4b
c9
5d
3d
71
78
6c
63
55
ce
ae
a7
d9
3e
dd
2c
59
cb
5e
d5
a4
b4
66
5d
48
bc
53
be
c1
a4
54
d2
db
81
ca
4f
53
c5
36
59
58
48
4f
4e
51
d2
49
c5
2e
b3
d6
4f
de
49
48
cb
4a
50
bf
b3
c8
c2
4c
41
c7
db
42
51
a2
d9
4f
27
cd
cc
de
dc
a4
45
4a
c2
4b
db
d3
40
4a
d1
dd
8d
dc
3e
d5
d6
d8
5b
4c
5c
8b
c0
3f
dc
dc
f
d3
da
5b
ae
57
44
81
50
3f
58
41
d3
3d
55
d6
b3
ca
3c
c1
5c
cc
da
42
d5
a8
db
81
ce
9a
37
52
52
1e
4e
d7
da
50
54
57
b7
b6
38
5a
bf
dc
4f
59
49
dc
d1
5e
80
58
d1
ca
ad
56
d8
bd
40
40
42
d1
29
ac
57
db
c5
cf
31
a8
c5
54
5a
d9
57
94
cf
58
c8
50
57
46
c8
db
c5
a3
dc
d4
de
a6
ad
31
5b
b9
5b
d8
c4
4f
4d
47
dc
cb
d9
d2
d4
c0
dc
4c
d1
d7
5b
46
1f
cc
bd
39
d3
4d
bc
4b
55
d1
d2
b6
b4
59
cd
d7
40
d7
d7
d1
58
48
dd
d7
59
35
cd
17
47
3f
c5
54
ad
d8
30
4c
dd
c6
a3
dd
d8
b6
bf
af
58
db
d5
23
57
43
37
5c
d9
d5
c3
db
23
1e
dd
b3
cf
4d
c7
58
45
d6
45
c3
d0
db
52
3d
d7
dd
d0
15
2a
bf
b8
d8
48
5c
55
4b
4d
d1
dd
d4
d3
c3
de
bd
d6
40
4c
ce
4e
de
56
37
5b
d8
45
bf
29
48
53
cb
5b
2f
d6
d5
59
59
ac
b0
cd
d6
4f
d5
4a
c4
c9
c6
d3
dc
4e
38
d4
22
d7
29
b9
ce
46
56
55
5a
3f
4a
2a
d3
b5
33
35
28
d8
d7
dc
98
0
3c
d6
c3
cf
53
59
9c
de
52
35
c9
d6
c4
d4
bc
db
54
d9
58
5b
55
ae
d9
50
4b
db
ba
5a
49
bb
d7
29
0
dc
7
ca
cd
de
93
2a
b5
d9
d8
24
bb
48
47
d0
52
cf
dd
db
d8
45
dd
d3
80
4f
4e
d9
c8
d1
97
c9
80
dd
ca
bd
59
d8
46
d9
c5
27
1d
46
4d
50
52
da
58
14
dc
49
bf
54
4d
46
ac
cd
ae
ce
1e
44
2e
c7
53
d7
55
d6
32
4b
c7
f
d9
ac
c5
d5
57
d4
dd
d9
39
59
c5
d4
4a
5e
bd
c1
59
46
4f
3d
dd
d8
58
10
80
52
de
c9
3c
ac
3a
53
56
d5
3a
de
3c
cf
5c
44
42
5a
d9
5b
db
b6
da
5f
cc
d3
5b
37
d7
b1
56
d3
8e
53
d4
ce
20
d7
e0
c9
c8
ac
57
56
3d
30
52
db
39
97
c9
ae
3b
d9
c2
a3
db
b7
57
47
24
af
b9
dc
4a
c5
56
ca
ab
d7
c6
51
55
de
bd
59
58
34
37
4c
cc
c8
b5
c0
d7
43
53
46
bd
ac
d0
3d
4c
de
d7
81
d1
bd
ce
59
51
d1
80
5a
4c
43
cc
e4
d2
bc
5c
98
60
59
30
c6
50
50
3c
4a
5a
21
dd
af
42
b
54
c0
43
d5
b7
cb
3f
d3
52
ca
2d
3b
c7
4b
43
df
a2
50
46
4a
cc
cd
43
cf
53
c4
2d
a8
57
d3
df
42
5c
d5
56
e
ce
ce
2e
cc
bb
d1
c9
d9
5a
c3
c2
bf
4e
50
c5
d9
bc
cf
c2
52
b3
4e
4b
d7
b3
ac
ae
cf
50
c4
b3
5c
18
3a
dc
d0
dc
c9
3d
c2
d0
44
d5
dc
59
d0
42
c1
d4
dc
30
c
80
a9
52
cf
49
dd
50
41
da
bd
38
4c
cc
3c
4b
d2
c0
5b
cd
50
d2
80
db
4f
2b
cb
ca
48
b6
ca
57
dc
4e
50
46
5a
c0
57
4c
c7
49
a0
54
5e
46
5a
ce
5c
49
da
d2
da
4f
d8
d3
ae
56
55
4d
b5
63
5a
84
d3
47
23
c8
4f
5c
da
c3
80
be
d3
c7
9f
df
c5
dc
3d
1f
c9
df
de
34
d6
c7
d5
b4
c0
ce
f
d5
b6
49
d4
31
a4
c8
55
e3
4d
3d
5a
4e
d2
59
ba
36
5a
38
6c
67
d9
b4
4d
5a
9c
a3
ea
35
c
e1
4c
5c
a0
50
4d
3f
b0
d3
4a
53
60
46
45
44
5d
5d
d0
b0
51
b9
db
54
ad
d6
5e
b8
d9
c9
61
bd
d8
67
49
25
7
d5
b9
c
34
5a
a0
43
49
bf
e8
cc
54
5a
1e
43
3f
a7
30
c1
4b
e4
cf
b6
58
e4
dc
b2
4f
50
d2
3d
a7
c7
5e
4d
df
c7
dc
3b
2d
e5
69
5d
5d
dc
d5
6a
d8
60
cd
4c
6a
a8
5f
4d
5a
be
74
bf
6e
5d
e2
c
64
49
e9
dc
ea
51
f
5f
cc
9f
53
b5
d0
e7
c6
70
18
e7
c7
57
76
5f
5a
58
66
c4
53
c4
42
6f
da
47
51
db
5e
c9
74
53
5d
42
e2
52
d6
56
df
32
a
9f
1e
61
d9
5e
ed
d5
e0
b8
55
6d
eb
6b
70
54
e7
4d
e0
5a
62
da
57
1c
c9
d4
cb
17
9f
5b
cf
da
dd
d0
2f
4c
5a
d2
c6
4a
cc
54
5d
dd
81
d5
b5
db
41
52
d9
d3
55
bd
8b
cd
c2
d2
23
37
cd
3a
bc
54
dd
3a
50
ad
b5
56
d7
d8
bd
4a
3e
c0
4a
27
b6
d0
59
c4
c2
ca
dd
d2
db
c4
d9
59
32
de
dc
db
dc
8f
a3
55
af
c2
33
d9
5b
46
5c
ce
d4
4c
d4
d2
c8
2f
ba
b1
be
bc
df
0
41
2e
36
44
d1
ce
b0
3c
42
cf
56
56
58
a3
ab
4b
c3
c4
9
43
d2
d7
80
56
35
da
bb
48
dd
dc
58
d0
38
49
3b
1d
bf
97
2a
aa
53
dc
dc
3
21
c4
58
dc
53
d9
d5
4c
c7
4a
43
4a
d2
c8
b1
d0
36
bd
ce
9b
c0
bf
3d
0
e
4b
3a
22
c1
40
41
bd
db
51
db
db
30
56
d6
d1
dc
c2
da
de
cb
c8
b9
57
dc
5b
57
58
ce
54
e5
34
80
56
5e
38
9c
c8
d3
0
14
d2
41
30
37
81
bd
bf
d4
b5
aa
54
d1
85
80
db
4e
4e
53
29
44
d5
4f
cb
ac
89
45
ba
3e
d7
55
d4
d3
71
aa
c4
d3
e3
81
57
4d
42
5c
59
a3
4c
34
52
ce
10
4d
64
4b
55
3c
da
48
d1
df
42
b8
4e
d1
5c
3f
bd
47
c1
dc
d8
d5
5a
ca
da
d3
bc
a3
33
5e
d6
db
c1
57
a2
da
5f
53
56
51
2f
e7
42
62
66
63
d2
51
1a
5a
40
5a
c4
d9
3f
4c
d1
d2
4e
60
1e
3c
25
be
83
d8
61
59
c1
2f
5f
d8
5b
cc
de
d1
c8
e0
d3
dd
d3
63
95
e2
b3
80
45
67
66
57
a1
d9
6f
ce
3d
6f
df
c8
74
4f
44
be
e1
c3
6a
36
61
cc
2b
cd
3e
ce
66
e3
8b
41
28
bb
b9
7
65
d9
eb
de
43
d1
16
6b
47
70
d6
c9
da
51
53
51
d1
d9
a0
49
61
51
d6
5b
d0
39
cc
64
a7
5f
57
47
ad
b8
53
ca
d3
bc
c1
b4
4a
d1
99
45
63
1d
33
41
39
c4
a7
65
49
1d
51
47
51
4a
db
e6
37
53
4b
4d
b3
27
39
65
49
4c
d4
df
b8
d0
5a
21
cf
bf
d6
d7
26
de
53
d1
41
d1
36
2a
d7
46
ae
43
57
50
2d
5a
aa
db
b6
c6
d8
2a
40
dc
54
b9
5f
e8
3e
e2
72
5f
d3
c9
d2
0
44
e2
4f
59
d1
cf
6e
cc
4a
69
99
4d
18
5f
45
d8
2e
cd
52
a2
62
69
55
4e
d9
3e
d6
2c
59
60
5c
63
81
51
36
d9
d4
c8
a6
b2
9c
5a
4d
4d
73
c9
49
69
b8
5c
5a
c5
27
cb
cc
e6
e8
62
d0
5a
32
d6
6a
4a
e5
d1
14
d5
db
3d
af
cf
42
af
35
bb
58
55
5b
e5
d6
80
8d
65
69
31
4b
e4
e0
59
5a
12
5a
c6
24
cb
66
cb
c9
3c
2b
dc
bc
62
bd
3f
da
e0
0
41
34
48
0
cd
4c
67
db
5f
d6
64
3d
43
51
d1
e4
51
2a
c8
98
58
b8
2f
4b
40
d1
e3
ad
c3
64
d5
57
30
57
5b
c8
a5
3c
b6
55
ba
4f
ce
99
4a
9d
50
d4
a4
68
0
a7
52
b2
48
28
a7
ba
52
63
c9
c0
43
49
5e
d0
ca
c8
b5
3e
47
4a
63
d3
d4
5a
e3
e2
df
58
6c
cf
5b
e3
b3
69
6a
50
5c
e9
52
39
66
74
ce
dd
48
6e
5f
78
5c
cb
d0
d2
5d
58
b2
5a
dd
da
d8
e5
dd
b5
31
50
54
9a
dd
2a
d6
41
69
4e
d3
d2
ea
57
cf
54
bd
a0
80
da
e0
c3
e2
75
62
46
5d
4c
e3
5c
a3
ec
e4
58
5d
d4
4e
b8
d1
52
e9
e2
41
e7
23
69
5d
5e
66
4d
6b
54
d4
48
c3
55
8d
c0
8b
5e
42
4c
ca
42
45
24
4c
c3
53
59
22
d0
a6
e4
36
49
e3
5d
50
b8
c1
cb
56
ce
5b
dc
50
bf
2c
da
5e
22
d8
3a
5a
a8
d6
43
d0
d1
51
5d
c2
61
4e
b8
c2
53
2e
e8
d0
ba
b8
17
cf
a8
a6
4d
d4
44
c3
3e
1c
4f
bf
42
c4
92
e1
e1
da
e7
c6
c3
d1
44
e4
3f
50
ce
ae
5a
4c
db
bb
54
c7
d0
db
d5
16
65
5f
d2
b9
e5
e2
b1
0
53
a0
d3
5a
dc
d7
af
cb
dc
4b
d9
68
5e
c4
80
e6
54
cc
c7
61
dd
d4
41
9d
80
f2
de
2b
ce
56
6d
d9
b7
31
5c
c1
61
5e
5e
c7
45
de
da
62
60
80
5c
c7
44
5f
6c
5a
67
5a
3f
62
68
69
65
6d
7f
52
49
ba
65
bf
d4
db
db
55
6e
cb
ca
35
5c
64
46
ae
61
cf
43
5d
70
5f
bb
da
5f
69
46
58
bc
60
cf
14
50
8c
d1
37
52
b1
dd
c2
41
ad
31
80
24
5e
be
b1
da
57
5b
4c
be
2e
d6
60
95
54
c6
5a
49
38
64
ce
e0
5d
54
61
56
31
d6
26
39
3e
d0
5c
2c
59
63
5b
58
cc
dd
d8
d4
a7
cc
cc
34
2f
ae
bc
4e
da
b2
53
43
6e
45
cb
67
3b
57
60
bc
43
c3
50
25
48
4a
26
43
33
40
26
e2
cb
cd
cf
bb
58
b7
68
5c
8
71
54
d6
41
63
6c
de
39
ba
ab
58
57
45
68
64
66
74
da
ac
60
51
61
56
de
d2
44
49
eb
e9
65
d6
55
ed
ef
2f
65
d5
cb
53
5e
71
58
c7
e9
d4
55
5c
4d
c9
e3
db
40
e9
57
55
6b
35
13
c1
e6
2a
5c
73
69
69
d1
aa
d9
d9
d5
c5
6a
f3
e5
60
80
d7
ea
ba
c7
62
df
60
69
bc
53
d0
a7
c8
d3
de
b7
e6
d0
d0
d7
c1
d3
38
48
de
80
59
a3
cf
3c
b5
5d
22
db
33
ab
3e
5f
d5
d8
4a
b5
c4
d9
f
9c
24
5b
d9
c5
d1
49
ad
53
da
52
db
5a
39
db
31
d1
d2
37
5a
58
40
c1
52
47
4d
56
4e
da
33
d8
ca
54
b6
db
42
c1
c4
1d
cc
aa
45
45
c6
d6
c6
d4
db
46
5a
30
b6
46
cf
cc
d4
4e
a8
d3
be
50
d5
d0
5b
d1
58
d3
59
4e
4d
5c
cd
d6
58
4f
d6
cc
bf
51
2a
4a
44
4e
d0
3e
b1
c9
c3
d9
ab
46
d3
d5
e0
bb
27
b7
b3
d3
d9
be
d3
4a
d0
46
44
16
a7
30
54
52
52
d6
5d
80
d7
bd
83
52
50
ce
4e
5c
c5
c3
df
cb
51
59
25
cf
64
46
bf
db
63
cc
53
3a
31
4a
c5
44
50
cb
cf
4d
d6
de
db
cd
bb
bd
56
61
ab
db
3a
4e
59
50
cd
9c
9d
2d
4e
da
67
d9
50
53
d3
36
5f
c2
4c
d3
36
43
4e
e8
52
9a
4d
15
bb
c7
db
59
d7
4a
ae
36
d4
57
5a
23
de
35
56
5b
cb
58
c0
ae
d3
c5
d5
19
e1
e1
ca
81
82
6e
60
54
d5
d1
57
44
80
32
65
28
59
c7
5c
3a
58
d7
e1
55
d3
5d
57
2d
db
80
b7
aa
4c
c8
50
4e
51
3f
61
4b
db
81
40
c0
3d
52
44
50
54
64
b8
69
d4
4a
3a
af
bf
ed
68
55
5c
b7
80
e9
c7
dd
db
30
72
60
6a
60
b2
d7
e0
5e
67
e4
47
40
cd
f7
d4
e0
70
db
68
51
b0
ca
c7
cb
4b
4c
dd
d8
53
60
84
5f
34
b4
5
34
17
46
67
e2
dc
49
30
55
d9
34
e2
97
e1
a4
55
60
50
5e
51
46
76
e7
55
4b
2e
45
d0
44
63
dd
e5
e5
da
db
33
d2
61
65
42
5a
6c
e
ee
cb
5
47
df
cc
4a
dd
5e
94
d4
46
50
33
93
80
c5
4b
60
cb
85
e1
d9
2
5c
53
c8
c1
34
4e
36
b7
a7
d2
5b
dc
47
8d
57
d0
41
39
53
48
50
d3
3f
d7
49
8b
db
53
5b
dd
0
a5
4e
58
53
d7
40
dc
4c
ce
c8
54
d4
ca
1c
d7
2b
47
22
56
cc
4e
23
d0
41
db
80
41
cd
be
b7
45
3e
b6
5d
59
50
5f
48
da
59
bf
a1
45
d5
df
57
52
5b
4b
dc
d3
c0
de
e0
e2
d8
5c
98
21
e1
d4
d7
4b
cc
c7
c2
65
de
d9
b8
32
57
ce
b0
cc
56
cd
52
46
d6
bc
4d
57
c9
dc
dc
50
ca
8e
ab
cd
54
cc
3c
80
cd
c8
5b
51
57
5a
cd
a3
5b
4f
55
4a
df
d9
ce
c1
df
4c
15
96
cd
ca
ce
59
c1
64
c1
4c
56
db
2a
c0
55
bb
62
0
55
40
dd
49
5b
a0
59
4a
4f
5d
a3
56
30
52
d3
bf
d1
53
17
ce
28
28
d9
3a
68
1b
e0
52
c3
c8
b1
0
56
46
4f
c8
58
a2
43
55
4c
5a
1f
8c
d3
80
b7
c8
d2
dc
c5
b8
47
d1
ce
cd
d5
dc
40
dc
30
81
58
4f
52
40
e0
dc
c6
b6
e1
48
45
3d
d6
5f
59
d6
c4
48
dd
9
d8
c3
c4
80
4c
1f
49
dc
bc
30
56
47
ce
57
4b
db
5d
c1
48
17
59
e1
d3
e1
de
bb
62
df
50
62
c8
d2
93
71
54
36
4d
2e
bc
49
e2
a5
19
d1
c8
3f
d5
4d
e2
bf
de
76
42
5e
5d
db
d9
44
60
e2
55
80
5c
c7
db
c0
67
63
cd
ec
cd
dc
65
ca
c5
e3
55
36
38
45
36
d9
2b
19
6d
d0
cf
61
53
73
0
bc
c1
c8
c9
5b
b7
b0
db
b7
c6
c2
e1
c8
ba
cb
57
a5
6b
3d
3d
45
5a
d9
64
d6
4c
29
30
a4
d2
df
40
c2
c2
1f
c4
4f
da
47
45
60
61
d9
51
4c
d2
1f
51
cb
43
5d
5c
cb
da
58
26
d2
5d
1
b2
d6
d4
6b
4a
59
d4
49
4d
97
a0
cb
b8
dc
52
ce
54
ce
d0
29
24
bf
80
c9
5a
6b
c7
5f
0
54
4e
94
cd
d1
2b
d2
b7
d0
67
49
c4
49
da
23
d8
5c
5c
d7
48
56
57
a1
b8
ab
cd
ab
c6
5a
5f
50
5a
5f
c1
2f
cf
bb
de
b9
40
e9
66
5d
48
5b
61
61
52
a6
3f
d9
de
e5
c1
ca
cf
bb
d3
52
d9
54
87
e5
df
36
52
56
54
bb
5f
6d
e5
e6
d1
59
dc
4e
d9
d6
65
dd
b
56
d1
df
5b
a6
ce
50
52
e6
ce
df
5d
57
62
6c
cf
42
64
d3
4c
3f
41
a9
62
49
5a
e1
65
e
50
bc
45
bc
af
c7
4d
64
d3
56
de
de
4a
53
c9
37
3f
5a
d3
9a
48
c7
5d
2d
32
da
a0
5d
b0
50
4f
57
a8
c6
b7
4c
d7
56
d8
cc
38
38
46
b6
bc
cf
dc
5d
d0
ad
9a
98
4d
c1
3a
10
cf
ca
de
d7
e1
d3
d8
33
24
58
be
de
47
5d
c8
d7
54
cb
d6
4e
cf
5c
5a
54
38
52
59
54
b6
d9
ac
d7
38
c2
68
bf
d8
4a
4a
5d
d8
a5
43
42
d6
c9
e3
65
64
5e
5d
c2
ae
e5
d8
50
c9
d9
40
81
f
4c
51
4
4
5b
e3
b2
d6
d8
53
ab
c6
3a
0
43
60
cd
de
cb
b8
76
55
db
b3
d8
e8
52
cc
ae
d8
d5
d8
ce
29
31
ce
92
e2
b6
27
3d
c0
c2
db
5a
d6
62
41
4a
10
56
be
61
cc
e8
de
47
c3
e3
3c
e0
c8
3a
d3
de
55
60
65
3c
db
e0
4c
ca
d8
43
4e
c1
5c
6d
3a
e9
c8
4e
56
d3
65
60
52
47
25
ce
1e
34
45
c7
20
bb
b5
51
38
d9
cf
80
ac
4b
d3
57
54
46
d9
45
9e
49
47
cf
c0
5d
4f
d5
50
4b
d6
33
51
c7
ca
40
80
48
38
ca
c3
c3
be
4b
ce
c5
3d
5e
f
3b
97
5b
d0
28
d1
a4
30
d3
5c
d6
b4
43
ca
cc
5c
d2
e5
dd
e2
db
4b
d4
21
65
2f
58
d3
b1
3d
b1
5a
cd
c8
d4
65
56
2d
4c
b6
1c
d8
dd
57
60
a1
d9
5d
4d
af
d7
da
69
e1
c3
9e
67
db
b7
2f
44
d9
ea
58
a9
c0
3d
81
49
2c
22
cf
dd
e1
42
c7
5a
a2
b0
2b
c4
58
52
dc
60
82
69
54
e2
cb
ce
ae
d3
67
47
57
c8
c3
63
c1
ed
59
b2
52
55
45
d
42
e1
3e
c9
d7
53
ba
db
d7
e0
5d
de
91
cf
da
4c
c2
db
5f
a1
d1
60
d8
33
5a
6c
4a
6c
e3
61
db
d8
c2
d1
5c
67
b6
ca
3b
28
54
3b
d0
e0
56
3a
ce
54
ca
56
95
47
dd
4
ca
b5
d9
b2
25
d5
59
b5
4c
be
d9
4b
4f
ae
a0
d3
c1
c2
54
5d
b1
d7
ce
59
58
d8
b8
18
c2
4a
dc
14
ac
d4
3b
c3
dc
18
d1
db
c8
4f
5a
e1
db
50
45
40
c3
44
53
ae
59
56
58
da
da
de
d4
5b
36
2f
55
d5
c9
51
5d
4e
cb
4f
b9
df
b1
59
d4
35
4b
1
d5
5b
55
27
4f
d4
54
d0
d9
a2
db
dd
57
d7
28
cb
59
c5
47
59
55
d3
c7
54
d1
59
d0
4f
d4
1b
c7
47
4f
a3
50
53
29
cc
c6
20
56
c0
63
81
d8
d7
4a
59
57
cf
d9
84
59
cf
5a
cf
4a
3e
bc
c8
c5
ce
c0
cc
59
3c
bf
58
53
40
cf
d5
d5
be
44
59
31
56
a5
ce
db
49
49
ce
c9
b1
c7
17
52
dd
4b
d9
4f
57
42
52
ce
d8
52
16
db
d8
57
5d
45
d8
b6
55
49
ce
4f
5a
4e
b0
46
be
4c
41
4a
53
b7
e3
4a
c4
d8
f
bb
da
b5
c6
dd
cd
3c
3a
ca
be
51
bd
59
c6
57
dc
5a
5c
bf
4f
d4
37
d4
26
ba
34
d5
e2
db
3a
6
c0
51
50
e0
51
4d
1a
c6
b1
cf
3a
5b
cc
41
da
4f
47
59
81
63
2e
bf
30
e0
e3
58
c4
3d
3e
dd
40
e0
4c
2e
4a
d1
da
c8
67
57
2b
60
de
53
69
ac
c0
b3
d5
6d
4b
3d
33
36
e5
bc
bf
e4
2d
42
d9
0
53
c4
ae
46
3a
3d
cf
a7
cb
5a
4f
47
bf
41
53
c5
b5
2a
3d
80
44
47
1f
d0
d3
c2
61
5d
c0
60
48
ba
81
58
d6
cf
5e
b5
e6
de
e4
4f
c3
4f
62
51
d3
53
ce
34
5a
d4
65
11
4b
43
d2
3f
cb
d4
1a
de
dc
65
d7
2d
de
56
cd
47
d4
53
49
df
6e
58
51
c3
db
4b
b8
d8
47
51
4f
ab
d5
e2
96
3f
db
60
d5
d8
62
53
c9
2f
d4
4f
43
d7
61
a
da
69
d7
80
d9
33
df
d0
45
51
de
3f
e2
45
c7
d9
a7
37
dc
dc
d6
4c
4e
5d
c0
e0
9a
49
e2
de
58
1b
c4
e4
4e
4e
bf
3e
5f
5c
cc
54
ca
db
d2
e7
34
cb
2d
59
c0
36
31
cc
c6
56
34
da
5e
b3
45
2a
50
c4
ef
d9
62
e6
2b
56
c9
69
3b
57
e9
7f
62
ca
5d
6e
46
57
70
64
bf
d3
4e
70
ce
15
61
62
d3
e3
77
bb
55
70
d5
54
e6
df
da
53
5f
51
32
e4
dd
41
5e
5f
69
c2
48
e9
58
38
cf
be
eb
c7
71
d0
df
2a
eb
e8
dd
e5
ec
b3
c2
46
58
41
5d
b8
dd
ec
5f
d5
d7
c6
ce
6f
72
a9
d9
4d
60
6e
ba
39
be
d1
3e
5b
de
cf
45
51
67
c7
53
d1
38
81
d0
61
ac
d2
d0
da
46
da
57
55
3a
c6
d5
23
41
d9
d4
bc
50
c9
5f
59
47
9b
53
ae
d8
64
a1
5e
4a
bd
a7
bf
dd
bf
5c
be
40
61
5a
ab
66
d
3f
e0
d1
4a
d3
ca
be
25
c6
60
48
df
41
d2
c5
52
5f
c6
74
43
a0
d8
d0
c1
5e
de
45
4d
bc
46
de
3f
d4
e2
cb
de
d3
9b
47
c1
58
56
80
28
ea
49
ca
dd
d7
35
58
35
2d
68
4b
5c
70
56
51
3e
d1
5d
75
4b
59
db
da
2a
50
ed
ad
c3
55
af
5e
11
2e
65
ca
e6
e7
c9
44
d0
e7
6b
d8
6c
bd
4a
da
a6
6b
c9
34
6b
d8
5b
60
d8
da
38
56
6c
1f
dc
dc
cc
bb
5d
56
5b
81
9f
d9
e2
4b
57
91
41
58
c2
bf
a3
de
5b
6d
b
28
cc
66
bf
66
c9
51
b9
63
db
74
d4
47
2b
d3
b9
a9
e1
4d
64
d3
2d
cb
c4
c0
d7
65
81
9c
5d
6b
d5
52
c1
e1
44
80
26
35
4f
d5
46
d3
5b
59
5a
4c
60
60
ca
90
d3
5d
c7
dd
e0
24
ce
d2
c5
d5
40
52
0
4b
67
4d
4e
b2
6f
e1
9d
52
e1
4d
82
14
1d
c6
9e
4a
4c
d8
60
3b
d9
98
ae
59
ca
d6
3b
b5
d9
e0
54
4e
24
c0
d4
c7
da
45
44
86
50
ba
d5
d4
c0
5c
a9
b9
e6
4b
80
bc
4b
99
69
bd
60
5d
37
64
d3
c2
42
d2
df
5c
50
c3
c2
63
d3
cf
db
e6
42
d7
db
bd
dc
81
e5
5e
d0
53
5d
c0
42
18
b2
db
5f
5d
e5
40
62
df
5a
2a
b8
c2
41
dd
62
e2
c2
6f
6b
d1
d7
5f
cf
b4
df
49
47
e8
57
cf
e5
31
d4
60
da
4b
4b
e2
c0
54
d2
ee
d1
d2
d8
df
58
52
d9
63
e3
d4
34
4b
29
53
4a
cd
a1
d5
f
c9
b9
56
56
e0
ea
ac
c8
3d
44
ca
e3
53
27
50
2d
43
ce
ca
5b
4f
c4
54
38
45
4f
aa
49
51
40
35
d1
d9
d0
43
41
4e
bf
bf
2b
4d
31
3b
ce
e5
4a
50
de
e1
60
65
ac
5c
92
4f
43
b9
49
c3
bf
bb
67
4a
d5
5d
c9
c2
60
a1
21
61
52
c4
c8
e0
d3
cb
d7
c9
d7
4f
60
50
ca
bf
b1
61
d9
b
cb
c6
58
6d
69
34
a6
2a
76
e3
cb
59
e9
ce
13
c5
1d
cf
d4
42
e7
d5
d3
d5
d1
b2
df
4a
64
4e
d6
66
c2
64
e8
cb
53
40
bc
6f
62
53
3c
59
5b
46
55
c0
d9
ac
48
5c
15
50
41
53
ca
67
6c
e9
80
47
4d
d1
ce
63
5c
5a
51
4f
58
4c
66
4b
6d
6e
5f
53
68
db
54
f
35
34
24
e0
72
57
3d
6c
d2
43
c0
cc
54
c6
e7
5b
cc
5c
bd
57
67
48
5b
d3
50
74
35
4f
54
4b
bf
67
4f
23
98
d7
52
df
c8
da
bd
d3
bb
c8
d8
c8
d2
59
2a
4c
9a
66
39
89
80
d2
1c
54
5d
51
a
34
4f
5a
2c
4d
d0
3f
43
db
48
db
95
5c
ca
4a
56
59
8e
4a
b2
dc
cd
4a
cc
4f
66
56
59
80
cc
2c
46
3a
65
b6
cc
bd
9b
db
b0
db
d8
80
1d
4f
4d
47
c7
da
6d
5e
a6
df
5d
d2
62
3
e0
61
2e
d5
6a
6b
5f
ce
0
47
ce
ce
de
47
d0
da
b1
e1
59
d9
72
4b
57
de
ca
d6
69
54
d6
5f
3a
6e
60
41
d7
d3
de
dc
22
4e
29
d2
4f
61
3d
69
58
61
b8
d6
a2
ca
61
bf
34
c0
56
df
d6
48
a2
43
d7
e3
df
42
5e
68
c8
70
23
68
81
56
47
e3
de
b0
d9
b2
5c
c7
e3
c7
32
4d
53
c3
50
56
dc
a5
3a
84
d4
47
35
cc
da
4b
46
52
be
c3
e0
29
54
eb
d0
5b
80
d8
5c
44
ce
54
62
19
d6
b0
d2
5e
ea
b7
4a
63
4f
4f
5e
c9
54
57
28
db
57
55
df
4b
63
d1
5c
d9
60
b1
ba
49
28
40
52
c0
5c
5a
57
21
ca
e4
ca
2f
c6
b0
60
c2
86
9d
c8
9
a3
4e
58
d0
81
3b
47
d9
d5
1
cb
bf
4f
3f
30
44
a9
59
e3
dc
bf
52
ec
32
2d
4d
69
4c
dc
d2
56
4d
52
51
ea
51
1e
e
e8
67
e3
a8
a6
4a
4e
d0
ac
e1
69
e1
80
3b
56
c4
62
38
5c
4c
39
bd
52
69
da
a5
42
db
2b
5d
53
43
4c
6c
4d
a6
5e
56
dd
ac
66
81
ac
bd
4c
da
61
d3
4c
e0
5d
62
57
53
d5
d9
5e
3e
e9
ae
e7
c8
e4
80
67
e4
43
c7
4e
49
dd
54
5b
d6
30
cd
dd
47
3c
bc
c7
5a
45
d0
58
dc
4e
b7
5b
32
57
af
5e
3a
c1
d2
d8
db
4e
52
db
da
53
5a
1e
ae
d9
1f
cf
c5
5d
80
4d
57
d7
d2
55
27
dc
cf
dd
d0
51
2f
d7
54
ca
c7
c8
51
4e
d5
c3
da
ab
b1
b2
5b
d8
45
47
44
c2
c3
db
4a
dc
55
cc
56
48
31
46
d9
a9
5b
bd
54
b1
d8
5a
da
db
ba
81
46
2a
56
43
dc
55
5f
4a
80
de
b2
dc
11
56
1b
3f
54
47
d9
3e
c5
3f
4c
5b
c0
30
5e
80
d2
db
55
b9
52
ca
34
38
d2
d5
db
13
31
d9
34
d9
d0
db
cd
dc
cc
db
cf
4e
48
a6
8e
b4
5d
c9
dd
56
3a
db
d4
cd
57
b7
c6
4b
ce
d7
5b
4a
2a
37
d0
b0
4d
bf
40
cd
d1
b2
2d
dc
db
ca
d4
82
dd
c4
d7
59
d8
d5
d7
cf
ae
22
51
b8
c3
d4
b7
3d
d5
39
c6
50
ad
4a
54
c2
45
4c
af
d0
a
61
54
47
da
ce
b6
46
bf
b9
e3
3c
b
c2
c8
4a
61
5b
9c
3c
43
e0
d5
4d
a
4d
49
4a
e7
59
50
da
61
cb
4c
69
d6
6a
45
5b
d6
b1
c5
cd
36
4a
ac
ce
5d
59
c5
56
53
2c
46
54
d8
36
ca
c9
5f
63
cf
26
46
4e
de
3f
2d
52
cd
ce
ab
d6
c3
89
14
4c
d8
5c
53
ba
4d
e0
5f
56
c9
d2
cb
27
d1
62
bc
55
50
65
dd
62
2b
c8
d1
cf
65
4f
d2
cc
df
80
6a
df
41
cc
e7
e1
63
b4
e1
37
65
dc
d9
da
57
ed
b8
bd
dc
d7
52
d4
c7
da
c6
d1
4c
d6
4d
d4
5a
6b
63
dc
c9
ed
cf
57
bf
77
5f
68
c9
5b
24
d2
c6
a8
5c
61
c8
b5
5a
6f
57
4a
a0
4d
c1
b0
c3
5f
51
31
d8
6d
1f
47
