65
5f
bd
76
a3
75
67
43
6f
e6
fb
4e
ee
75
59
75
ef
d9
c1
5a
c0
e2
f8
6f
bb
6e
39
7b
ab
61
ea
34
e3
f1
70
ee
f0
4d
eb
64
cb
5b
65
f7
49
e2
ef
f1
59
39
ee
77
37
e6
ff
ca
f0
dd
67
70
a9
1f
fa
6a
69
74
f6
5b
74
f1
66
f5
72
dc
5f
d7
75
73
14
3d
f5
65
fa
f0
b7
60
6c
4d
5f
e4
ed
f6
66
72
f5
68
f3
6b
d1
d3
f6
e7
f4
f6
5b
72
78
de
ec
f1
64
e8
ec
5d
f3
66
60
f4
d8
5a
74
6d
e6
48
d5
d8
78
6d
d6
dd
6a
c6
ff
e9
55
74
e7
27
ba
74
fa
74
75
eb
a5
1b
cf
e7
f7
ec
6d
f6
66
d4
f1
f6
de
4d
ed
71
64
6d
c8
db
f2
6c
c9
6f
6e
74
ed
cc
ca
f7
3f
71
de
d0
f4
bb
e5
6f
77
73
e9
6b
f0
ee
d6
f5
d5
6d
f5
87
69
79
ff
76
e9
f0
df
ee
e4
e7
5e
f3
80
7a
f5
72
3e
79
46
f7
6b
d9
48
4b
eb
e0
d1
f2
b1
70
75
67
f9
cf
63
ea
33
4f
73
50
f9
69
70
f6
38
63
77
ed
80
b0
db
71
38
6a
e3
71
44
6e
c6
72
ea
66
