0
61
25
ffffffcf
25
4a
2f
ffffffd8
e9
19
ffffffc6
97
66
ffffff7b
15
11
26
ffffffd5
7c
12
38
ffffffd8
fffffff6
3c
58
ffffff9d
8
ffffffc9
2
fffffff3
ffffffe8
fffffffc
0
ffffffcd
ffffffd1
15
1f
ffffffce
2
ffffffc1
4b
44
ffffff86
ffffff9c
86
cb
2a
ffffffed
ffffffab
5d
96
14
fffffffa
53
ffffffce
1f
ffffffd7
7a
5c
3a
ffffffd9
21
9d
ffffffb4
