13a
295
fffffe48
ffffff21
138
ffffff63
ffffff27
fffff6b3
297
39
fffffe47
fffffd95
fffffe3e
fffffc48
fffffff8
270
ffffffbe
179
9a
fffffd08
183
aa
fffffe3b
ffffffdd
fffffe94
fffffc57
3d4
ffffff31
2ae
fffffcdc
2fc
ffffff72
a2
ffffff1e
fffffff2
74
ffffff7b
ffffff81
125
ffffffc8
fffffd7d
fffffe76
1aa
b4
6e
157
ffffff87
fffffec9
ffffffd8
fffffdb5
ffffffd3
ffffff99
ffffffc5
fffffd8a
ffffff47
fffffff1
140
2
ab
19
fffffe59
ffffff7e
ffffff52
ffffffb6
fffffff3
91
ffffffbb
fffffe8d
6a
32
49f
c5
19d
113
fffffeca
fffffff2
ffffffc8
4e3
ffffffd5
fffff5de
67
ffffffa6
fffffff5
1c5
6fa
3c
fffff8a0
fffffc30
ffffffab
ffffff97
1af
ec
ffffff67
ffffffe4
ffffffd7
ffffffa9
d
8
2
1
33
1c
33b
331
b5
1d0
fffffeec
15
ec
1
e2
ffffffdc
20a
fffffd28
fffffd5b
fffffe97
ffffff08
102
ffffff74
fffffffc
ffffffad
fffff5f4
ffffffc2
ffffffa3
24b
1ce
55
ffffff6a
