d2
59
dd
d4
b5
51
40
db
d2
d4
bd
5b
df
c0
41
ce
4c
53
c8
be
da
30
d6
d4
a5
ce
4f
b9
e2
56
d2
be
52
de
49
b7
cd
d1
56
4f
d0
48
dd
4e
3d
df
be
62
54
50
5a
bf
db
be
9e
3b
de
52
58
d3
80
d0
da
cb
13
df
cd
63
cd
d0
5b
bd
5c
cf
b8
c7
cc
5c
dd
c9
0
9b
b3
c5
8f
81
d2
27
5a
d2
d3
db
58
57
c3
56
57
40
d9
3f
cc
63
d0
50
9b
d6
81
d5
4c
5b
50
cb
4b
50
cc
ce
44
56
62
d8
d0
40
52
cf
66
d0
e0
55
da
49
45
c5
59
cd
af
d7
37
c5
70
36
c1
5b
3a
5a
5d
33
5e
4f
b7
e3
e7
ca
4e
4c
61
59
b3
37
39
c3
cf
72
65
67
42
27
48
cb
50
de
57
50
bf
5a
34
81
52
80
d2
dd
d1
34
8a
5a
60
27
3c
5f
59
b3
50
df
e4
4f
bc
53
2b
cb
4b
74
df
c9
df
65
cf
c4
61
db
c0
6a
5f
cd
5f
73
e1
0
ee
e3
6d
e6
69
31
5c
dc
5a
5b
59
dd
4e
c4
e8
25
80
73
4b
b3
6c
e0
5b
5a
5b
f0
3c
6c
5c
4d
49
5d
d3
68
e1
5c
e2
6b
d7
54
ba
d8
3f
cd
bc
e7
52
60
63
3b
63
4b
49
d8
db
bd
b6
c8
66
54
b2
1d
b1
d2
b5
4c
f0
58
dc
57
5d
b4
44
e0
e1
6a
eb
68
d9
4e
dd
5b
d7
4b
44
4f
6c
bf
68
a3
57
c3
db
37
5b
84
5d
e0
1d
56
42
5a
32
d2
4c
de
d5
b1
4d
47
5f
f0
6d
61
d6
39
ce
c9
4d
c0
ea
32
5c
49
c0
3f
c0
5d
d5
bf
68
e1
5c
44
62
c1
75
ce
54
50
63
19
a6
cb
97
d5
98
e8
55
c6
50
5e
dc
e9
4d
80
ad
4a
55
bc
60
61
34
43
e4
d3
f2
49
58
bc
ca
2f
df
df
d1
da
dc
56
d7
be
5f
d6
9b
d5
55
d3
dc
5a
d4
39
db
d2
d2
4c
4b
5f
ce
cd
d5
d9
4d
54
45
49
39
d7
55
90
cb
ac
b5
d2
ca
55
d5
3a
df
4d
e0
51
53
61
55
da
d0
51
33
d5
4b
db
32
5a
9
34
6a
ce
41
bb
5d
5c
d4
4b
c6
ba
c7
30
5c
ab
6a
ca
dd
59
e0
bf
de
56
33
66
d1
61
51
d2
4b
c3
4b
de
da
ba
c3
e0
de
c1
24
d4
5d
65
62
53
d5
a2
4f
d6
42
71
59
d7
c4
cf
37
5a
ae
bc
d2
61
bf
6d
c1
dd
c2
c8
48
bb
52
ca
51
63
0
49
61
56
0
57
13
0
c6
a
56
80
5c
61
41
d5
4c
d2
b0
53
48
d1
2b
cb
cd
d2
cc
4e
58
4e
4f
b8
d3
5b
c5
e2
d1
45
69
bb
2f
c2
df
2c
81
5b
cd
6a
ca
ec
68
70
38
9e
74
f3
d9
bc
5f
68
53
5a
53
59
db
cd
d9
63
14
ca
b3
e5
46
57
c6
51
d3
6a
e8
4a
e1
94
6e
6a
e5
ce
b9
b7
cc
3a
ee
d6
21
ba
cc
60
6f
5e
cf
71
d1
14
64
5a
47
67
67
5d
c8
5f
51
ef
45
ea
52
61
73
d5
3d
94
bf
28
4d
ec
98
4c
d3
d0
d2
db
ce
36
af
9b
d3
cf
3b
62
4e
44
5c
e0
41
be
d5
80
60
e
44
49
65
5d
3a
80
4e
3d
65
4a
24
de
54
d9
5f
6b
68
3c
52
cf
bc
5c
65
a0
52
d5
56
4d
4a
2a
3b
65
e5
49
d3
bb
62
b6
d9
b9
db
b0
3d
42
51
b7
d7
e5
a6
5a
bd
66
d4
19
d8
e4
db
81
ce
f4
e3
6a
63
6a
4a
c1
69
ca
de
5b
5c
81
b9
be
6a
d6
64
3f
da
8e
d6
50
6c
da
2e
4b
c8
b9
12
d1
45
57
64
f1
8e
6b
e1
d9
4e
58
c3
3e
c9
c9
da
2b
44
36
c5
c1
a1
30
d7
d5
4e
41
b8
4d
1c
db
49
5c
c9
38
97
dd
4e
51
d6
bb
a8
d6
cb
4c
5f
cc
d9
cc
1e
dc
3d
cb
5b
45
5f
4a
50
d8
d8
40
af
d2
59
43
46
d5
51
c2
c8
d9
d9
dc
d8
ce
c4
52
4d
dc
dc
d6
de
cd
0
d9
59
81
ac
c2
d9
9a
51
97
d8
4b
d8
db
cd
d9
98
44
d8
53
3e
4d
da
5c
4e
56
cc
d8
44
4c
1c
4c
5b
1e
c3
d7
db
d9
8f
4f
30
57
da
ce
d3
de
3a
da
cc
5f
4f
2f
bb
5c
4f
59
ce
28
62
62
e9
b7
d8
c8
45
66
52
d5
c2
4e
64
4e
68
4a
55
51
5d
53
dc
61
3d
ca
27
8f
4b
55
4b
1d
d1
c3
3c
d1
5b
5e
6a
2f
51
87
56
5b
51
cd
58
94
58
de
5a
d5
be
45
dc
5c
c5
30
c6
ad
d8
d3
b1
bb
f
99
60
99
c6
f1
d3
64
de
50
bf
69
56
db
e0
69
5a
d5
52
74
b9
5a
74
60
ad
47
df
69
e1
55
6c
c8
5b
5c
d2
80
0
22
ba
a3
d2
58
60
5d
c4
d0
dc
70
5b
c7
dd
d1
d4
c8
db
37
4b
ca
be
69
5d
e6
db
db
41
17
80
5b
5b
32
52
57
5a
d2
56
17
59
d4
cf
37
46
db
dc
56
1b
3c
3c
db
35
57
57
df
de
dd
d6
d4
de
47
57
d5
d8
5e
c4
bc
58
df
55
54
4c
cc
53
40
df
37
db
39
d7
52
cb
35
2a
c4
db
bd
c6
be
2e
24
50
da
55
dd
45
4e
90
c9
4f
42
cc
55
33
31
53
44
46
c5
d8
bf
c8
56
a2
40
d5
58
d6
dc
2f
d5
e1
48
31
d1
47
d6
3e
d8
4f
df
d2
5e
e0
d2
55
33
d4
d3
d2
d7
29
c1
35
a1
9c
cd
d5
5b
c8
4b
bb
d3
97
dd
d6
d
44
56
d8
2d
52
5c
56
56
d8
53
59
1b
58
5b
bf
80
52
5a
b1
36
d9
3d
31
50
4a
cc
e
1d
bd
b0
de
e1
c1
3d
c9
4e
d6
59
31
2e
d9
b8
d9
d5
57
d7
d1
d4
bb
d5
4f
c4
cb
cd
1f
58
ce
59
39
ce
8e
b9
28
81
b8
b4
dd
d9
58
58
c7
15
dc
29
a4
db
cf
2
87
da
cd
25
58
47
71
df
bc
4e
c9
58
ca
54
e4
c9
c6
c0
44
2e
e2
52
d5
80
14
d9
4d
b3
11
d9
4d
4c
37
28
56
c1
40
d2
54
d8
bc
a1
d7
52
5b
d4
45
32
d1
b3
b7
22
d3
e4
e2
19
4e
db
54
4c
46
c4
de
56
26
e2
c3
d7
48
36
2e
17
69
df
41
4d
57
48
4d
50
16
52
29
e6
cf
c5
59
4b
46
d8
d7
3e
58
97
54
37
22
bc
c9
d9
d8
47
d8
5d
63
47
4a
d1
a0
c3
b3
ac
c6
51
4c
47
d3
50
63
dc
99
dd
b6
bd
34
ad
c1
d2
29
57
cd
c3
33
54
cb
dc
df
80
c3
5b
bf
44
6c
aa
91
53
dc
e2
cd
4e
66
47
e8
c6
59
23
5b
d7
31
e3
43
24
cf
bf
df
d7
d8
e6
9b
33
49
63
e6
57
cc
3f
be
dc
d9
d9
5c
2c
d7
da
8c
d8
c3
ca
5a
d4
c4
57
c1
c8
47
bb
c5
38
24
46
50
4e
da
59
b8
d3
50
35
d2
47
da
dc
b6
dd
45
d0
d8
d3
d8
dc
d2
de
d0
4d
d9
b4
d0
d1
35
d3
d2
af
20
b2
4c
57
da
b8
bf
55
48
ce
35
5b
5c
50
d2
50
cb
54
c8
54
51
c7
cf
10
dc
5b
58
b1
d6
dc
cb
dc
dc
af
cd
3d
31
d3
d5
d2
d6
dc
96
2e
bd
be
4e
ce
d3
de
ac
a8
c5
4a
39
49
cf
59
2f
d4
40
45
d4
9a
d8
21
52
51
d3
c5
c4
61
ec
39
e2
db
3f
5b
eb
b8
de
de
48
d2
62
d0
be
4b
d8
e2
4c
32
bf
4d
4f
4a
80
d3
c5
e6
db
54
d8
7
cf
57
de
5e
96
39
48
d2
3e
31
54
37
e4
52
c3
dd
b3
3e
4a
ca
f1
6a
46
4b
50
be
0
a7
c9
61
6a
d6
23
18
cb
52
ae
5f
63
e1
cf
e5
53
3d
6b
e0
c8
6c
76
df
cc
db
e0
ed
71
72
58
e4
b7
20
62
80
79
c8
44
d5
ca
55
53
a9
ce
5b
d2
f1
53
69
5c
e2
55
c4
c7
e5
80
58
57
b6
bb
60
5d
68
4b
61
4b
db
df
ce
66
d9
47
e3
aa
ae
da
96
e
50
72
6c
a0
5d
2e
1d
4b
56
4e
43
4f
45
44
a8
b1
c5
c8
6c
5b
54
5b
64
4f
3b
a6
b6
2b
de
d9
2a
88
4b
b7
dd
29
d7
69
d3
c4
b3
cf
c4
dc
52
e3
d6
5e
cd
c4
ab
d9
c8
41
d3
aa
bd
de
49
c7
5e
48
62
50
e4
45
59
59
66
6b
dc
70
bb
54
d6
21
6e
d5
3b
c2
70
51
3b
bf
5b
e5
5a
47
4d
46
cd
6a
9a
2d
5d
d7
d8
c5
6c
d6
48
c7
43
5a
a3
b6
cc
91
50
b9
35
67
5f
5f
d1
c8
45
ac
42
52
d3
48
d3
4c
57
51
5a
5a
df
c0
56
5a
c9
d0
50
de
c6
44
5d
62
5d
d8
d3
2b
38
47
c4
4b
c3
59
53
cb
de
d4
3c
61
e0
67
dd
c7
db
da
5f
47
d0
54
a7
ca
b1
c9
37
ad
d3
b0
c8
a7
56
de
c3
3f
be
51
c6
db
d8
39
bd
d6
9c
a9
de
da
ca
62
e4
d9
58
e5
56
eb
44
da
c6
da
d5
19
9a
34
52
5e
62
3
5d
80
d9
de
5c
5d
1c
60
c0
c0
43
c9
cb
54
d6
dc
b7
30
e1
b8
62
81
de
d2
d9
e0
69
73
ca
da
53
80
80
2c
d6
93
5f
cb
e1
5e
77
db
e0
64
e7
4f
a7
3a
d6
b7
5d
9a
4b
19
d3
cc
3b
52
cd
4b
40
e8
3b
59
d2
d2
dc
4d
45
9
65
48
55
57
c2
bf
6f
c6
6e
4c
20
6d
be
e5
d5
d6
29
4e
cc
5d
ca
d1
dd
43
66
d1
d5
ce
3a
ea
ee
81
60
da
50
6c
cd
c8
af
67
5d
d2
5d
6c
57
ca
d5
3d
a9
cf
64
e8
ea
e6
e1
18
d7
4a
37
7b
39
bd
d1
5b
3b
ed
5c
c6
71
48
c5
e2
5c
d1
c8
9d
59
c6
98
df
5b
2f
0
b4
ff
e2
da
e5
da
db
e3
bd
39
dc
5b
cd
c9
de
bd
59
48
54
da
5e
5c
52
3e
d0
59
45
40
50
c5
25
2e
dd
36
5d
d3
42
aa
d3
d0
cb
d6
14
c7
c3
1c
db
41
58
d6
ad
48
0
58
d2
d5
d7
d6
bc
db
d6
5c
4e
58
c3
b0
2
5a
cf
4f
da
5d
5c
d4
41
37
da
d9
4b
4c
c5
4f
da
c1
35
4f
d2
3f
43
58
c9
d7
ce
c8
5c
d2
c3
52
d6
3f
4b
dc
60
51
42
c4
a4
dc
58
cb
dd
46
4c
dd
d0
38
5c
4e
5b
ae
c4
d2
da
d2
55
5b
59
3e
d2
c5
52
dd
4e
44
96
bd
41
4c
4d
2a
66
b1
d3
23
5a
56
6d
e0
cd
4c
4d
3c
ba
54
62
e1
51
58
54
58
59
e2
27
c2
66
23
2d
d5
3f
d2
3c
e1
6c
54
dd
4b
b5
d6
ae
4e
c3
49
d7
db
50
51
cf
b4
2c
c
bd
d0
37
d6
ca
5f
e1
47
69
d2
28
59
15
e5
d6
be
cb
d8
65
c5
a3
51
dc
d3
d5
8f
66
6d
a
ba
a4
58
36
65
e5
e1
c2
cc
bc
e2
4c
d9
cf
c1
35
61
58
58
6a
dd
48
55
df
e2
49
52
c5
de
28
d8
d8
50
44
dd
c1
2f
61
6c
57
bc
63
c2
5c
5e
57
d5
62
68
60
c4
5f
35
5a
da
b1
57
57
cd
cf
e1
4e
27
f
59
e6
81
d4
44
d4
67
ee
4b
64
d6
60
d4
cf
5e
50
61
22
66
4e
bf
5b
a8
0
b5
d3
54
d3
32
4a
33
37
4e
56
c8
61
1c
6b
80
cb
69
4d
5f
b9
c6
6a
61
eb
dc
67
45
41
5d
cb
c7
ca
6c
67
cd
c3
5b
d3
d2
80
d2
d5
ef
62
43
1e
71
da
6a
4d
df
d6
5b
6a
55
20
56
4f
38
74
d1
ca
c7
72
74
61
d9
59
6d
d8
4d
be
62
59
ac
3e
45
e2
64
6e
dd
51
56
30
d0
55
5a
d9
d0
43
c6
46
5d
0
c9
b5
4c
d0
d1
5b
4d
d8
ce
ba
5d
cc
c5
17
b9
c0
ec
58
d7
d6
c0
80
32
44
62
d6
6c
d7
65
a1
4b
34
ca
db
5c
4e
62
52
dc
b3
e0
da
4e
58
52
e7
55
6c
3f
5d
3a
ce
0
d8
4d
d7
58
cc
50
5b
2f
57
70
61
c5
c6
51
45
28
4c
38
c4
dd
ea
66
aa
d5
45
f5
55
59
e6
bf
e9
4f
c5
37
6e
a2
d7
c4
5c
aa
77
ac
d3
ca
e7
5c
40
d4
dc
c4
61
5b
d2
f1
9e
bb
ec
d9
60
59
53
75
5e
16
66
c7
3b
53
c1
5b
d2
57
bb
5e
ce
da
c5
43
dc
34
d
cf
e1
2d
bd
3d
a6
db
c1
ce
9e
5a
4b
2f
df
de
55
d7
37
54
c1
da
e6
30
32
4f
d5
4c
c9
0
49
da
4c
47
c8
54
5d
d3
61
db
3c
b5
33
da
5f
d2
c3
61
b7
4d
75
d2
de
68
48
80
cb
c3
64
37
ba
56
5e
a1
b4
de
46
d3
d6
56
d9
b3
b8
cf
38
cc
a5
57
5f
c5
d6
d3
81
46
b4
6a
54
ad
5d
97
59
dd
d2
d0
24
15
38
6b
ca
62
54
bf
db
dd
15
47
d8
d3
e2
3d
3d
c
c5
63
25
cd
57
d6
5b
5c
50
4c
5c
49
48
34
b4
3e
5b
5b
54
db
5f
54
45
d8
a7
bd
c7
4f
d1
0
33
3a
45
d3
c4
4d
d7
e1
b5
cc
df
5e
bd
59
47
d4
59
e0
34
41
3a
cb
df
55
23
4b
4d
53
c4
50
e1
d8
da
4f
5a
56
39
d3
d5
df
9b
3d
a4
9e
da
5c
59
49
c1
38
b6
ac
db
c6
aa
bb
5c
c2
2d
de
23
34
2c
d1
48
c8
23
1e
d5
44
d7
d7
df
d1
4e
52
59
52
3c
ad
55
c5
51
af
d0
b7
36
48
cc
b7
d8
de
5a
dd
87
80
c8
5b
d0
d0
da
47
5a
d2
62
c8
d7
9d
5c
48
a8
53
80
cf
d7
c8
64
47
64
c2
d1
d2
c7
60
52
6b
5e
54
5f
58
5c
c5
99
bc
de
6e
31
c7
c6
ca
e2
c8
db
5f
67
d6
0
51
57
4e
43
46
2c
e1
d8
52
5b
59
9a
b6
af
5c
2c
3c
73
45
45
59
3e
4b
c3
6c
5a
57
55
d0
e8
6a
68
df
de
68
50
ad
61
e3
57
b8
76
7f
e0
32
d8
d7
4e
43
67
54
d9
d8
d0
47
60
c5
3c
32
6c
ce
f3
50
5b
e6
c0
5a
ca
70
b8
d5
3d
56
7a
ea
d8
57
e1
68
f0
c8
5c
59
49
cf
d3
7
4c
db
c7
33
2b
32
27
a3
4c
db
9b
d8
48
3e
4a
d8
c4
bd
cb
ca
ce
ca
de
4f
51
5b
d9
2d
c4
be
b3
93
de
1d
56
dd
51
3a
4c
40
56
50
5a
db
d1
40
50
39
d1
49
50
3b
d4
2e
f
d3
46
40
5a
df
49
d1
31
9f
b8
e0
d7
4b
0
dd
8e
5d
d7
c6
67
bd
52
c2
55
dc
d5
42
ab
4f
db
b3
3e
b8
c3
dd
e0
97
d0
51
c0
d2
d4
5a
5f
54
50
4c
d6
53
40
d0
cd
5c
b2
cc
b9
2e
43
c7
44
51
24
d7
ce
d5
d8
3f
