81
80
a1
28
34
3b
10
a6
2c
bc
d3
a9
cf
25
c7
ca
23
a3
a4
35
26
b7
15
b8
32
81
a8
e
33
17
2c
41
bf
c4
26
86
3a
a3
ad
ab
2a
1b
a4
c4
28
bd
39
33
c7
c7
bf
b7
2b
bf
40
3d
4f
32
3d
47
94
34
80
3d
4a
4b
a5
43
4d
22
49
30
c7
2d
ca
13
ab
c0
d5
c8
d4
3b
35
80
3e
2c
9e
a
bd
81
40
0
44
4c
51
af
40
49
2b
c8
24
b2
c2
ce
0
8b
aa
bf
19
40
42
36
43
39
b9
9a
a7
ab
be
b6
ae
41
48
80
39
3f
a4
1a
13
3d
9e
b4
a8
42
a0
35
b3
ca
c8
cc
ba
22
31
40
8c
c8
b0
b5
c1
c4
33
d2
20
3d
1e
94
46
41
ab
3
88
19
2c
2e
3a
ac
ba
81
b6
bc
80
98
29
1f
38
b4
92
80
31
a5
c4
a7
b4
be
c7
83
a6
b4
b6
90
c9
44
20
1b
88
1d
80
49
25
4a
42
91
3d
19
3e
27
b4
3f
3f
3f
41
2f
3e
45
6
b2
3c
b6
35
c3
b5
3f
43
b8
42
af
bc
a9
bb
b1
18
22
87
28
b9
12
d2
80
c2
10
32
b1
ca
81
b2
40
b3
3d
30
37
94
43
bf
3f
c3
41
0
80
44
35
b9
a3
3b
b1
80
9b
3c
3f
2a
af
2b
2d
4e
4
40
36
c1
bd
b7
bc
cb
cb
c1
c5
13
bc
d2
2a
24
a5
9e
35
bf
b0
c6
b2
ae
33
86
b4
a8
be
d3
81
a4
c8
2f
23
2b
3e
3f
15
1a
31
c0
b3
3b
a0
33
4e
2c
34
a0
33
80
ba
81
c4
c2
21
9b
a
3f
42
4b
4b
9a
40
82
3b
47
3f
0
2a
c0
42
c1
b6
3d
ac
b8
b3
af
c9
24
aa
b5
a8
38
81
be
b9
be
ac
3a
ba
bc
3d
80
2c
b2
98
45
be
a5
c1
41
91
1a
0
c3
c0
2f
be
ae
ab
b5
41
46
47
28
45
0
0
a4
49
11
38
3f
25
9f
1c
35
2b
27
80
3a
ad
10
3e
20
4f
45
42
96
8b
94
31
a4
b4
22
b1
a8
ba
30
c4
35
11
bc
b4
32
a7
49
52
4e
55
39
3c
55
57
48
b0
42
3c
af
b7
af
2f
37
21
2b
37
50
47
3c
29
4b
45
25
33
22
bf
ad
3f
c3
38
35
ad
99
cb
c5
9a
ab
cc
a9
2f
a1
bf
d0
cc
bf
ca
d5
9e
c1
c4
3e
36
32
8c
1e
b3
36
42
33
bf
b5
a0
b5
b
81
bc
36
c7
23
46
48
4a
33
9d
19
2a
44
d
8d
b9
b8
20
3a
80
bc
b6
84
b3
ce
b6
d0
a9
b6
be
ba
12
c2
3c
b4
bf
c3
9a
bc
3e
be
81
c4
81
2d
b4
a9
c1
3b
2a
3c
45
8f
3f
31
8f
12
30
38
c1
ba
c5
ca
39
c3
9c
10
cd
bc
b6
a5
17
bf
3d
80
8d
a7
28
32
d3
80
39
bb
17
0
41
2c
46
ad
b6
22
ba
ab
b1
1a
38
43
40
45
4f
19
47
b5
bc
bc
d
a8
b6
9a
c5
80
1e
bf
8f
29
28
81
32
2d
30
c0
5
34
c3
98
2f
96
c2
c7
cd
1d
9b
b4
33
bd
b8
2e
bc
26
2e
80
3b
8f
b0
bc
b5
b5
2a
42
3d
38
4f
40
81
5b
4d
22
b8
a9
2f
a8
86
b3
c8
21
41
ac
80
be
9c
37
9b
81
a1
bd
a3
ca
8c
34
a9
27
c3
cb
d0
ad
17
81
c9
a6
c1
be
22
a1
80
0
c5
a8
aa
81
b7
c7
39
c2
b2
bf
a4
37
c7
80
9d
ca
97
35
a2
4c
28
a6
20
34
a6
37
33
32
80
48
37
bc
12
ad
bb
4
98
0
aa
ca
40
bc
23
a2
46
1d
e
38
1e
bf
cb
2f
c6
bf
a3
ca
ab
c4
a4
80
1c
3a
3d
b1
8
3c
28
33
37
41
c9
c7
81
3f
32
43
55
22
45
90
bc
ca
27
2d
41
c4
be
cb
43
4e
48
2d
b2
3a
32
34
26
9b
38
37
9b
80
9a
ab
43
45
c2
16
d3
cd
be
be
d1
7
b8
c1
33
3f
21
a8
29
9d
a3
17
b0
c2
a5
13
a8
b7
b9
bd
a9
f2
ff
e9
ff
fb
f9
f4
fc
d8
ad
aa
c7
a1
39
b4
b8
8e
80
8
85
80
92
41
39
36
44
20
c0
91
bc
24
3c
c5
39
42
b5
4f
42
50
4d
2f
45
38
32
4b
3a
30
83
43
1f
8d
c0
11
28
24
b0
41
49
48
3d
c5
41
25
bb
ab
92
80
af
c0
b7
ac
2a
2d
3b
2c
9f
44
2d
1d
50
46
c9
2e
a0
b2
93
c0
b9
9c
b1
ad
b
28
97
a8
bf
c1
cf
b8
c1
b7
42
96
9e
3c
c0
b3
c3
8a
c2
c6
b7
0
c0
2e
ab
b8
47
8c
48
33
3d
4a
b9
30
4f
41
c4
8f
37
40
bb
15
c5
b0
39
bd
80
25
81
80
c3
c4
a9
ae
55
4c
81
42
33
c3
ad
24
c8
95
b9
ce
80
90
ad
c6
c7
8d
bb
39
15
a5
b2
1a
21
46
3
b6
35
b1
5
9b
ae
ad
a9
c1
3a
ae
b7
44
cc
ad
1c
ba
b3
2
39
81
bc
95
34
2e
41
a5
9b
b7
21
20
b4
11
c3
bf
ce
b6
cb
1d
ba
2
cc
b7
c5
cf
cd
d4
c2
cb
ad
ce
2b
cf
a6
b7
42
2c
c3
bf
4c
3f
3f
1e
c6
8d
aa
29
b6
bd
b1
ca
9b
cc
35
e
2a
47
ac
3b
97
3e
ba
13
9b
1e
32
2f
c8
3d
35
91
bc
36
4a
38
38
23
c1
2e
3c
d0
47
16
84
46
44
ba
34
40
b6
ab
3b
80
ad
9f
80
c1
b
b0
3e
ae
c6
c2
3c
94
c6
cb
cb
c0
bb
c1
c7
c8
d5
50
51
4e
1d
47
9f
25
9
4d
ca
39
ca
a8
33
20
b3
81
9d
c1
43
38
90
c6
ac
46
1d
45
bf
34
4a
27
47
36
1c
bd
3d
9a
a0
43
c1
3e
80
b9
c7
4a
15
9f
ba
b1
c6
c3
b1
1b
a6
ae
c4
33
37
ba
43
4f
38
b8
34
48
81
44
c1
2d
41
3e
80
cd
b1
ca
34
37
25
1d
31
cc
c6
f
c1
ca
9d
92
b1
ca
c1
2a
46
bc
b8
a2
3f
2b
c7
45
b5
42
b6
c1
b8
b2
43
40
1d
b8
d1
28
b7
c4
80
87
21
c0
4b
2e
99
af
1a
4a
1e
34
c2
3c
a
3a
48
c2
46
30
4c
c1
bd
a2
c7
b7
4d
38
2c
4f
39
3c
4d
a9
a3
b3
b1
47
c2
b8
cb
c2
47
94
1e
1f
46
c8
35
51
3d
b2
0
43
b7
41
80
35
47
c7
38
3c
be
35
ad
c4
ca
32
cc
bf
b8
2f
3d
39
9
24
8c
cb
44
d0
b8
1e
1c
3d
81
41
32
80
36
45
b5
49
45
ca
ae
a3
29
15
29
c0
3d
c5
b9
47
46
27
bc
92
48
c9
30
c9
1
2f
23
b6
b0
49
27
3c
3e
c7
40
47
c8
c5
b
91
c6
32
15
c6
c3
b0
38
24
4c
3d
ac
20
35
89
46
12
bd
87
b3
a8
9f
81
48
42
b9
26
cd
cf
a3
2d
0
e
4
3f
27
4a
bc
80
36
3e
b9
30
80
bf
a7
b7
a0
17
31
c6
c3
bf
c6
ba
18
49
21
39
24
c7
c1
ca
3c
20
c6
3f
2d
44
b1
c2
19
b3
c6
c3
14
52
46
50
4d
30
4a
8
b3
2f
9c
34
36
bc
81
80
1a
32
c4
36
3c
b5
b2
b0
22
43
7
be
27
c5
c6
ad
80
36
a7
48
21
28
31
bf
ba
bf
14
0
11
44
18
ca
36
c3
f
44
bc
c
c1
52
3d
b8
41
46
21
c2
3a
15
3f
4d
2c
2d
3e
cd
d
b0
c7
91
be
c3
cb
ca
bb
38
b3
1e
1f
99
40
13
4e
cb
4d
81
3b
ca
af
cd
10
c9
b6
f
47
37
94
5
3d
a5
45
22
c0
ae
cc
b4
b8
c1
c4
b9
b5
b5
ca
7
b7
80
32
3d
46
ac
2f
a6
80
c7
26
40
c9
4d
ae
36
b7
ca
93
97
d2
b7
2d
cd
c4
38
43
38
a4
81
b
1e
a0
3f
b9
0
a3
2b
a6
37
41
2f
96
81
4d
c5
81
94
32
b5
2f
a
2c
8c
46
41
46
81
af
8f
c9
c6
bc
43
2d
84
1b
c2
c8
c8
43
a3
ca
b7
d0
b6
37
bf
2d
37
b5
32
0
ab
af
80
c2
32
47
d0
ce
37
b5
2b
be
cb
ca
87
41
a7
b
b7
40
3d
ab
ac
ad
44
19
3d
22
41
44
28
32
38
c0
37
49
c8
b6
b2
17
11
c5
ce
21
49
42
53
3b
a8
2c
14
d4
a2
c1
b1
34
31
0
2b
b3
87
c8
30
b7
4b
4d
49
ba
51
39
3c
43
2d
10
42
bd
3e
84
4b
52
5b
51
4c
44
43
4
92
36
40
80
55
27
c4
2e
4d
10
4a
c0
95
b6
b6
44
c4
45
98
19
20
21
b2
af
47
43
3f
3a
a9
c0
49
9f
30
4a
c3
be
34
d1
a3
23
aa
0
6
80
0
c7
bc
9c
a8
18
c8
0
b1
22
c5
af
80
b1
b8
3a
41
48
34
51
1e
16
12
c9
b0
c4
c9
33
b2
c4
2e
b2
37
b1
bb
bc
bc
80
c1
3a
c7
2c
8d
c7
9f
b1
0
bd
84
20
83
c8
bd
ce
d0
c0
bc
44
3d
46
be
ce
88
52
33
c8
cd
aa
1a
c2
2f
2c
b1
d4
a2
2a
be
42
b4
c6
14
a
c9
39
4c
29
3e
36
c
c8
3a
ad
bc
23
37
cc
34
cc
34
40
3b
51
20
56
27
c2
10
51
4f
4b
c7
45
c8
4b
43
cc
34
b1
bd
b0
24
9d
81
27
b7
b8
b4
24
c0
43
2b
a6
2e
42
3c
aa
b5
b2
bd
2c
31
29
b1
bf
12
9b
46
80
24
be
3a
b6
3a
21
c0
bb
2e
37
b2
ac
b8
81
37
3d
38
b3
29
b8
34
a6
33
36
16
5a
59
4b
54
59
55
3f
59
56
1f
9f
c5
cf
80
a3
c6
c9
39
c5
96
b1
c5
54
b2
b4
ac
1b
2d
3f
bb
11
3b
52
28
3f
1c
b0
b7
bd
50
22
a7
b5
42
10
ae
9d
35
cc
1f
28
b5
bb
44
c5
3f
41
8b
3b
47
c7
b9
0
aa
a4
44
b8
28
bb
d8
bf
bd
2f
c9
47
c2
47
3c
b2
81
40
25
96
c9
9f
31
b6
3a
c2
bb
2a
b0
be
80
34
b6
ab
3e
a8
20
39
9f
35
4e
a6
3a
3f
80
15
81
ba
47
96
44
2d
1
cc
2c
bf
ac
49
1c
86
31
42
c8
23
c7
38
38
a5
3f
cc
c6
cc
c1
ca
a2
98
b1
4b
28
ce
c2
c0
c0
cc
b8
c6
b9
c1
a9
3f
33
3f
45
34
3b
81
c4
b5
32
b7
47
26
c2
bf
31
35
4a
42
81
aa
cb
40
1e
1c
22
bd
80
23
40
8a
2d
33
41
ab
46
c4
4c
3b
1a
3f
49
2f
b4
c1
bf
9a
80
23
c4
a1
48
33
cf
32
51
25
38
4a
cf
c0
5e
37
58
b5
c5
39
b8
b9
c0
1c
ac
35
bc
44
b6
49
8
c2
38
ba
3e
47
2f
4f
4e
c3
4f
53
48
4f
4e
51
50
40
3e
38
2f
38
4f
ab
be
a0
b5
c4
a3
44
2d
3c
b2
80
bb
46
18
41
b1
a0
37
a8
f
4a
2d
3
80
c3
a0
44
ac
bd
18
24
e
44
3b
97
c3
a6
3d
46
bc
b8
bb
0
1e
3a
15
49
4d
f
49
49
0
cd
30
44
48
be
19
4d
90
b9
ac
36
d0
3f
40
45
0
36
28
17
b7
47
36
6
19
af
80
2f
b5
42
39
4a
23
be
26
4a
10
3f
3d
34
9c
c1
0
54
48
37
15
bf
c6
28
c8
b1
c1
38
3a
48
45
b5
a8
c3
2f
43
38
3f
4c
c4
99
11
bf
ba
b9
19
40
c5
3a
3e
c5
38
ca
9f
3e
20
23
a9
0
b7
3e
7
18
a0
44
18
4
80
25
28
32
35
80
3c
c5
42
c8
33
c1
3e
42
9d
b8
bb
c9
a3
b4
3c
b4
b3
c5
cf
80
c5
46
b3
38
c7
bb
21
c3
0
c3
1b
c5
40
c6
33
3f
46
2d
4a
80
30
c7
47
bb
34
46
bc
ca
35
c5
2f
48
26
84
20
bf
36
c5
9a
b3
3b
81
4b
c4
c6
bc
b7
43
43
c6
90
3f
45
c6
46
a4
33
c4
49
aa
4c
26
43
c4
26
33
29
49
c9
45
be
40
38
48
49
b1
45
b3
b9
4b
be
80
2d
c8
ba
38
40
41
ad
c5
ca
c2
3f
45
c5
be
b3
ba
2e
0
a0
32
c0
82
4b
b6
b8
18
c1
b3
c4
20
ae
c8
a9
3c
4d
4b
45
46
46
c2
bb
bd
c7
2c
be
c8
4c
ba
4b
bd
9
bb
bf
4b
37
31
3b
42
3c
3a
9e
c9
b5
ba
1e
c4
47
c
3b
3f
2f
2d
b8
c4
c8
38
bd
49
6
bf
c2
47
af
c8
b8
b7
25
ca
4b
ac
19
b9
48
b4
c8
c7
91
26
4a
42
b3
3b
ba
a5
41
a5
4a
b4
45
c6
c0
b5
25
49
c1
ad
9f
81
32
22
3f
3a
c5
c0
aa
11
34
af
32
41
c6
49
2b
41
1a
81
95
48
0
b5
c5
9e
1c
3b
48
0
21
4a
bc
a7
9d
80
b5
b7
3f
b5
9
31
c8
b8
b7
ac
bf
cb
ce
b2
b4
3c
42
a0
80
a1
b1
3d
b1
bd
9a
38
bb
3a
2e
bf
c1
ab
a6
b9
81
43
44
46
1a
ad
ba
c2
c7
c5
a7
b
3b
4a
a7
cb
4a
3e
47
c3
1
b5
bf
c9
19
9c
b9
46
91
a7
b5
25
89
bf
bf
b6
44
22
bb
48
45
80
aa
bd
bb
24
ac
32
3f
36
0
bd
ae
bb
38
1
12
44
c3
c7
44
af
c3
17
b6
2f
c4
34
4a
ba
a9
46
35
aa
a9
45
bd
45
a3
b1
b4
c4
c0
47
81
1b
83
9b
3a
91
18
83
3b
36
c8
9f
3f
1c
47
c8
40
b2
c7
c7
2e
34
1e
ab
43
c9
c5
18
44
b7
38
b6
4b
4c
c6
15
3a
14
80
44
a3
bb
40
8b
27
37
49
2b
b7
40
14
c3
38
35
c2
46
3f
91
c2
15
80
21
b8
c6
be
41
ca
32
c1
98
2b
c6
2f
bd
41
ad
81
36
92
40
af
85
a2
bb
44
ce
d2
45
b5
28
a4
3c
a7
39
33
c3
a0
99
b7
21
c0
af
49
3b
48
a2
bf
2b
bb
bb
c3
a3
26
be
44
4a
35
b0
b7
b6
bc
99
26
3e
18
b5
21
ca
32
bd
a9
31
43
c1
27
b7
80
43
b0
a9
cb
a3
9b
3b
3d
c7
3a
b1
2f
3f
3d
a8
c2
48
b0
36
b6
c4
1a
80
86
b0
a3
42
c6
47
2d
ca
bf
47
ae
3d
0
38
b4
b7
6
42
90
3a
48
49
31
a7
c7
4d
a7
4e
4f
a9
45
c9
40
c7
81
25
c6
c5
98
1d
a4
c2
43
39
a5
2f
38
c0
22
c6
b2
ba
be
c9
29
c4
34
3c
ca
bf
49
ad
bf
b5
c4
2a
cc
36
a5
31
3e
aa
b5
c9
3e
40
42
36
34
3c
2e
ab
44
49
49
a7
46
33
c1
41
b3
42
30
3c
21
a6
b6
4c
1c
81
b3
3b
9f
2f
bc
48
b8
92
49
c0
a8
9d
3d
b9
49
b3
2e
b8
b1
c7
1c
47
31
33
91
49
be
0
26
44
c8
c2
2b
b7
4a
a2
3d
b7
2f
bc
41
46
80
36
30
bf
c4
c3
ba
49
b6
b4
2f
39
0
45
2e
3c
be
b9
45
aa
80
45
ba
26
2d
39
34
ba
bf
b0
32
c4
10
32
b9
81
3a
97
6
35
c2
45
c0
41
a4
b3
80
c3
41
49
44
28
80
1a
aa
1b
b6
46
37
38
c8
a7
c5
b1
c2
a3
b9
80
3c
a6
1c
97
a7
42
29
c9
bd
47
32
37
b9
14
3f
3b
ad
31
42
c1
34
37
2e
2c
49
a3
44
ad
26
b4
2a
bb
3e
9f
83
90
55
29
42
35
4c
2d
35
44
43
37
b1
a5
3e
30
80
4d
a8
bd
c3
19
1e
47
b4
3d
aa
c1
24
33
3a
15
cb
2
98
ae
43
2e
a5
48
c4
b9
ad
b2
c5
b2
34
38
80
80
3a
a2
36
b4
45
2d
9c
a7
b2
ad
48
c5
b0
43
bc
c9
32
46
14
0
18
bc
33
b6
b4
4d
3e
35
a8
25
c4
a7
0
4d
c2
27
bd
b4
43
ad
4c
4e
8a
8c
2c
c1
49
94
88
33
47
a1
41
bd
ce
41
2c
b4
44
af
a7
3b
48
42
34
bf
80
b6
b9
a5
c1
26
41
a7
47
44
ae
be
b1
c1
37
2c
2b
48
be
39
b6
37
c3
1c
43
b9
ad
29
80
1a
96
b3
95
3e
47
32
b8
2c
80
39
3d
8e
b8
40
47
80
c2
c8
a0
0
23
39
32
13
af
2d
9e
8d
c7
bd
a8
a4
41
34
b
38
18
1
c9
af
48
25
ce
3f
4a
c3
b8
45
43
36
44
95
ca
31
28
bd
80
bf
2b
be
9f
8f
b1
80
be
81
30
16
93
33
af
bd
ac
c1
be
9d
26
3b
99
a1
90
4c
bc
ae
ac
c7
30
40
49
3c
ba
be
81
bd
c3
3c
47
8f
bd
a6
c7
c5
37
4a
99
3d
a6
bf
2d
c5
43
b1
c1
44
be
c5
b5
34
95
b0
19
c2
33
cb
32
c6
1f
c3
45
40
3a
34
22
a3
43
e
4a
a1
c4
a8
42
48
ae
4d
81
43
3b
2a
42
b0
2d
9
b
34
ba
c1
22
af
42
c4
48
3b
c8
1f
cb
8
c9
b3
c5
3f
48
b3
44
a7
af
4a
3f
30
1e
ac
b4
9c
aa
18
39
ad
b9
1e
44
ab
42
89
4e
81
a7
43
35
37
41
1d
b0
17
bb
38
1e
11
31
3d
a2
40
43
c2
ad
35
a6
4c
21
b7
2d
39
9b
2a
b1
80
92
41
24
ad
b1
ad
90
39
be
3c
25
48
b5
c4
ac
22
b
94
1c
45
37
a6
4a
50
c1
32
b1
b1
3b
81
32
b4
15
b5
21
2e
3c
29
a5
42
27
a5
5
c2
9f
4a
32
4f
4b
50
bc
42
4b
21
80
32
28
2e
c0
3e
4e
3c
31
be
20
18
b8
a6
a6
bf
ba
bb
2c
b1
81
b4
37
43
2c
42
4d
3a
36
34
4e
22
81
17
45
96
4b
43
11
c4
b1
12
81
2d
42
9f
c7
b1
b2
b7
bf
3e
cc
45
47
32
24
46
42
0
18
94
2d
0
2d
a6
99
ad
af
ac
af
81
17
1b
98
37
c3
80
7
2c
94
95
3a
13
87
9b
2e
28
18
80
2c
c1
3f
23
24
b6
2c
a
48
9f
3d
3b
bd
0
9
36
a4
b6
24
26
34
2d
d
3d
3f
9e
ba
89
8f
3c
c4
c3
43
1c
ac
36
29
8b
2a
0
af
3a
3c
16
3d
3b
40
b3
2c
9b
40
3b
81
bd
95
c3
2a
b3
2b
29
3e
b1
3a
c6
40
bd
a5
b7
80
6
17
0
c3
39
91
c2
c0
42
39
27
33
3
ba
7
bd
a9
b1
80
a
81
4d
3f
81
55
55
53
25
c0
42
43
88
2c
3d
c4
d
c2
b8
25
37
2b
47
b0
b9
c3
34
2f
80
7
ba
a8
8b
a7
ba
0
2e
c4
a7
3c
2a
1e
45
1f
84
c4
0
44
e
2b
80
81
3d
3e
39
47
25
3d
3e
80
44
0
22
48
3d
40
3b
ae
43
cb
ba
3e
b7
aa
b6
b2
cb
24
a8
b5
ac
39
80
c1
b9
8
80
3a
b1
a7
3b
aa
a2
17
b9
b8
c6
40
a7
c9
3e
34
37
99
bb
3a
a0
26
2f
37
3c
d
18
b2
18
bf
b1
bb
33
b0
17
2c
96
ba
ac
81
ad
b7
a5
27
ba
c5
9e
a7
38
40
4b
c2
c4
a6
b
ba
9e
a1
ae
28
40
4f
a1
4e
36
be
30
41
95
b8
30
d
3f
98
92
2a
4c
29
af
38
3c
ac
bf
14
3b
37
42
c3
b4
20
b0
b1
c5
34
2e
bb
36
39
bb
b3
40
bc
13
89
b9
35
be
27
37
96
ab
29
41
3f
48
34
42
4e
49
1a
55
4b
48
3
a3
af
bf
96
b6
1a
43
3d
a8
a4
8b
b3
95
c
ba
30
c6
a5
3f
42
45
a0
c9
42
2f
33
29
b3
8b
b3
a0
2e
12
bd
b9
46
41
31
99
c8
36
3c
25
3a
27
c5
37
a5
c3
c7
35
b7
3e
80
91
b4
34
37
a6
36
c0
42
a7
bb
b7
a9
12
bb
ab
b0
98
4f
9f
a9
22
bf
39
41
42
3e
bd
91
ae
0
38
bd
45
2a
99
a7
b0
c3
cd
ae
8f
af
0
a2
a9
ce
bd
b6
cb
bc
0
be
ad
bf
ab
28
c4
bf
80
0
44
b9
4d
18
44
44
bc
2e
4f
4c
55
c0
af
9a
2e
97
20
8
25
c2
2f
1b
b3
a9
31
2f
80
96
35
1b
ab
b8
27
c4
bc
27
c1
14
34
80
44
a4
b5
bc
c4
ac
1e
d6
bc
c0
bb
80
3d
be
35
c1
38
2f
48
1d
93
c6
2d
2c
27
9
c1
b8
29
b8
a
81
37
af
39
80
53
4c
35
4d
4a
49
4d
80
bf
14
ad
9e
9b
bf
91
1e
4c
20
b8
49
22
41
45
a7
52
2c
31
45
3b
36
a1
53
2f
a4
37
3f
98
3f
be
bb
13
99
c3
1f
b1
bd
b5
a2
c3
b3
c1
b8
d0
31
13
8f
2a
c5
35
bd
c6
c5
3b
44
80
2c
3c
44
80
5b
2b
3b
2c
31
32
c6
3d
a7
b5
d
96
b0
81
9e
24
35
a8
40
b0
aa
43
80
aa
37
47
c2
29
a5
bc
c5
29
b7
3f
31
ad
93
3c
44
18
ad
cf
b6
b8
b1
ae
c2
a5
95
b3
bd
c9
c4
0
96
8d
30
cb
c3
c1
ad
c4
17
b0
87
80
81
17
81
90
15
94
42
3d
ad
9c
35
a4
c1
41
21
0
72
7f
66
79
7a
75
6e
7c
5d
a6
42
3c
b8
3a
21
d1
af
30
b8
bf
3b
c2
b6
2f
b3
b
b8
bd
ba
b3
34
85
cc
2b
ba
bb
ce
ce
ce
1d
12
ba
95
1c
c2
41
9c
37
c4
33
32
bb
af
c5
38
1a
3e
45
41
2a
c3
3b
8e
25
bf
b8
3a
aa
c6
3f
0
35
c3
c7
be
c0
97
bb
bb
a0
89
b7
2a
b1
24
aa
be
37
d
80
40
95
32
32
9b
b3
30
b2
3d
be
b3
47
2c
80
4d
9a
4
87
34
b2
36
5
3e
38
46
2b
80
48
1b
2d
22
3e
91
ce
b
94
3d
cb
12
2e
4a
28
31
26
44
a6
c3
c6
25
a
a7
a1
ba
21
cb
a7
37
bb
cf
b0
b5
c5
36
21
34
1d
aa
81
32
80
cf
94
1d
b2
2e
1d
be
b4
b5
a0
43
41
9b
17
a8
bb
1b
4a
3b
48
10
13
23
2c
38
ba
c6
34
bd
a3
b8
8b
24
b5
a3
a6
b9
80
22
9c
91
ab
a1
b5
3a
ab
80
d0
94
a3
80
b7
37
98
40
37
b7
80
c1
2b
ca
11
41
35
b1
b2
a1
c0
2a
38
c0
46
44
80
43
b4
1b
a
15
11
38
24
2c
9e
ca
48
bc
b3
28
ce
b3
c9
4a
b8
d6
bc
b
cf
27
bf
c9
31
98
85
82
3b
2a
ba
be
bf
b6
af
d4
6
bf
19
29
80
b9
80
47
21
cd
0
9e
bf
80
80
a3
a9
26
36
be
af
a5
48
40
32
80
4c
42
19
38
49
48
3d
b7
d1
c4
80
e
bf
b3
bf
36
81
3c
24
be
b4
42
0
b1
48
