1a
b4
2c
81
25
b8
27
36
c4
ae
19
39
98
37
9d
10
35
a7
86
37
12
a5
3c
36
35
34
92
b2
c4
bf
29
1d
9c
be
3f
c
4a
51
46
26
80
99
b2
b4
c1
80
81
ac
b9
c1
c7
ba
b1
a4
cd
ac
a9
81
ab
b0
c4
c5
af
24
a1
3
3a
b2
3a
8c
98
bc
29
28
18
28
9e
25
2d
46
bf
b3
c3
aa
c1
8
c5
81
b4
b2
4a
5a
51
3c
ac
c2
cc
cb
b9
8f
11
4a
40
0
41
bf
2a
c3
46
44
b4
16
dd
df
2e
da
db
37
ae
bb
33
32
c9
1c
b4
89
a8
0
21
c5
81
85
b2
41
9b
c5
37
82
81
1e
bb
af
9c
c2
af
43
47
cc
4d
5a
2c
cd
50
26
b4
91
a8
f
2f
41
b1
0
81
22
45
25
3c
46
38
26
2f
4a
ad
0
6
8
33
28
f
a6
bf
b2
10
c4
34
45
36
ad
b6
c0
d2
e5
b3
e3
da
51
4e
80
f4
e9
d8
dc
da
47
44
5e
5c
ab
0
c4
32
31
43
a3
a0
c4
58
b0
bc
c2
b9
cb
d0
ac
c9
17
2
b5
15
bb
1d
44
1f
3d
3a
3e
a1
3e
3d
16
41
3c
3b
bd
c0
cf
b4
9e
28
c8
b8
b3
b3
a8
80
19
4a
80
99
3c
b8
b7
2f
35
a5
ab
b7
2b
1c
47
d0
dd
e5
3f
db
d4
4d
5a
55
2e
45
3e
13
40
8
1f
80
a5
19
27
13
e
34
93
42
3c
37
8f
4c
c7
d1
98
c8
c8
dc
a1
d1
dc
d5
d3
db
e4
3b
37
80
cf
a0
2d
bd
17
ac
bc
19
c1
c0
37
39
80
47
3e
38
51
31
21
ab
37
b2
a9
97
be
a1
ad
14
be
24
81
9
b8
b0
8a
83
0
1f
9f
ab
a4
a7
e
3e
44
46
32
a2
af
bd
c3
c2
d0
b2
32
ab
38
98
30
3d
81
31
3
b3
b5
3b
29
b0
3b
be
b0
0
c2
b2
b9
bc
b8
bf
80
26
c0
ab
bd
3d
1c
80
86
c1
0
84
c8
2a
b8
bb
80
37
bb
c5
96
80
9c
49
b
81
20
c5
ac
ad
ab
bd
c5
b6
43
ac
a3
bf
16
37
42
48
3d
3b
39
ae
b7
3a
bb
80
32
8a
a2
a3
2e
13
81
44
ad
44
44
2a
93
83
4c
54
39
2e
ad
b4
99
2e
2e
29
aa
2f
38
25
3d
98
33
27
1f
43
2a
3f
3a
b0
37
19
a4
3e
2c
84
bb
c3
ad
19
15
ae
23
ac
3a
4c
34
49
3e
ae
4a
1e
43
b1
ac
32
b5
cc
a5
80
bb
98
45
c9
c5
e1
be
db
3a
e3
31
49
35
3e
40
46
3c
46
46
29
c9
c1
ab
b8
37
b1
3b
c2
a8
e3
cb
22
d7
c0
45
aa
bb
93
b3
cd
d9
cf
e2
ed
4e
c4
d2
81
2e
b7
3c
42
3d
c4
32
26
e0
e6
57
d4
ba
53
4c
53
c9
2c
aa
4
2a
80
29
96
b6
83
3e
8f
b9
1f
b3
b4
1e
2c
80
c9
2c
c9
18
0
8a
8e
86
b0
c8
b9
ca
a0
33
ba
80
c5
0
bb
c0
a1
a7
2e
a6
c5
2f
bd
c3
2c
cc
b6
45
b4
49
35
47
c4
33
28
b9
31
97
80
c9
3e
c7
38
80
b9
89
95
9a
26
7
37
a3
34
80
33
3b
33
bf
3d
81
91
1c
be
c2
9e
23
8c
80
c7
3
a8
ca
b9
c6
c9
9b
b7
af
22
91
22
2f
ae
45
34
2e
c2
ae
bc
31
38
38
18
bf
b1
e0
ea
de
c4
d5
d9
4f
4e
43
3a
41
42
52
43
51
1e
30
4a
8e
c3
20
2f
91
2a
a3
96
c4
ba
bd
ca
b5
7
c7
84
ab
c8
2e
3e
40
3d
2c
40
37
41
80
41
bd
a4
c6
4b
18
b8
a2
ce
84
81
26
7
1f
20
ab
94
42
bc
80
b5
be
ab
cd
8f
80
bb
c9
c7
1d
a8
c2
3d
cc
3b
2e
3f
94
b3
81
0
31
9e
8e
1f
b3
b8
31
1c
a2
14
3b
20
37
d9
d8
ea
d7
ba
df
56
1a
9e
b3
ca
9c
9f
ca
ac
25
b5
a1
37
1c
38
bb
44
e
81
32
3f
cb
a9
b7
ab
99
c3
22
32
3d
9f
a9
af
bb
2c
b0
31
b6
1b
40
47
9d
bb
b9
5d
da
d1
bc
b4
bd
43
4d
39
2e
2f
15
34
27
a4
1f
ac
3a
b7
e
9d
a
87
b3
c6
bc
c7
b9
21
81
a7
43
b0
44
4e
46
4a
46
30
33
81
a7
39
3a
3e
b1
1e
b1
42
48
3d
80
bb
a8
33
ae
cd
97
1b
45
96
37
1e
92
ca
8b
8c
a9
40
b6
9
30
81
99
8e
19
81
9f
4a
12
cf
c4
c6
35
29
28
46
10
b0
42
15
80
91
1e
b7
2f
ba
b2
d
b4
20
29
b2
38
27
c4
a9
b4
26
2f
bc
ac
d6
d3
d5
e8
e0
eb
bd
e7
b8
a6
0
21
1b
c1
b4
b2
b0
80
2e
b2
bf
24
2d
aa
37
a7
14
38
38
a3
0
3b
94
48
40
bb
bf
d7
dd
2e
cc
d4
4e
4e
3a
b5
3e
41
3d
1b
35
aa
80
6
c7
99
c1
bc
a9
b6
3e
1a
41
c7
bf
81
a6
92
3a
27
80
97
b0
1e
41
9e
12
47
2f
a5
28
1e
b7
36
cd
cb
94
c4
c0
a9
e5
c9
0
d9
bd
d0
a8
e1
5c
33
0
2d
3b
ac
43
48
3f
33
42
29
ac
48
80
27
f
3b
96
80
2e
b4
b7
c1
31
b2
a9
b0
31
5f
4d
4b
bb
24
cb
dc
dd
a5
aa
34
3e
0
45
44
4d
40
80
a6
49
1f
30
94
3b
1c
b1
bd
b9
84
26
be
36
2e
2b
a3
24
c2
46
20
80
b9
2e
3d
b7
91
8f
81
d
27
c0
39
3e
10
26
3a
34
47
2b
46
20
0
3f
af
21
3b
8c
bc
ae
1b
bf
3a
25
c9
bf
a6
b4
bc
be
18
b1
11
c4
36
a2
c6
5
42
2a
46
53
59
42
50
48
80
51
4d
bc
bd
ad
ae
a8
a8
1e
21
ce
be
43
42
36
44
42
45
41
3e
3d
1d
b5
33
3a
a8
f
a9
25
9d
bf
bb
96
34
b0
41
c8
a
29
c0
81
bf
3f
42
31
b5
4c
1d
f5
f3
2e
f6
f1
ca
e6
e8
39
58
49
50
45
58
50
4e
41
48
ac
b0
30
23
bf
46
32
30
a3
8e
34
c1
2b
0
b7
b8
bb
31
b4
a9
f
b6
6
28
80
cb
26
4a
88
0
41
90
bd
34
4a
4a
a7
8d
9d
18
ac
33
a5
92
92
9b
8e
1b
3b
bb
80
b2
16
b6
43
46
4d
42
51
52
41
32
3c
bb
bb
a3
92
9b
b9
90
7
0
ae
bd
c1
b2
2b
bf
37
20
13
8a
8e
80
24
46
2c
37
2b
46
24
b0
be
ae
28
b4
b4
b5
29
ce
e8
ce
e5
39
e0
da
e5
df
50
3f
49
45
52
37
17
43
50
43
28
c9
c3
43
32
bf
58
49
3
c5
a6
b3
c2
99
98
c4
a
b0
c8
c9
80
aa
41
a6
21
47
39
8c
25
9b
a5
2d
27
c3
b6
3e
c8
cb
d0
af
20
c7
c9
b7
bf
bb
c1
a4
80
bf
43
c1
31
cf
bb
bb
b9
a1
cb
d0
ac
93
a8
aa
a3
2f
3f
48
92
80
31
0
34
18
b7
16
3a
37
44
3c
a9
15
3a
31
b7
9d
22
83
b3
fc
e3
81
e3
ef
ac
ee
e2
51
eb
ed
30
f9
ef
c0
e3
e1
b7
31
ac
bb
43
4d
45
35
11
1f
42
40
47
9e
33
41
ae
d
58
ec
e8
9c
f6
f4
d9
e6
d5
88
1e
ae
31
c7
b6
aa
aa
d
33
c1
2b
bd
3d
9d
17
af
3d
5
2f
a
81
15
a4
18
f
3a
e
ca
3f
b5
36
8b
21
3f
b6
c9
1d
4c
44
4b
32
a9
80
b5
21
90
98
35
b7
ab
a5
be
b9
b7
51
46
29
3e
33
4a
35
48
44
0
ae
14
4c
3c
38
3f
42
9f
17
aa
2c
8
b9
c6
bc
a0
c0
32
80
2d
45
4
c
95
36
46
d8
ed
d6
e8
ef
e6
e6
f7
e9
b2
b6
af
bc
bc
21
ba
6
2b
b2
be
85
31
93
c7
92
b8
ba
aa
53
56
52
56
44
45
b0
b0
1f
43
43
10
13
b7
47
35
3b
99
31
80
99
b2
44
41
4b
95
43
47
aa
4b
45
30
2d
b9
34
2b
0
41
1f
50
2f
80
ad
47
66
84
d6
5b
52
b9
5b
a5
e2
af
3e
f
ba
38
c8
29
be
80
5a
60
45
63
29
3b
51
51
b4
26
5e
59
33
5e
c0
35
30
d6
c5
b8
3a
b5
aa
29
c4
17
37
ae
30
43
bc
a2
87
34
c
0
ad
c7
c4
21
1e
c3
0
a3
2a
55
2e
ee
4f
e1
e7
4e
4c
dc
55
5d
54
a0
5f
29
21
54
83
9b
a3
c3
80
c3
a2
80
c2
21
54
51
4a
4e
6c
51
aa
55
3e
e8
ec
81
f8
f7
b7
ef
f2
c6
22
b4
b6
93
3a
27
aa
92
3d
80
80
26
3e
3b
2a
1d
2a
92
cc
38
13
94
80
cc
3b
8f
1e
ee
ff
d2
f4
f4
db
db
e6
22
9
b9
0
3e
3f
49
17
2a
4b
2a
c0
8b
c2
80
27
17
32
0
20
bc
c6
17
b6
9f
2e
95
c3
ad
49
d5
b1
67
62
ba
ba
8f
d8
da
57
c9
54
4a
8c
51
bb
34
a1
c3
9d
b4
9a
a8
29
2e
58
49
80
54
56
5e
c2
e1
e2
bc
8d
a2
ab
9
ae
b6
87
8e
80
81
36
ac
44
2e
28
ca
b5
45
b3
47
45
30
b7
2d
30
28
a7
95
b4
ca
81
b4
c8
a3
bc
1d
9a
80
2e
b1
2b
37
1f
c6
26
2c
35
80
8b
32
25
1f
b8
bf
bb
a5
40
37
b5
c8
c9
b0
ae
3f
86
3a
8f
80
34
2d
3c
2f
44
49
3d
43
3c
b8
35
3a
44
c3
bf
59
c7
db
41
49
c1
bc
46
33
a8
af
3d
2c
be
ba
c4
c2
22
31
36
81
3c
3d
b4
a1
30
33
b2
5
a7
b4
a8
0
46
6
b6
2a
32
1b
2f
ba
a1
e9
f8
dd
ea
e4
dd
e1
e3
da
55
53
84
c2
5c
38
c2
51
47
45
b1
2a
a4
2f
1e
36
40
41
53
a5
b7
40
55
9b
ce
45
43
54
5a
56
db
b3
60
f4
e5
84
4b
43
c5
b3
3a
3b
b0
4d
20
d8
f0
eb
dd
d3
ed
cd
dd
dc
f7
e0
5d
f3
f1
40
f6
d8
5c
33
c9
29
56
27
b6
c8
4c
be
23
b8
b9
93
a4
94
80
16
42
ab
c3
a5
26
28
91
cc
a9
a8
29
2e
e
3a
d
80
45
b4
26
39
39
12
11
99
12
27
4b
30
a8
ad
a7
1e
1
27
2d
be
bb
c7
50
58
4c
65
55
4d
48
3e
81
b5
b3
40
37
41
4b
47
80
bc
96
3a
9e
83
3b
ab
37
2f
53
45
80
52
aa
33
53
48
24
c2
1b
b2
a0
c1
ab
12
0
97
f9
f6
1a
ef
f0
80
d4
c8
5b
40
2e
81
31
a7
81
3d
20
24
56
3
c7
61
46
47
49
3a
81
8b
0
34
bb
40
a8
97
8b
c0
d1
c0
33
be
c9
3b
9b
2f
38
83
48
39
2e
42
4a
b
24
43
cb
3b
35
3d
c0
9f
c9
b7
80
8c
bc
cb
45
b6
10
47
3b
29
3a
36
1
b4
3d
f
25
81
bb
36
81
a7
44
2a
ad
3c
2f
89
e9
f2
c6
d3
33
46
47
5b
4b
2d
3c
4f
45
38
29
58
59
5a
b9
34
c4
27
b3
99
c9
c7
c0
93
32
2f
ae
ab
27
9d
c7
0
81
29
b2
2a
c8
b1
a9
b7
a2
a9
a6
9e
c0
31
3e
b3
a5
a6
2f
b7
33
3
27
b7
35
39
bd
80
35
3d
9e
39
1d
8c
2a
14
c0
b5
c3
9
12
b1
c0
9b
be
8d
32
32
41
43
2b
0
47
2e
ab
13
c7
b9
19
99
30
51
55
3f
46
35
2f
9a
ac
3f
2c
43
80
41
42
4c
3c
14
2c
3a
44
3a
25
2a
2d
b0
37
be
b8
b6
3a
36
34
36
ad
84
3b
34
cb
17
a8
2c
b5
39
bf
37
2c
26
cb
d8
d2
b2
b1
ad
57
4f
58
26
2
b8
12
31
ad
41
8a
39
d5
d7
47
cd
5b
56
a0
32
54
45
2f
80
8b
35
c2
3f
9f
0
0
33
43
c1
8c
97
80
4b
12
95
4f
39
3c
48
93
1f
2f
b6
57
c7
ce
0
af
d7
0
4b
de
46
24
1b
31
44
38
4a
28
42
28
4
32
2c
3c
3e
33
a7
a6
3a
a0
36
bf
b0
2d
28
93
94
a4
9f
e
be
34
41
3b
b4
ba
58
5e
6a
1f
5e
60
d5
bc
b6
75
64
54
50
5b
d4
c4
cc
d3
6
1d
b4
43
35
46
43
33
bd
d7
31
2b
20
55
54
4f
4f
4d
3f
25
c3
9f
b2
22
36
81
42
ac
1
b2
c7
c4
bf
b6
c5
a6
4
23
a9
37
15
2f
81
34
40
b9
aa
8
ab
3f
a8
96
38
b5
b9
3c
34
c3
bc
c3
ac
ab
3e
5c
56
61
bf
57
4d
cd
db
ca
30
33
a7
85
82
c6
80
c4
c9
1e
25
bf
ba
0
b8
32
e
d
47
c4
ab
0
80
45
38
5a
53
4c
60
5a
4e
5e
5f
be
d2
85
b9
3f
4e
32
4a
2c
15
41
b3
bf
35
95
a2
33
ac
9e
1c
c3
38
a0
40
84
92
1e
95
2b
25
40
a
35
2a
33
b7
95
2
81
0
26
b8
b8
af
c1
a0
31
31
d6
2b
b7
4f
32
2a
50
50
58
25
81
45
8e
81
24
1c
93
ad
af
bf
45
44
b6
35
2b
1a
3d
85
28
37
8c
19
8a
31
36
bb
80
bd
3f
3
1e
25
b9
22
24
ba
3d
e
a2
32
42
a8
81
44
0
bf
3f
81
ac
b1
c4
ba
c1
11
ca
9e
ac
2d
34
3b
a
47
37
12
e
b
a7
bc
ae
bd
24
c2
e
47
96
be
80
39
32
80
c5
c6
32
d4
b1
45
2f
b8
be
4c
a4
97
86
b9
2a
3e
3f
1d
bf
95
91
ca
d0
b5
c4
c4
16
37
4b
27
a7
37
83
a3
29
1e
46
3f
18
0
33
80
2c
42
80
81
38
25
23
a0
bd
26
bb
32
2e
3a
39
2d
b8
9e
42
9f
36
23
53
38
5f
44
60
c6
5b
28
19
ae
0
bb
a4
aa
b6
bd
c0
3a
ab
3a
46
51
38
4a
9
3d
59
46
88
5a
46
d0
49
3c
4
c5
51
5b
4e
64
70
ba
20
50
92
35
b4
43
45
25
c0
38
0
6a
5b
b6
5a
c5
c9
db
ca
44
39
80
2a
21
80
33
e
b7
9a
9b
80
b4
c9
9d
a9
0
c8
ba
b6
45
b8
95
1e
36
8e
22
1d
ae
29
a1
3e
4a
0
3a
bd
2f
ac
9f
19
95
3f
a1
be
37
b4
33
a2
31
42
42
e
5
2e
b7
9c
31
a
a7
80
c6
40
c1
34
9c
46
43
34
3c
32
36
3f
29
2f
b1
29
80
23
2c
2b
bf
2f
38
8d
20
bf
c2
c0
3e
93
14
3e
41
47
97
92
0
96
44
40
b7
15
ac
98
a8
c6
44
a9
a9
b2
0
9c
2e
ae
3c
31
b6
1
50
64
53
53
4b
49
cc
cc
a7
af
bf
b1
81
cf
b3
c8
d0
b4
0
c4
2c
15
ae
24
81
8c
bb
38
80
80
43
4a
9a
46
40
80
c1
ac
23
c1
c8
99
bd
89
ab
4d
b8
3f
b7
22
27
80
46
38
16
9e
a1
aa
be
be
b4
c2
2a
33
4a
41
38
3a
b7
4c
44
35
99
9d
33
37
d
3a
ac
4b
40
b2
3d
9f
ae
b7
47
a4
c1
a2
c4
b6
36
c2
bc
b6
b0
b3
81
50
57
69
32
4b
5e
de
44
38
14
80
3b
39
88
a0
48
3a
32
a8
c4
1b
cc
30
b7
ad
b1
3b
b2
2e
18
0
80
c6
31
2b
3c
26
96
bb
a4
38
bd
44
bd
1a
c9
c6
0
1b
9a
d7
43
4a
37
ca
c6
36
31
81
17
b3
c1
a1
27
c4
96
c0
a9
c6
86
b3
25
51
9f
3d
25
b9
20
44
3d
31
b8
d0
a2
af
ba
ac
c0
cb
ca
aa
c0
24
9a
ae
c6
d
c5
34
33
41
a1
c9
bb
14
c2
be
32
2c
2d
a6
47
30
9e
a9
36
23
be
0
c3
c8
8c
a4
98
2f
28
58
b9
cc
b7
4a
4e
4a
35
38
99
29
ba
bc
2a
b5
af
ba
b1
a3
4f
20
0
43
85
3a
43
1c
36
38
be
b0
9a
2c
3e
ac
91
4f
55
5f
60
4a
6f
c8
67
48
b2
83
a2
a1
c1
c0
ba
ba
a2
30
9c
ae
20
9b
b5
39
a4
2d
2c
b6
b9
1b
81
af
b2
43
9c
9a
56
59
81
55
3d
da
b2
18
b1
80
25
ba
44
3d
30
36
37
a5
81
a0
c4
c4
be
31
b5
34
24
1f
33
80
91
3a
ba
a3
bd
b5
95
29
c0
bc
32
a5
c9
b8
47
33
4a
b3
93
23
15
15
1d
62
4b
ba
5b
58
1f
50
65
d4
b8
c1
b2
ba
cf
80
18
b9
bb
27
a1
c5
40
9e
95
a2
26
b3
3c
3e
93
80
c1
2c
33
ab
b8
c8
e1
db
c9
4b
8f
5f
5e
5c
b5
87
17
ca
d5
ca
c1
2d
b1
99
aa
36
b5
22
80
43
ba
b4
c4
b3
34
34
be
37
3e
3a
2a
1d
b9
47
a
80
c8
30
45
b1
a7
ac
a7
a6
81
c7
a3
13
ac
bd
34
3b
80
b8
2a
c0
bc
27
c8
bd
9
27
29
91
b7
52
af
33
b9
36
b6
9a
18
c1
3f
3f
46
b5
44
27
bf
80
23
a0
90
d1
9b
0
d7
d2
be
b9
9c
c9
3b
39
42
3b
33
42
35
87
43
c8
d5
d1
81
c6
c7
28
14
aa
ac
ac
4e
15
8b
81
b6
2f
ae
9d
b6
9a
32
9b
1a
41
b8
95
9e
33
ac
b0
9c
bb
cf
22
be
73
74
4c
77
70
36
67
65
c1
c1
d8
ca
da
d1
cd
d2
d5
b7
b0
a8
9
2f
c2
33
45
24
ac
0
2b
c8
2d
9f
c8
a5
b7
a3
26
36
aa
98
47
14
4b
2b
42
36
b0
20
a7
b3
bb
c6
21
31
81
34
2e
0
b7
42
20
8b
35
25
11
80
3d
c0
8f
92
2e
b3
ce
d6
cd
d1
ca
c2
bd
c8
ba
22
80
0
22
80
c5
2e
80
b9
3a
af
c9
ba
41
c0
2e
40
2a
b4
a1
3
af
3a
17
26
2f
44
80
b0
3a
a0
3f
23
3f
37
42
42
6b
5b
66
3d
5d
5d
61
61
96
cd
c7
a5
a2
d3
80
9e
80
a8
bc
32
33
ca
c3
26
d8
2f
4a
1d
2a
44
80
45
40
b1
4f
8c
92
34
45
34
42
34
12
36
46
42
41
2c
29
42
47
b7
80
46
35
46
a0
42
47
42
a0
ba
bc
a2
a5
81
4
b5
45
c7
2f
4d
4a
3d
4f
41
31
31
43
46
18
91
b6
80
23
2a
ac
b7
b9
41
37
2c
8e
a9
38
3a
34
24
2b
43
49
80
a7
f
c0
bf
b0
7e
5f
3f
5a
6a
14
75
5d
c9
66
69
ab
75
76
4a
6c
65
ab
35
1b
be
d0
d5
b0
2c
c2
d1
cb
cd
81
ae
1a
c6
2a
0
cf
66
67
b1
74
76
46
5e
63
1b
9d
a7
4d
bf
9e
0
43
40
31
c4
0
cb
26
89
23
c7
40
3b
bc
c2
c3
86
ad
12
38
4a
40
3d
c5
86
46
39
24
80
80
88
d3
c6
b0
80
87
ae
1f
a1
1f
a6
b1
2d
b9
a1
27
be
b
35
c7
c6
cb
cd
d4
c1
ad
92
b6
bc
c9
b2
a1
b1
ac
9c
84
c3
45
3b
49
40
25
89
33
b
80
83
c5
a6
37
bc
a9
b6
80
3e
44
6e
40
61
6b
69
62
79
61
37
1a
ae
2c
8e
29
1b
19
d
ac
31
33
80
35
b0
7
98
36
b2
d2
da
be
df
8e
d0
be
ae
18
43
42
17
8d
b9
44
27
36
c5
b4
b6
cb
cf
32
a7
95
b6
b1
a5
b5
e
91
29
a4
c3
3b
a7
c0
22
c6
2f
b4
b9
c6
44
e8
53
62
db
c2
bf
de
cb
54
a0
b1
4b
c9
d7
39
bf
ca
98
df
e2
d3
dd
d0
b1
cf
d7
81
4e
dc
da
4d
d6
cd
3d
9c
54
2d
81
80
2c
a2
ba
81
12
a3
40
37
99
b9
80
b7
1f
2b
2e
9e
ba
9d
20
80
c2
8a
9b
3b
bc
c7
70
cc
62
5e
df
bf
56
ae
c9
c7
31
e2
47
b8
cd
ad
bf
b9
c4
11
bc
2a
80
c5
32
d8
de
d5
c0
ed
da
3c
de
b9
67
6c
bf
78
73
58
70
74
2f
3e
b5
c2
2d
3d
35
80
93
39
2c
38
37
1b
3e
41
be
14
3e
b1
45
3d
47
4a
a8
48
3e
43
6b
7f
3d
76
75
5a
5b
69
9d
1f
c0
c9
36
b4
ca
bd
d3
c8
48
bb
b4
c0
b5
b5
81
a2
b8
b9
a2
2b
a8
a9
80
3a
38
a9
3b
80
60
4a
e7
e6
40
9f
3f
3e
5d
c9
45
d6
8e
d5
a1
49
2c
94
80
80
19
35
2f
4a
46
e2
c8
b5
d8
e5
e7
55
55
54
9c
31
5
97
2a
a8
36
2d
af
bc
b7
20
ba
44
27
44
b7
89
9
cd
97
3f
17
bc
ac
bb
96
38
4a
40
27
49
42
88
19
17
24
11
a9
93
be
42
3b
10
92
99
0
28
9f
c7
a6
1d
c6
c4
c0
a5
14
48
41
a3
2e
af
8e
c9
3b
99
a5
aa
a2
a4
28
48
4
9e
c5
b9
af
d2
ce
bb
d0
b2
40
a3
c7
49
5a
b2
80
88
bd
17
b8
14
26
43
2f
a6
96
2d
a5
2d
40
80
15
37
ba
a4
8d
b0
c1
83
23
c0
a9
12
26
4
28
80
81
3a
80
10
be
a4
67
75
65
66
66
62
5d
67
56
d7
bc
36
24
e5
d7
c2
cd
c9
25
ca
b0
cc
ba
ba
c5
b3
2d
df
46
49
b8
df
36
b3
bb
ca
e0
db
e3
56
4f
e1
70
6a
2b
26
c3
30
a1
ab
b6
bd
3a
c4
5c
76
70
63
4d
6d
42
56
5d
78
61
d1
73
74
a5
73
61
ca
34
0
36
a5
20
26
80
d4
a3
42
4
8e
19
98
23
33
32
48
4d
80
3d
4a
4d
2e
a7
41
1b
44
43
32
2a
3a
81
40
86
12
81
1e
2b
ae
b6
81
a8
38
a6
40
36
87
80
3a
44
b6
c0
23
38
d7
e0
c0
de
ce
28
dc
bb
a3
1e
18
c6
b3
3c
c3
b8
a5
25
b3
a3
3b
92
9b
2d
46
a0
da
be
82
d9
c8
80
d0
31
c8
c7
36
41
2a
bb
9e
45
2f
9b
7c
77
46
70
69
39
59
56
da
d
ae
c3
a4
c5
b3
22
99
36
cf
c1
4a
d8
cb
80
cd
c4
8
80
80
80
b6
95
be
17
c3
c2
80
a4
a0
1f
b7
2a
a1
43
45
b7
1d
bb
ad
0
aa
c5
c2
bb
2a
47
c3
43
be
cb
b9
ae
c1
a7
90
80
0
c7
0
34
96
b7
41
3c
ac
9d
43
6
1e
ab
ca
a5
23
32
bd
a3
9c
c1
aa
35
5f
72
50
53
a5
bf
c0
dc
b9
9b
ca
ae
d2
ca
80
ad
d1
d2
b2
47
1f
51
3e
35
40
24
b5
2d
17
2d
3d
0
6
3c
a
3b
31
21
c0
44
bf
b2
3e
35
2c
1b
c1
cd
b7
c1
b8
a9
c2
c5
