2b
4d
b6
3e
4b
bd
b0
d6
d5
d3
d5
d3
4b
cc
db
47
38
49
4d
45
ae
cf
1c
57
53
4e
63
ee
4e
63
d3
63
67
da
26
8b
e8
dc
d6
b6
53
55
41
42
c9
49
53
58
54
4a
2b
56
1
bf
4b
b2
d6
44
33
e3
57
b4
cc
3f
ab
46
da
51
d0
41
db
57
e7
cd
d1
d0
c9
da
28
c4
25
65
68
dd
52
c8
4b
41
65
50
67
be
55
25
ca
b5
be
d6
44
e1
d3
da
42
d4
d3
db
d2
c0
e9
d5
53
dc
27
94
d1
4a
4d
d5
57
4e
35
39
da
d5
c3
db
e2
e6
cd
e4
e5
e3
c6
d6
56
d7
d8
de
32
c3
ac
4c
40
d5
1c
c4
47
a4
26
d8
59
44
4b
d2
4d
4f
24
9d
59
35
58
22
52
30
61
61
1b
c5
4f
cf
41
e1
4a
d8
44
45
c5
de
ae
33
5f
41
35
4e
30
cf
9f
26
37
54
3b
5e
cc
40
5b
a
50
4e
39
c0
e1
d7
4f
b7
d3
81
63
c5
39
d4
d9
d4
59
48
56
d7
c8
c8
b8
2b
b2
c3
c4
51
cf
da
32
2c
df
d0
b7
ba
3a
c0
5d
d8
e1
17
53
e0
4b
c3
bd
c0
0
59
e0
55
53
32
d0
4c
4b
45
64
c6
ad
57
d5
89
64
b2
c6
c9
dc
ce
a8
25
11
d4
db
c4
e0
be
80
97
d1
c6
b4
54
5e
5f
a4
c8
5b
55
45
64
dc
4d
cf
53
3d
ce
bd
db
4c
cb
b7
87
c6
c8
cc
53
51
5a
df
ec
c8
b0
48
58
48
d6
e0
b3
d9
dd
c0
8b
c9
b4
38
da
9d
c8
c0
d0
d9
d9
d6
50
48
53
d7
43
52
db
a4
c9
1
a3
4d
dc
d7
59
5f
46
c8
80
a8
c4
d5
4f
4f
4e
4f
5b
57
9d
d2
e7
b4
b0
e0
d1
5b
60
5b
1e
a6
cb
9b
3f
c
cc
4b
57
50
db
4b
c5
5d
9d
ca
c9
80
c3
b3
d7
5e
5d
59
37
46
d5
b9
df
c3
4a
d1
ae
d6
32
a2
d9
d1
58
57
9d
34
38
d7
cd
dc
e6
c7
5c
5a
5a
47
50
a4
3c
ce
b8
9d
4b
5c
ca
81
57
bb
d1
b6
dc
4c
52
40
57
57
d3
3d
43
53
54
46
d7
d6
ba
ee
e1
da
3d
c4
d6
c7
bd
bf
43
64
5a
c2
a
52
df
da
62
eb
ee
80
67
38
de
6e
5f
d3
5f
5d
37
4a
57
3b
c9
bc
cf
5e
dc
d9
62
49
d1
5d
36
b9
51
23
d1
aa
4e
49
80
b1
9f
de
e1
d9
a8
bd
0
69
5a
59
25
d0
c4
5b
49
57
51
80
a4
c5
d5
54
bd
48
c4
44
c0
19
81
56
9c
dc
16
b6
18
cf
3f
4d
97
bd
d2
c4
38
e8
a5
2d
d8
40
9b
59
c1
5b
2e
bf
a5
28
e1
e8
5a
30
cc
80
32
3d
ba
38
3f
57
bf
da
47
96
ba
d2
d6
c1
d9
45
bd
d9
c
43
58
4c
d5
54
34
ad
b6
cf
49
24
22
ce
d8
4b
49
a7
5e
4b
af
2c
34
cc
34
5e
3c
4f
63
54
46
0
cb
af
d2
bd
d4
38
cd
da
af
7
55
c6
4b
55
cf
dd
b9
34
41
57
ac
59
53
cc
c7
99
d8
da
0
50
b3
42
cc
2b
38
55
d8
d6
d5
81
d1
cd
1d
58
4b
db
d7
c3
35
83
cd
c4
cd
d5
93
bf
da
d3
58
4f
b9
c0
cb
52
cd
d0
d4
d3
d2
c4
80
d3
34
1e
37
53
b9
da
da
d5
c6
56
b1
3a
bb
43
1c
bd
da
d0
e0
d5
d7
cd
bf
d7
80
51
d6
d3
da
43
2d
49
9a
3f
af
59
57
2f
27
56
c0
50
5e
ca
50
ad
bc
4a
26
49
d7
5d
55
46
9b
c9
c6
43
2e
d3
e3
b3
b3
c0
c6
d5
a6
3b
c8
5b
66
76
c7
50
d4
e6
de
ee
c9
ac
e0
c6
43
d8
c2
b3
3a
48
6a
5f
e5
41
cb
d7
e2
da
1c
d5
d1
40
d7
d6
33
49
bd
8c
59
2e
5a
35
3c
a0
2
58
c9
62
68
a9
42
c9
b5
d6
d2
3f
d6
43
5b
d4
ba
ce
56
4c
d6
e0
28
d1
db
d0
d4
4a
c6
cf
d3
da
53
c5
3b
d9
91
a4
51
58
54
31
ca
cb
b1
4d
46
e1
3c
45
20
b5
4a
6b
4d
55
0
66
c5
c9
49
bf
b2
57
80
cc
d0
41
50
41
c9
53
42
55
39
d6
cb
a4
b3
a9
80
50
54
c3
4a
27
2f
c8
df
39
bf
c4
ce
43
d6
d8
cb
3d
c8
da
d0
ba
c2
db
45
cd
cc
db
da
2c
9f
11
b5
42
4f
d7
35
50
52
4e
c1
cf
dc
3e
dd
53
4f
b6
bd
d3
50
33
54
c5
4e
a9
5a
1f
44
53
39
55
4e
ce
a8
8f
d5
57
db
a5
0
51
3d
d2
c7
a6
bd
a6
4c
3e
b7
16
d6
54
a7
4f
d0
4e
c8
54
d9
b0
58
d5
81
4f
53
c4
bc
db
c1
b3
c9
d0
d5
92
bf
ae
da
bd
ad
cd
4e
d9
c7
c9
3a
32
d8
39
4d
49
d3
ca
49
51
c8
51
28
de
d9
50
d3
cc
2d
b3
da
4f
a0
bc
cf
df
ce
ad
cd
4b
ce
55
5e
60
c4
ce
61
c2
da
d4
e2
d1
d9
d8
e2
c5
d7
ce
c9
65
8c
47
80
0
3c
45
1e
5c
d2
43
41
4c
d
c
34
1b
bc
56
43
31
51
27
d9
60
5a
51
cd
cc
41
31
55
3f
d9
d7
d0
5c
5c
4a
d6
c6
ca
d1
e2
da
cc
ae
69
d4
d9
80
e6
ab
cd
52
44
d9
4b
cc
bc
d1
80
ce
c4
49
c8
cf
96
4a
bf
46
4c
3
2e
56
41
3e
3e
3d
42
b5
cf
ce
54
ca
d7
d7
cc
cc
35
53
66
4a
c4
a4
3b
46
c9
57
48
63
51
c3
50
44
c0
d8
b0
9c
bb
52
d5
d7
41
e2
d8
a2
c7
ad
d4
57
cc
57
49
54
47
5f
55
6b
59
4a
53
21
3d
5d
3c
46
dc
d
af
41
51
2f
d7
57
ce
ca
c7
c9
99
d0
c4
da
d8
cc
9b
c8
39
ba
43
cd
43
e3
b9
d1
bf
69
c7
dc
12
cd
d0
ba
54
4b
d6
b6
0
5a
bd
48
4f
33
56
41
51
61
8b
3a
a7
31
cb
48
cd
c7
3d
40
c8
49
a5
46
9d
34
5a
d3
4b
42
43
57
39
56
3b
b3
3d
36
3e
ce
81
44
1d
d8
d2
ba
3e
46
d8
47
d4
c0
2c
53
ba
d4
41
38
c2
dd
42
41
c8
59
b4
c7
cc
bb
96
d1
b1
bb
e2
d3
cf
55
4d
48
64
44
43
2e
38
e5
60
56
0
32
a2
12
c5
cc
4d
e8
ec
e1
d0
5c
46
c5
4b
47
57
58
43
a3
1c
ca
44
4f
d8
65
6d
c0
4c
d4
d4
e7
e8
e6
d4
39
c9
ae
a7
38
d4
0
4e
67
a4
e2
be
ca
ca
e6
1
35
db
59
d7
30
ce
89
da
d8
da
cf
d2
66
de
5d
64
61
5d
4c
84
5b
bc
ce
1
39
ca
38
cb
45
d1
3a
dd
54
be
b8
5c
b9
68
c0
54
32
4d
d8
0
4f
51
55
49
53
47
d3
4f
52
a4
c2
d8
ae
d4
4c
d2
ca
3b
37
c6
12
52
d6
bd
3b
a5
b1
ad
9f
6c
56
d5
66
da
db
c1
b1
c1
58
4c
ce
d5
58
4a
d9
cc
49
d5
38
d3
4f
da
2e
d7
cf
b
45
d2
d6
db
d8
d2
d0
2e
41
4d
ac
26
98
56
d4
c5
cd
44
d1
42
3b
a5
ac
d4
d1
4b
c5
3d
59
d7
41
cc
54
d4
48
ae
c5
4a
48
d1
b5
dc
45
d7
96
ce
44
b6
4d
5a
bb
45
d3
bc
cc
53
af
d6
cf
ad
c6
4a
d8
4e
52
4d
b8
41
d1
d0
cd
d1
ca
d7
ce
d9
3a
d7
55
91
5b
56
4f
d7
d
37
2d
52
95
c8
d9
ba
cd
53
d7
dc
4e
4d
c6
a0
48
41
d9
51
48
47
50
a3
cc
d5
18
a6
db
4b
51
4d
2e
19
db
2d
26
b1
db
51
31
53
5c
5d
54
cf
9f
45
1d
bd
59
49
0
ae
cf
d3
f
3f
c8
37
56
4b
d1
31
48
c9
c1
c2
47
e4
d9
66
b3
e6
56
56
c9
d7
ba
5a
0
80
48
80
d1
4e
5a
ce
9d
5b
82
4d
c6
43
23
46
eb
26
52
e7
e3
59
e3
de
64
c4
3f
2f
bc
43
1a
52
cb
d2
bd
b
d9
57
4a
e2
a8
d8
48
d2
48
a8
40
b1
61
b2
ce
b8
b7
3c
d2
bd
42
dd
80
59
ce
c1
ca
cb
40
b0
49
d4
2b
28
d0
bf
4f
ae
c3
db
51
53
57
53
4a
4b
d5
c3
4d
4e
d2
52
ba
d0
bf
62
4a
be
af
33
67
cd
23
6a
3c
d0
5d
cc
4b
60
b4
49
c3
45
5a
50
3e
60
3c
c1
55
17
4e
d3
d0
38
dd
24
d5
55
5e
dc
3c
5a
35
a7
5d
2a
cc
ea
5c
d8
e3
52
c0
e0
52
2b
63
56
c9
4c
64
d7
61
57
d1
a4
59
49
53
a8
3e
55
ce
d8
42
56
d2
bb
50
d9
5c
d7
3e
4a
da
59
51
55
55
57
d7
80
47
ca
de
de
cb
4b
e3
42
38
ca
47
bd
c8
58
39
4f
8e
5e
bb
56
45
40
56
15
cb
35
4d
9c
b2
3a
d1
3f
50
bd
54
5f
d8
d5
42
d3
ca
3e
bf
cb
ca
1d
c4
57
c9
46
da
42
5c
da
e0
5c
47
de
c8
e2
b9
d1
ae
60
47
cd
56
81
48
c5
61
a6
42
b4
57
49
a6
3e
a2
37
33
d5
57
42
c6
5b
ae
d5
54
81
de
c8
b0
38
d8
5b
5c
58
52
5a
5d
1d
dc
c7
d7
da
8e
2a
97
42
c0
b8
54
dc
d6
4d
da
da
c5
ce
40
cf
57
3c
5e
c9
c8
c7
cd
2
51
c2
bc
46
d5
51
ca
40
cb
d5
59
d8
32
5e
c
48
db
e0
e1
d3
3e
e1
c9
29
d8
5f
64
6a
68
ae
59
b6
c2
ae
d
3b
b2
d5
48
36
b7
58
15
54
cb
57
a0
d4
ad
2e
cd
c1
d4
a7
c4
4c
4a
b5
ae
28
da
d5
4d
4b
4e
35
cc
bd
80
d1
c0
be
4e
1f
54
46
4f
b4
db
b5
21
d4
4a
4a
3d
ca
d5
44
5c
80
57
50
c2
2b
bc
4c
38
cd
d0
38
d5
4d
cd
d9
df
24
d4
4a
46
c2
51
30
e
34
50
58
61
63
d3
bc
3e
d0
de
54
d6
b9
d6
c9
1f
43
d4
42
1b
40
c8
3b
d9
46
5c
44
5a
c3
af
cc
e5
e0
8f
54
59
59
cc
31
4a
d2
c0
c2
4d
2f
d9
80
a2
e2
c6
24
45
b
3a
d2
36
b9
cb
57
dd
e4
cf
cc
29
46
bd
4f
37
48
c7
a6
41
d7
48
aa
cf
5d
c8
53
d8
bb
b6
cc
18
be
26
57
28
56
ba
5a
ca
35
48
c6
59
9e
25
54
63
d6
b3
4f
df
36
c1
50
1f
ce
54
2c
31
5a
42
2d
7
da
90
be
dd
d9
53
da
d9
da
ac
c3
5a
a8
4c
45
58
c9
d2
c9
bb
4e
51
d5
d4
a6
40
cc
d5
e0
cc
db
21
2
d6
41
46
4a
d3
94
d4
d8
cb
d6
d0
49
4a
5c
cb
b0
5c
d5
bf
5a
18
c6
b9
ca
c2
53
cd
3d
67
56
2d
b4
35
43
41
97
cb
cd
5b
52
4a
60
32
d9
61
9e
48
cf
c9
cc
3a
dd
c6
b7
4f
af
ce
5b
60
4e
33
9a
55
ca
58
db
39
3a
c8
d5
3c
48
c7
aa
5d
55
55
5e
66
52
5d
5f
c7
5a
56
d9
99
b8
5a
a2
2f
45
d2
39
54
dc
8b
cb
ce
da
58
cd
c3
d5
d3
c1
a8
51
3f
81
41
bb
d6
c3
dc
4f
b5
bf
d2
25
57
db
bf
d5
b1
c5
d7
3c
c0
5c
5a
8d
58
60
c2
53
66
e7
c0
e6
d4
a6
cf
c0
3a
c1
d2
e2
e9
e6
b8
e4
e0
d9
d8
45
54
57
36
4c
c9
65
53
50
df
d7
59
3d
47
53
45
2e
61
d9
2b
cc
22
d0
d7
bf
2f
cb
30
c1
56
c7
49
bd
e2
0
da
d1
c6
e0
cd
80
3c
ce
3c
60
5e
57
81
b9
b4
4b
58
51
4e
3e
55
5b
3f
9e
3c
a7
4d
5e
5f
cb
cd
bf
db
dd
d9
da
d1
d9
d8
b1
49
d3
54
4f
c0
5a
a3
55
c5
2f
5d
5a
4e
50
61
8f
bc
55
59
55
4a
c1
da
d1
4e
47
d3
44
93
da
db
dc
de
19
d3
95
8
d7
a1
57
2e
5b
4e
52
c3
88
4c
4a
64
58
db
60
44
63
52
d5
4e
53
54
63
c1
49
54
da
e2
11
ae
a0
cb
cb
e1
c8
c9
7
d6
58
46
2f
57
43
3c
54
c9
37
50
bd
62
da
1e
59
cf
c7
da
d7
26
b8
3e
b4
cd
5b
bf
ca
12
45
d9
d8
d1
c0
e2
90
d7
d6
da
43
e4
d3
c3
e2
cd
54
4a
b1
41
38
80
3c
48
b6
80
5f
9
bb
db
d5
ea
da
d2
da
d6
d8
d2
43
cd
4f
5a
4f
51
c9
80
55
37
32
46
d2
bb
43
17
d6
52
c1
df
4e
ba
49
ca
bd
31
44
d6
d5
2f
80
51
23
63
63
3c
da
b7
b5
29
d3
40
db
d2
d
56
ab
d2
d2
cc
3f
0
c5
62
0
c8
d1
4a
2c
4a
66
65
4a
70
6f
64
33
9b
e1
e4
ed
ee
9c
a
9a
43
17
18
48
47
1c
5e
c6
cf
45
a9
d3
db
cf
d4
d1
35
44
6
1c
40
21
54
55
2a
26
57
d3
d1
48
80
54
28
3d
45
55
e1
de
d6
e9
e9
e2
32
e0
58
c8
47
58
d9
38
c9
3e
be
a9
c4
3e
3a
29
36
2e
e3
cd
b6
df
4f
4b
b8
d8
c2
5c
d4
d6
39
c2
bc
53
d5
3f
48
46
40
21
ac
ba
cc
d3
48
bb
d6
da
c4
46
2b
5a
b8
34
51
b0
d5
44
39
57
57
d9
b7
4f
d8
1a
55
d3
d2
56
c8
bd
bf
3c
5c
dc
c9
db
da
c
dd
3a
b2
41
d1
db
de
1a
cf
d7
60
3a
61
d1
cf
93
53
c0
c7
ce
46
13
4b
4f
cf
cf
aa
4a
68
60
3c
d7
b8
db
53
da
dc
50
da
4b
55
52
d9
5a
31
96
a4
5c
26
4f
64
51
52
cb
ac
5f
5c
40
cd
c0
9a
15
28
42
49
d3
61
9e
ce
54
d3
18
4c
db
4a
ab
d3
d5
9e
cd
a4
34
b8
de
ca
d3
de
d7
bd
ce
c5
5c
5c
af
38
2f
c0
37
c9
4e
d6
ad
11
45
d1
da
ae
c4
89
0
d2
6
ce
3c
49
0
da
4f
c3
53
3b
4c
d6
bd
c0
4d
d8
cf
51
55
52
52
39
d5
cf
47
58
c8
21
60
d3
d0
61
c7
dc
28
cd
bb
db
0
e2
39
bf
d6
da
5c
db
d9
61
cf
cf
5c
e3
5b
c0
50
9a
25
58
47
5a
12
55
81
db
4b
57
c6
ca
54
25
c3
4f
51
aa
97
d3
d3
c7
c9
21
36
44
2f
ba
e0
d0
8e
d3
d0
52
da
53
c6
e0
4b
44
36
51
53
cf
c3
35
d9
3b
b4
22
b0
94
c9
ba
48
24
49
dc
47
b0
e2
d6
d9
ce
dd
d3
1e
c7
50
d6
52
ab
59
a8
9b
b0
48
de
1f
c1
a4
46
cb
3a
54
e2
b6
32
1d
d4
5b
b6
4d
81
53
54
4e
80
60
d7
df
2a
16
20
ac
e0
bf
d4
ad
28
ce
2b
3d
d5
e8
de
51
cf
e5
67
67
66
45
b5
6f
c1
29
26
a0
ca
13
d6
e5
e2
d6
54
60
e0
43
b4
ba
dd
b7
10
57
da
27
df
3b
5e
5c
d2
df
91
25
da
dd
d3
2e
5b
ba
4d
a2
b6
d0
db
59
e2
b2
52
cc
d1
c9
56
5f
5a
b5
c9
d0
b8
53
6c
31
d6
b8
bc
3c
49
54
cd
cb
5a
3d
58
a3
4e
44
51
ae
cb
56
50
af
d5
aa
da
d3
d7
ce
e0
db
b4
4d
41
0
59
af
28
59
c0
59
45
46
57
4b
d8
af
b8
54
62
50
62
5f
53
43
b8
24
3a
24
37
32
51
d
cf
4d
d4
c8
4e
4e
33
4e
31
54
8a
47
2c
46
b4
44
bb
13
4e
cd
80
a2
4a
da
c9
d0
34
48
e4
69
bb
e4
ba
bf
d2
50
ca
c7
37
86
ac
be
c5
56
d4
cf
b0
25
4d
c2
cb
57
4d
53
b2
a6
ab
bd
38
43
cb
c2
a8
c6
b4
5
40
34
5a
50
a4
b3
56
34
5f
30
c3
d2
db
48
59
43
40
cd
d6
d2
31
1a
45
4d
ca
c5
53
af
50
48
3d
51
31
c5
b9
5c
8e
52
3d
34
b5
3e
da
d0
60
5a
2a
4a
4b
bd
d6
ce
bd
1e
4e
d8
a1
e3
bb
cb
e1
8
52
d5
db
92
d4
53
5e
b0
c9
1f
3b
48
c1
d6
b6
3a
37
cb
c9
d1
0
ad
48
d2
45
d0
5a
52
52
4c
54
c9
d1
c2
48
4a
59
5b
39
ca
b3
d1
dc
d2
cc
d0
49
4f
d7
66
59
c2
30
db
df
3f
e2
b9
53
54
ce
bc
37
26
58
9c
de
ce
d8
d2
53
b0
e5
54
de
55
3c
ca
3c
56
ad
d4
58
d
58
41
4c
e0
e8
3b
54
56
62
eb
e0
56
54
67
cc
ce
cc
52
9f
0
64
55
a8
ba
59
61
8a
55
ad
a7
81
a9
5c
45
38
4c
6a
4c
5c
c1
c8
2f
aa
34
bb
a9
a9
d5
d0
d0
d8
a0
d9
56
c4
db
e1
3e
5d
51
9b
87
ad
59
4c
2b
4f
52
44
64
18
51
cd
26
27
39
cd
60
16
c3
d8
d4
30
3f
41
3c
3f
cd
52
89
5d
cc
df
42
d9
ca
5c
5c
50
6a
67
59
71
63
44
68
6f
40
ca
0
e1
d6
81
b7
47
3c
58
d5
4b
53
c5
d8
d7
34
26
57
40
bf
b8
31
c9
df
51
cc
cf
d5
80
34
4c
d2
58
0
d7
50
e2
d6
d2
d4
d8
de
c9
35
46
c5
18
e2
e1
1d
38
be
3e
5d
3e
90
ce
d9
c3
b5
87
5d
61
d8
58
5f
d1
8b
4d
b6
d9
dc
d8
e1
e3
d0
db
d5
cf
cf
55
4e
3a
20
c6
ba
37
be
57
80
d6
e9
de
c3
f0
dd
d1
e4
55
40
4a
a4
ad
59
4b
4a
40
32
4e
27
52
5e
51
5b
80
bf
c3
af
d4
c6
ce
36
53
bd
18
ac
d9
28
38
4b
56
68
b8
46
4b
69
40
64
5f
e6
d7
33
d9
ef
cc
cf
80
ce
c9
59
d1
32
61
2c
a7
27
b3
a9
d9
53
da
da
80
d4
de
3d
41
bb
4b
3a
44
d8
44
5a
32
a6
d7
d9
c1
52
ec
e2
de
d9
ea
9c
e3
9e
6e
59
58
f7
69
a2
f2
64
96
ce
1
d4
25
c9
d1
ba
d9
bb
98
4c
f
96
be
24
d5
d9
a5
de
d3
54
d1
50
4e
c2
59
3b
4b
cb
55
5a
b7
cd
48
46
d3
1c
ee
e8
68
db
da
64
df
63
4d
af
d7
d7
82
d6
cb
b2
27
12
5a
aa
52
cd
2c
51
5f
cd
5f
56
9a
d9
d5
47
46
53
4f
c0
65
45
60
48
ab
4b
81
2e
2c
3d
c1
5d
80
c7
e6
51
4a
d8
69
1e
69
a1
aa
68
e5
ed
ee
d9
31
e5
3a
4c
d2
90
e1
df
5f
62
65
ef
e2
53
f0
e9
e6
ab
55
d6
c9
4
56
1a
be
bd
c7
be
17
50
39
20
4e
5a
57
b5
13
5d
e4
cd
45
d1
dc
e1
81
d1
46
c4
e0
42
d6
3b
21
c3
d8
e2
cc
54
ce
c4
e0
2c
de
e3
e2
1e
cc
40
d5
a7
db
52
45
80
d3
56
28
d3
bc
b7
d1
d9
cd
af
d7
a5
56
58
bf
52
80
3a
be
42
b
c2
54
3b
da
4c
d3
d3
d2
4d
47
36
4a
d9
3c
49
bb
d6
be
ab
cc
4d
e1
4e
4b
28
bf
5c
d8
ce
5e
68
d9
e4
64
de
d5
80
cf
c3
48
c4
dd
5a
cd
2d
5a
d1
c3
59
b2
23
50
b3
45
97
b8
59
ca
24
4b
56
50
36
32
c1
4b
5a
54
c6
47
cf
45
4b
d9
3a
2a
61
c7
e1
4a
23
22
c1
b3
de
ad
a8
3b
1d
c4
36
cf
cf
ba
4b
62
a9
59
61
5a
61
47
50
b0
e4
c6
c9
a6
0
c6
cc
5f
4f
16
60
83
80
57
4c
d0
bb
c1
c6
d9
44
1a
da
47
d8
78
24
ed
5e
ce
e6
30
e3
e2
e1
ca
c1
c0
e0
46
44
cd
b6
dc
b9
b8
5e
c2
c1
69
68
72
bb
57
54
a1
53
43
ca
a2
d8
ef
eb
fa
d6
53
eb
eb
f7
ff
be
53
6c
42
bd
c7
d6
e8
eb
eb
df
1b
56
6c
55
c0
5d
80
c3
f2
2c
5e
34
3b
d8
c3
4c
6d
64
97
75
6d
4f
72
74
aa
49
d2
53
25
54
56
cb
47
da
eb
d4
eb
e7
ba
ec
d7
b5
d4
46
22
e1
4e
66
5c
eb
e3
37
d3
db
bf
d1
de
3d
4e
ce
d9
dc
d9
ab
d1
1f
d5
d0
b6
13
6a
5b
61
56
db
80
5a
b1
4d
54
db
d3
5f
5d
5a
54
32
45
e6
93
70
f3
e6
55
eb
cf
b9
43
dd
ea
48
dc
d8
a8
dc
dd
ce
c8
a4
db
c0
d0
be
bf
51
e9
c5
cb
ca
ba
ce
21
4d
23
da
e0
e8
56
87
dc
4
d8
3b
61
97
61
36
c1
66
db
d2
59
dc
ad
6c
46
43
43
3a
ca
d9
db
22
dc
d1
4a
d5
ac
ca
dd
6d
de
dd
51
d3
ea
db
f1
e6
a7
81
da
41
56
56
c8
ce
ce
41
5a
45
5b
94
ca
45
bd
63
6c
39
80
63
be
43
55
5d
cb
1b
c6
48
58
5b
cc
60
64
63
e2
d3
df
22
4b
c8
cb
cc
39
e6
d3
45
d5
b9
42
db
c2
88
37
d5
27
c6
52
35
58
4b
45
6c
61
66
42
dc
de
60
ab
c9
ea
ca
e1
e0
52
e2
c4
d0
df
e2
55
58
e3
97
c2
ba
e6
db
56
cd
b9
a4
54
99
51
51
cf
a7
61
58
b7
3e
5e
cf
bd
56
32
d4
d8
48
a7
91
4b
49
93
41
c6
46
50
55
c7
d5
dd
eb
c8
4e
31
2a
99
a8
4a
81
56
e4
cf
cf
0
46
bc
cc
cd
df
c1
d5
c4
d3
3c
c9
cd
c2
d8
40
c6
e3
b2
4b
34
57
4c
e4
dd
c9
a7
59
63
3e
d7
c1
4c
da
2f
d5
c9
0
d1
ac
cc
dc
6a
59
2e
64
4e
55
61
5c
5c
68
65
56
ca
de
ca
63
5f
68
ab
45
34
cc
52
cb
48
b4
d7
de
bb
de
3c
4e
d1
d8
a0
c4
4b
26
6c
65
3d
5f
60
d2
67
80
22
43
44
d3
b2
cc
d9
54
38
1c
d9
d6
db
c
58
d8
45
bb
87
db
11
ca
2d
43
dd
3c
d5
d4
55
d8
39
d1
d5
db
d7
c5
ce
d3
4c
dc
bb
cf
4e
d4
0
50
80
4a
3e
42
d8
b8
c4
3b
ac
d2
b4
44
42
4a
dc
d1
a4
cd
35
d3
52
d3
d3
a9
5a
d8
ba
4a
37
41
15
da
46
3a
cb
bd
4c
3d
3d
d9
50
d5
0
45
59
57
bb
38
a6
3c
bb
d7
4c
85
54
80
d7
3f
da
d1
a4
53
bb
c7
1d
c0
c7
55
4c
d8
96
b7
4c
4e
cf
bf
c3
da
c9
ce
c6
c5
82
cb
bc
2b
4a
24
5a
55
50
da
c0
48
44
52
43
c7
3c
d9
81
5a
6
c2
56
31
d4
0
da
ac
24
11
d0
a
38
5c
51
5c
5b
45
a3
58
34
60
44
b9
5a
1f
ce
39
c0
b9
4c
3f
ba
64
a5
84
80
23
4
38
4c
b5
4d
54
a
56
9f
53
b9
da
de
de
c2
4d
17
5
c3
4d
52
4d
c3
ae
c6
ca
bc
c7
d2
65
52
62
c4
d6
d1
47
25
c4
29
4c
42
4e
20
d0
55
ce
80
c1
ab
56
a4
cc
d4
3d
c9
3f
db
85
d4
b2
d6
da
cb
da
3d
da
d7
ed
1
46
d1
43
26
d2
80
bf
39
39
3e
c2
27
26
4f
29
49
5c
aa
55
b0
2c
bd
3f
cd
dc
df
58
bc
c0
b0
d7
db
c0
ce
c6
42
4e
b2
53
d2
59
0
db
53
55
d8
56
1c
56
2a
dc
cd
db
38
c6
34
dc
4a
83
db
57
da
d4
d8
0
4a
3b
af
d6
80
43
47
49
54
3d
c8
d8
b0
c2
52
55
cd
4f
54
5a
cb
53
28
bf
55
3c
19
ba
52
c9
41
d5
4a
53
4c
c7
43
cc
44
d9
d5
ad
51
b8
b4
d7
56
1b
c7
1b
d4
cd
51
cc
d9
d8
44
58
36
d4
be
bb
58
59
59
57
53
b1
40
31
31
d2
d4
47
57
3a
d4
1f
27
a1
d8
d2
db
d3
51
54
49
42
cd
b9
4e
38
57
d1
d2
d5
3b
11
d7
d9
c7
d2
3f
42
4c
c8
db
8d
56
89
46
a
d5
38
4c
56
d7
40
d9
57
2c
44
31
4e
d6
c8
50
4c
da
b8
44
d3
31
a4
cc
da
b9
90
27
3a
b9
1c
41
d4
bd
a5
24
c3
0
db
d8
cd
cb
d4
ab
b8
c7
26
4e
d6
54
3f
d7
d6
35
c7
4f
d3
c9
b8
81
1d
ca
3c
4a
d0
cc
3
48
54
ce
3d
c6
da
ba
55
80
3f
59
54
54
d9
4a
d3
d8
af
d7
51
c8
da
53
48
cb
bd
4f
db
d3
17
d2
d2
cf
59
d1
c1
b1
5a
db
99
5a
d6
bf
95
d8
48
ce
af
9d
95
b4
4a
d6
d3
c7
c7
bb
d9
52
48
cb
2e
c1
3a
16
d2
d3
da
b9
42
59
c6
cc
b8
52
3f
47
3f
a8
3e
3d
55
b8
63
57
23
4e
b8
cf
d5
d6
83
3e
db
41
3e
c9
6f
36
dd
6f
48
92
64
dd
d6
5a
bd
3a
ae
33
9b
a4
db
e1
e6
d0
39
3e
de
96
40
c7
cd
99
35
52
b9
d9
4e
c1
de
32
72
e0
cf
5c
e5
d2
53
db
e
d9
53
53
d4
a1
33
d7
d1
b9
c7
cf
80
80
2e
db
5c
c0
cb
4c
bd
9a
65
b3
bd
69
54
4a
b1
59
d4
50
3b
50
d6
e5
da
d3
e2
c5
db
8f
d7
45
e
3e
e0
5b
3f
e8
3e
4a
ee
c2
c8
58
c5
55
cf
d6
cb
60
43
cc
dd
56
b7
ee
5d
d7
e1
53
b0
44
57
d1
52
11
44
4d
8
58
d7
ad
3c
3b
d5
24
c4
39
d9
d2
c8
d3
59
be
53
56
eb
b6
5a
e2
de
46
d5
cf
33
5d
4f
d3
4b
bd
45
40
cd
4a
cd
80
c7
d5
4e
ad
4c
4c
65
99
1e
2f
a7
ca
5f
4e
9e
5a
e0
dd
37
dd
80
3e
db
d4
6
3e
4a
c0
51
41
45
ca
25
56
c2
1e
3d
e2
3c
51
ab
19
5b
3f
b3
bc
11
52
be
ce
54
35
d6
3f
2
de
37
80
3f
50
2f
62
45
47
4c
53
5e
cc
c0
57
e1
d4
dc
d5
cc
d1
d6
ce
d0
d1
33
cd
4c
5a
d1
d0
80
37
5d
56
50
31
4d
4a
da
e0
57
e4
a2
ca
eb
2d
be
a2
52
d2
58
4a
d4
e8
ce
c8
54
54
c5
af
49
51
4d
34
84
67
aa
5d
54
6c
66
4b
c6
52
d6
e6
e0
d8
dc
ef
cd
5c
3a
c9
5a
4b
5b
43
66
c5
db
de
e0
6d
ca
49
bc
b9
d4
58
33
d8
7
cf
dd
e4
d2
d4
64
d8
c8
64
41
db
5b
bc
c5
b7
56
80
d4
32
5f
59
65
99
bb
dc
ea
b6
e4
e6
50
31
28
cd
d0
c2
58
c6
c8
d4
d9
a7
40
34
ba
cc
b0
bc
cb
bf
58
bc
5b
68
61
bc
0
d5
2d
4b
bb
4e
6e
50
6d
4c
da
b3
c3
f
35
9b
cc
4d
e6
c2
eb
55
68
51
e5
4b
37
d2
e2
b4
5a
69
cd
68
5f
57
a7
60
5c
5c
d3
d2
42
5c
bc
d1
cd
47
1f
35
bc
3f
da
b4
d4
5a
55
d9
40
91
c3
51
3d
de
bc
5d
e0
d1
1c
e2
c5
4d
52
40
d3
54
4a
db
67
68
de
33
46
21
5d
59
4f
4a
4f
45
90
3f
d2
49
c6
94
4a
b6
49
c1
44
cc
4a
56
54
a8
3e
c9
e0
b6
cb
c9
44
d4
49
68
51
5e
dd
f1
5a
d8
e9
60
d9
e4
5d
5c
62
cf
8e
34
a7
44
b9
42
9d
df
bb
30
c3
c6
82
c6
31
1e
cd
c4
c4
a3
bc
4d
53
b7
4f
af
bf
22
ae
c6
40
80
cd
48
5b
df
4b
4b
db
4b
23
a0
d2
d9
bf
d5
b7
34
2c
c6
3d
cb
d9
43
3c
dd
a8
da
e2
c6
60
27
4d
4f
55
dd
e2
a9
62
eb
d4
63
bd
5d
b7
58
d1
d2
39
3f
e3
59
0
c4
62
1d
e6
62
3c
b8
70
c2
e3
f3
f0
36
50
c9
d3
56
2f
51
cc
54
f1
46
d8
d3
5d
e1
d7
eb
1d
d5
4f
d1
3b
52
47
40
3b
56
dd
c1
e6
dd
61
2d
3d
70
8a
b1
4f
c5
80
3c
ce
3c
50
69
b2
4c
d0
aa
d1
d0
dd
d8
e2
3d
5d
67
dd
4d
5d
57
53
39
5d
5e
55
be
ce
44
52
49
49
cb
28
4c
51
57
23
4e
db
cc
e1
5f
e6
be
96
b7
d2
bf
36
5b
5b
ce
6f
3d
e5
db
e7
5b
a2
9c
26
dc
cb
23
d9
c0
c6
4b
4e
db
ce
e0
bb
d1
47
b1
c5
df
e2
d3
4f
b8
6f
6f
5a
dc
51
66
d0
4d
4c
5a
57
5d
ea
e0
f2
e0
cf
ed
5b
75
76
80
5b
64
c3
b5
2a
5d
22
54
d0
db
0
dc
be
de
54
63
6b
53
d3
cc
da
24
d9
44
cd
4f
cb
43
e4
a5
55
80
d5
ab
ee
bc
c7
dc
bc
d5
d9
5d
69
51
5c
5c
30
33
2e
5e
37
27
c8
d2
d7
3c
32
de
cd
e5
a6
95
4c
33
df
10
25
b2
c1
e0
ea
44
0
bf
cc
cb
b1
b7
51
4b
6a
5b
8b
4f
33
3d
ef
e8
95
dc
ca
d7
ca
d8
c4
d1
ca
e5
d0
df
cf
db
cb
ba
d5
d0
e2
c6
d9
43
b5
0
39
4e
cd
d3
37
c3
3d
58
c5
3e
4c
5a
5e
57
db
db
57
4d
37
d4
dd
ba
b4
a3
37
54
48
38
bc
cb
e2
c0
61
cb
38
c5
4e
2f
2f
1f
62
cd
c0
51
c3
d3
5f
3f
d2
c3
47
d8
c4
2f
45
aa
47
d2
48
be
46
39
44
47
cb
ad
0
f
28
4f
3d
5c
56
e1
de
97
e2
da
c1
d3
ab
2d
3d
3c
5b
0
65
69
b2
54
32
43
cb
57
9e
cb
af
c9
d3
3f
e3
e1
d2
4d
43
bd
54
49
51
59
dc
d3
bf
62
e2
3e
cd
3b
58
54
41
45
3e
2e
38
5c
3e
c7
46
c5
da
ab
bc
3a
ca
3e
c9
d2
6
3b
d9
cc
48
32
26
be
d
37
5a
62
4d
44
45
a4
d6
cb
ed
ca
48
53
db
bc
d3
51
ab
8
54
48
43
4c
b9
b1
c1
2a
51
4e
57
3e
42
db
34
15
b5
4c
e4
b7
80
35
2f
b7
5f
4e
54
80
4e
41
98
46
48
54
d2
d6
a5
c9
d1
d1
56
33
d4
d1
c7
4c
d0
65
92
ce
6c
d0
d0
c8
be
dd
be
c7
40
3a
c5
39
40
b9
1c
48
b2
80
38
3e
4a
dd
5f
44
12
42
d0
d2
d1
b9
d7
44
55
55
4b
46
d4
46
a0
4f
44
dd
cd
65
db
41
c6
c0
58
4a
52
20
5c
a5
3a
54
55
c2
d0
d9
db
49
17
54
39
55
3f
da
b4
bb
c1
c7
dd
30
3b
55
b8
d9
c8
34
d4
c7
41
e7
aa
b
4f
1d
ac
4a
c0
62
61
d7
e5
b3
4e
dd
42
60
63
53
69
4f
52
40
55
4f
3e
c8
d7
be
61
24
bd
dd
ab
b6
cb
b7
c4
4b
51
5a
bd
48
53
17
db
da
39
6a
4
2f
52
39
1e
4b
ad
4b
49
b9
9f
d9
c5
e9
63
bd
4d
9f
b2
a0
b0
d2
41
d6
44
88
de
ab
10
bd
dd
b7
d6
56
9
1
d2
dd
d0
59
e1
c3
c1
3c
54
59
54
d5
4c
b5
4f
da
34
30
cd
a8
d7
dc
40
c7
e7
4c
c8
e5
c8
22
18
b3
54
9
67
4c
bc
35
45
48
62
80
c9
cc
40
d7
d5
b4
d9
3e
0
cc
5d
5a
5d
44
5e
69
15
82
65
e6
45
e1
d8
c5
cd
c2
c6
bf
4f
5e
48
c5
c1
56
c4
d4
da
27
1f
46
de
b0
c3
ce
55
5a
f2
d8
c2
e2
c9
d0
e4
d9
d8
45
c2
d4
cf
35
9e
cb
d1
bc
50
58
61
bf
c1
57
bd
30
19
dc
da
80
dc
ca
c6
9d
af
2c
d1
ce
3f
d6
c4
32
4d
ce
4f
cc
c7
cd
dd
c9
e3
dc
ca
b6
be
d1
de
c2
97
cb
c6
29
c7
16
c6
96
55
56
d0
3e
bf
ce
55
54
d1
97
6a
55
cf
29
5b
d6
d9
6
c9
d0
35
da
a2
95
d1
9d
ca
d6
b3
5c
d2
4b
62
d5
39
c4
4d
56
33
80
58
c7
ac
59
54
65
59
c8
54
31
db
d1
d7
d2
4f
65
5f
28
de
cd
6d
57
b8
c6
e7
d2
ec
bb
41
4f
51
53
8b
44
46
d0
8c
42
af
e3
d0
d9
bf
c3
e6
c6
da
b5
bd
42
50
af
d8
c9
d6
c8
5c
d9
c6
4b
37
b8
da
ed
cb
57
0
d9
da
e2
9f
de
3b
4b
d3
58
37
27
80
5e
5c
46
11
4b
52
55
55
56
57
46
23
40
a7
35
64
c5
31
1
5d
43
57
db
3b
ce
d8
d2
d9
cf
57
c4
d5
e2
cc
d1
3f
68
c2
5a
59
c6
3b
a7
d9
bc
44
49
3b
63
2c
2d
55
57
d2
d9
81
d4
bf
da
4c
48
d9
c0
54
d6
59
40
db
cd
dc
4f
de
9e
44
c8
41
a6
56
d4
cb
ab
3
45
cd
d5
b5
d0
30
80
48
d8
c5
4e
40
ce
43
1c
d9
39
47
2e
44
d4
db
db
50
37
d4
90
cc
b5
d5
b8
33
d2
a0
d5
59
3a
59
d5
d2
41
35
54
d7
1f
39
d6
2a
37
53
40
d9
d0
ab
d2
a7
cc
c9
50
ce
ab
57
4e
c5
bd
24
48
d3
21
59
37
4c
59
c1
55
48
38
52
1c
ce
dd
d4
1d
c4
4f
48
d3
b8
4f
c9
e
55
bd
a1
da
45
4e
c6
cf
d1
50
4f
44
d5
54
81
ce
d7
0
b9
d9
4a
48
53
d1
58
3f
64
59
62
4e
57
c6
3a
34
d2
b0
57
58
ce
b4
66
b2
df
48
d0
c7
d2
d7
b7
e9
bd
5c
50
33
4e
5f
5e
4d
63
cc
3f
80
4b
ba
e9
5a
68
61
c8
8c
61
87
57
47
e6
d5
dd
1b
98
bc
33
ae
d3
d6
3a
26
d4
d2
cd
db
81
37
b9
48
26
d2
15
53
c8
4f
d0
d3
41
50
c6
49
3c
c4
8b
0
e0
53
30
2f
4f
da
b3
c6
d7
4a
ab
b8
47
31
43
43
4e
47
63
c8
aa
55
32
92
58
4a
5e
54
bd
ab
52
d5
b1
bb
57
c7
d6
e4
c7
56
26
d0
61
67
e8
5f
c7
51
59
df
b0
5e
42
d3
e0
a9
0
e8
d3
c0
cd
d7
cc
d6
be
5b
23
4b
35
dc
81
37
af
c3
d2
3f
5c
b0
c5
4b
ed
53
61
65
56
d8
59
dd
dc
45
e0
d8
30
d4
c0
57
66
64
70
47
a9
53
a7
bb
cb
56
53
52
3b
3f
cc
3c
d8
c6
75
5c
85
21
4f
32
14
1e
c2
47
59
d1
35
48
cc
43
bf
ca
d5
db
de
65
d6
ab
5f
a9
c0
46
a5
4c
4f
cb
3d
d4
58
2c
12
be
62
af
bd
b2
52
ad
98
81
d5
d2
c2
c3
a4
d5
c8
bc
e4
db
bf
54
bb
da
41
3b
9b
d8
db
d3
5d
31
51
a5
db
bf
c8
b3
b5
cc
af
c8
dc
d6
cb
e5
d2
e1
dc
4f
4a
4f
d4
4c
35
d9
dc
cb
4b
d5
3f
56
c9
2f
c4
48
d4
cf
50
c4
c7
58
4b
4d
59
55
3d
cf
bd
b2
d4
d5
c9
57
bd
e0
37
e1
cd
19
b2
2d
4f
59
d3
be
35
c9
45
5e
bd
4d
cb
e2
ad
d0
cb
c1
b8
b8
59
55
7
d5
d3
b3
d4
cf
c6
57
e5
b1
b8
d6
cb
41
e6
b8
80
b6
6e
66
64
6b
3e
6f
61
c6
62
56
46
3c
4c
29
64
c6
be
d9
23
be
3e
52
43
d4
f
a6
e2
4b
80
38
b9
a6
d0
cf
bf
54
4c
c5
3a
b5
34
d7
1a
35
22
b8
dd
43
d2
0
db
5a
4a
c8
d5
d9
c2
af
e
3d
d0
47
56
58
28
58
5a
20
b5
62
62
60
5e
5f
cb
be
c4
33
da
de
4d
ea
ed
5a
67
d4
47
d1
b3
df
be
2b
c5
4d
ba
cf
c8
c4
88
c0
35
de
4e
71
e3
e3
e7
5c
8d
80
d7
b9
ac
3f
be
2d
ed
d7
49
e5
5a
59
e0
cc
e9
46
55
52
54
5b
d7
80
b3
d3
3f
80
d4
5d
d1
35
5b
8
68
ca
52
8a
d5
4d
67
cb
2d
e1
bb
4e
be
d2
94
d9
47
55
4e
4c
ba
59
80
dc
3a
51
c2
50
55
5b
5c
0
ca
42
c7
d1
49
d5
a0
ce
26
d5
58
46
c9
b1
ae
48
51
42
57
4e
b2
cc
d9
ca
62
58
a7
24
5b
d0
3f
2a
c6
22
8a
98
c0
a6
d8
e4
d8
e7
c9
a2
99
e6
c2
b7
af
df
22
4b
c6
6c
6c
64
d1
d1
ed
70
2b
72
56
25
93
dd
e2
e5
de
b5
cc
31
5f
5e
dc
d4
18
cc
c3
bb
ba
c5
c0
d2
db
0
be
e9
d8
59
43
a
66
5e
1d
50
bd
51
a0
d4
54
c4
4a
4b
df
51
d4
da
36
d6
c1
52
57
4e
e0
e6
6a
3c
ae
e2
e2
5d
d3
e0
59
ba
ad
50
c6
5e
4b
d9
d7
e6
cc
bd
48
d4
4f
cb
dc
e4
e6
94
8b
c6
0
c5
19
20
51
53
2b
df
dd
4e
ba
2c
eb
d6
3
94
56
4c
d8
35
bc
8
c6
25
4f
54
4b
4f
22
cb
b3
42
32
a
c8
d6
50
d9
d1
b1
ca
a2
ce
c3
20
50
5b
4e
6d
77
45
ac
81
e9
d5
e6
e7
6b
54
1c
dd
d7
f2
d9
dc
d3
a3
62
5d
52
34
d2
5c
58
5a
38
b1
d8
cc
15
b0
db
c7
2c
73
51
d3
5c
57
cd
de
3f
de
c7
c5
96
c3
52
d3
c9
b4
4a
1b
db
d5
60
5e
d4
d8
c2
58
6a
54
63
a5
c5
57
f3
db
57
d6
d1
47
51
47
49
99
5b
53
e3
e2
df
43
df
e0
4c
d4
b5
e5
ee
eb
ba
d6
bd
da
46
a6
2a
cf
d4
5a
23
38
3f
d5
52
f7
de
5b
c6
44
37
bb
57
dd
dd
37
d5
4e
4c
cb
4a
3b
4c
d5
d0
53
d6
1d
59
d6
cb
4b
d3
54
39
33
50
d2
3e
42
59
cc
d7
ce
9a
cb
26
d1
cd
d5
db
d6
d1
43
b1
c0
d6
c7
4d
b0
42
aa
db
4b
21
45
d8
46
4e
d5
2
38
ce
9f
49
40
cd
c2
d9
cd
56
d3
c2
44
2a
4f
c1
d5
3b
58
b3
33
d9
da
ba
d6
c4
d7
49
db
d5
49
3f
d2
54
a3
d3
38
a5
d7
be
4a
b1
4b
80
58
95
c8
4a
5a
ce
59
50
59
55
d6
4e
47
d3
54
59
c1
37
2a
42
d9
53
d9
44
d0
4f
51
5a
c6
4b
53
d5
c3
4e
4c
c4
d8
46
cc
be
d3
50
cd
d8
5a
d7
d4
be
d2
bd
d6
56
4a
3f
4b
c0
c2
c2
cd
e0
2f
ab
4e
d3
39
d6
c9
56
4e
3a
e2
5c
68
db
39
8f
3f
23
58
43
e6
cd
64
ac
be
51
56
57
57
b0
d1
ce
eb
d6
5d
4b
4a
d8
cb
4b
52
23
b8
b9
62
5d
db
e6
cc
d6
db
ce
4a
45
51
c7
d8
b
47
2d
bf
d8
3f
c3
47
56
5c
3f
5f
c3
c9
df
d8
45
d0
cf
47
df
d6
60
b6
45
cc
20
be
56
38
60
b2
a2
4a
25
e1
40
bd
4a
cc
d0
47
59
4f
52
c9
49
c9
dc
b8
be
47
c8
b2
da
56
c0
59
26
53
4f
a4
ab
b2
9f
e6
c5
56
b6
65
c5
d2
c6
bb
cf
99
d0
ac
56
b1
9f
45
af
54
37
37
cf
44
d7
c6
52
d1
1f
cc
55
80
2d
4f
d2
4e
1
c8
cc
e2
df
cd
4f
5d
bc
db
c5
b7
ae
3c
dd
cd
c9
c5
55
54
48
4d
d5
d0
c1
aa
59
d6
21
52
1f
30
51
47
cb
be
cd
80
51
c9
aa
9e
da
c1
bf
51
a1
d2
5a
4d
55
a1
89
d4
31
59
5f
d8
cd
d0
5f
b8
bf
55
3d
cb
95
46
10
42
35
b4
d3
c4
43
d5
46
1b
80
18
53
4d
a3
c9
59
26
46
44
db
c5
3b
b4
50
d1
31
d6
b5
a8
2e
d4
94
c8
34
54
d8
5e
bb
cb
bb
62
4e
d8
da
22
d8
c4
51
3c
53
48
da
af
32
bd
44
c6
c1
c3
44
c9
46
c6
b8
53
bd
bc
2f
4f
81
bd
c0
9b
d6
51
44
52
6f
5c
52
c6
5c
57
5b
3d
28
e5
c2
bf
1a
e7
e9
d9
2b
49
de
b4
db
c4
dc
c9
e6
d6
3b
c8
db
d7
d4
63
53
60
51
49
b9
64
45
5b
cd
c3
56
d6
d0
d6
4e
d1
a4
d6
c9
d0
54
4f
4b
39
cc
4c
2b
80
46
65
c4
55
46
42
b6
60
45
49
cf
32
ca
de
1d
37
17
da
34
d5
25
3c
4c
d2
c2
e4
cd
d8
37
c8
d8
3d
56
44
3f
1c
2f
0
45
49
45
39
49
cf
c6
d5
30
c7
d7
1f
da
d3
af
56
4d
53
44
5b
59
3e
28
4e
39
c8
65
d6
46
3e
a2
30
cd
55
54
bc
92
b6
23
c7
22
49
dc
eb
60
4d
d9
4d
65
32
cf
2e
58
d6
a2
3b
d2
15
5d
5a
df
e3
64
b8
d5
5e
3f
52
c4
20
4d
c2
c4
44
20
d8
be
e5
af
57
db
bb
54
d0
cf
d9
50
54
30
b4
d6
c9
c4
48
a3
55
d7
e5
5a
c0
d7
62
62
50
cf
db
e2
a6
cb
dc
56
5a
bc
d6
aa
57
cd
20
1f
e6
dd
23
df
c5
bf
c8
de
0
dd
41
ad
89
cf
d1
bb
b5
b4
22
d1
b0
51
be
59
c9
48
4b
9c
cb
4b
67
b4
e2
64
cd
ca
65
48
2a
d0
de
db
bb
ca
3e
b4
4c
31
bc
5b
b9
a7
c3
3e
b4
47
26
4d
d8
1d
c1
4f
d
57
d2
d4
3e
da
bb
56
b4
20
5e
d9
30
ba
b5
e6
3e
9b
d7
96
3a
10
bb
39
9d
dd
4f
b4
bf
42
80
3d
55
a5
1d
57
c7
51
30
5a
e5
e6
de
df
c3
da
da
dd
d4
4b
d3
3f
c
2d
42
cb
37
50
a4
7
b2
96
0
54
b4
53
d7
cf
bf
dc
8c
4d
d5
50
55
d6
5b
80
5e
4d
c5
58
ba
55
62
ad
c8
37
80
49
c9
42
4f
d5
d3
53
58
0
b7
43
2f
a1
48
58
bf
40
1f
51
34
8e
d3
57
b6
62
49
44
58
80
4b
67
4e
e1
d6
e5
4c
d1
d1
80
d6
13
5b
9c
87
38
46
a7
db
b8
1b
80
a3
56
d2
d6
5f
ae
c4
dc
57
11
bf
50
65
31
c5
ca
4f
e2
38
4d
cb
e7
a3
d5
e5
ee
d9
dc
e1
5b
4e
bf
50
51
5b
41
4a
ce
db
c1
c9
56
b2
d9
4e
49
51
d4
52
4c
92
de
c8
5a
cd
d1
d1
42
d5
0
58
d1
59
45
4f
58
51
5b
47
5c
4b
d9
ce
38
da
df
90
d6
c4
ab
82
d6
ce
80
de
dc
b1
d5
be
53
52
b8
8d
d5
19
a9
ba
50
da
c9
df
df
d9
db
d9
db
df
47
53
41
4e
aa
57
57
43
d6
4c
50
60
31
5a
5b
ca
cc
36
d4
2e
40
37
53
51
42
c5
3b
52
5c
46
51
47
c9
9d
3b
35
d1
da
55
41
dd
45
1a
3d
57
80
55
5f
55
cc
1d
3f
c5
dc
e8
d6
4f
e6
df
53
14
db
37
b8
da
b6
ac
d5
53
b8
a3
68
c1
b8
cf
d7
58
46
d2
4b
b3
3e
c7
5b
dd
c8
61
b4
52
5d
bc
38
58
2f
cf
a6
46
48
36
d8
cb
d3
cf
d7
c0
3a
d8
60
52
e4
d6
55
54
46
5e
2f
4f
a
60
b8
25
bb
c4
4c
9a
dc
cd
bf
47
35
81
28
42
c3
b0
e1
ae
d0
e1
e6
bf
b2
db
8a
da
c7
80
db
20
bf
d3
d5
81
e9
e4
57
e4
c2
61
db
c5
60
c9
48
5b
47
49
55
af
3d
d6
39
57
d5
53
3a
b8
4a
cb
80
d2
42
a0
e1
c3
c0
b7
d0
58
d8
e3
d6
40
48
d4
5c
c4
d5
5a
58
aa
64
5e
d7
ce
d6
e1
e6
c0
4d
9d
62
b6
52
3d
40
dc
d1
b4
ce
4d
ce
cb
cd
52
93
d6
d7
47
dd
c9
64
4b
bd
37
d6
c2
cd
b3
cf
59
b9
4f
d6
d8
24
b6
d1
b7
51
c9
39
d4
dd
c7
d8
2c
55
57
69
63
da
c9
95
1f
52
5c
59
ce
d0
33
b2
e0
d0
ae
2f
43
d8
3e
e3
cf
5a
d7
2b
51
b9
46
5a
29
48
50
d6
a
cd
cc
c4
47
60
5e
5d
d9
e0
15
d6
19
54
e4
e5
c5
d6
cd
c6
52
c3
b5
47
c6
be
c8
b6
44
d8
57
5f
54
cd
cb
bd
d3
48
c5
d3
32
53
57
60
bf
48
3b
5e
9f
da
80
e0
e1
84
e5
bc
e2
e7
d7
4c
68
6c
5b
58
4
5d
d8
d7
3e
51
c6
da
8e
d1
4e
40
3d
de
d3
91
ce
ca
cb
be
d9
e8
80
d0
c1
3d
4b
52
8a
80
43
56
c2
0
cd
ce
c2
c5
d3
d3
c6
5b
2f
63
59
2f
6c
4a
db
5d
d7
46
c0
80
35
34
4a
49
ca
d4
a3
d3
cc
4a
33
d9
cb
db
d8
c1
0
e1
39
cd
c9
e0
d8
cf
b9
d6
58
39
b0
50
52
c0
d7
42
24
9b
a2
64
cd
9
c0
d0
db
cc
c2
d3
c5
1d
de
4e
4d
57
32
d3
5e
da
d5
4b
55
b5
4f
c7
5c
48
4a
96
4b
bd
b0
34
b8
d0
dd
bf
d5
b5
94
da
df
ce
c7
a7
55
5c
59
d4
47
52
e3
e1
0
d8
e0
df
b8
53
54
b3
9a
bc
50
c0
5b
ad
d9
dc
57
4e
4b
5a
b1
3a
d1
da
97
c4
d2
bd
bf
d5
a3
99
40
20
1b
c4
db
4b
d0
c6
dd
44
ca
d0
df
c9
39
af
d6
2e
e2
c1
25
a1
dc
cc
c5
a3
bc
56
63
5e
5d
b0
55
41
4a
67
62
5a
4b
56
68
c8
37
3e
44
50
18
20
bc
80
4a
56
8a
de
ed
f2
64
5b
37
67
65
6e
c9
cc
54
a7
13
81
a3
ad
46
