5f
b9
63
60
58
c9
c0
5c
c8
c5
5a
45
54
4a
64
81
e3
2c
e2
d2
b8
b9
58
3f
d3
5f
4f
6b
c6
57
50
66
6d
ed
db
c0
5b
77
cc
64
d0
5b
44
dc
61
3a
4c
dc
d8
ce
b8
d9
d2
42
61
23
e5
db
cf
55
d7
67
3b
e0
5b
de
64
5c
6e
52
5a
e1
55
d6
6b
e8
3c
5e
d7
58
53
0
49
40
46
df
e1
6b
2a
42
41
57
42
ca
e6
d1
bb
c5
68
4a
d6
4d
e8
e8
cd
dd
e9
97
55
da
67
62
6b
6b
80
6b
71
ea
57
54
8
8e
d8
c9
39
58
6b
46
5b
44
5a
68
b0
50
c4
92
e0
c7
c9
b5
50
df
51
c3
bc
ce
4d
33
74
4b
ce
aa
c3
d8
44
3e
4b
d1
3a
e8
39
6a
de
6d
84
e2
45
e1
df
62
71
6c
3b
cd
f3
80
59
d8
ee
30
58
df
de
dc
3d
44
da
cf
3f
53
d3
cd
64
da
65
6a
5d
39
5e
61
e3
48
69
dd
d6
c2
42
5b
cd
5d
c8
dc
46
d9
ca
77
32
b3
c7
dd
de
c1
45
4d
df
3d
57
66
ec
f4
dc
71
3e
f3
64
67
2d
58
dc
6
2c
c2
23
27
d5
ef
61
5a
6d
27
6f
e0
9c
58
69
ef
e3
58
55
4e
4
d3
6e
80
d2
39
5f
dc
d9
e3
80
65
55
16
72
53
69
55
e5
e6
a0
2c
e9
42
1c
4d
c0
d5
ca
e7
ea
dd
e8
dc
81
c0
46
b7
60
0
c6
ce
bf
5c
d3
d3
69
60
a2
61
6d
44
9b
c6
63
61
d3
d9
61
2a
2c
de
48
6b
49
bf
ce
ef
ad
dc
37
bc
51
e5
5d
59
51
48
62
68
be
85
da
a7
4a
32
5a
c5
bb
38
59
cf
c3
dd
e2
69
c1
5c
70
e2
4c
45
a0
5d
e9
7f
64
5b
40
b5
ea
3e
e0
e1
52
b1
6b
4f
cd
f0
de
ef
70
e6
bd
b1
5a
2a
b8
c7
d3
53
48
52
2b
5e
dc
b5
d6
5c
d3
ce
d5
d6
cb
c5
46
c6
60
cd
da
50
2b
91
cc
48
da
39
d5
59
31
5d
c1
e0
ae
ba
58
27
dd
d4
58
46
dd
ad
dd
dd
be
54
9d
37
59
9a
dc
db
5e
43
ba
da
de
de
2e
3e
15
4d
cc
ce
52
60
b5
c3
da
a1
df
55
e3
68
27
51
ad
de
d6
d1
60
5c
e1
6c
57
2a
49
b1
63
dc
ca
6c
65
db
3a
79
ad
e3
4e
c6
8b
b8
e5
4b
d4
a9
62
5b
56
dd
bb
e1
ea
35
6f
e6
2f
36
7e
e9
d5
5d
53
c2
b5
34
4b
25
da
c6
c3
f
44
cb
e8
54
d4
d8
6a
8b
4e
d9
db
59
dc
df
57
51
53
e9
3d
d1
d8
4a
e0
b8
dc
1d
d7
7
df
47
ba
c1
cc
1a
e4
58
4c
e2
94
a6
d4
5d
e0
d6
d5
56
2c
c1
4d
66
51
a9
cc
d7
5a
b9
71
80
cd
a4
4b
5b
b9
ca
57
df
c7
e6
d4
bd
d4
e1
65
be
64
43
c9
2a
5b
63
3c
dd
bc
dc
e1
58
e0
d8
57
e3
d7
bf
df
f1
48
51
48
cf
e1
c2
59
49
4b
60
40
74
d6
dc
d4
58
c1
64
30
e6
58
81
d4
cf
51
bd
cd
57
b8
43
d1
d6
aa
55
aa
5d
3d
db
53
d5
df
b7
dc
de
24
42
3f
4e
e0
db
5d
c3
c9
ad
df
46
41
59
dc
59
cf
4f
59
d7
e0
45
d1
dd
d6
dc
cf
be
dd
4b
d8
d1
e1
4e
5c
3d
4f
c2
5c
aa
ce
25
63
41
75
6c
e7
e1
2a
d3
e3
cd
d4
0
e4
c1
dd
40
e8
72
65
df
51
58
bf
6d
4f
c9
c3
d7
da
4e
5d
da
f1
e6
35
5f
e8
50
e9
d3
55
d9
39
6e
61
33
c8
c7
70
65
f3
d9
d8
67
28
3f
eb
4f
66
ec
5d
71
5e
c6
56
92
c0
e9
b5
43
28
c2
4f
bf
b2
3a
b4
b0
e5
e2
57
c4
68
a3
d6
4b
5b
e1
dd
2e
70
69
9d
cf
69
80
cf
e6
4e
23
7a
d5
d0
dd
9c
59
20
74
e6
57
72
64
51
e3
4f
70
df
2a
28
40
6b
d0
61
58
b2
df
c3
dd
d9
a1
de
d4
e1
41
e0
da
db
16
d1
d5
ca
5d
24
c7
cc
25
d5
e1
db
d6
52
e1
5e
d9
dd
ad
4a
ba
c
5d
df
b8
3a
d1
d3
d0
21
c5
d4
42
40
1b
a4
c5
57
5f
c4
cd
de
4b
49
1f
cf
53
df
5d
d5
c8
de
dd
ab
3e
66
db
69
71
9d
1e
e9
51
43
51
41
b3
b0
80
53
44
d3
cb
59
51
4b
4f
cf
6a
d4
da
e8
68
d5
9c
2e
78
f3
c3
f1
47
56
df
c7
d4
e2
5e
ea
70
e5
d6
5d
71
e9
c3
db
61
6e
d7
ea
db
d2
58
76
4c
3c
a2
ea
b4
9d
db
c2
48
cf
db
41
87
e0
e0
40
d9
b3
b
ba
dc
59
5c
ca
63
dc
d2
50
dd
da
aa
ca
dd
cb
d2
1e
3c
e5
45
d1
53
1f
41
69
b7
d9
e0
c0
42
c2
dc
d7
d7
c4
dc
53
d0
60
5c
67
4a
c9
c4
b3
bb
4d
cd
4d
db
