61
e6
38
5f
3c
5b
55
69
24
dc
5d
2a
9c
5c
48
d9
44
d3
c0
9c
33
4d
d3
51
51
66
67
be
dd
eb
54
bd
c7
48
3b
52
0
ba
9f
e5
e6
c7
dc
14
37
eb
eb
46
23
e2
5b
be
4e
af
4f
3e
95
d2
c7
e6
83
64
ea
56
ba
5c
a4
c2
2b
54
30
59
e5
4c
cc
d9
45
42
59
6a
e2
d4
5a
d6
58
a9
5a
ad
33
d8
d3
e1
bb
3a
c4
ac
5d
50
5a
e9
eb
d7
a1
60
60
d3
48
b5
c1
86
41
50
a6
4e
3d
58
5e
1b
33
61
c1
80
58
c2
d0
48
61
8d
5d
c2
d5
c9
5e
23
cb
dd
e1
ae
cc
de
cd
9
58
1e
61
3f
c9
6a
3b
e6
54
31
f2
b9
53
d7
d1
a0
5c
36
5c
da
47
c2
37
27
e4
ab
51
ae
d4
39
aa
e0
59
81
cc
ae
15
4d
52
d8
50
44
30
0
57
41
ce
55
4b
db
59
27
de
67
de
c2
d1
44
39
df
58
54
f0
3c
5d
b7
d5
c0
4e
61
45
4a
d0
a9
f3
e2
60
e2
68
6a
42
5b
4e
31
36
b4
52
ae
42
bb
80
da
62
cf
ac
49
e0
c6
5c
dd
28
48
53
53
66
44
25
62
cd
a7
cd
cd
d2
d9
b0
c6
bf
5e
36
cf
42
d4
c5
4e
ad
e7
cb
c8
61
56
c4
61
cf
1a
c6
df
ca
bb
dc
36
c5
d7
4e
d7
4f
c0
59
cb
dc
dd
e1
df
63
7c
62
d5
48
c7
52
50
ad
46
4c
3f
c2
26
52
de
df
50
57
5c
d7
e5
d7
33
aa
e0
cf
4d
4c
91
68
5f
3f
4b
26
d4
b5
cb
8
64
6c
45
e9
f6
f1
38
cf
50
40
e9
80
67
54
63
42
c6
33
c3
d3
cb
cb
d3
df
4c
d9
d3
74
e7
54
71
eb
59
4d
30
4e
30
d0
b
4b
4d
b
5a
53
ce
d9
b3
47
cc
d1
4f
e4
c9
34
61
ce
c1
1e
3d
46
33
31
cb
8
dc
11
e4
af
5d
e1
47
54
de
e3
b0
51
c6
46
c1
1e
c4
42
b4
e0
30
59
8d
ea
e5
69
4b
6d
b0
51
4c
d1
ca
1
ae
e2
e5
dd
58
45
66
58
45
6b
8e
57
dc
2c
bb
99
d6
d0
4d
4a
56
af
5d
b0
dd
3e
39
51
5c
bd
50
5a
57
3b
dd
da
4b
58
b7
d4
cc
a5
51
45
af
5e
59
43
5b
e6
e0
c5
63
4b
df
87
c9
ad
4d
2a
d8
36
e1
eb
d9
4a
0
0
c7
c1
d9
d7
35
ec
6b
61
e9
80
65
6c
ee
c3
2d
80
b1
52
9b
ad
c4
d5
5b
3c
d7
b2
51
c3
80
66
be
df
5f
c5
cd
c5
53
80
59
41
1e
c8
4e
4d
cb
c4
4c
d8
33
ce
c5
c5
cd
5a
e1
d9
76
dd
d1
d0
57
39
d7
3c
2b
5b
56
d0
2c
52
d6
bb
d6
bc
bf
a3
d7
d8
d5
3d
53
2e
c6
9b
3a
48
58
af
be
5c
42
4e
c6
cb
57
3f
d0
d2
48
ba
5e
cf
cc
46
36
5f
bf
c5
5e
5a
42
d7
ba
9
47
d0
23
22
dd
b2
37
8a
51
26
cd
da
5c
b0
c2
c4
51
d7
d0
d5
5f
d7
ca
5b
dd
dc
d7
9a
51
4f
4d
c0
50
5b
a2
67
5b
d0
67
d0
68
62
d8
cf
49
a3
dd
51
19
38
4a
29
d6
ef
f1
e5
e5
c9
db
81
6d
5f
b9
5c
34
cd
b4
3c
d9
96
cf
d4
4a
d2
50
43
5b
5e
cf
c1
6c
bf
dc
5c
e3
2a
34
5d
c3
21
d5
45
3c
31
37
df
e1
2c
bd
0
43
cb
45
b8
4d
43
4f
60
cd
59
ce
33
98
f5
6a
66
c7
5b
45
d1
cd
4f
ac
ce
95
c3
d8
2d
da
cf
d2
e1
db
b5
df
c4
d8
bb
4b
cc
d9
5c
5c
5c
4f
4b
63
4d
d2
ca
41
be
b5
bb
3d
d5
60
b7
eb
6c
4a
6b
47
cb
62
d1
e0
5d
b7
3d
80
58
43
52
c9
4f
c3
b4
8
42
c8
98
47
71
d6
4d
5f
41
bb
da
b3
29
cc
dc
cf
3b
52
d8
44
5d
e0
26
c0
ea
a0
a1
eb
b8
58
dd
80
d4
2d
ca
2b
57
b3
3b
bc
48
d2
26
52
50
6b
69
cc
dc
5f
cd
d6
cc
4b
51
e5
9c
53
5b
50
55
d4
63
d8
e1
90
ca
e1
48
e4
ea
c2
b8
da
ba
b3
bd
c3
45
52
d9
d5
5a
d5
2f
2a
a4
55
4c
36
56
b7
cd
e
b2
5c
80
cc
5a
d3
80
63
5b
db
80
81
db
ce
d0
2d
34
55
2f
5e
50
c2
58
35
67
e0
c5
d7
d7
bf
d0
d6
59
d0
d2
4c
d3
66
40
d4
1f
ce
bb
59
58
9f
5c
d2
34
d7
54
76
70
c8
d7
5e
47
43
cd
5b
d9
45
db
58
da
d8
42
48
ca
b9
e9
30
db
d8
c7
40
c0
dd
57
68
d0
dd
c5
d8
d7
e4
20
3c
65
b9
ad
4d
4d
47
70
e1
c4
e3
a7
64
dc
c1
cc
de
70
62
47
26
d3
cc
5
e8
b5
a2
4d
56
dd
bc
31
39
ce
5b
6c
66
47
e1
eb
d6
67
59
3a
87
56
dc
5b
af
d7
4b
d9
46
9a
cb
e1
dc
c7
d7
40
4b
43
cc
65
64
d3
ea
b6
db
da
c3
44
61
70
40
27
42
53
60
5e
58
bc
e2
b5
e2
ec
11
5f
d1
18
d1
5d
38
52
5c
dd
db
cc
cc
aa
1b
4b
4d
52
61
53
90
5a
68
5e
b1
c7
cc
d4
da
cf
d5
53
57
4a
49
bf
c8
52
53
dc
bc
3a
a4
18
e0
d6
d6
c2
65
4a
64
58
59
56
b8
c3
81
5c
9e
22
ac
55
4d
cf
cb
bf
50
db
e6
62
64
4a
47
51
0
b3
c7
89
d3
e6
c6
15
b8
3a
dc
de
ca
40
db
43
d7
ce
d1
5f
45
45
5f
69
e8
57
cb
e7
da
3c
c1
3b
b9
96
45
52
49
ac
5c
5d
35
4a
c5
bf
0
5f
db
d6
c
d1
bd
d2
3d
df
c6
80
62
5e
50
43
26
52
42
ad
c9
e7
d3
e7
3c
bd
91
52
c8
59
d1
3d
cd
a7
66
f2
c7
6a
56
b9
d8
d
46
d3
c1
e3
d0
28
41
a5
33
bb
55
37
3b
90
5a
4d
d8
39
2a
51
d6
4d
db
c4
5c
55
26
aa
ae
53
38
26
34
5a
59
dd
0
4e
d9
d9
dc
55
4d
d2
4e
55
c0
b3
5c
c6
e7
e5
29
b7
65
43
59
6b
65
e4
b2
47
de
4c
64
f1
cd
63
ab
d3
40
d1
d5
c5
e1
e4
d1
56
64
51
a6
28
66
f8
f1
3f
5b
ca
bb
d0
5a
dd
51
b0
c1
4c
27
5e
e0
bf
5d
d4
d9
41
62
5d
5d
4e
26
4b
d4
53
43
57
5b
3d
a6
b1
3e
d2
dd
81
3e
ca
5b
b1
da
cd
bb
a4
da
c9
c9
d8
64
5e
da
39
80
dd
2c
ce
a6
4a
65
65
d0
54
43
15
83
de
de
de
cc
57
6f
5e
c6
57
d4
dc
b8
83
12
d9
a6
5a
68
61
cf
d9
55
5a
0
ba
2b
5d
6d
cf
a7
52
52
61
50
57
55
a2
43
93
21
3a
2d
17
f
a3
d5
c4
4b
c9
e9
d7
e8
bd
e8
e7
5c
e1
2f
6c
39
60
db
e2
d2
23
de
cb
cb
96
cd
ce
d8
e1
52
db
cc
9
5e
ab
dc
33
58
59
dd
42
3b
ce
cf
52
dd
61
52
32
d6
5e
36
38
c1
5f
74
46
93
d0
ae
48
ce
b9
5d
2f
67
42
53
5b
12
5b
65
c0
f7
d7
b4
db
43
62
4f
65
d0
d9
0
dc
67
9d
cb
4f
bb
df
e4
57
4d
d0
34
8a
9a
48
68
22
6c
53
c3
52
eb
d7
c0
59
44
a
da
15
5b
59
da
45
30
d1
86
41
bc
cc
e3
e8
b5
df
ab
59
a6
4b
2e
8f
58
51
25
ce
6e
0
c1
57
ab
e9
71
5a
5d
61
e0
d0
25
e5
31
cf
c7
60
39
43
3f
37
54
2a
c1
c3
e6
51
4f
e4
c6
dd
44
cb
6b
d5
e9
60
dc
c0
96
4c
d1
d4
d9
d9
d8
d2
59
38
bd
61
69
56
a3
52
e3
cb
c7
39
52
49
43
da
57
c4
4d
54
5c
3d
5c
e9
88
0
d4
5a
5d
e0
e5
e1
6a
e4
8a
55
cc
3e
c9
e5
b9
d5
31
d1
47
5d
cc
db
34
69
aa
4d
a4
5c
2f
5e
58
c2
d7
3b
80
59
c6
d7
d3
8d
52
c3
53
49
be
d6
b0
a8
bc
37
1e
c2
d7
59
da
52
8e
cb
59
57
57
cf
54
d5
d4
59
dd
be
ce
c8
52
5b
3a
36
3e
d5
b9
da
4e
4c
c2
d6
57
38
db
c8
d2
db
d5
c8
a8
db
52
d4
5c
d7
d8
5a
97
ca
ad
ca
3b
f2
62
5e
df
d4
34
69
5f
47
b2
48
59
da
b7
cf
53
dc
d7
df
4b
dc
c8
96
d3
38
4b
67
de
26
5e
55
dc
d2
80
cb
c2
62
68
65
bf
d1
b7
19
1e
56
58
5d
59
a0
e8
cc
e6
ca
62
0
e9
e3
31
3b
61
d1
b6
4b
d6
e4
50
d8
cb
48
4a
5c
cb
d3
41
c7
93
d9
b2
d5
55
a9
c4
31
ae
dc
ce
d9
ad
d4
c0
45
d6
2f
56
be
55
4b
c6
4e
4e
a6
3d
43
db
42
b4
d9
2f
4d
55
46
d2
d9
2e
4f
d8
4c
97
dd
dd
3b
c7
d5
2a
0
cd
ad
d6
91
da
d5
80
d1
d7
ca
11
dc
93
81
da
57
58
48
cf
49
68
c3
df
7f
cc
e3
41
40
48
d2
c2
3b
dc
54
dc
d9
4b
c8
d8
3f
d8
51
d9
38
d6
e7
c0
8e
65
2a
bd
1c
56
a8
2a
4e
63
5e
66
53
4c
2d
62
c1
2d
70
ef
e7
cc
e1
6e
e6
37
1f
e5
db
52
5a
5a
65
db
db
9b
ce
dc
da
a2
e9
38
dc
42
71
63
d5
dc
d1
ec
df
6e
24
d8
47
db
ba
c5
81
da
ce
c3
81
db
be
cc
2f
4b
35
5a
28
d
b2
c1
3f
c9
c9
55
54
d3
d7
5b
22
f
b4
bf
dc
46
d3
4b
99
31
cd
c
66
a1
e4
90
ec
a1
dd
e0
57
de
5a
59
5a
b3
d8
be
54
c5
4e
43
65
52
c3
a1
3b
be
c7
ce
b5
da
c3
5a
30
c1
bb
c6
3c
5b
d5
80
42
dc
c9
dc
5a
cc
4f
53
d4
b8
3a
42
dc
2f
da
cf
14
57
40
4f
80
59
d3
cf
32
cc
cc
d4
cf
4e
5c
c7
80
cf
33
2c
cc
d2
bc
da
d8
55
53
2f
0
d4
55
58
be
5d
ce
a1
4d
dd
b6
6b
c5
cd
7f
e8
a3
3e
97
ba
5b
da
58
4e
dc
ce
38
d9
c0
d5
b9
3a
5e
ae
3b
e2
44
e3
ec
e5
ca
4a
a
5e
2d
63
55
c0
c9
cd
45
c3
5f
5c
cb
d9
e7
c2
98
67
de
32
40
3d
c0
39
46
3d
c4
2a
26
54
5a
d8
be
e1
84
59
e4
d5
c3
a8
c0
3c
4e
42
65
58
eb
56
72
4e
ca
ce
5d
dc
81
5d
40
d2
cd
31
50
bd
3d
47
1e
d8
4a
d7
d0
da
b5
a3
e9
bd
57
e7
66
94
98
68
23
3f
64
65
60
b6
4e
5f
d5
d1
d2
ec
e4
c6
53
18
31
63
d1
4a
6a
e9
fb
b8
de
df
93
59
bd
b4
a2
e5
30
ee
4d
4b
5b
61
4d
56
ab
53
52
da
b3
dc
d4
45
bb
59
61
37
3d
b0
c9
af
5f
4c
38
4f
c8
bc
42
a1
4e
ce
4a
46
cf
ca
c8
b4
df
d7
9c
28
50
b8
e1
cf
4c
4f
24
48
55
c9
ed
ef
cf
d0
bb
66
c4
63
4c
cb
dd
d6
1c
d8
c6
47
53
b9
