ca
48
11
2d
59
84
42
3f
c4
bf
c1
ba
1f
83
33
15
bf
33
49
52
c0
42
43
ce
be
2e
8b
38
86
b9
4b
33
b6
42
92
c3
48
5f
19
23
5c
4f
bb
52
48
cc
35
29
cd
ad
3b
3a
10
af
46
45
80
54
3b
af
29
36
81
bf
22
56
54
c1
34
be
3a
34
ca
4b
10
ae
2a
be
ab
ad
d4
37
41
3f
c4
4
4c
b6
2c
bf
33
b0
ce
c6
34
c7
d1
3f
b1
45
49
ce
4b
4c
b4
41
3a
39
d7
2e
4b
2a
d5
51
a2
48
82
b7
52
47
b
54
0
1e
48
36
d4
c0
30
e0
c5
b9
d4
cd
14
8c
a7
3a
3f
20
33
81
a2
12
c7
3b
36
ba
25
c6
d7
d2
37
e0
a0
46
ba
e1
48
1
49
9f
ce
49
43
c1
45
81
3b
4a
27
40
2
c9
40
be
0
b9
c8
29
8d
4e
2e
b3
4d
12
c0
4f
44
e5
68
4e
e5
73
bd
d4
2f
2a
cc
ce
28
db
d1
a9
54
c4
c9
34
80
b8
33
c6
80
c8
c3
3f
43
30
2b
ce
4c
c2
80
4e
c0
52
b2
c8
44
b5
c1
a1
96
19
b5
31
48
a2
42
bb
b6
38
2a
57
c5
98
50
c1
42
a4
a8
42
43
40
9d
29
c
b5
bd
b5
3d
c0
b9
d4
26
d0
cc
34
b5
32
4c
ca
ad
41
a6
c3
38
b2
a4
49
46
ae
34
48
1d
1a
47
c1
2f
bb
bc
4a
b7
bc
b5
d0
9f
ae
de
af
93
cb
c2
d0
b9
81
34
35
93
55
55
44
53
5a
41
40
ba
cb
4d
cd
c9
42
c2
c8
b4
3b
80
bf
4b
af
a8
4e
80
48
32
c6
40
48
c9
1a
85
b4
57
41
cd
80
e
bb
c
c0
c0
bb
ab
43
87
96
c1
40
c2
d6
40
c1
c8
45
cc
c2
2a
c1
cd
22
cc
c9
96
49
af
c7
ae
34
da
c7
4b
de
81
5a
d2
48
42
49
b4
bf
53
b1
b2
56
45
19
37
a9
31
49
2f
46
c0
4d
a4
31
44
3e
1f
2f
bb
c2
c6
3b
46
c8
94
37
4a
ae
36
47
27
57
36
b4
55
5d
a8
12
4b
c3
55
25
d1
51
82
c5
2d
1b
41
6
9a
25
50
d0
3d
3a
b2
40
33
53
8f
3b
56
b5
34
49
80
ba
b1
c4
b6
d7
cc
16
d1
b9
48
b8
ac
5b
cc
cb
49
b7
c7
b3
80
26
42
bc
25
0
e
2b
3f
45
c8
44
44
ba
c7
4b
23
80
3d
29
a0
18
aa
39
3a
ae
c5
2e
c8
28
3e
c8
99
49
c7
a1
c1
42
bc
2c
16
d3
c9
be
2c
2e
4d
a0
6
58
22
ba
38
d6
33
c4
bd
2c
30
42
33
c7
39
cb
b3
cc
b9
2c
aa
43
22
51
3c
b7
4d
4c
b9
43
b3
2d
53
54
4d
ae
5a
5f
ba
60
5f
b1
3a
63
ad
b3
52
d6
e
5c
46
50
d2
b9
47
d0
d8
b
11
48
52
98
49
8c
cd
b3
b7
b5
c3
b5
3d
bb
33
bb
37
cd
d3
ca
d5
d6
d7
d5
d2
c9
cc
ae
a5
4d
c8
98
80
3e
aa
4a
3a
57
43
c9
3a
57
ac
a3
38
4d
36
93
3e
c7
bb
29
c9
c8
48
c3
47
3b
d3
44
a2
c6
44
2f
6a
ea
db
74
f8
cc
4a
be
95
3a
d3
d4
e3
d5
d0
e1
b6
c7
a6
98
90
be
cd
cf
4d
47
b0
aa
60
37
d1
76
c2
c8
5a
b9
f
d1
d6
c0
81
d0
c0
a2
c3
1a
4
1
3d
ba
b9
26
26
36
b8
bb
e
ca
2b
c9
e0
80
95
c4
26
c2
56
35
ca
45
b2
55
4b
52
da
44
62
e3
31
51
d5
dd
aa
5b
ca
c1
51
c7
33
47
49
cc
1e
c8
31
b1
dd
3e
22
bf
53
4c
b5
5a
2c
1d
40
3d
bb
e4
42
bd
db
5a
c7
3f
67
b5
31
4a
5b
81
8b
45
46
b7
54
ec
33
57
e0
d1
40
ae
b3
c0
50
c1
0
3f
cb
9c
80
2b
c3
37
80
a0
12
c3
c4
b0
ab
30
2c
9
47
13
87
3a
19
b7
dd
50
c1
e2
54
47
c3
1d
46
41
d8
37
2d
ed
55
a7
7
4d
cd
1f
49
c9
3f
33
d7
27
4c
d5
c6
44
db
ce
b5
d6
c5
be
40
dd
1e
55
de
cd
2a
92
b7
ca
82
3d
c3
4a
bd
9d
c8
2e
52
b5
d3
4e
21
cd
40
27
d
c7
34
49
7
34
a3
c6
10
48
a4
c5
0
c1
b1
c0
ce
80
45
3b
5a
d1
2c
63
d4
4a
47
bc
51
67
aa
58
66
aa
5b
5b
d2
c9
47
4c
ce
57
80
b6
32
bb
43
c6
2c
c2
c2
a4
40
c8
b6
de
3f
5f
e6
41
61
ea
b5
67
b3
35
55
ae
44
3b
30
92
be
35
dc
cd
d3
da
cc
d6
c5
97
54
29
c0
4d
80
b0
bd
35
3b
9
ca
ce
25
cf
cd
b7
9d
a6
39
75
ef
51
64
eb
81
80
cf
2b
6d
c6
61
63
81
55
15
6
ba
a3
cb
b5
15
41
ba
99
81
c2
dc
96
c5
ab
ac
be
30
3c
d9
3e
48
d6
4c
4a
a0
a5
40
b6
55
b2
97
4d
1a
2c
43
a
3e
67
d0
42
6c
a1
0
54
3c
e5
80
5c
e6
3a
57
ee
3e
62
dc
bd
56
d4
1e
52
d9
b1
4e
42
b3
4e
89
4d
1e
ca
20
42
c9
3c
94
2f
e7
65
d5
b8
5f
4e
c4
d3
bb
ba
cd
d1
be
bb
c9
5d
35
ce
4d
ae
b6
47
8d
44
9c
b4
47
d1
31
ae
d2
ae
57
ae
ce
61
e0
ca
4d
d4
b7
1e
c7
4f
38
38
4a
43
47
b4
58
3e
63
38
e8
63
ba
da
d0
c4
cd
ae
bd
b7
2c
c3
1f
55
67
cf
d0
4d
b4
bf
50
82
aa
9e
27
ac
60
d0
c5
3d
28
c8
3a
3b
a6
b
e7
ce
cb
c0
a8
30
48
3f
40
7
2d
94
97
33
3e
40
89
2a
d4
c2
2e
ac
b0
b1
94
9c
3d
49
37
c6
a0
35
d2
be
bd
1b
cb
e
8f
b6
c7
d0
d6
ce
4c
3b
c4
c7
bb
81
55
4c
44
25
b8
c5
b4
d0
b8
4d
81
ab
4c
80
28
81
23
42
cc
d0
ab
1e
b9
23
2f
20
80
c1
d4
bb
8f
cb
d4
4b
4c
30
41
56
80
c6
32
47
35
35
1e
bf
30
3e
c6
c9
d2
37
92
81
b1
80
b8
1c
c5
18
37
4a
ab
1a
81
32
80
a2
be
47
47
46
21
1f
45
57
41
51
53
40
3c
9b
2e
41
80
56
3f
b7
48
40
3f
3f
81
a7
da
cf
40
4a
ac
56
4a
2b
c8
50
3b
b7
80
38
28
28
80
81
3d
23
b2
c6
c2
33
b1
c9
16
c6
cb
8a
96
3c
22
2f
49
9b
3a
11
58
51
4c
cd
b9
b5
59
c7
d0
5a
62
5d
cd
c1
bc
27
b1
a0
c1
40
4c
32
58
34
d3
e0
32
dc
ca
b9
32
ce
35
3e
c4
c7
44
9c
c8
c7
c5
b8
37
b
95
15
81
ab
5d
4c
a5
4f
4b
28
31
39
9f
30
5a
3e
81
c8
16
ae
80
a2
45
44
35
53
47
29
d0
ca
c8
db
d9
d3
d1
8f
33
4d
44
3c
5a
65
56
d5
d0
98
d6
e1
d3
b3
90
92
a4
c1
c1
5c
5a
ad
bd
d0
bf
c2
d3
ca
ba
d0
c3
c1
c3
c2
19
4c
42
b7
81
2b
44
3d
57
c5
8d
4b
47
1f
b1
5a
5a
3f
48
52
4e
80
83
27
3a
28
89
44
47
ac
54
55
43
32
43
16
ce
cf
91
b8
c4
c5
3f
37
d
b4
1c
38
45
45
45
c4
10
a5
3b
0
2d
c7
30
37
c1
80
6
b7
80
4b
86
af
48
35
cc
80
bf
b5
4c
4f
ca
3f
d6
e7
e4
d7
c6
0
52
63
5d
51
51
3e
a4
b8
3c
c8
c6
9c
bb
bc
8e
43
51
12
21
31
c1
55
59
3c
80
da
ca
c7
cd
b4
58
59
94
85
a7
45
38
45
49
c7
15
c6
b7
1a
8f
b3
ac
c5
49
58
34
2c
c5
c8
d2
db
d0
b5
bb
d2
19
48
20
43
bc
ac
47
2e
a2
c5
d5
c4
d6
c9
c5
a6
bb
23
51
6a
34
a5
c1
27
4a
4a
38
4d
3a
38
22
a0
ae
a8
aa
c2
cb
d0
c2
bb
d0
cc
4f
3e
b8
c3
e0
c8
d6
cf
c8
af
d8
a6
32
9e
c4
c6
b1
81
4b
47
37
2c
2b
2b
cb
ae
a4
cd
c1
2b
b4
c2
1e
b0
d3
c7
9
ab
24
ae
3c
c6
a0
da
d2
cd
cf
9c
cf
de
8f
c3
c3
c4
39
43
36
2e
95
2a
cb
c7
23
cc
3e
81
80
c
33
d5
c0
af
a9
bd
bc
cc
84
c0
55
51
b3
38
cb
dc
2e
1
30
3a
5a
50
bf
36
c3
54
4e
33
58
59
58
40
61
5b
35
c2
b0
a4
c2
9c
5a
5e
46
67
6b
71
27
1d
32
b6
37
49
3c
b1
c0
43
4c
8e
c2
9f
d0
3f
3b
22
3a
41
bb
d4
cb
a1
f6
ff
d7
be
b0
b8
bf
cb
45
40
3b
3f
aa
26
b8
bc
46
4b
5a
17
44
a5
a8
3d
70
74
80
e6
e7
33
dc
e3
19
22
b8
98
ef
f1
c5
45
3b
a7
31
40
4b
0
40
4e
c9
ca
b7
da
be
c3
39
d7
80
54
4c
39
a4
3c
c7
3a
23
3a
3f
bb
3a
88
9
c4
2e
d1
ba
ce
c6
d9
b0
27
14
bc
9d
2c
bc
c7
b3
cc
58
49
5c
c4
c1
e1
cc
55
48
51
51
42
5a
b5
d3
e4
d8
9c
cc
25
4a
55
5f
ca
c2
25
51
d7
d9
de
b4
3a
d0
c9
c2
e3
e3
d3
5f
6b
61
4f
47
49
39
38
30
c0
48
52
c2
64
61
55
5b
38
80
35
47
d9
9
38
29
64
83
cd
c2
2b
35
be
95
3d
5e
1d
57
51
1e
81
aa
29
47
56
56
47
44
38
34
3b
3f
1d
30
92
3a
37
3c
92
9a
2d
e0
e9
9d
6c
4e
48
ba
4b
ba
ac
cf
c4
45
22
94
d4
ab
3c
b2
90
c3
32
bb
3d
2e
cc
44
b0
d1
d8
7
a9
35
b3
3b
15
80
3d
cb
d8
d0
3d
bb
a0
4a
c0
a5
c2
2a
38
3d
42
b6
af
52
58
80
b6
d5
b6
db
c7
48
47
c5
c5
3f
2c
a2
3b
45
81
45
bc
aa
e
a7
a6
cd
9b
80
d1
3b
50
80
c3
c1
b3
c5
c6
4e
40
58
11
3f
b4
64
5a
80
4f
5b
51
67
71
5f
8e
2e
b7
99
27
30
c6
cf
9b
34
4b
37
e2
e5
d5
db
e3
e6
40
c5
4c
49
58
4f
70
70
5c
66
66
58
41
3b
43
41
41
31
41
46
c9
56
39
9b
45
a0
b4
c0
15
42
d4
c5
c9
cd
c3
1b
c1
42
58
54
79
67
c8
fa
ea
c5
c7
48
cc
5e
c5
63
4d
b7
44
2b
48
cd
bb
ba
b0
c5
4b
20
0
2c
62
68
4e
42
aa
3c
3c
0
3a
3b
ae
ce
5e
d4
c3
72
75
73
cd
c8
ce
53
51
92
81
d8
cd
d6
e2
cd
b7
dd
d0
a8
28
49
d6
d0
b5
b7
21
80
3c
a7
3f
f3
f9
ea
e9
dd
dc
8f
98
2d
b0
27
bd
cc
cc
4b
cf
32
3b
d4
e3
cd
5a
58
d1
80
2e
51
a3
49
50
ca
c9
2d
51
bb
4e
a3
3c
24
55
9f
35
24
2c
c0
2c
b2
d0
54
20
80
c5
cc
18
4e
5b
bb
67
5e
47
d6
c7
4b
41
2f
bc
d8
c9
c3
1e
2d
48
45
3f
d3
22
3
48
db
3f
c6
2c
42
5
5f
44
23
57
ba
a4
c9
e1
1d
d2
e9
cb
ad
be
35
b
c0
a5
3c
67
ad
a2
e3
ba
bf
d1
2a
bd
da
8
a6
d1
3e
ba
d1
d4
cc
d7
c0
bc
b9
c6
80
26
28
b4
d0
bc
25
c7
80
25
d2
d2
45
c7
d0
59
46
c4
0
41
80
57
4e
48
50
4f
50
b5
bc
3e
47
3d
30
56
3e
48
81
7
3a
51
2a
21
cf
dc
c7
93
b3
2f
41
b8
80
81
c2
c4
2f
cd
46
ba
de
d3
9f
c5
cb
c1
b0
2f
c5
cd
40
2b
aa
51
d8
d2
bd
d2
cd
d0
c2
c5
cd
b7
b2
3c
97
b5
b6
b0
c8
cf
ac
19
4a
23
31
48
4f
3f
4f
b8
c7
a2
c7
cc
80
0
d0
35
dd
cf
c4
d7
ce
d2
aa
40
86
ce
c4
21
d1
10
c3
43
4e
ac
d5
c2
a7
b1
41
51
a2
12
42
d3
81
1a
e2
d2
ba
b7
bc
9d
68
58
30
55
35
aa
9a
b6
b0
c0
d0
d2
ce
cc
c0
b0
bc
c5
c3
c6
cc
39
42
33
a4
c5
1e
a5
d2
ac
8f
e4
40
30
b1
4d
cd
cf
4c
d8
db
80
ce
c8
3d
3a
bf
5f
58
ca
50
b5
c4
47
47
cb
ae
81
b9
4e
ca
c6
3c
d2
ce
c5
a8
a7
b9
43
46
19
44
4c
3c
2e
2b
2d
41
45
3c
4f
a4
c8
16
c8
ad
9d
c2
a9
80
c1
c0
43
a9
b1
31
a1
0
18
bd
21
4c
b6
81
29
c3
80
4e
b8
42
46
ce
8c
a3
d8
d4
bc
8a
ce
c9
ce
80
cd
da
c7
52
2e
3e
55
3f
4e
3a
2c
99
b6
30
47
8f
56
4e
c7
80
ad
c4
4d
2d
43
4c
20
42
52
39
2f
45
c9
29
45
ba
d1
cc
b8
42
44
45
53
1e
0
52
45
a5
42
c3
c7
39
a4
c6
1c
d6
d3
cc
27
2d
cd
d2
41
c7
cb
28
33
c2
2d
46
9f
34
42
3e
a1
50
28
be
58
56
40
58
54
52
b7
44
44
4c
4d
35
b5
50
46
3e
81
41
34
d0
a8
40
c9
40
bb
cd
3c
ac
ad
4c
8e
be
bc
48
c8
28
55
3f
a3
47
7
3a
2e
c7
59
ac
cc
33
b5
d3
20
1c
48
34
ae
ae
be
ad
ca
ca
53
a9
c7
98
cb
bd
a4
b9
a0
c6
ae
cb
24
a5
c9
d
c7
b3
3e
26
ba
c3
3f
a3
bc
45
2d
33
d2
9b
2e
da
16
81
ca
31
c2
da
d6
be
de
d8
45
b5
c4
30
26
c2
82
b2
ba
1f
c1
b7
2b
42
9
42
58
29
48
3c
2c
be
9f
49
b2
b5
42
a5
bd
b8
db
a3
1f
81
8a
40
3d
1a
1f
8
c5
d3
3c
3f
b0
46
40
c8
c8
2b
4b
c4
3b
57
c3
80
53
d1
8a
bc
bc
39
cf
c4
d4
cc
2c
3f
25
91
4d
3b
a9
36
4f
d6
0
1f
c1
ac
b5
c1
c6
ae
3e
33
ba
35
9c
bc
c5
d3
c4
4e
5b
58
4b
50
5f
51
53
56
be
be
54
46
46
4d
3e
53
59
57
4d
44
51
4d
3f
51
90
43
29
db
f0
5f
80
d8
5b
be
e1
6a
62
66
c0
2d
11
92
37
ab
4a
b9
b6
4f
26
9c
4a
42
b6
d4
c2
4d
c8
8c
31
49
cf
c7
bf
c2
43
45
b8
2f
56
9e
49
41
40
c8
e
28
32
48
b4
4a
3c
a5
9c
36
c3
13
d3
d6
ad
29
bc
d3
58
56
c0
3b
a7
b9
e0
dc
b0
e2
de
89
c7
d1
32
c7
43
c4
22
9c
b0
c5
40
1b
43
c0
cf
3e
d1
d1
b5
cc
be
af
dd
dc
45
bd
bc
50
ae
ba
c8
c6
80
c4
d2
b6
c7
d8
d6
4f
59
5c
48
51
4b
c5
cb
b0
59
5d
56
50
cf
42
4a
34
5b
38
80
aa
3f
52
8f
48
4a
46
0
d9
4e
cd
d9
3e
44
b3
56
59
57
47
5f
35
8b
4c
c5
b4
5c
26
a0
d0
e0
de
c6
d9
d7
13
e7
0
b2
eb
c1
d2
e9
d4
37
4c
62
47
52
55
37
3c
40
cf
e9
ab
c3
de
a9
c0
d5
ae
99
ce
80
3
d9
b1
b8
d9
2a
5a
3c
40
54
4a
3e
56
1d
99
3b
80
40
48
a4
21
3c
b7
31
60
6c
56
52
53
4f
29
bd
45
c2
d5
36
af
d4
a7
30
af
3f
bb
c9
38
42
2f
93
be
ce
80
6f
5b
4b
60
4e
22
58
2a
45
c5
d6
29
dc
eb
e2
dd
e1
e5
49
37
8d
cc
47
49
46
33
39
b5
56
61
49
57
3c
cc
d2
b8
ce
8f
c7
10
8c
cf
49
50
41
b9
2d
c3
49
34
c1
a6
80
92
5a
5b
5c
4b
5c
41
4c
30
52
d1
e6
e4
e2
e2
d3
e0
e2
ca
d9
e5
cf
d7
e9
da
c7
d8
ce
c4
ce
93
bb
d3
c6
c5
cf
b6
da
e7
e1
e3
eb
e5
e6
ea
e6
48
d
53
62
4c
54
5d
46
4c
5c
34
d8
6a
3c
ca
6a
57
48
da
bb
2d
9f
4c
59
3d
60
69
58
45
3e
3f
34
37
48
90
b6
50
49
4d
4b
50
81
39
be
d2
d2
de
36
e1
e4
c5
d4
cc
2e
d2
9a
a5
4b
c4
c2
c9
9b
46
e2
eb
c8
cc
dc
43
42
c9
30
53
e8
c0
62
e0
b6
6f
5d
65
50
d3
c1
5a
a0
c0
51
ca
3b
df
ea
cb
da
ea
ae
bd
d8
2c
6a
60
67
64
5a
64
62
51
62
6f
66
66
61
38
5a
57
b7
4b
4e
b8
be
4d
c2
7
2d
48
32
b5
ab
21
55
48
a4
30
cd
c4
b1
b2
0
9e
3f
31
4b
5d
5a
5c
5c
45
25
2d
c9
c0
c1
d3
80
b8
33
c6
aa
80
43
cb
bd
c9
ba
4d
e1
c5
3d
cf
c8
3a
54
4b
66
59
80
3f
57
44
32
cd
d5
b0
ad
c6
46
cc
be
3b
63
31
56
65
11
44
60
cd
c8
45
54
97
d1
38
36
ce
ba
30
56
5a
2c
4b
4a
30
5a
b7
3e
bd
a6
2d
b9
d2
bd
c0
c6
30
2e
b9
ca
b6
a8
18
80
3d
84
2d
29
24
20
ad
2b
44
22
41
1f
9a
42
38
94
3d
4e
4a
3a
80
93
c0
4c
30
b3
3f
32
8a
80
2d
4e
38
33
36
43
3d
44
9e
80
2c
51
4a
43
a4
bc
36
bc
b0
a
49
9c
b6
b3
bb
c0
4a
3f
39
37
24
a2
4a
50
42
5d
51
13
45
4d
ab
61
52
54
bc
ba
1b
c0
13
cc
ba
be
d0
2c
ab
9e
9d
b9
cd
16
ba
d0
b4
a7
3b
c3
cf
be
45
1a
3e
36
34
b4
cc
cb
ca
37
8c
bb
d6
c6
c3
cf
d0
d2
4b
4a
9d
4d
40
39
c3
c0
b6
c5
ad
4d
c8
a5
93
97
50
4e
ad
37
43
d5
2f
80
e2
c3
17
40
43
3f
63
5c
4e
43
2e
1a
c2
a6
9d
c5
c9
cd
d0
b8
a3
b5
39
38
c0
b9
c6
4c
4b
1d
94
94
c
b4
d9
b3
c3
ec
b2
19
ce
28
7
27
58
d6
ca
3b
c7
a6
48
a7
c2
4f
37
ba
46
cc
cf
23
42
c7
86
b7
cc
23
c6
c1
37
c7
d2
c3
25
a0
bc
4c
33
85
b0
44
98
bf
17
ba
bc
39
99
52
2f
be
bb
c3
42
bb
b3
30
bc
ac
c
29
22
99
b6
1e
1a
20
36
a2
41
81
be
b9
c6
b9
29
2f
40
a5
d5
c1
c4
d0
c8
d1
d4
c8
d4
db
b7
d3
d1
d2
4a
42
35
50
12
3c
2f
27
b7
92
2e
94
9e
50
4b
ca
ae
23
dd
a2
a4
30
45
2a
3e
4c
47
46
4b
aa
4d
4f
b4
bc
b6
cc
45
4e
26
4a
37
a8
53
4d
2e
54
9e
c0
3c
29
be
bc
d0
cf
c7
43
44
ce
c8
46
c4
c0
31
bd
42
53
2e
43
48
a2
4e
2d
19
c7
c2
2e
4d
4b
4f
59
50
ce
4c
38
50
0
cb
0
4c
bf
50
5c
5f
50
49
59
58
56
5c
aa
0
42
38
44
4c
3c
39
85
0
b2
17
54
13
3d
2f
c6
9f
b6
9f
4c
d5
a9
3c
d7
c5
3b
ae
46
91
cc
b2
c4
c9
ce
c4
53
52
a4
7
2
f
c8
98
95
c8
2d
c4
46
10
c7
b0
b2
80
45
2e
18
8c
3f
80
bb
2e
b6
4c
31
0
49
cf
b6
28
aa
b6
2f
cd
10
21
d3
c7
48
22
c0
2d
47
2e
c4
30
9b
ad
2a
80
ab
32
be
3f
3e
30
35
3b
0
b3
2c
59
bc
bb
40
ba
b9
b4
31
bd
4a
34
4b
38
50
55
55
c1
cb
d7
b4
a2
cc
a8
c1
d9
29
41
35
c2
40
4d
c6
ae
3b
d6
b7
b3
bf
1b
d0
c7
da
ca
a6
3b
3c
c2
80
3f
c2
2d
43
c4
3d
3f
32
41
91
42
39
3a
56
53
44
52
50
31
b5
bc
a7
b3
d
ad
9b
81
10
3a
2c
3c
c6
c0
4c
3e
3e
3f
31
5a
5b
66
5f
54
63
5c
4e
64
4d
4a
be
e4
f4
57
94
db
5e
26
db
eb
e0
d7
f4
f2
eb
c5
3b
af
4a
3d
ac
44
46
80
4b
58
48
99
2d
46
a6
c8
4d
27
48
4b
bc
9e
2b
40
26
a6
5b
4e
42
42
3b
cf
d0
af
c4
80
11
c5
52
47
bb
45
36
b5
b4
9e
ab
91
b4
cf
56
5d
ba
ba
c6
bf
df
d4
bd
e7
df
c8
c7
be
22
c3
a9
15
ce
d0
35
a0
4c
3c
57
45
bc
39
9c
ca
9b
34
8
8a
b8
d3
45
33
ba
45
2a
b0
cd
2d
2a
b8
32
16
d6
c6
d8
44
59
5d
90
4d
23
d5
c2
bc
54
5e
55
80
b7
4c
2d
55
5c
c7
c4
c4
3b
47
81
44
47
4a
c8
d5
2a
81
1f
4c
3d
34
4f
4d
5b
40
58
53
b5
4d
37
ad
5e
63
3d
dd
df
dc
c0
d5
c0
cb
71
75
ae
6c
74
bb
70
72
aa
31
50
bb
4a
38
c2
48
40
87
df
97
bd
ce
ba
87
8
45
b3
bf
29
c0
d5
c1
cf
d4
3e
42
2a
39
35
41
3b
49
2e
2c
40
34
49
4e
21
1c
49
31
3f
63
6a
5b
4b
53
4b
92
a9
40
a0
1d
49
a9
cf
b8
4
9c
4a
a8
be
36
3b
40
92
c1
c6
36
72
62
4b
5e
53
80
5a
43
3b
ce
c7
3a
e4
ea
e0
e5
e2
e7
b0
36
aa
c0
cd
4c
b3
c8
be
42
5a
63
47
5a
49
d7
ce
1d
bd
42
cd
4d
3c
4a
37
4a
c5
cf
40
4
2a
cd
c3
2b
2e
3b
51
5e
5c
36
51
12
47
38
49
5b
ae
e2
37
b3
d0
65
4c
c4
e0
e7
d6
e1
ea
e0
d4
d1
d1
40
47
51
1e
b5
c7
44
92
af
de
e8
e5
e9
ee
eb
e8
eb
e9
43
4d
61
62
5d
5d
63
5e
5d
bd
81
d1
4b
45
9c
5c
5c
3e
d5
8f
9e
b3
35
3c
13
5a
5f
60
55
54
8b
47
4c
3f
45
4e
50
49
40
52
5f
9c
3a
a
d2
c2
d1
44
de
e0
cc
cf
b1
2b
c6
c6
bb
33
c2
38
46
b7
be
df
e7
d3
ca
d1
9f
47
85
94
3a
e9
d4
5c
df
c6
74
6a
6c
52
c7
9f
56
3e
b5
55
14
2d
d7
da
c2
dd
df
8a
a9
25
4a
66
67
66
5f
60
5d
53
49
5b
6e
71
6b
5c
53
5b
52
48
50
21
c8
c9
bf
4f
4a
c8
4f
b1
d2
bf
84
43
50
80
35
b1
b8
45
41
bc
df
b8
d4
c2
2f
bd
53
4e
4f
b
98
bc
a7
bc
d6
35
40
51
ca
40
a7
49
34
ad
8a
c4
2c
d6
80
26
cf
c0
39
be
80
5c
37
ae
20
52
4f
52
ce
d0
c6
c3
cc
80
d6
bc
40
63
52
54
64
4e
44
65
81
cb
5a
6a
ad
b4
54
d
b3
80
10
5c
62
41
43
4b
2f
58
b1
2f
