36
a4
44
c0
29
4d
bf
2b
4a
b0
ab
bd
b8
35
33
a7
31
43
8f
3d
98
c8
43
46
bd
37
5c
c5
ce
a2
e1
d3
88
d8
c5
a2
a9
d3
4b
be
c4
40
d0
af
48
a9
b7
3e
ca
ae
40
be
81
3b
da
ca
3d
e0
c7
3b
d6
ca
33
c8
be
af
bf
d2
a2
55
da
ad
b
4f
48
35
58
49
47
54
21
db
ce
b9
e7
d2
b2
d0
d0
ba
41
bb
c9
8f
ca
9c
0
b9
9c
c1
8f
4e
cb
b9
58
8d
3d
52
42
ce
23
d3
c3
80
c6
bf
2d
11
57
60
2f
5b
61
92
59
5a
de
c7
17
e2
cb
b6
e8
c2
7
c7
2b
41
cd
1a
55
b8
41
45
89
3d
3f
37
4e
60
9e
54
69
bf
d0
a6
d2
d7
ae
e
da
9d
49
47
af
47
50
c6
46
46
be
a9
d0
bf
d7
d2
b3
d3
be
a5
0
1d
92
55
aa
a9
37
ac
a7
d5
b2
18
d2
c3
39
b3
d6
32
81
3d
52
ba
41
53
30
4b
bb
10
43
54
b
49
50
a1
4a
51
9b
cd
20
d3
c6
2c
c8
c0
3b
30
5d
d9
a5
53
58
21
49
56
38
30
ad
46
88
c2
3c
b4
bf
e1
d3
33
e7
c4
2b
dc
cb
2e
c9
c9
b4
c0
d0
d3
bf
c7
a9
cd
b7
c6
c7
d9
d7
c7
cc
cc
d4
2a
80
d8
a3
43
4c
c4
32
43
63
da
48
72
e3
4b
67
d1
40
55
1e
2e
4c
60
41
45
50
d1
8c
4b
cc
a1
4b
db
be
53
d0
a6
40
d3
b1
34
4
b8
43
b2
0
2c
a3
bc
ba
46
d1
c6
21
47
27
43
58
c2
56
4e
d5
c8
91
49
d2
b4
48
94
c8
2a
28
37
45
43
c0
b0
4e
be
c2
d
54
59
2a
52
51
3c
3d
b7
cc
21
52
c4
46
4e
c0
37
5a
ce
cb
25
e0
c6
1f
e0
c1
9b
b4
d6
b1
c3
b6
a4
b2
a7
89
b8
38
41
9c
46
42
43
30
ae
4b
53
c1
40
54
46
3a
55
a3
dd
cf
85
df
d8
0
1e
da
8d
48
6a
d6
41
6c
dc
3f
64
c9
c0
2a
4f
c5
14
52
d4
26
58
37
59
b5
3f
60
31
35
55
43
b2
3c
28
c0
9b
1d
ca
be
22
33
46
c8
c2
2d
16
9a
50
c9
cf
9c
37
ce
a2
39
d5
c0
3a
c3
c8
c4
c8
d8
c1
c8
c8
c0
36
51
a7
43
51
de
49
b5
c7
20
9c
30
b9
c8
21
b9
ce
80
d6
bb
2b
d5
c5
3f
c7
c8
33
28
51
36
36
54
46
a1
42
43
d0
39
54
d7
27
27
d2
80
39
1a
d5
a2
26
e1
b1
50
da
bc
d6
3
39
d9
94
3e
c3
ca
37
2f
4e
4f
35
51
45
3b
46
4b
dc
ba
3f
e2
bb
28
d8
c9
40
3c
dc
bd
da
db
bd
cc
d0
bf
23
4c
47
32
51
cb
2a
51
d4
2b
52
65
35
55
68
a4
5a
59
cf
d0
b2
b7
d8
a8
2f
d4
9b
bd
38
45
24
50
51
0
4c
51
a7
3b
42
26
42
3a
3c
35
af
a5
33
a
26
4e
ae
b6
3e
3e
25
83
4f
39
11
3a
bb
3e
44
20
4e
48
45
59
36
3d
4f
36
be
34
44
bb
40
49
2a
26
1d
38
c6
c0
51
59
db
d
50
c6
da
80
44
d2
46
5c
c7
44
55
dc
2a
3d
d4
35
4e
ce
f
50
36
42
c4
47
56
d2
53
ba
d3
ce
48
5e
ca
37
5c
d5
32
5a
cd
4
43
cf
9a
38
c1
c4
36
3d
4b
36
53
59
2e
46
4a
80
d7
c7
4e
d9
c3
4d
da
b4
47
c7
a0
39
cf
bc
33
b3
d3
a3
dc
d4
b8
d5
d3
c6
be
d4
c2
dd
c6
39
dd
b5
2f
e5
d0
45
36
61
81
52
6e
ca
4c
58
99
c9
cd
a5
d5
cb
8
c7
b3
10
40
5f
4a
3f
5f
51
36
50
58
b0
80
c3
bf
9e
45
ca
87
46
cf
d6
cd
d8
e1
cf
c4
db
c9
dd
9f
35
dc
b2
3d
cf
cf
44
9
e0
9f
e6
da
af
d2
d3
be
a1
af
35
d8
3f
5a
cd
40
55
8a
38
29
3f
52
b2
38
43
c7
34
61
90
37
69
b8
42
68
b5
41
a9
86
c3
4f
50
95
42
5d
aa
30
3d
43
3a
4e
42
40
c6
3b
39
87
2c
37
80
2e
bd
a6
c7
28
49
c3
1b
59
aa
3b
5b
80
be
c3
3b
34
c6
37
34
ac
c
19
44
81
8f
49
27
28
20
dc
cc
ae
d6
bd
ae
d6
cb
3b
58
40
cd
34
3b
c
9a
34
23
56
d6
cf
3e
d8
b8
c2
ca
b9
54
41
4e
ba
c1
2e
24
bb
19
43
23
3d
43
42
43
31
ac
c9
92
d3
b5
ba
d9
b5
b6
d3
b4
b1
cb
bc
95
d2
b6
bc
b7
a2
d5
a5
4e
dc
a4
44
de
c7
4b
27
df
ca
59
ea
b3
51
db
c5
ba
cf
40
dd
ce
b7
c2
c5
b0
d8
81
38
d9
b2
4f
cf
c9
4d
cb
c1
2c
de
c6
28
31
cd
2f
5f
df
3b
b3
d9
c
94
ce
b2
97
4a
44
cb
80
4b
3b
35
b
bb
40
43
98
4a
51
80
46
57
d
4c
b9
36
56
a0
46
46
84
96
4d
40
2d
55
3f
3c
53
0
c1
44
55
c6
81
61
cd
a8
5d
45
4c
44
43
48
52
41
32
31
b4
2c
c8
bf
3c
82
be
9
24
2f
4e
52
3c
55
50
47
4d
22
48
bc
86
cb
23
50
d0
17
44
e2
24
59
d0
22
4c
e2
c0
5c
4b
4a
44
43
51
bf
51
35
2a
da
d1
b3
e2
b6
97
d8
c3
27
b8
d4
88
de
d4
88
c0
cf
81
d7
9c
3d
cc
28
31
d2
c1
4d
94
db
c2
d9
de
c9
d5
d5
c1
cb
c7
cf
ab
ab
bd
c6
ce
9a
c5
c4
bd
ce
d0
ca
ca
d8
cb
be
1f
4a
bc
32
4a
bf
44
4b
55
de
cc
65
dc
cf
3c
af
b9
ee
d6
80
ed
d5
2b
e5
d6
38
5a
ae
ab
4d
5f
b6
20
47
3e
43
ec
c8
e3
e4
af
da
cc
a8
c2
3f
90
46
e
ca
3f
a3
45
bd
81
40
c9
8
4c
3d
b5
42
c8
3d
60
b8
3e
5e
cf
50
5f
40
60
d3
5b
5e
e1
54
cf
c6
4c
6c
d1
55
6d
d4
56
55
a1
d0
53
5c
d4
54
60
d4
5a
64
47
67
c1
48
65
28
39
55
45
d4
c7
92
d5
d4
22
ab
de
80
ef
cd
6c
e8
c4
63
e2
8a
58
c0
51
5a
cd
25
62
cc
28
5e
44
4a
d7
b7
b4
c7
b7
80
1f
80
4b
57
27
4a
4b
47
20
bc
4e
6e
45
42
68
5c
33
5f
57
dc
b4
58
da
c3
56
dd
c7
57
31
dc
b9
cb
d5
93
d0
c7
98
e0
ab
55
d8
0
4f
d6
9d
51
4b
5a
bb
49
60
b0
44
5e
ce
5a
e2
32
51
cf
33
9f
cb
2f
d7
4c
4a
b7
46
58
a5
39
52
8e
46
5e
1c
57
62
1d
57
b8
e3
be
54
df
b0
4d
d9
9d
3b
4c
e4
a9
ed
d9
80
e8
c3
80
cf
df
0
c1
d3
a7
c9
bc
0
c8
81
3d
b1
ad
18
80
a
ab
c4
53
65
c3
54
67
c3
56
5d
9e
33
58
d1
18
57
dd
46
57
b0
d4
be
1f
e9
c8
5d
e7
c6
80
55
61
a9
4e
66
c5
55
5b
c4
44
64
ac
37
60
ca
48
59
b6
48
29
2
b3
9b
b9
b4
af
3d
5a
cd
ae
4d
31
81
58
46
c7
4d
5e
b3
3d
5e
c2
43
59
ab
48
70
c0
58
77
d4
61
6f
4f
5a
45
42
4d
60
25
31
5f
21
b3
c6
b8
80
36
b8
f
3b
31
43
44
c7
b2
ce
38
47
43
46
c7
dd
c4
dd
c2
c7
bc
81
e8
c7
4c
e5
d6
55
df
d6
5d
0
ea
ca
42
be
dd
15
4b
12
ce
be
17
b3
db
3a
4a
bc
a8
3b
41
42
d9
c1
55
d6
9d
3e
c9
58
51
c9
4a
53
c1
4b
55
de
5
5b
d7
13
51
da
91
4f
9c
2b
33
32
37
1f
44
42
25
b9
e4
c0
68
f2
cb
55
ea
c3
47
b1
b5
46
de
b4
db
cc
1d
c3
bf
4f
d0
b6
55
d2
b5
58
1d
ea
c4
45
ee
c4
3d
df
ba
c0
58
d9
a2
29
d3
b8
b3
c1
c8
25
80
b6
c3
e
42
be
96
d7
dc
5
bd
dd
9a
b4
e4
c1
23
67
cc
5c
a5
bb
41
50
33
45
ac
27
4d
c1
c6
2d
35
3a
58
17
a8
4a
d3
b9
2
d1
91
47
65
e0
4d
6f
ed
4a
68
df
c
63
49
1a
58
6d
27
4e
64
f9
e2
55
f7
dd
4e
f2
db
4c
d5
df
a2
e6
d5
8a
1d
d7
83
c1
b8
b7
39
da
bd
81
af
ae
b9
d5
b6
cb
c9
1e
bd
9e
2c
2f
cc
d3
57
bc
cb
44
bd
99
cd
40
60
ad
33
5b
c5
45
5a
4d
49
14
5
36
29
b2
23
25
f1
d4
b0
e9
df
be
c3
df
bd
d1
a3
36
dd
c2
45
dc
d1
4c
cc
26
5e
bb
2c
59
d2
44
5a
36
4a
47
50
5c
15
59
5c
d7
4b
38
9f
34
99
40
c3
21
43
ed
e6
b6
f4
df
b5
eb
d3
ad
57
d9
9c
43
50
c2
aa
22
9d
39
48
5d
33
56
a0
b6
95
bf
61
ec
bc
60
e7
b3
26
d7
a7
d5
c5
3b
c3
80
35
c5
af
39
9f
5f
6c
9f
5b
6b
b0
5e
66
43
e4
c2
14
e3
c1
80
87
aa
d5
80
4a
d1
a
50
c3
12
3e
d6
c5
53
d7
b2
48
c6
a4
28
b8
c9
bb
4d
d6
ca
a5
3b
b4
2f
68
3a
3f
6d
ce
48
5a
3a
32
4e
60
3c
5e
0
34
4a
c0
ea
e8
ad
e6
e4
b6
dc
e3
b5
53
6e
5d
53
6f
72
4e
69
68
cd
d0
31
c7
d2
c2
81
af
3a
56
48
db
33
46
98
a7
2c
3b
0
bf
8e
4d
dc
b7
3c
4
a9
4c
64
c5
2e
59
30
80
41
43
d5
e6
c8
da
de
cd
c2
ae
c7
d5
33
5c
d1
36
57
d9
2f
55
4b
d4
9f
4e
dd
c2
c3
bb
b6
8a
a5
a6
40
c5
c2
50
dc
ba
57
cb
b2
49
49
d5
13
54
33
38
4c
c7
9a
51
55
a6
40
58
2b
43
3f
83
37
3f
44
3f
1e
e3
b9
4b
dd
b5
43
db
be
49
8a
4f
64
28
40
66
b2
52
5d
ea
d9
a2
df
e2
a3
49
e0
c1
d6
45
46
ca
4b
64
b5
40
60
49
6e
e3
4b
6e
e7
3c
68
d2
4e
68
c5
46
6b
c4
39
64
b0
a8
87
4a
3e
4c
56
31
56
55
e2
ce
9b
e0
d7
97
45
dd
b6
44
64
17
4e
5d
c4
58
5c
c3
29
d9
b8
63
ec
c0
68
e7
c4
55
be
c7
51
61
d8
37
5c
a3
1d
dd
48
d3
d2
3d
dd
96
3e
ca
ea
c6
e6
de
af
e3
cb
99
97
36
5d
ac
3b
5f
cb
50
52
bf
4f
56
a5
3e
4b
a1
13
40
e4
dc
bf
c6
d7
b1
8e
d6
9b
3e
70
d5
4d
74
df
47
23
ad
e7
bd
b4
ec
cf
bd
e2
d7
be
4b
50
57
25
4b
43
3f
3e
c8
4c
6a
6d
4e
64
72
4a
5e
69
ca
95
66
c3
39
69
c9
47
5e
ce
ba
33
81
bc
19
1e
80
9d
60
e6
c1
6e
ef
c8
5e
e5
c7
ba
2f
51
c4
38
3e
be
87
b8
14
58
db
4a
2d
b5
3d
a2
c1
b3
46
5f
b4
53
65
b0
5a
5d
5a
e0
8d
40
61
c3
8a
54
5d
4f
69
cf
53
5c
87
27
b3
5
3b
5b
df
56
b9
da
86
99
22
d5
e7
c4
bf
cd
ba
8c
1f
81
ec
ef
dc
d7
dd
d2
c4
c5
98
d3
bb
29
c7
d
1d
32
47
34
da
e5
cd
dc
d4
bc
b8
a1
80
ab
c2
c1
80
ae
18
b3
2a
86
e4
ed
d2
db
db
cb
c5
bf
a4
ca
d2
c4
b
97
0
48
51
41
0
33
26
61
5d
45
dd
a7
24
28
3d
38
57
62
51
58
45
b5
4b
1e
21
4c
43
30
b2
36
a2
80
d3
bb
ca
c5
94
bf
4
30
9d
cf
c1
c5
3b
15
80
99
c9
49
c0
d1
c5
9e
ae
a9
4b
40
cf
d8
cd
ae
30
4c
1b
50
52
da
d5
c1
80
9f
32
56
47
2d
b0
b3
c5
51
53
36
38
34
22
e3
d5
c0
ce
c7
46
b8
0
2c
d2
d7
cb
a
aa
ad
4f
4e
4d
aa
b1
ad
43
39
31
40
30
39
41
c3
b9
de
da
c2
cb
c4
a9
42
51
39
48
52
4c
cd
e0
cc
b7
8d
a0
41
53
4f
b9
62
51
f
34
36
53
55
4e
45
57
b6
80
1a
a6
4f
57
45
50
5d
44
cd
d9
cd
ce
bf
b5
b1
1a
3a
e0
ea
22
cf
da
d4
bb
a1
8a
3d
48
23
48
52
3d
b4
d6
c0
d1
d6
cc
9e
ae
b0
4a
39
1f
3c
99
49
c5
c5
c8
41
13
18
48
43
0
61
58
97
ca
d3
a6
c6
93
b
4d
54
54
d0
58
40
a9
41
48
2f
81
b6
31
d6
b8
cf
c4
4e
c2
c2
cf
a3
80
31
b4
2d
cc
4b
3a
3f
5a
5d
52
b6
a6
b4
3e
46
45
36
4f
51
2f
3a
20
5b
5d
46
4f
30
a4
41
4c
41
5a
67
52
53
cb
d1
ac
b3
c7
50
54
42
59
66
53
3c
27
0
67
5e
3a
2c
ac
12
43
46
a6
59
3e
d1
41
c7
b8
e4
e3
db
ca
d1
cd
b4
b4
35
dc
de
c9
d4
d3
cb
41
3a
32
93
d2
cc
c9
d3
bf
ba
bf
b8
40
44
32
5f
68
5e
54
63
4a
c8
cc
ac
e
bd
c0
3e
4e
36
b8
a7
a5
4d
47
37
a9
4c
38
c0
a2
4b
9b
bd
44
1b
b3
d7
c9
a3
be
44
3f
34
5e
5d
58
af
31
53
c5
da
ce
c5
c7
cd
cc
d6
db
27
28
24
4f
55
4e
c4
b6
89
ba
bb
46
ae
b6
be
9b
2d
86
58
58
4b
65
65
58
5d
55
3b
ca
43
3a
dd
d7
be
98
3c
b7
4c
48
c8
4e
be
b3
9e
c8
ca
4d
49
37
52
58
48
31
49
2a
52
5a
4d
4a
54
4f
a8
b1
b0
1f
bd
c7
89
bf
b0
cf
18
d3
2d
20
a0
3b
81
3c
44
2c
81
17
3f
2f
d2
b4
ab
36
39
34
64
64
59
4d
68
5c
b2
9f
43
3f
43
c
4a
3a
d3
cf
c7
c9
a0
27
2e
3c
53
54
42
d3
c8
d5
d2
aa
c4
b8
95
35
40
80
4d
56
c1
55
9c
d5
ca
ca
9a
80
2d
3f
2a
41
26
2d
b4
be
ca
3e
43
c7
4d
56
df
e3
d0
be
d2
bd
b9
a3
97
37
45
36
5c
65
55
49
5
0
1b
31
3e
a6
a1
c2
b9
c3
ba
84
40
bd
4b
c6
39
4b
4a
49
31
3f
1e
3c
32
30
bb
ba
a4
33
3d
27
60
67
5c
62
69
4f
0
59
4c
da
e5
c5
bc
ce
c7
ae
e
45
d3
d2
b4
bf
2c
5
9d
2a
26
51
4e
48
44
4f
42
3c
52
43
4c
63
3a
3e
cf
d3
cd
ae
c1
12
9f
bb
46
15
2f
9e
30
9a
51
52
48
4d
53
54
3c
4f
3b
3e
52
42
c3
d2
c6
3c
43
2f
d1
cf
c5
aa
b2
c
2d
2f
6
5e
5e
52
65
6b
58
49
45
80
c
2d
ab
bf
80
2e
c8
c5
d6
43
96
c2
47
81
1a
b2
33
40
3d
52
31
ad
d3
c3
bf
ce
b8
be
c3
a5
ba
b4
99
bf
cc
3b
b6
cb
d3
a0
ae
2
2a
3b
9d
cf
a7
33
4d
0
53
40
20
11
54
4e
3b
c6
a7
3d
b7
13
92
4f
4f
4e
99
5a
51
47
d7
c2
ca
b7
a9
bb
3d
9
b8
c9
a4
b2
21
11
81
80
45
41
45
3e
58
67
62
4c
42
1e
af
ae
21
35
4a
2b
3e
31
da
95
cc
37
cb
d2
bf
b8
b7
b1
29
44
bc
1f
24
8c
54
46
a4
ca
d9
d0
6
b0
c4
3d
54
2c
33
40
3d
55
5a
57
41
60
41
2c
5a
3f
d3
b8
3c
d2
c8
11
82
c6
bc
2
ae
8a
24
2e
24
cf
c9
d4
3a
3a
81
57
51
4f
c6
de
9b
d0
e2
ca
c0
c3
b5
20
bf
3b
bb
bc
a8
c2
ca
ad
99
d6
c4
a9
a3
2b
aa
44
3b
55
49
4d
0
4f
ac
a8
c1
cf
94
b9
b9
18
a6
a4
46
21
35
47
2a
ad
d6
cc
9e
ca
c8
a6
16
f
c9
3e
35
42
58
52
59
9
bd
bf
35
a5
1c
d1
d4
2a
be
bb
cb
a1
b0
ab
4e
41
41
4c
4a
43
55
42
32
48
90
47
ab
9e
80
3b
4d
4e
c9
5a
41
50
d1
c0
d1
b9
b0
88
3a
16
c9
ce
c7
ba
1f
c5
c6
51
41
e6
e5
8d
c8
cb
30
c6
b2
38
4a
b8
2d
cc
d2
4b
c2
1f
34
92
20
33
47
4f
51
3e
e
bf
c9
0
bb
29
8
29
32
46
3f
2b
3c
38
4a
56
48
4e
4c
3d
cd
ca
4e
d7
d9
bb
ce
c6
b3
12
b4
b7
45
54
50
43
54
80
d0
d7
d1
c4
cd
b5
b9
bc
b2
d3
c7
c0
3d
11
26
3d
9f
52
bb
b8
c1
33
b9
42
50
0
be
de
e0
cb
cf
cb
b8
28
8e
a3
b2
c9
c6
cd
c2
ba
16
45
46
47
4f
37
4e
5c
43
48
46
34
12
c6
bb
bf
bf
ab
45
3c
80
10
46
a0
52
b2
40
1a
4d
a7
4f
4f
2e
68
5b
3b
ae
90
bf
44
48
0
6a
6b
5e
70
73
65
6b
6b
3
e5
cf
1f
d8
dd
a2
24
c5
c5
53
45
30
51
5a
4e
d0
66
43
de
ec
c9
c6
d6
b5
5a
e2
d7
cc
ce
97
a2
27
a8
c5
45
bd
b3
40
3d
36
c4
47
3c
44
81
72
75
6c
d5
af
cd
c7
c3
ca
2e
2b
2c
4c
4e
4e
58
67
60
59
62
aa
d7
ea
c1
a2
2d
1a
4e
63
50
4b
ce
38
d2
c6
ba
36
3e
3e
5d
5c
44
bc
bc
41
8f
a3
80
a7
b3
bf
60
52
9a
6c
6c
5e
2f
72
6b
dd
e3
db
d3
d7
c5
24
bb
2a
d3
da
dd
47
35
3d
43
4c
57
64
66
50
df
ef
e3
d3
d2
b4
30
3c
37
58
5f
47
61
63
0
e7
e9
f
d1
de
a0
a5
31
3a
d6
dd
d5
4b
49
4a
5d
64
63
57
e5
de
c0
df
c7
c8
c9
b4
dd
d9
d4
bf
bc
bd
48
32
37
4c
50
53
4f
68
6a
ca
cb
ce
26
a9
b8
d1
a8
54
3b
c4
80
f0
e9
d4
e0
e3
e1
c2
cc
bb
3e
49
43
65
6c
63
72
71
d8
f7
f9
ec
e3
e5
d0
b9
c5
a0
43
f0
e4
e3
df
c0
bd
b7
97
e7
f1
e5
e4
e5
cb
c4
c9
b8
35
40
8d
60
63
4f
6a
6f
6a
b9
b3
be
1d
91
35
9d
c4
bf
3d
40
a8
40
1e
36
58
4a
54
1e
80
99
53
50
1d
da
53
3d
bb
ca
ca
2a
1d
35
32
4e
45
cc
cd
c8
94
e
6
44
47
44
4d
4b
4f
c2
d1
bb
c5
ce
1f
3f
27
80
aa
cc
49
13
2f
c7
cf
cf
cf
83
9f
95
42
43
47
4d
49
49
59
5d
5f
6b
6c
53
f0
ee
bc
da
e8
dd
cf
d2
c4
f1
f0
e1
e3
e5
d4
c8
cc
b5
c8
81
a6
c2
bf
c8
34
bb
c3
67
53
db
e9
ee
d2
d6
d6
b6
3b
3f
a0
41
27
b
23
46
59
59
5d
11
e6
dd
4e
c8
dc
c8
5e
55
35
6f
77
70
d6
dc
d6
4b
48
46
e7
eb
e8
cc
ca
b3
e1
e4
d9
b0
a0
81
b1
3d
47
e1
dc
da
c5
c2
b8
3f
7
36
3c
4f
38
60
6c
61
68
6a
60
4e
39
a6
dc
43
2d
be
94
36
53
99
c2
d5
ea
d3
cf
cf
b7
ef
f5
e5
da
e3
cb
51
4e
48
3e
b2
9d
2b
57
40
bb
52
49
aa
23
bd
4e
25
9d
c7
d4
ab
4e
51
41
6f
76
69
dd
e6
c3
0
99
88
9f
5a
49
2f
5b
46
3c
58
c3
54
50
ae
48
ca
2c
2b
5b
3c
b8
48
31
bc
bf
44
4c
48
af
0
d2
14
94
ad
0
b1
50
38
2b
26
ae
2f
cc
b2
ef
f2
c4
d7
e1
e1
c4
c4
b5
48
ab
ad
46
38
27
4c
49
41
2c
d1
b1
87
32
27
c7
59
3b
46
55
a4
42
51
3f
2f
42
49
f5
fd
f3
ec
ec
df
cd
d0
b9
c0
4e
d4
d5
d5
ce
bd
d6
b3
d1
d3
d6
a1
b0
ae
3b
34
45
ed
f5
ed
de
e6
d8
bf
c6
a2
53
44
82
62
65
48
cb
5f
54
35
44
1f
6a
6d
5c
7a
7f
74
c1
af
c4
33
38
32
53
4f
4c
43
5a
60
60
70
68
60
46
e9
0
55
16
d6
ef
e5
c7
cd
1a
c3
e3
d3
d6
d2
b1
21
b
87
ae
50
20
bd
bf
54
46
d0
a6
42
4c
45
64
5f
3a
58
3e
b1
0
d3
cf
9e
cc
81
b2
b6
21
53
55
3f
cd
a3
25
b8
cd
cb
d5
cb
b9
a4
2a
26
50
4f
4e
55
4
a6
e1
d5
a7
cd
cf
a2
f8
fc
ed
ea
ec
e3
cf
d3
b7
f6
fa
ec
e4
e2
cf
c2
c5
b1
5a
5a
14
42
67
43
d3
e2
80
8c
3c
4e
59
6e
b7
69
4d
cf
5f
63
4c
3d
63
25
b2
b5
2b
c7
cc
cb
a2
a3
b7
bd
35
29
d1
be
56
c3
ce
80
c1
a5
c1
ba
0
39
bf
4c
b
2c
51
4f
e8
da
81
d9
e9
e0
c7
d0
bc
3d
51
2a
49
6a
51
b9
d2
50
f4
e5
5e
e0
e4
d7
c7
c8
b5
d3
ce
a5
d9
c0
f
81
b9
8c
c0
b7
b9
41
43
36
59
52
47
35
48
a3
b6
46
48
b5
e0
3b
c8
b0
9a
53
50
22
a7
80
a0
c9
4f
b4
d0
d4
21
b1
c9
b2
e8
db
40
d4
dc
d2
b1
b6
bb
d0
49
29
44
4b
4d
51
43
80
d4
ca
c6
24
31
1a
53
47
43
c7
d2
cc
81
86
28
2a
4a
47
54
42
92
58
63
47
dc
53
5f
e1
e5
d0
cc
d0
d6
3d
2d
47
c4
af
84
96
cb
4c
28
34
80
da
e0
b8
b9
d0
cb
1
27
a3
4c
45
b3
66
6b
5b
6f
72
60
4f
44
8f
6d
68
52
b5
6d
64
17
4c
50
5b
5e
96
61
57
c2
35
3c
b0
62
57
41
d2
bf
45
d7
5b
0
cf
dc
4a
bd
d6
a1
be
ee
df
c1
e8
c5
32
b3
2a
41
e9
e2
d9
dc
bc
2c
ae
ae
9e
0
a0
48
4b
49
5b
5d
40
f0
ee
e5
d6
da
d5
c4
c3
93
47
c0
d3
9f
36
21
c7
49
80
ab
4f
bb
47
5b
ce
41
dd
29
22
2f
3d
67
60
45
6b
72
59
2c
49
5c
66
6f
6b
61
6d
3c
d8
d7
e
b9
c8
c8
a3
b8
c8
50
43
40
57
5a
59
65
65
5c
80
34
bc
64
69
57
6d
74
6e
33
40
b0
2f
a
32
8a
d2
38
31
3a
2a
58
5d
41
60
47
bf
a5
80
a0
40
a5
bf
bb
b2
41
2f
3b
80
62
68
5c
75
78
5b
f0
63
2b
dd
e8
5a
be
ce
c7
b5
55
5f
9e
e2
d5
c1
d4
a1
3c
5f
a1
54
de
d4
d8
e7
bf
dd
f0
d5
dc
e8
d6
d5
e3
d3
56
55
56
44
32
4a
3e
13
41
45
35
37
55
4d
5c
44
48
55
62
9f
96
51
be
80
44
bb
b
8c
89
b6
22
bf
a1
cd
b9
c5
5a
29
2c
aa
c8
a4
a8
c4
8a
e1
de
c3
e0
dd
c5
e1
e1
cd
c5
cc
b1
9e
c6
a1
43
9e
d
96
c0
33
9d
bc
3f
ad
b3
40
55
2d
3f
44
ab
c
80
ac
9e
b7
d3
cb
d5
da
cb
cc
d7
cb
9d
b0
c4
4b
81
47
4d
ad
3d
3f
b9
ba
48
c2
b7
2c
d2
c7
34
a7
5d
41
8a
55
3d
10
5c
52
ab
16
3e
bd
80
56
ad
d
ce
d1
ca
da
da
d4
cf
c8
9e
10
48
0
32
42
43
48
42
50
20
af
81
38
b4
0
3a
bc
9e
b2
e6
be
b0
e9
ca
0
e7
c9
57
c6
c2
52
b1
9a
41
b3
10
9b
33
48
bf
33
4a
32
41
41
36
c5
8e
12
c3
a8
d0
cc
c3
11
c0
3a
81
c3
38
c8
bf
cf
46
47
55
4d
52
56
53
54
54
c6
d3
cb
c2
d0
be
c3
d0
c1
41
80
46
38
ac
50
36
ac
4b
33
bb
1e
37
b2
10
3f
ab
2d
c9
d5
b3
d7
ce
b4
d0
cf
b8
4f
d0
ce
80
1d
b2
3d
c2
32
a2
ce
c8
5f
37
ba
58
2c
9a
32
98
33
2c
c2
97
c1
c0
a1
91
ce
11
80
d1
19
23
d3
2d
4d
3b
51
4b
46
62
4d
49
5b
37
4a
44
40
45
42
45
1c
4b
c9
cb
c1
c2
ca
ba
d8
d5
c7
bd
cb
b8
bf
cf
b7
be
d1
bc
8b
b4
2d
12
26
43
45
4f
35
ca
d5
ab
d8
de
c7
d5
e1
c2
10
ba
1f
ac
cb
b6
21
c6
c4
21
29
54
51
56
52
5a
49
47
b2
c7
34
bf
cb
8e
b9
cc
19
62
46
4b
60
42
4f
59
3b
4d
3d
1f
47
cc
be
30
bd
c3
11
af
c9
a6
bb
cf
b6
b8
be
0
d6
f0
cb
d3
f0
ce
d7
ef
d6
d5
d0
9b
d9
d0
a8
cf
cd
b0
c4
e9
51
c3
ea
2c
c1
e9
30
4f
42
51
50
41
4e
5a
41
55
c4
db
4c
be
d9
48
bb
d2
41
ae
d7
c4
b6
d3
c0
c8
dc
c7
b9
46
b8
35
c5
2
b4
33
2a
3f
8
49
3e
a8
3e
48
0
48
58
14
80
62
48
3e
54
32
44
3d
81
2d
3c
2b
3e
34
49
49
aa
d8
ba
b8
d0
b2
ad
d5
c1
40
bd
a1
47
b3
86
54
18
27
c7
db
b8
c6
d9
93
bc
d1
22
bf
d7
c7
83
c3
c0
80
c5
ca
d2
ea
d5
d3
e8
d5
3c
d8
c6
1a
b0
3c
2a
b7
3f
26
80
40
9e
c1
3d
86
bc
37
b2
bd
3d
47
c9
b3
38
bd
20
29
ca
ad
47
d7
c6
3e
cc
ac
2f
cd
ac
c8
d3
1a
c9
d0
2d
c1
ba
81
53
4e
65
53
4e
64
55
51
5c
89
b4
9b
52
ad
3
52
81
88
1f
c6
4a
c6
d9
b6
c0
d8
80
aa
c3
18
b6
ba
39
ab
1b
92
c0
b9
17
bd
b2
4c
b1
bd
31
4c
a6
b5
44
3a
41
2a
c8
a7
34
20
39
38
1a
3f
1d
a3
1f
29
a7
41
34
81
4b
37
34
45
b7
3b
48
a6
be
9e
a8
b3
80
5a
52
4d
4b
47
53
4e
42
4d
a2
be
18
b7
c3
13
9d
b9
44
b6
b3
2d
80
4c
4c
33
4f
48
5b
51
57
58
4f
5d
5e
4c
5b
c9
d2
c9
c7
d2
c8
c2
db
ce
b2
bb
49
80
23
58
0
b2
4c
60
51
59
41
a5
4e
46
b9
54
0
c2
3
a6
c8
4
8e
cc
a6
5c
49
42
5b
49
3e
50
45
43
47
3d
4a
4b
46
40
5c
45
49
bf
a4
50
be
c9
52
c3
ce
32
4d
b5
17
c5
cd
b5
c2
c7
b4
31
1d
58
34
11
5f
39
9
50
39
b2
97
80
45
4b
b6
47
80
4b
b0
a0
5b
2f
30
58
22
3a
2f
c4
8a
3e
c6
9c
bb
cc
b9
4a
d0
b5
1d
cf
b1
15
c7
b3
55
53
36
56
54
58
50
29
55
0
bb
40
9f
c3
4c
a7
bd
4f
c8
e5
97
c9
e7
c5
ca
ed
a4
ac
39
c5
c0
bd
2d
a1
9
45
49
0
4a
46
46
54
49
52
4b
bf
c2
17
ab
aa
80
a9
cd
0
40
8e
3d
44
81
49
48
29
58
59
59
47
49
59
51
30
41
3f
d0
e3
bd
d6
e2
cc
d3
e0
c6
44
38
4d
52
3b
42
55
42
50
c3
cf
41
c9
db
b0
be
d2
88
9e
ce
44
c9
d2
3d
d2
d2
bd
22
df
b7
d1
d9
d1
d6
da
d1
cb
0
b1
c4
96
80
41
4b
4d
c4
d7
b9
c5
d9
bb
c2
d6
be
27
b8
b3
a2
c4
b5
8a
bd
a2
ca
cb
c0
bd
c3
ad
c4
d1
c1
32
c2
9f
92
d1
a3
b5
4
31
46
c7
c8
15
ba
bc
43
91
a2
46
41
50
4d
49
58
4f
3b
57
80
c1
a4
1e
b6
f
2f
b5
af
d4
cb
b2
d6
d3
b4
d1
d5
c0
37
cc
35
25
d7
c6
40
d3
b5
4b
42
4e
44
3b
48
3e
3d
4b
47
ad
45
a7
d6
40
8c
cf
3a
b6
d0
8d
c6
dd
c2
cd
e6
ca
49
3c
46
44
2b
3f
50
43
55
2d
ba
31
34
3c
b6
42
40
33
58
5d
45
5a
52
42
4b
80
35
b3
db
8f
ba
df
b0
b5
dc
34
3d
c5
43
80
a8
28
16
bb
3
50
3e
54
52
42
4a
51
53
50
33
17
80
45
45
3b
2c
9d
33
2d
d2
ab
c9
d2
b0
c6
d4
b5
55
44
32
52
2b
25
7
8c
83
3f
1a
46
51
52
55
55
52
4e
5e
c7
bd
5b
bd
ab
5e
af
11
3e
31
44
c1
37
3d
3
2b
3d
d9
d1
b9
dc
d3
bf
bd
b4
a4
48
0
49
54
3a
4f
5c
4e
52
38
55
26
3f
60
1b
2b
2e
80
6d
50
4d
6b
4c
46
65
4e
4b
41
80
47
9e
c7
45
9a
c2
36
58
5a
4d
3c
81
26
b8
b0
86
2d
a1
46
49
c0
c4
3e
af
ae
47
99
43
58
48
4e
b2
38
bf
2e
a2
4b
2a
ae
47
2c
bc
45
e7
e9
c7
df
d2
4c
30
1b
39
bf
ba
99
c8
c9
c4
c7
aa
ca
5c
4f
5d
5f
50
60
66
5a
62
c7
df
d9
bf
d4
b5
b6
c3
47
4f
97
39
52
3a
51
2f
53
62
6f
6f
76
70
66
6d
6d
57
61
ce
da
c6
d8
dd
db
d0
d7
d1
38
43
45
a7
d0
12
ba
cc
8e
43
29
4e
4d
40
4c
5a
40
85
4f
52
59
45
3f
5b
3d
2f
5c
5c
3d
59
5e
45
5f
5e
52
63
df
d3
f
cd
c7
81
80
c8
89
52
26
50
48
4
49
44
ae
44
c6
ca
c9
80
a
33
4b
58
50
43
35
12
c7
28
95
27
20
a7
b5
c8
20
c3
cd
0
b0
c8
26
18
bb
48
22
af
53
9c
be
38
6b
5c
60
64
4e
58
5a
2a
4a
52
45
4d
61
1e
3a
59
a2
18
a9
d3
81
a2
cc
9c
2a
c3
8e
38
b6
3c
42
a1
36
47
8c
37
6a
64
63
6b
67
6a
65
63
66
db
e3
dd
e6
e9
e6
e9
ed
e5
d5
e6
d7
e1
eb
d4
d7
e3
d0
20
af
4f
31
b3
4f
b
be
50
30
93
52
37
14
4e
22
ae
44
91
36
be
28
3f
48
2b
d0
3c
c6
eb
25
d5
ea
9e
d5
e5
c6
29
b8
3e
28
b4
46
99
c6
39
4f
43
68
54
53
6f
5f
5f
6d
c9
c4
59
c1
c9
63
be
cc
54
5e
5b
5a
54
45
51
46
80
47
cd
20
2a
bc
ce
b2
80
b2
a6
2f
a3
ba
47
c5
a5
1a
c7
0
69
5c
61
6d
5d
64
65
53
63
60
aa
b7
50
4
ae
2b
b2
47
46
a1
3a
3b
4
37
d3
cc
23
5
c6
30
cf
d8
c7
bb
c7
a0
e9
f5
e5
eb
f4
ea
e1
f1
e3
51
80
46
48
0
41
46
a9
3b
38
8f
4a
47
3b
4f
52
2d
43
9b
d6
ba
92
d5
bc
9a
c8
ab
b9
14
44
4b
91
a6
45
b9
a6
49
d5
c2
3c
d5
bc
21
dc
cf
4f
df
b9
40
df
ba
2e
d9
bf
e1
e7
d8
e0
e8
d1
c4
d8
b2
c1
d3
bf
c0
d6
cd
c4
d8
d3
3d
8f
3c
49
a0
35
a6
0
28
c4
e8
af
d6
de
c3
c1
d0
a3
9a
25
23
37
6
9e
35
ae
ca
ab
ca
c8
c4
c8
b1
b7
0
21
31
4b
d7
2e
54
de
33
51
ce
59
5a
56
47
4b
6b
3c
38
61
74
61
61
73
5c
5e
6f
61
63
4b
14
24
51
91
17
b0
b1
85
c1
d3
c8
d4
bc
bc
ce
3d
19
51
4e
5e
51
3d
4f
3c
ac
38
da
d7
a8
d2
d0
c0
bf
ca
ab
2c
ac
47
2e
9a
44
2a
b6
3e
81
da
cd
81
c4
a9
9f
c8
a7
67
33
29
69
41
34
4d
47
44
45
b4
2f
57
37
47
60
4d
51
44
f
4a
3c
89
48
3f
b3
44
b
b5
0
43
49
3d
5a
58
81
22
6
b6
c3
cd
cc
b1
cb
bf
6e
55
44
6f
43
36
68
42
39
a6
c1
80
93
d1
c1
af
d2
b3
2b
34
51
b5
b9
c2
e
b1
cc
41
47
41
33
8c
30
1a
b0
29
25
bb
28
d4
d3
b4
b4
c7
b9
5d
5d
6f
54
58
71
5a
5b
70
d5
e8
dc
b5
df
d4
81
c9
c0
58
2e
4e
50
30
50
40
a7
3f
65
56
57
59
40
46
48
9b
27
96
c7
a1
9
c2
b7
b1
c7
b2
b8
df
4c
b2
dd
56
bc
da
4e
d7
d9
cb
c8
ca
b9
be
c5
2e
60
5a
48
63
55
41
5a
55
44
60
69
67
58
66
75
54
62
71
45
bc
c8
80
b2
c9
ad
c6
c7
4b
5d
54
13
a9
46
1b
bc
2c
aa
ce
90
b5
df
b0
ad
e6
80
5c
4d
a4
51
4d
5a
3c
8d
40
54
d9
c7
ce
e2
cc
d1
de
c9
47
95
4b
44
aa
46
48
a9
43
c8
b1
94
e1
d8
c2
d7
cf
c2
d8
e7
d5
db
e5
ca
45
b4
e
46
ba
a6
39
d1
97
37
9c
d1
b1
d5
d1
bb
cf
c3
b2
ca
1f
c7
c8
b3
be
dd
cf
c0
d0
3
53
b
44
4f
9a
39
4a
bb
27
80
aa
58
1c
91
58
8e
ac
58
61
43
35
36
4e
3c
cd
4d
43
db
e4
d8
de
e3
de
d9
df
d4
bd
db
c8
bd
db
da
b7
d9
d7
c6
da
10
c3
db
9a
c0
d5
5
c2
b7
54
d2
c4
52
d7
c1
52
55
81
33
5e
3d
3b
a7
54
49
22
3d
42
3a
43
be
51
52
33
34
3f
37
80
53
33
d4
47
30
a4
c9
b3
b5
ce
b9
a6
cc
92
4e
3f
9
23
3d
3e
48
ac
29
20
51
52
62
4d
48
5b
3b
37
33
a0
4e
26
b0
52
9c
c3
49
5f
4c
58
4c
2a
55
3e
97
51
60
52
4e
37
53
4b
42
4f
4c
b9
d5
c7
af
9d
c9
a2
a4
b0
64
ac
8f
67
ac
a4
67
24
ba
42
e
ab
51
35
c1
55
48
19
4d
53
62
40
4d
66
39
44
61
59
4b
69
5c
5a
6f
5d
61
6b
16
ae
36
c1
b9
31
cb
cd
9e
27
a9
a4
cb
a1
ad
bf
2a
ac
2d
ad
35
20
ab
80
cc
cd
c0
d2
dc
d5
d9
e1
d6
cc
cc
ce
3f
e
5a
4f
45
5f
58
54
5f
46
3e
48
36
27
59
2c
a4
56
c9
d6
bf
c8
dd
c5
c0
d1
b4
1d
d1
d3
2b
df
ce
c0
de
b8
5a
5d
3c
2e
3b
95
33
41
28
59
64
55
28
41
38
31
3e
2b
22
45
50
1f
3c
3c
39
4b
35
55
ba
ac
1c
be
aa
3e
e
1
96
b6
97
c9
da
c5
d1
d5
d9
41
ae
9c
cf
cb
c9
b3
b4
b4
47
39
35
9b
af
a2
25
99
80
cb
c3
bb
d3
d0
c7
29
e
af
11
a
a6
99
86
bf
2f
3f
1d
89
ae
a5
c7
c9
c5
b8
c1
c4
37
42
b6
c9
ca
b6
c0
c1
99
bd
a7
80
ab
2a
c8
ae
c3
b9
cb
cd
bc
c6
ba
af
3c
c2
b5
5a
5c
53
52
58
51
50
5c
5a
63
5a
54
5c
4f
45
5e
4f
49
dd
d7
ce
e8
e6
e9
df
df
d9
49
52
51
42
53
26
30
3c
35
43
2a
1c
1
ad
82
2d
b5
c0
6
aa
3f
b2
bb
3e
2e
3c
4c
4b
b6
92
ca
ce
c7
b5
b3
af
c3
9e
9c
d7
c2
bd
c0
1c
23
bf
a6
a5
ab
9b
ba
3b
3d
9e
c7
bf
c7
d1
ca
cd
a5
28
be
56
57
50
52
59
4e
4e
56
42
94
90
1
bb
b7
a5
bb
a5
9d
4d
5b
49
38
3a
14
44
40
31
39
20
80
3f
32
ad
4b
49
2b
51
46
42
f
24
20
3f
2b
9d
3e
b9
c7
c0
80
d0
cb
0
cf
47
49
45
4e
49
16
37
c1
c4
c4
ab
b1
cd
c4
bd
34
25
46
35
44
a
18
e
9e
34
90
27
42
4c
94
3f
48
92
4c
52
30
55
50
58
48
4b
44
50
29
40
d4
ad
b5
d1
bd
bf
c1
b6
be
b2
b4
c0
c6
c9
c9
21
ba
c6
81
8f
81
8e
99
be
45
4a
bc
61
5f
56
50
56
4a
54
50
3d
b4
98
a3
d5
d7
d8
9b
c1
ca
3d
2e
a4
3d
87
c6
28
3
ba
48
48
47
9d
90
26
a2
ab
a1
a6
ba
b2
43
85
26
4a
46
3c
53
57
4c
b8
15
c
95
1b
80
ad
a2
a1
c7
c8
c6
30
4d
4b
49
46
45
2d
b8
a5
3e
3d
31
b7
9f
a1
b2
b7
b5
ac
9a
a6
33
4f
40
80
b7
3e
2c
b0
0
51
52
49
4c
4b
36
5a
4d
45
80
39
53
c4
cf
b1
b7
bb
0
5b
64
5d
53
5c
54
52
57
53
91
4f
80
9d
3c
ab
c9
c9
40
3f
47
47
33
3a
2c
59
4d
38
33
c7
b7
d3
db
d4
bc
be
a1
41
24
3f
3a
3e
4a
3a
53
3a
59
5a
56
54
4f
4b
5c
5b
50
b7
b8
aa
bd
b8
c2
40
38
93
a7
0
4a
c1
b1
29
ab
93
a3
30
30
36
3e
9c
80
37
b4
96
3f
2f
80
e
b1
be
4b
3f
b1
c9
af
ad
d7
cc
c9
30
9c
b8
c7
c0
be
ca
c7
a4
c9
c2
b1
80
96
ad
9b
aa
aa
42
0
9b
46
50
4a
4f
48
42
3d
3f
40
c5
bd
a0
be
b1
37
24
cb
1d
51
4f
4d
4c
52
4a
51
58
47
a
1f
35
8c
a2
20
a9
4c
31
58
58
57
43
36
3e
31
3e
4e
a2
9f
b3
c2
b9
c5
22
39
b8
c2
a2
34
d6
db
d0
cb
cb
bc
1f
bc
80
2d
47
b9
bf
bc
2a
2e
3f
49
cc
cf
ba
bc
c5
b1
97
80
81
bb
b1
ba
30
3f
87
48
40
4f
9d
c9
3f
b5
c0
30
d6
c4
bf
e3
dc
db
cc
c1
c8
d3
c6
b4
d8
d3
cd
c5
cb
9a
36
33
1b
32
4f
17
0
3d
b0
54
42
40
51
50
41
58
3b
33
ba
b
a8
bb
ae
c0
a8
3c
3d
24
42
44
ba
42
44
93
3e
3e
49
b3
39
da
de
d8
cf
d1
bf
b0
ae
b3
c1
c4
c2
44
1e
a9
4e
4d
47
43
51
42
38
4b
2f
5c
53
59
50
54
49
57
41
31
30
4d
4d
b8
3a
42
c2
0
23
b6
c2
c3
d4
d0
cb
b7
bb
be
0
13
46
b6
c6
b1
a9
a0
36
b6
b3
cc
e0
d1
be
d3
a0
d1
80
b6
a8
c6
c2
c0
2b
95
0
b8
91
81
9d
b3
be
4f
13
99
3b
c3
a3
ad
c2
ad
3d
b5
b9
c6
d2
41
d3
cd
d1
2a
a6
b8
b7
95
32
cb
ce
96
ab
b4
47
0
9b
2a
a9
b2
30
0
39
80
38
be
31
c7
c0
d1
c3
b3
b7
a6
2e
bc
41
b9
91
2b
80
3f
59
69
62
54
65
54
52
60
3f
d4
cc
cf
dc
d5
da
c3
c4
0
51
50
43
23
4b
3f
c9
1a
32
36
30
36
b1
bb
c3
80
1d
a8
5a
5c
5d
55
57
53
5a
54
4c
47
55
45
b9
c4
b1
9c
ac
95
8a
32
80
a5
cf
ac
99
b3
af
49
42
b9
34
30
c
a9
34
4a
3c
2a
0
40
b0
2a
4d
bf
c2
bd
cb
ab
c1
cc
ad
b3
bd
a8
37
20
27
d1
cd
bd
be
b5
aa
45
2f
44
3a
43
3f
24
ab
36
42
27
3d
3e
1d
82
c4
2d
24
2
ad
b4
95
c6
c2
2e
d2
c2
46
a0
4e
4f
94
44
50
3c
45
d5
dc
d4
b8
d5
d3
0
b0
bb
3f
c3
80
bb
c0
a9
b1
c5
bb
50
38
47
29
95
23
23
3b
4c
53
50
4c
46
46
3c
42
45
3c
0
b9
23
95
89
2f
4c
43
44
a5
a0
a5
c1
ca
c6
b0
b5
7
2f
ae
3b
3e
34
39
4a
d
32
48
55
39
56
5d
49
5b
59
51
47
3b
ad
34
3d
81
92
12
29
3b
33
44
80
80
2c
2b
47
3a
b8
1c
c1
81
31
38
bc
b5
b8
55
54
52
4d
57
51
45
4f
48
46
4e
cd
47
0
c4
42
10
39
64
5d
50
4a
48
3f
3b
4b
3b
4d
37
29
d4
c8
ab
c3
b7
ba
3d
3a
43
47
51
47
3e
3d
e
57
28
32
52
1f
f
5c
35
81
0
1f
41
52
45
50
ad
ca
bd
e5
d0
9d
ec
dc
b9
cf
81
39
52
53
57
5b
5f
59
6b
6d
61
47
4d
44
a7
3c
13
a8
b8
80
5e
5b
4d
5b
53
34
5f
5b
47
61
5e
4f
2f
9c
3d
13
90
34
58
5d
4b
b1
f
a7
c5
8a
ac
a3
11
43
c3
4b
80
18
37
39
30
35
31
d2
c3
d7
cd
c2
94
41
46
51
2f
3c
45
3f
3d
50
d8
ca
25
d8
be
30
c9
c6
99
c0
d4
ca
cf
ce
c2
c5
39
3e
5c
57
53
57
4c
4e
60
5a
53
80
c5
ce
af
c4
b3
a5
b8
b5
56
51
4c
5b
5b
53
5d
6d
66
5a
57
59
4d
49
39
4f
3b
2a
e9
eb
e9
ea
ea
ee
e5
e6
e3
4c
5c
61
d2
dd
ce
c4
c2
b0
4f
55
5c
51
57
56
5d
63
53
5f
64
3f
51
59
45
50
5b
49
65
65
62
5c
5f
5e
62
6a
67
47
64
54
53
45
1e
3d
17
80
49
46
44
29
39
2c
3e
26
2d
dd
ea
e8
da
e7
dd
a6
31
4a
9b
2e
81
cd
c6
c6
b
bb
c2
e0
dd
cf
dd
d9
dd
cb
c9
cb
39
41
51
32
4a
55
5c
5f
81
6c
6f
65
5b
5c
4f
4f
4c
3d
53
52
42
3b
2f
94
47
25
98
5f
6c
68
4a
58
50
39
45
42
4d
49
48
55
53
40
63
68
5e
44
47
3e
c3
c0
ca
d8
d7
da
ba
cc
d7
d6
d9
e0
ce
d9
dd
ab
cc
c3
cb
da
cc
df
d9
cd
35
4f
51
2d
44
42
21
43
52
6
34
3b
9c
13
13
9a
1
31
c7
cc
bc
c5
2e
c1
aa
8e
c4
b7
a6
cc
cd
d5
18
cc
d0
bc
b7
98
a8
c0
b4
b6
b0
a8
9f
80
80
2d
b4
ac
27
40
4d
55
5d
63
56
2d
48
5d
81
30
55
65
63
5a
51
51
49
39
38
3b
ac
bd
3f
4a
bb
c7
c5
50
c6
42
54
3d
37
bd
bd
b1
b8
a8
a2
aa
1c
2a
2a
b
3e
80
32
55
4f
42
ae
c4
b3
a9
a5
34
e3
d5
cb
ee
ea
e8
cd
d
be
3d
88
b4
de
e1
e2
ce
c7
ca
2d
c5
cb
bb
cd
cf
af
bc
ae
59
4d
51
47
41
38
47
2a
38
48
48
44
53
5b
50
5f
64
58
49
b6
81
bc
d0
c0
a0
c2
b0
c8
cd
ac
de
d5
c9
d1
c6
b1
73
7c
72
6a
72
6b
65
6f
67
50
5a
40
48
56
25
b9
5c
40
e1
d9
be
e3
e1
cb
bd
c9
b1
dc
df
e0
e2
eb
ed
bc
d2
cd
54
51
45
26
51
2e
4c
59
40
31
1d
d0
10
ae
d1
45
a0
af
40
4a
35
80
a9
2d
a5
c3
3c
bf
2d
90
c8
8b
83
c3
46
35
39
36
3b
16
af
c1
2b
c5
c8
61
63
44
49
4d
4a
40
42
4c
41
52
55
30
4c
4f
4b
55
53
cf
80
b2
af
b6
b8
c5
24
a1
c3
aa
93
a5
ac
b6
d3
c5
ac
71
76
6b
60
5f
51
4d
4c
43
40
47
48
84
9c
10
81
b1
2f
35
3e
4e
80
2c
35
23
1e
3c
6a
72
6d
5a
5d
57
50
4c
45
60
55
43
5c
5a
3b
a7
5f
3f
54
4e
43
60
60
4e
75
78
6a
2a
c
3b
19
80
27
39
80
3c
3a
80
ba
41
46
9a
5b
56
cb
47
4c
85
dd
e5
e4
d6
d0
d0
53
56
4a
47
40
2c
54
45
2f
df
b7
1a
db
d2
c5
bc
c3
be
c9
c9
c4
dd
db
d9
c8
15
cf
4c
56
4a
43
3f
1a
41
3c
2c
d0
ae
24
d0
b7
bf
ca
bf
a3
5b
5e
5b
50
57
5a
57
5c
61
ae
e2
d7
d7
e9
d9
c5
d4
cc
71
75
6b
5e
5d
54
4d
4b
3f
71
71
67
5e
58
49
4e
46
3c
b2
91
23
88
40
9e
bf
c5
9a
48
53
5
50
61
c3
68
68
2c
dd
e1
d8
ce
d5
c1
cd
d0
36
28
51
50
c0
43
36
af
49
34
4f
57
54
3c
3f
27
80
3e
41
bb
34
9e
40
3a
25
49
40
25
5a
58
4a
27
84
81
80
b1
ab
1f
96
1d
84
c3
b3
88
cf
2e
6a
63
21
4f
50
45
14
94
0
1f
ca
9a
e1
db
c1
d3
d4
bd
34
38
40
1f
e
28
45
40
3c
2d
3b
25
df
ca
bf
ca
de
bb
d2
db
d0
e6
e7
d7
2a
a7
ad
bd
ab
bb
c6
d2
c5
b0
cd
81
2f
3c
3a
b2
b1
b3
af
a5
9b
5c
41
b0
57
56
21
5c
9d
bb
33
34
37
10
10
92
44
20
81
3c
50
48
33
44
32
25
47
4c
80
47
3c
95
44
14
d1
61
50
dc
d8
b2
e1
dd
e0
df
db
dc
d
41
cd
af
b5
da
0
12
cf
bd
b1
45
c3
cf
b8
b4
b8
b3
5a
5b
5c
5c
63
59
69
6f
63
59
4b
43
64
56
3c
40
6a
53
45
46
b2
48
57
d5
58
53
80
46
4b
41
46
3c
81
bf
c
1e
32
17
1d
b3
be
32
a8
c1
45
31
62
54
4d
61
54
4e
5c
50
58
61
54
51
55
42
4d
4a
3c
14
37
3c
a1
a
2a
2a
32
45
6d
6b
66
59
5a
5a
53
51
54
ac
58
49
9a
4e
89
c4
4d
42
a4
39
16
b8
50
be
b5
81
a7
60
4f
34
61
49
88
6a
63
34
5e
5d
5c
56
5a
5f
62
69
59
55
58
3f
40
43
b7
3b
3c
ae
9a
35
4f
2a
4b
51
e
55
5c
64
5a
50
5e
5c
4a
69
6e
62
54
45
34
b6
81
a4
b
33
12
a6
80
0
bd
9a
ab
81
1f
ab
bb
d6
be
d5
d2
cd
c1
b6
d3
4b
50
5c
50
59
5d
6a
6f
67
57
52
3c
37
40
38
2a
28
44
c0
c7
28
d2
e1
cd
d0
ce
bc
2b
b0
d
a9
b3
d0
87
bc
c5
