28
4c
da
5b
53
52
65
56
40
28
e5
59
66
cd
16
2d
4a
54
62
e2
4b
60
e5
59
60
e4
c7
49
56
d5
e3
e1
63
e1
db
6c
51
54
df
c9
5d
dd
61
64
d1
dd
d1
d9
d9
cd
e4
46
c3
4d
4f
d1
56
df
a5
d3
57
57
52
dd
20
c9
c6
5c
4b
e3
5f
b7
b3
32
d7
4f
47
81
55
cb
cc
63
63
61
4e
5b
e4
52
62
59
d3
cf
e4
c6
b
63
c7
dc
40
ed
5b
56
eb
e2
5d
c3
2b
c2
44
d1
54
b8
d1
64
33
e4
46
e7
65
5f
e1
5e
30
c8
49
24
dc
2e
6a
e8
1e
6c
dc
3e
53
38
d9
a6
3f
d4
55
b5
61
ca
1d
d2
41
6d
0
d8
65
38
e0
c3
3a
98
5f
e3
c4
68
62
dc
d2
35
b6
da
1d
56
be
41
5f
2e
d9
b6
63
d2
c2
3e
59
db
dc
2f
59
31
59
ab
dd
60
60
11
de
d8
ce
db
e6
e6
be
56
ae
d5
e2
23
52
d9
cd
b6
80
c0
36
da
43
d4
61
b3
4f
d3
56
c3
df
46
da
d1
d9
d4
f0
df
ca
70
de
4b
64
e6
cf
25
c6
bb
e5
50
51
65
c5
55
64
5b
bb
a2
db
35
57
55
d9
4e
42
c6
70
e3
ce
61
c7
17
46
df
e4
5a
de
5a
b2
46
5a
2a
c8
5e
4b
60
e4
b9
57
53
53
dc
34
d6
bc
e4
cc
59
bc
eb
60
e9
6e
d7
37
74
cd
ec
6e
d4
d6
dc
c1
cd
e4
95
58
54
b4
63
62
59
b6
c5
da
d7
5b
5d
44
65
d7
b2
4d
e3
61
60
4c
d4
52
bf
81
55
3e
be
62
62
98
cd
5c
da
c5
bf
4a
c9
5e
e4
42
c4
66
e4
9d
e0
4d
db
e1
df
cd
ad
4f
59
e5
99
93
52
c5
38
e2
e8
5e
50
51
5e
51
5c
8e
dd
62
e4
cd
5f
6d
de
3e
5b
e6
e9
49
50
ba
63
da
dd
4a
bc
e1
4b
cf
62
4a
4c
d6
2b
58
5b
71
cd
41
3c
5d
5f
df
47
e5
60
d2
32
dd
e5
e5
5f
e4
d9
dd
d5
b3
3a
5f
5e
80
cf
4d
49
5c
c1
5b
e3
e0
a1
37
e3
54
81
ef
da
d3
33
cd
4a
e3
c4
d9
de
46
bc
29
d3
4d
58
24
e7
59
55
d4
61
53
d3
67
de
e1
e1
63
a2
df
65
46
5c
3d
46
72
62
d5
42
5f
63
c1
5e
cb
d9
9d
da
61
d2
de
e2
e6
c9
de
e5
e8
dd
d9
44
4f
ba
e9
57
e0
df
e4
37
53
c9
6c
39
d7
c8
32
ea
5f
36
58
69
5d
4c
5f
e5
3e
3d
2f
49
bf
6b
80
d
4e
79
38
da
54
c0
63
5f
90
d1
ed
5c
5b
eb
69
e1
52
d3
3e
e2
b8
52
e9
59
ce
d9
a4
bb
ce
c9
d1
4f
56
e4
51
e2
c3
31
c1
d0
e2
e8
b2
cb
2e
d8
f1
3b
3f
df
64
58
dc
b5
d0
49
51
3f
1d
d7
cc
c5
c9
62
4b
5e
1a
64
ba
56
a
e9
dc
d1
65
ce
54
67
da
25
5d
ba
e3
bc
d0
57
5a
39
59
d8
e3
40
b6
64
0
e0
b3
df
cb
da
dd
5d
52
d1
cc
cb
3a
d5
dc
dc
47
56
4e
5b
52
52
c9
20
cd
b
d7
58
cd
62
58
dd
43
db
c9
e4
e0
21
e5
57
6d
5d
68
6d
52
ba
67
58
56
d6
48
ed
5f
d0
e3
e0
60
bd
e2
53
dd
99
38
cf
47
58
25
68
17
d6
6d
e8
5f
cf
de
59
4c
ea
e9
dd
ed
42
4e
c9
65
5b
5b
d1
5d
b7
ab
d6
31
50
df
d8
f5
51
cd
80
d2
46
4e
d3
57
c7
e2
61
46
c8
cf
56
d8
58
da
de
e1
4c
e4
5b
4d
9b
58
57
e0
ac
e4
33
58
4f
dd
81
62
5e
4a
ca
e5
e3
4d
4d
ba
d1
46
da
64
62
d5
60
46
50
49
5c
5a
bb
61
dd
59
69
2c
68
69
da
d2
61
53
29
32
63
d3
e8
d1
ce
b6
b7
df
ef
e4
e9
68
b7
d2
ab
d1
d7
76
68
50
6b
62
60
3c
c2
5c
55
59
58
63
aa
62
67
62
68
62
e3
53
6a
58
4b
d5
e0
e2
8e
e6
d4
c1
5a
97
1d
d7
99
46
58
34
d4
e4
d2
5b
62
3e
55
51
d4
52
55
52
37
dc
59
56
d0
64
57
ab
b2
64
d4
c9
e3
60
ca
d8
55
52
5c
9a
59
e2
d6
5f
c6
d7
de
51
bd
59
3c
d6
61
d6
98
80
e3
37
53
46
e1
26
ce
e1
a5
5e
63
5d
4a
e0
61
e3
61
61
ca
4f
5f
d5
c
41
d8
63
e0
5e
de
ce
e1
db
9f
52
b5
34
80
d8
d7
ef
80
da
ee
4e
d6
f0
c6
72
da
5b
5a
dd
b9
e5
e3
df
de
68
64
e6
d5
41
57
2d
49
b4
3f
51
d5
58
d3
e6
cc
69
d5
47
dd
e0
e0
e3
e3
5f
39
e5
42
71
cd
dd
5f
e2
a4
c9
50
d6
41
64
ea
54
47
e1
55
5e
cf
50
69
cc
44
4e
48
e3
57
c4
60
28
70
5e
d7
46
59
e1
53
53
aa
dd
e6
63
dc
cb
53
d8
df
de
46
e9
e1
46
e7
4d
e2
4d
19
d1
5e
45
ad
8c
cb
c9
4e
44
38
28
af
63
b0
48
c7
cb
c0
d5
5b
4d
5f
50
5d
c7
52
da
40
c9
61
a5
d1
db
45
d3
60
e4
be
cb
e4
98
47
b9
50
da
ab
58
dd
6c
d3
2f
f5
c4
d7
ed
4d
44
49
6e
68
66
4e
b6
5c
65
d7
30
62
65
c8
2d
5d
21
5f
66
65
c1
da
34
5d
64
4b
db
5a
b9
c9
e3
e2
3f
d3
34
ca
81
da
c5
5f
55
63
5a
dc
bf
ce
d1
5a
d1
4c
c7
a5
d6
60
54
5b
d5
59
71
da
45
2d
c1
a5
e0
c6
43
3e
5e
d3
dc
64
b0
56
ae
d8
45
47
e3
57
4a
5d
48
5e
e5
4a
81
26
d9
8f
61
58
9e
57
59
65
e1
a5
ca
36
34
62
56
db
22
56
5b
d2
ac
e0
64
52
53
64
da
62
62
5e
c3
db
46
36
e4
ca
de
ba
3e
14
4d
cc
69
f1
ed
da
e2
50
d2
e4
a0
0
42
df
ac
57
21
de
a4
e1
c0
d5
48
59
d3
e6
58
33
e4
e0
d7
2c
cf
62
dc
62
dc
d2
b7
5d
c1
da
e8
4a
22
50
63
6a
63
52
63
5e
e2
5c
d3
9
5e
e6
ef
0
c6
4e
52
5e
5d
80
c6
63
32
4d
80
d5
61
23
61
5c
67
c1
53
d1
e7
c1
93
c5
c1
c4
c7
dc
47
58
d7
c5
4b
0
5a
ca
a5
5e
51
51
5e
6e
5c
5a
5f
37
98
57
b5
c4
d4
de
3d
5f
d0
56
59
40
d0
d2
3f
48
cb
d8
da
61
5c
e0
46
b0
47
b6
5a
3b
e2
c6
d7
52
e2
df
cd
3e
cb
d7
b9
5e
2f
40
ef
e3
59
64
66
6c
55
f1
b7
cc
aa
5b
3b
5d
55
cc
31
e5
e2
5e
bc
c4
d3
5e
e1
d1
a8
6f
cf
48
69
ba
e3
53
dc
e8
cb
e2
d1
64
c4
4c
c0
e6
f0
43
e8
e5
e2
42
cc
c6
d5
50
e3
0
e1
d0
38
cc
d4
65
64
d5
d
4c
c2
de
56
64
81
4b
d3
e5
47
b6
d6
e3
e4
49
48
55
dd
e1
48
63
e0
b9
dc
99
ce
44
3e
dc
60
a
97
b0
56
d
66
d1
d3
59
89
6d
ae
5b
4b
5e
52
ce
5a
d0
5c
64
d1
5f
62
30
4f
c5
57
c2
b3
51
d7
51
aa
4e
d5
4d
30
88
e0
64
60
dd
d5
cd
c6
ca
d0
e1
af
bf
dd
5e
d9
de
e0
92
47
4a
28
d7
64
5e
48
57
d6
e0
bb
35
51
d7
48
5b
4b
4a
c5
49
dd
b9
d0
3a
e8
e5
9e
2b
63
4f
d4
54
df
37
c2
4c
33
66
64
64
1e
69
8d
ca
24
4d
40
66
5e
c4
49
e7
58
8c
5b
61
53
db
61
4e
c5
4f
dd
36
b0
45
c7
62
bb
d6
65
dc
62
e2
c2
cb
c3
a3
4d
55
5a
b1
b9
5c
61
db
d3
67
a2
5a
d4
6f
de
c4
4f
5d
5d
d1
d0
3a
52
e5
c6
df
3b
da
e1
be
c9
db
c9
45
e4
4b
5c
52
c8
d7
c8
63
60
60
c7
60
65
b9
67
65
4b
d2
56
d4
5e
50
ad
e3
df
ee
bc
47
d6
e7
3f
89
26
67
ee
57
6f
ef
b6
5c
b
e1
b7
61
e5
bb
34
4b
c6
d2
e0
e0
e4
d5
48
d2
3b
53
40
5c
c0
d4
ad
6b
62
4d
39
d1
59
5e
5f
52
d1
6b
5f
bd
48
db
d5
3b
e3
c4
56
dc
58
65
4f
d3
b9
25
d6
14
62
ba
73
6f
80
ca
6b
4d
d6
e1
3b
4f
25
d9
dc
5c
e2
66
64
b8
2
8c
e3
5b
63
31
54
d9
dc
5b
67
bf
e0
d8
e6
c2
30
eb
62
bc
d9
5c
3d
54
46
63
59
4d
3d
37
da
d5
53
51
55
56
2b
e3
d5
46
b4
d1
d0
5a
65
cb
5b
d3
d1
de
45
dd
3c
de
65
5a
6a
e3
da
e6
f5
e5
f9
30
49
e4
52
c7
33
45
e1
2f
59
53
cd
61
50
3b
e2
e7
df
22
e2
64
69
b1
71
96
e8
43
2f
40
27
28
b1
2d
55
5f
4a
68
d8
d6
57
e4
bb
0
b0
49
c7
60
52
e1
e5
59
f1
4d
e0
e6
5a
d6
63
bb
5f
64
50
59
db
d6
1b
21
6a
36
54
85
e8
e2
4f
cf
5d
48
da
be
4b
d6
d1
56
5d
43
60
58
57
da
63
db
58
e8
25
a7
e3
58
cd
c1
46
d3
66
67
66
bf
45
c8
94
eb
52
d5
db
4f
dc
58
da
61
bd
4e
5e
14
59
61
d9
65
0
cf
5c
47
48
dd
d4
dd
d2
55
e2
ba
cc
e1
55
b6
e8
e1
b7
6a
b0
5f
62
62
5d
d0
50
4c
54
59
3c
59
e1
1f
ec
e3
e1
81
d6
80
c7
80
da
de
d5
25
d3
55
da
6c
d5
55
b0
99
33
59
44
cf
d1
e3
37
c4
3e
e8
4b
57
80
e4
e3
4a
2d
60
4f
da
aa
65
d6
63
d9
59
54
4d
58
b9
cb
e1
4c
4f
4b
63
65
49
4d
5d
3c
d4
41
cb
5f
d9
9f
b7
dd
60
55
66
d1
e1
54
ca
df
4c
e4
5c
e9
69
67
97
b9
5c
e2
5d
e1
5d
57
55
64
52
50
13
db
45
60
d4
4c
ca
db
e2
c8
5c
24
30
da
4c
54
c1
2d
4d
d1
51
54
ca
c4
5a
ba
da
cd
d9
60
5c
3e
80
25
56
4f
54
80
5e
d8
b7
e3
dc
e7
da
da
b8
36
e7
50
5f
5a
c2
59
3b
2e
de
df
5a
da
e6
b8
14
2e
d5
4b
27
d5
6b
6e
81
d2
c9
58
53
d8
65
5f
3d
55
64
d6
44
cd
47
5a
cd
1e
57
63
bb
80
cd
82
e0
5b
e2
66
42
af
c2
3a
ca
da
e4
46
b1
df
37
e0
b9
59
de
57
dd
e3
dd
18
17
a0
c4
5e
53
67
e9
60
8e
21
e4
e5
de
e4
d6
61
60
cf
e2
3b
e0
ad
5d
34
a2
d1
95
db
5f
5c
c7
e6
24
2a
5f
cd
d3
62
17
cd
57
e4
bf
81
65
e2
4d
44
8b
e4
e1
ce
c5
65
31
cf
99
cd
3c
33
98
5f
55
64
52
5f
d7
5a
dd
d3
cf
c
b9
a6
e6
4d
c6
d2
ed
dd
5d
de
b3
de
e1
56
e9
53
e1
b0
db
c4
4a
de
da
5a
4e
56
32
cb
59
e0
67
c9
55
54
dd
dd
df
e3
e2
25
c9
63
c6
68
e9
51
6a
e7
e3
b1
44
c1
a2
e6
ba
a3
e4
65
d7
e4
64
3c
d6
4e
de
4e
df
65
64
5b
ba
41
e0
39
d7
5f
60
4e
61
6c
56
3a
55
48
ec
4f
c6
e2
80
dd
5b
56
3f
56
32
ca
63
e2
5c
5e
61
0
5b
5c
29
52
b9
cf
51
cc
62
51
cd
53
dc
dc
51
d1
3b
d0
30
60
48
61
73
6d
dd
33
4c
70
61
60
d3
34
c1
e0
b8
48
e3
da
cb
61
65
69
ee
d7
9e
ec
2c
49
e8
4f
f1
cb
e5
33
9
d2
db
e4
61
3d
db
d9
a1
c6
e3
dc
ec
67
54
d0
80
51
dd
49
d5
c9
67
5e
d5
d5
63
5f
9b
d8
43
d6
5a
56
de
d4
9a
60
41
4b
62
4a
61
4a
6f
1c
5f
66
5f
cc
c0
32
5a
cf
3f
cd
e6
bf
95
ef
e6
ca
cb
bb
e5
e9
4f
64
cf
d3
e8
5b
ca
53
4e
d7
e0
ef
df
5c
e7
a7
da
ed
48
aa
2d
ae
e3
cf
c6
4c
41
5b
81
5c
21
cc
47
64
5e
41
5f
37
4b
d7
c8
d2
c4
e4
58
ef
da
ad
d5
64
91
df
25
d4
df
e0
65
de
5a
e5
ca
64
46
60
64
e4
54
58
de
61
6c
d2
d3
ed
46
58
8f
66
38
d2
bd
66
d2
60
61
50
d7
58
5e
5f
4f
62
b0
dc
5c
4e
dd
51
da
c4
e0
a1
ce
60
5b
45
c2
dc
ea
5a
eb
d9
58
c7
6e
5b
d8
cb
b0
3d
cf
b5
58
c4
8c
9b
e7
10
1
b7
da
5b
ca
e3
dd
5c
59
e0
58
b9
cf
a7
e4
64
c2
c8
4a
e3
bf
3d
ea
eb
ce
c3
60
62
ca
e0
db
e3
dc
47
60
d9
5d
de
d8
57
e2
d9
54
c7
a2
62
d1
66
df
e5
b4
64
e3
59
22
d8
e3
e4
4e
a2
0
4f
cb
4b
dd
e4
a4
5e
6b
6e
9
55
33
3a
24
5f
60
2c
2b
dd
51
4c
4c
5a
60
42
bb
e0
db
67
5b
41
5d
d8
db
cc
c2
ae
65
67
db
e5
5f
dd
d0
b9
61
52
c9
4f
c7
64
5b
ea
bf
df
e7
59
d0
e5
c3
68
36
6f
17
66
e0
5b
cd
df
e4
23
46
75
66
c2
bb
59
df
bf
e0
ef
4b
bc
c6
52
55
5e
63
61
60
57
a7
62
d6
d6
e6
55
5b
db
d9
23
da
c2
ca
25
ba
d4
43
5d
60
38
5d
d7
5c
bf
d2
5c
3c
a9
d0
5c
cc
e2
cb
c7
55
e1
58
e1
5c
e2
b8
a5
62
52
9
5b
62
58
d1
50
c0
37
2d
43
9e
ca
56
e7
d9
6a
a5
2d
6c
b4
59
e0
c7
67
c4
55
54
d8
5b
44
cb
4b
69
66
a2
6f
5a
d8
66
30
c8
62
bd
d2
69
cd
e2
ef
cb
d2
dd
e4
dc
e6
53
5f
c0
da
de
5c
56
a7
d9
d8
df
47
57
5c
e4
d2
5f
51
6e
da
5d
5c
2a
80
67
5a
6c
58
da
eb
37
61
da
dc
ad
c3
c9
47
3f
d7
b9
c6
60
a
cf
96
d1
53
62
5a
3c
d0
3c
e3
cc
d7
dc
de
f1
d3
d5
46
cf
5f
bc
c3
41
4c
4f
60
49
4c
db
c4
61
5e
d7
d8
ae
63
93
e4
9a
df
d3
e5
35
5d
52
52
65
d4
de
81
55
62
60
58
e1
b4
61
f0
d8
c2
ea
f1
d3
c5
63
4c
d0
46
63
dc
c2
d0
ba
56
d4
ce
41
4b
55
4f
df
67
67
6b
68
bb
66
dd
33
e0
eb
ec
2f
4e
68
54
49
d8
60
70
54
d2
68
65
47
57
60
53
cc
df
51
c9
de
5e
e0
e8
d5
54
cf
d4
dc
cf
4e
5e
da
c7
50
dd
41
57
50
d4
46
dc
a9
40
d5
9b
36
4e
d7
db
3e
65
61
6d
67
62
5c
4b
d5
69
52
5e
55
b6
42
bd
d4
5d
3c
b6
e3
d0
e0
81
5c
c0
5e
93
3d
c6
69
42
31
ce
43
51
e4
60
5d
5d
46
c3
d7
c7
4c
46
c8
5b
df
db
d7
cb
44
d6
4e
e5
54
cd
65
22
c6
16
e0
e7
59
58
34
5b
41
6b
cf
63
ce
5d
69
6f
66
3e
67
dd
5e
60
60
5a
e9
de
57
d9
5c
53
e8
49
47
d9
e4
d5
cf
60
d8
50
5b
d9
68
53
ce
ba
de
51
c8
46
64
3c
d0
cd
a1
ba
3a
47
58
d5
c9
60
42
e6
dc
d6
e6
cd
ed
d9
c7
48
81
54
e7
5f
3a
d9
92
50
63
30
ae
62
3a
4e
67
cd
cf
63
1f
38
d7
d5
37
19
50
68
4f
47
d6
81
6b
b4
be
5f
e4
53
81
bb
e5
e3
d9
d1
57
df
60
55
df
57
d4
a9
d4
d2
4b
e4
d5
cf
3b
c3
5f
cd
86
61
3b
d6
b6
d9
60
d2
d9
4b
55
e8
5c
b0
53
48
b0
58
62
49
e0
5b
e5
4f
5b
d8
40
db
35
5e
cb
e5
c3
e0
df
41
3f
66
d4
ae
d5
df
d2
60
d2
de
ce
e5
d1
d9
b8
4
d9
df
2d
5c
63
da
cf
5a
d1
3d
e8
de
5f
e4
6b
db
c8
5c
53
cb
e3
d0
55
c1
d7
58
b6
4b
cc
96
49
d4
d4
58
c7
5d
4b
4d
c7
4f
5d
21
d3
e2
4b
4e
5c
a7
bc
5f
61
5f
4b
65
20
67
d6
5f
b4
53
64
ca
4e
63
54
da
d0
e5
da
57
5f
55
4c
30
4d
54
e3
bd
4e
5b
50
5e
41
5f
bc
d9
64
44
d3
61
d0
4d
d3
da
46
d8
14
df
5f
52
d1
53
c7
d5
42
33
ad
c5
68
51
be
e2
e9
5e
d5
d2
d3
63
b2
56
cf
e6
31
28
e9
c2
5e
59
d0
63
55
56
da
e7
e1
e1
3b
1
68
e7
dc
24
d9
cf
c9
e8
cc
64
c6
4d
5b
e3
60
e0
57
d7
65
d5
4b
d7
e1
dd
2f
62
d7
46
e0
32
4b
60
a5
5b
d2
a4
3b
b3
64
40
0
5d
cf
4a
c0
23
61
22
b9
b5
c1
54
5f
cd
c9
aa
cc
60
cc
e4
b8
5b
b9
d
5c
cd
5f
da
5b
51
b8
5c
d6
4d
e4
8a
16
35
4a
e1
de
52
55
d0
81
b3
5f
2
de
d4
d7
62
bf
db
63
dc
db
c8
e0
d4
60
63
e3
e5
b3
3d
d7
ca
9e
b8
d0
bb
58
4c
dc
46
de
83
de
20
db
c0
d9
50
d3
5a
2
e5
dc
5c
4d
80
4a
5d
e3
52
20
e1
dd
d3
62
df
53
61
da
58
e3
3d
e2
e4
d9
60
5e
c2
ca
a3
54
48
61
d4
44
40
37
e2
e4
e2
43
5a
e3
e1
5a
c2
b5
58
cc
9c
e2
b3
52
5b
e0
5a
5e
db
57
c2
e4
ca
47
d8
e1
55
38
61
5f
5e
47
18
d1
d8
d6
c0
61
e3
20
4e
a3
ce
da
a8
5b
c5
db
34
d9
52
c0
d3
d6
cb
bd
de
64
bb
d2
7
ab
59
b6
e5
e3
bb
df
d8
50
0
61
dd
24
db
29
d6
59
bd
ce
5b
5e
62
da
e1
5b
4b
5f
e1
e5
df
ca
df
3d
57
c2
b6
e0
cc
df
cf
51
d0
de
b7
de
63
d2
95
9e
cf
4b
32
e1
45
21
5c
d1
e3
df
d0
60
e0
5d
52
33
e4
37
af
e3
c3
b7
95
da
42
5e
a0
62
5c
81
df
23
e0
58
80
50
5c
48
df
b1
e0
49
da
53
5d
bd
5d
2b
c2
29
b0
40
5f
c2
39
1c
c2
db
e6
bb
59
da
b1
e0
80
cd
5a
dc
57
db
5e
cc
d1
49
44
a3
60
59
63
e1
d5
dc
d8
e4
da
ca
a7
de
ce
e2
65
e3
3b
d9
c2
56
e4
e4
df
51
51
45
c5
9f
e1
d5
a6
c1
d5
63
e4
50
44
61
63
42
48
b2
53
5d
c0
ac
58
4a
c5
45
5a
df
3c
de
b0
e0
62
4f
dd
e3
b7
58
e3
cd
ca
d2
cc
4a
f1
c1
f0
55
5e
63
6a
dd
66
cc
5b
d7
d8
2f
ce
46
c5
59
22
61
65
60
d0
60
4a
26
d7
a3
de
23
6d
da
55
19
50
12
59
db
3a
61
5f
dd
d9
5a
d3
a5
54
31
d6
e6
d2
de
d8
db
f2
e3
ba
55
d5
da
94
5c
3a
32
da
5c
c7
62
ae
d8
66
17
6c
d0
5f
bd
cb
ed
54
8d
ca
df
31
4f
5c
59
a5
ce
df
65
d2
c8
5b
ed
dc
e6
c3
e5
c6
d2
be
ae
d2
80
e0
5c
66
be
55
56
28
59
35
49
bf
61
5f
52
de
3
68
6e
6d
dc
32
62
62
5a
71
4d
28
d9
5d
d5
da
80
54
ec
ce
6f
5c
5e
ca
c3
4e
e6
e0
dc
51
e0
55
e4
be
4b
e6
b6
54
9b
62
ca
41
62
ab
51
69
54
ca
96
43
e0
3f
c9
e0
5e
d1
57
ce
e3
46
cf
2a
cd
df
65
c8
d6
50
de
e2
6c
cf
2a
3c
67
51
5c
60
65
d4
b7
58
4f
5f
46
66
5a
af
4e
df
d4
22
57
59
c4
e5
5a
dc
61
c9
64
a5
80
91
4b
c8
31
de
58
e2
cb
cf
62
dd
4e
e3
63
b2
36
d8
2b
64
cc
d8
e2
d8
df
e0
be
57
e0
4a
2d
dd
dd
65
cf
47
8a
39
62
dc
61
42
2c
c4
57
bf
ee
ef
b3
bf
2e
e8
ca
d1
40
b2
df
20
59
a4
dc
5b
34
4f
5c
b5
d5
cf
de
5b
d2
d7
16
59
e7
61
e7
b6
e3
5e
cb
5a
e4
d2
58
62
27
5b
58
14
5f
da
5a
5a
54
54
c4
4e
61
69
47
d8
cd
db
55
ea
d8
5f
de
cc
47
53
d1
c
d4
db
5d
67
af
ea
5f
65
c5
4f
87
a4
56
e1
de
3f
df
dd
ad
c5
da
de
e1
d8
5e
53
c4
b0
dd
48
51
ba
e1
1d
65
4d
34
42
e1
60
c4
5c
d1
60
58
e8
e4
e4
3b
d8
51
c4
d5
53
52
5f
d0
36
56
58
46
c2
b6
d5
51
35
e5
b1
5c
81
5b
d7
cb
4a
d0
64
48
52
b9
49
c6
5d
e7
51
d9
bd
5f
d6
49
c
6f
d0
61
c6
ac
e0
da
c5
d8
ca
df
5f
ea
43
d6
df
b0
62
57
e6
4a
4c
5e
40
65
2e
d9
4c
50
d8
de
e8
2a
42
4f
46
2a
24
60
cb
de
e1
d5
e3
5b
e0
6c
24
9a
66
61
48
d8
dc
da
c9
ce
da
65
de
bf
72
65
47
63
dc
cb
3d
d5
5f
cc
47
58
cb
5f
c8
ba
e4
5b
5a
63
df
e1
db
ec
41
52
63
34
5d
66
c6
64
5c
d4
60
dd
bf
dc
df
65
de
ad
b7
3a
34
c8
e0
d8
41
5e
2d
25
d4
cf
65
cb
5d
63
49
53
66
3a
5f
65
ce
66
f5
ee
ef
be
5f
b5
2f
5e
d4
5d
c2
e4
60
da
62
d6
c3
da
4f
e4
da
56
e5
d6
57
3a
e0
58
db
30
62
e0
da
a5
d9
6
d3
67
5c
67
6d
71
13
dd
57
e5
cd
d1
3f
d0
50
cd
0
54
ed
ce
e1
46
29
e0
62
69
37
e1
e0
ab
3b
64
e4
59
c4
48
3a
38
63
44
e4
cc
a7
df
e9
d4
64
e3
dc
59
de
80
da
86
6e
5a
56
df
51
ad
63
48
60
68
61
6b
c8
d4
d5
5f
d8
4c
d3
61
dd
df
5d
db
68
b8
63
e8
dc
da
e7
bc
b8
10
da
91
60
49
ce
80
56
da
e1
5c
0
81
5f
c3
b9
d6
19
d2
c9
be
68
55
68
6e
af
af
1b
3f
2e
ee
50
59
c8
ae
c0
ef
d9
62
df
d7
d8
58
30
6d
64
69
6d
63
4d
67
dd
b7
a8
de
b4
61
d6
5a
61
50
46
d3
e6
3d
e3
e9
d5
b5
dd
d6
4a
36
de
cd
de
c8
63
80
40
3
52
5e
a4
4f
5d
44
c
d8
df
63
e0
bd
4d
be
48
d0
12
d7
df
d7
5e
59
e0
59
3e
e4
60
d2
da
49
bd
55
59
61
ad
61
58
d7
d2
df
60
df
d7
c0
e4
bc
bf
da
27
df
c4
65
4e
45
e2
49
cd
d1
a9
5d
dc
33
56
65
b4
64
19
e1
d1
5b
36
4a
5b
e4
48
bf
5a
d3
58
5e
dd
5b
e5
e2
e3
d3
e3
5e
c3
4f
49
5d
95
57
5c
57
d5
d7
4d
d1
c3
dd
60
36
62
59
5b
e1
63
57
30
42
a5
e4
e2
ea
de
5b
59
33
cc
5a
60
4c
e3
c4
3b
d5
8c
c6
59
a5
d7
af
b3
2
d5
bf
e6
da
5f
81
4c
c2
0
e5
b7
c1
23
32
e3
cb
56
e4
d0
4f
46
5e
df
54
29
d4
d0
64
66
c7
65
5c
db
58
5d
e3
98
52
d6
80
e4
5e
c0
cf
dd
d9
58
60
d7
2a
8e
57
3d
de
e2
a6
ae
d8
e2
d0
df
56
e4
e1
d1
81
dc
5b
56
60
5c
55
39
c7
c0
c3
5e
46
58
3d
d7
53
80
c0
df
5b
e2
e3
27
57
34
d5
43
c6
d4
cd
da
cd
d6
5c
2d
dd
b5
4f
c4
cb
30
cb
e2
be
1b
d1
c7
cd
58
81
5c
cb
aa
cd
60
4c
4f
55
60
4d
5d
5c
4a
4c
5f
41
57
df
e6
5c
d1
5c
dc
46
dc
e
25
64
d6
61
e5
b5
d6
b9
e4
df
e4
30
ac
64
d8
de
37
d0
d7
63
c4
b5
e6
d1
81
d0
d3
e2
d5
aa
e8
e8
55
e0
df
33
ce
ca
38
64
c9
61
15
5c
54
59
64
db
15
63
6
51
63
5d
cd
c8
d6
46
3e
d0
22
2b
ad
53
da
58
47
e5
52
63
57
c7
d6
4f
dc
ca
d9
3e
da
80
ce
64
46
e1
65
b1
4e
dd
40
66
d5
2d
c9
df
55
4f
5b
5a
d8
d5
44
60
cd
63
5e
56
d7
e2
bc
5a
51
d5
2e
5e
47
2d
e5
dc
e5
e3
da
41
0
50
e1
4f
48
81
6b
4d
61
8b
e0
3a
e2
df
40
64
d5
37
61
a3
eb
e6
36
ce
4c
e7
73
6f
6f
5f
d8
e8
3a
e2
58
34
5e
25
df
56
3c
5b
3d
35
ec
2e
c3
cb
49
e7
39
54
6a
3d
cd
61
80
ad
e2
5a
66
4a
e8
d7
e2
e7
3c
63
d6
c0
55
e5
e7
43
e
5d
4f
c8
48
d4
5d
cd
30
65
b4
d2
21
d4
64
e6
e1
d1
bc
59
63
41
dd
d7
3b
53
d9
da
dd
3e
5f
e4
d7
dc
b6
b1
e5
d4
d4
55
69
c0
62
6b
4c
65
60
27
e3
de
3d
6a
2a
14
69
5f
bf
3f
63
68
ac
54
d2
4a
5a
3b
5e
6d
80
ee
e7
e6
5c
3e
49
42
d7
ea
5c
db
d5
3d
d7
5f
b2
3f
63
35
dd
dd
49
38
40
3d
d0
ce
d2
bb
4e
e5
5a
d6
57
61
5a
0
57
5b
5b
86
cc
d6
cc
cc
d7
c9
ad
37
47
22
81
e2
dd
ea
5a
e2
ba
60
63
d6
d3
65
da
ae
ca
62
e1
62
df
5f
52
d2
e1
df
4a
5c
39
ec
cc
dd
4d
58
d4
d7
e3
46
cf
62
b1
cb
5a
c6
e4
45
e4
5f
ba
55
63
bd
bf
c9
d7
60
e4
29
3a
d8
1e
40
de
a9
5f
dd
46
45
bb
d5
ee
33
56
c3
5c
e4
d3
2d
51
ce
e2
d9
5c
4a
df
dc
9c
c5
dd
53
b6
d6
31
e9
e4
c9
2d
2e
cc
4d
60
d8
b3
c2
43
67
5e
41
58
e0
36
e0
65
2c
65
44
df
e4
4e
4a
52
c1
e8
ec
ca
48
51
64
72
4c
66
61
24
5d
ca
8c
60
e1
44
bd
c6
62
a5
b1
cf
32
c4
d3
da
da
e3
dd
52
50
64
4d
4d
d2
60
c6
6c
d5
e8
1b
5a
b9
51
46
43
1c
b2
be
49
b2
d9
64
c9
66
c3
65
de
6a
43
62
4b
5f
21
cf
bd
af
4d
4b
c8
ac
1d
ba
d9
5e
c3
62
59
b9
35
67
e1
55
5f
d6
94
80
3a
e1
65
62
73
e4
e0
b1
e7
52
e3
61
c8
bc
c6
5a
c5
63
1b
db
a5
e1
81
5d
4d
cd
48
41
52
56
b6
b7
ce
e1
51
d8
59
dd
53
63
66
4f
47
71
5e
40
4c
a3
5b
c3
e2
5d
d6
e5
39
61
53
61
c9
db
d9
63
62
d8
4d
ce
5b
60
bc
51
38
e1
54
3c
4a
4f
b0
c8
51
36
81
c2
49
1c
de
40
53
3f
24
58
d2
51
dc
d5
4a
e0
a0
57
e1
bd
48
4e
3d
b7
cf
62
5d
51
51
55
e4
5c
62
63
61
d6
d7
c8
e3
9b
96
e
59
23
c5
42
63
5d
17
c5
2c
51
c2
56
e2
55
3f
81
62
d3
ce
bc
59
64
4c
c8
ca
45
d8
14
5d
e6
d3
80
e4
5b
e4
dc
a2
60
c5
ac
42
5b
98
e1
2d
c0
d0
61
c4
4b
5e
c7
e6
df
c1
4b
51
58
df
d8
2f
60
e4
56
61
4e
dd
dd
5b
cf
92
b4
5a
80
a0
e1
52
80
3c
db
3f
54
d4
bc
bf
d9
4b
b4
59
c9
c3
e3
3e
e4
52
38
de
dd
37
59
cb
4c
4d
42
53
34
cd
db
db
e3
cc
53
ce
ab
5d
d8
b9
45
d0
44
41
de
34
c2
4e
b6
23
81
5c
9a
ae
3a
63
5d
5e
e1
c2
42
e4
de
de
31
ce
45
db
e5
5f
51
63
bd
df
cc
41
de
53
e5
de
61
e4
a1
e3
50
d0
80
df
46
dc
bf
31
d5
60
59
4e
5a
4d
4a
bc
e8
61
3f
e3
d2
e2
e0
d9
58
c3
e3
62
81
59
5f
d0
31
4f
5f
cb
4a
5b
56
d4
d6
dc
55
5d
e4
e2
48
c1
5c
df
62
d2
dc
5b
3e
b5
5c
c3
5e
4e
b8
63
e0
49
55
a2
ce
62
c6
63
ba
df
5a
c2
cd
e2
5c
52
e4
60
68
da
69
6c
b9
e5
d7
5f
55
c4
d9
c5
b4
d9
5b
e3
82
d6
4d
60
e1
e5
64
64
dd
49
a6
4d
ce
dc
5d
e1
62
a1
5f
e0
d8
52
d9
63
dd
d0
e2
54
59
bd
e3
51
56
3e
46
db
3e
2c
d7
5f
5f
d7
3f
db
e0
d2
61
c8
54
5d
4e
e0
e2
50
5e
d0
d6
66
e2
e9
d4
4f
51
4f
c2
e0
d6
e1
35
61
80
63
3a
e8
4d
86
50
3c
d2
47
6b
45
bb
d0
62
50
bd
c4
53
1d
57
cc
d5
e8
c0
4c
5f
64
4d
65
d2
cc
22
aa
17
3b
5f
d7
dc
dd
e8
cd
cc
ea
e2
6a
6a
5f
d4
67
ac
48
e0
63
40
c8
3a
b0
e9
e6
ac
44
61
e1
c7
1c
4c
dc
5d
db
55
65
df
2c
2b
99
b3
c3
52
4d
d6
e5
c3
db
c3
e6
d5
d5
58
cb
ec
e7
44
d1
c9
e0
d4
5a
c3
58
45
d3
ca
4d
56
d9
bb
8d
db
54
e4
dc
60
5f
c6
3f
ea
40
c4
b7
60
d0
df
2e
9b
2b
91
cc
bc
6a
8c
61
81
55
b9
e0
5a
d7
d8
c7
65
e6
df
67
64
5b
6f
57
5b
3e
c7
5c
5d
51
c5
e1
59
e0
ec
44
ba
e1
c8
de
59
4b
4d
dc
b6
d2
2d
db
d3
61
5d
34
51
cb
47
5b
e1
47
d0
bd
4d
3d
dc
db
d4
3f
5e
d9
5a
b4
db
73
69
de
64
61
c3
e5
f3
51
dd
d9
df
e3
e9
48
e7
49
a6
5c
dd
d3
4d
d7
e0
e1
e4
62
c9
55
38
48
42
55
d5
4a
6c
ca
e0
68
5d
67
41
df
e6
59
b7
4e
bc
b1
d9
e1
43
d8
5d
d9
13
1a
2b
c1
4d
58
5f
40
c4
c6
4d
64
58
ba
d8
c1
c7
d3
52
d0
50
df
e5
5f
e0
dc
6b
e6
5f
75
67
65
5a
5f
5e
63
81
cc
1c
e3
8c
4d
dc
d8
49
4e
80
43
e2
ba
c1
6e
5e
d0
de
dd
5d
d9
dc
cb
64
6d
e4
e1
4f
53
d4
68
4f
8c
e8
58
60
c0
49
2c
1b
72
41
d1
68
39
d9
d9
eb
f9
e3
5a
66
e4
c3
0
ca
e0
5d
e8
d3
ce
6a
4f
d1
4c
e0
f1
bd
5d
4a
60
2d
dd
bb
cc
c8
30
df
b0
c9
59
29
dd
4f
68
df
4b
d5
e4
4e
17
e3
eb
48
5c
52
49
6b
4e
61
6b
c8
70
5c
d5
e8
c0
dc
47
d1
64
d8
cf
e4
dd
60
63
be
53
43
e0
d5
c7
67
e4
43
d7
63
60
43
57
3e
5e
d1
d9
a7
ed
e3
bf
7a
69
5d
db
4e
f2
67
56
f0
db
ed
d2
b5
c3
57
55
e9
67
63
bb
1d
62
4f
52
5e
5a
6a
d0
36
e0
55
c8
d1
63
d8
f1
28
80
48
e3
d1
d3
65
32
c6
2a
5d
da
e5
4b
e4
45
cf
e0
e7
de
66
ef
44
24
da
e9
6b
6a
63
49
c5
c3
65
cb
69
68
64
6c
23
56
64
1a
a8
44
5d
51
bb
d9
d5
53
3f
c5
d9
d0
4c
e7
36
df
c5
0
d8
4d
5e
63
5c
46
88
bb
c8
e2
db
42
df
4a
bd
5d
e3
56
d3
5d
64
e0
cc
dd
60
46
39
dc
e0
49
d3
dd
49
d8
51
5b
81
e2
df
e
cf
c5
0
d6
45
f4
f2
4e
0
54
cd
5b
c3
de
32
5e
59
5a
d0
e0
49
50
59
5d
5c
6d
df
39
56
1b
dc
50
4d
54
62
c4
39
4f
cc
e2
55
4b
58
67
3d
cb
6b
40
4b
cf
19
dd
8c
de
80
6f
3c
48
52
db
af
dd
59
4c
d9
c7
bc
e3
35
4a
44
d6
bf
b9
e6
5d
31
ea
e1
70
dd
44
c8
5f
e1
c0
db
d6
d1
4a
af
d7
3f
de
58
c5
5a
bc
b5
d0
d7
4e
e0
e1
42
d7
51
5e
e7
f0
d0
5d
da
3c
e2
de
d5
4e
de
81
d9
e7
db
c2
52
c4
47
c9
d1
61
5d
e3
64
dc
9d
bf
ce
de
5f
87
da
bb
2d
67
d9
46
67
ee
cf
c7
67
b6
de
4f
75
da
eb
5e
43
e2
6e
6a
d1
ba
5e
e
4f
51
5d
8e
5b
55
d1
26
dd
2b
ce
d9
dc
d0
de
b7
b8
c7
d7
61
d1
cd
58
5c
df
d9
df
cb
f1
d5
43
49
d0
dd
a8
62
20
d6
59
62
d1
4a
64
c6
1b
d6
e8
dd
c3
1f
a
cc
cd
e2
1d
db
d8
6c
e3
ad
4f
5d
39
e1
26
e3
a4
da
61
58
5e
5f
61
60
b8
f
3c
e6
26
2f
e6
c
6c
63
bf
4f
ce
bf
a
2c
dc
35
60
ca
58
e1
e1
3e
d2
36
55
44
c9
1d
cb
dd
3b
cf
13
cd
5d
e0
61
d2
51
e2
64
b7
d1
d0
e6
d3
4f
52
13
cd
df
61
66
5e
4a
c8
64
c8
e5
53
d2
51
52
3d
5e
d9
5f
e7
d9
69
2d
47
69
48
66
63
4a
58
e5
e2
dc
60
e6
99
6d
e9
ce
d8
2d
6b
eb
cd
c6
5b
bf
51
50
6c
dd
e4
4d
c8
ca
4d
b4
e9
1c
b2
49
89
25
c5
2e
5a
42
4a
c3
5f
b4
d4
52
43
80
22
5c
5b
5c
61
9b
54
2d
4c
dc
bb
cb
40
de
4d
b0
cf
57
44
d9
62
37
46
3c
36
61
5e
aa
e0
da
4d
1a
b1
41
c9
41
5f
57
1d
62
43
31
d2
af
d0
41
5c
c4
48
5c
c2
48
a3
52
d9
52
54
c1
51
55
e3
66
47
47
e0
e3
60
3e
56
2e
be
db
e1
c6
e1
60
63
5f
c9
2c
58
54
e3
e2
e9
e8
b2
61
1f
d7
c0
dc
e6
de
4e
4c
55
80
4d
51
c4
c0
ce
64
55
e4
55
e7
59
de
51
e5
5f
d3
3e
cd
e2
60
e1
be
63
db
4b
d8
9b
51
e1
de
46
4f
d6
eb
53
5b
55
28
d3
85
be
2d
dd
4b
63
66
da
51
41
de
e2
58
ac
df
4f
5b
2f
e5
47
e5
56
d5
ca
e5
d4
b8
53
e4
be
ba
5b
e7
c7
38
6c
cd
cd
62
80
5f
df
0
b3
d8
61
3a
e4
2b
3b
a1
b8
e1
33
4f
4b
d3
cc
bf
d7
61
d7
57
63
43
e0
d1
4b
61
cf
5c
d6
e2
68
38
6a
59
d5
38
34
e0
e6
d3
ad
cb
5f
e0
dd
e1
cf
64
a8
2b
81
d3
d5
c2
cc
4e
65
bd
b1
41
c7
dd
a8
de
e4
3c
58
5c
3a
df
d0
e7
58
5e
dd
df
da
ac
6a
42
4b
31
ce
d9
4a
4f
d2
d1
bc
10
65
62
6b
e0
56
e5
55
e3
e3
f
e3
c9
2d
4a
db
4c
50
67
d6
dc
53
af
5d
42
5f
47
33
e3
bf
cd
e0
e1
e6
e8
e9
48
d6
ad
ea
ed
33
eb
e4
d6
0
30
de
23
5d
41
cc
e4
40
57
81
bf
4f
d8
32
1a
66
3d
c1
3a
9b
59
da
b6
c1
4a
b4
cd
d9
b4
d8
4d
d0
b1
ce
5c
ab
48
30
da
d8
d5
4b
d0
e0
41
cd
d6
df
d6
c4
5a
32
dd
54
71
62
40
cf
61
ce
5c
2
da
ba
5a
b8
e6
e8
da
67
68
64
e2
d8
49
de
af
d9
4e
a4
5b
5b
63
57
c6
48
55
35
5b
62
ea
e9
4a
62
5c
b3
40
da
ac
e2
d8
c5
e8
19
cb
6a
61
67
52
59
df
ab
4a
45
db
56
cb
80
44
62
d4
62
da
d6
5d
c1
c6
e0
3c
50
de
49
cc
55
da
cc
c9
54
ea
60
51
28
5a
e0
56
d8
de
de
e3
57
62
d7
5a
3f
65
65
36
b7
57
5a
d9
33
38
63
64
5e
d0
1a
cf
dd
57
62
e0
4c
55
e5
d6
4a
df
e1
e3
5b
86
d4
b9
ae
db
61
b5
59
72
69
e3
c5
df
be
50
bf
a1
c7
d6
21
d2
c5
ca
d6
c8
ad
c9
ea
dc
c4
5f
d0
61
d3
5c
d3
d7
9f
db
c0
48
da
81
6b
62
d9
56
dd
5b
61
59
d6
73
de
51
6c
5b
d5
65
d7
bd
68
5c
65
dc
61
c4
b0
e0
df
d4
56
d6
6f
2b
cb
ea
b5
cf
e6
4f
d8
b2
c4
5b
52
cb
ba
62
d6
60
cf
d6
d4
e8
e2
b9
d2
5f
d7
e4
ea
e1
d2
80
ac
e3
d6
cd
4c
48
35
4d
e1
50
0
54
14
58
5c
6d
a7
cd
81
4a
59
65
62
51
c6
ce
b1
59
56
ce
56
d5
d8
d6
cd
c9
cf
e0
ce
cb
65
51
b4
d4
61
e0
d8
5b
ea
34
4e
4f
6d
45
57
52
ec
94
e4
e1
45
b2
da
1a
93
c0
2e
d5
50
58
3f
53
55
df
e8
df
cd
67
5b
cd
5e
dc
ec
e9
e7
d4
58
e3
e5
ea
41
48
cb
49
df
cb
c4
d0
61
57
d7
54
dd
6d
e8
35
e3
e2
5e
d6
42
5b
4f
45
58
1b
d0
64
f1
38
65
b2
4b
a8
c1
59
dc
b7
23
bf
58
d4
21
4f
c4
65
c2
95
5e
b2
3c
d2
44
61
5c
61
c7
d2
64
31
e1
2c
5b
5a
e3
37
5d
9b
c8
d6
cb
3d
4a
5f
62
e4
39
db
4a
48
58
47
62
49
c1
4a
96
57
63
55
e1
47
d6
5a
a3
5b
5e
52
d6
40
50
65
64
5b
a9
80
e4
2b
b5
e1
b4
4a
bb
c9
84
5a
36
cb
18
31
63
4a
71
6b
66
19
bd
e5
e3
c4
b1
e3
c8
4e
62
d6
65
d7
ca
44
65
44
e4
2d
dc
d7
66
50
5f
48
66
3b
5f
4e
c1
d0
39
55
54
d6
5e
63
61
4c
53
5c
b8
3b
cf
ec
eb
c9
53
5a
c9
d8
47
d8
d0
43
d7
df
5d
cd
63
d9
c4
db
61
65
e5
cb
4f
ca
dc
4f
5c
cb
ec
80
e3
cb
32
55
5e
c8
5e
b4
ce
d3
9d
ce
d4
51
3e
50
dd
de
e7
30
e2
e3
c8
61
62
da
5b
d7
be
cd
dc
de
df
59
36
d2
41
d6
52
cb
5b
26
d6
65
5d
c4
db
e2
50
de
d8
27
3e
ed
e4
ed
52
ac
d8
e2
cd
d4
de
f1
e0
57
c9
d5
d5
cf
eb
28
e9
8c
60
c6
68
57
bb
68
80
5e
47
5f
4c
cc
67
54
53
69
5d
64
5b
bf
61
a3
d5
d1
5b
53
4b
4e
b8
59
57
60
dc
de
50
d3
d9
59
6b
dc
d2
31
4f
53
80
5a
d1
54
68
5d
c8
da
58
d0
d0
dc
e4
55
df
e0
d5
65
ad
b0
c6
eb
c7
e4
b3
e7
e2
dd
e1
80
db
df
d4
61
62
59
e0
e0
d6
e0
80
47
45
dd
61
d7
da
46
8f
5e
54
cb
b6
3b
60
80
4f
5a
33
54
ce
d1
d1
56
5b
68
6c
5f
d5
68
63
d8
3a
dd
d5
b1
63
53
a9
2f
e2
c6
95
48
e0
58
37
59
45
e6
cd
55
e2
49
57
e6
49
d1
ed
5d
6e
6a
58
62
5d
5e
c2
31
82
cc
d4
31
5a
d6
5b
31
d6
97
5d
c5
6d
d3
e3
29
be
5a
26
5c
d4
ce
55
4d
5b
5e
e1
63
c3
c8
4f
a0
12
5b
60
3c
59
53
62
5e
5e
81
bb
3d
d9
c8
69
80
a1
cf
da
ce
52
27
5e
34
42
da
5f
65
d8
3d
b0
b9
63
a0
54
d7
d1
64
4c
d0
29
e4
da
ec
df
bc
d6
69
5e
e3
e2
c1
e0
cd
5b
4c
55
5c
b0
54
cf
63
64
dd
de
cf
5e
e3
eb
e8
49
bd
db
cd
cc
b6
e3
80
6a
67
53
c9
e6
dc
de
ca
df
e2
a7
b3
cc
c2
a9
cd
56
ed
28
e5
cd
dc
57
4b
a8
e3
cf
ed
4c
63
d0
d7
65
5f
5f
af
d5
55
5d
cc
dd
d9
61
dc
4a
4d
bd
dc
d6
61
57
c9
df
e9
22
6f
43
57
52
b8
2b
5e
c5
4c
b3
61
d8
4c
63
87
c3
4d
92
d9
de
60
5a
e0
d4
50
54
db
5a
48
de
52
d8
d7
4d
d4
db
cc
db
cc
2d
dc
be
55
a8
dd
5e
e3
5c
d8
e0
22
59
e3
15
bd
e0
65
c5
5f
64
d8
d6
e2
cf
cb
d3
4e
2e
15
49
50
42
d5
d7
52
c6
8
d8
db
62
d5
e3
5d
58
62
e5
e2
56
be
64
dc
38
54
51
e1
24
e2
da
df
65
e9
c7
57
e4
18
61
57
e8
e0
61
4c
ca
c1
65
c9
50
e7
e8
d8
64
b8
d4
d1
50
d6
5c
ba
bf
60
4e
69
98
c7
ae
52
65
be
42
65
6e
6a
60
5c
d2
58
cf
45
af
62
dd
49
a3
59
4c
22
c5
50
40
c6
f
e1
c3
d8
5b
e1
52
ba
65
dc
2c
d6
62
59
d7
5a
37
5e
4f
c6
5a
58
c3
d8
28
68
df
2c
e3
5f
50
d6
d0
d4
bd
b6
da
c4
82
80
5e
e2
da
3c
cd
57
e2
db
61
25
dc
d2
5a
ce
37
e2
81
e1
51
5e
54
47
63
ca
94
50
e7
c2
ce
53
65
dd
c1
e0
3d
55
58
cf
86
5d
40
e1
56
d4
3c
d5
5c
de
b2
5d
db
e3
cc
80
cf
61
be
ca
64
53
b5
d3
5f
da
4e
67
9e
6b
5b
e9
e6
ad
3e
3e
57
e1
50
36
d6
39
d8
54
e2
80
df
c2
d6
49
ce
82
41
ea
e0
c3
2b
e9
c9
d1
ea
b9
1b
cf
60
59
4d
68
4b
5b
d9
c9
dc
e3
e2
9b
b4
d3
d0
e5
51
dc
e0
d8
dc
60
c1
c0
e9
e9
df
41
0
d1
dc
e3
4e
9
df
81
df
0
5b
c4
c9
5b
44
61
df
d6
42
4a
b8
91
e2
5c
44
a2
c4
51
3a
60
db
4d
60
44
61
5c
9d
dc
cd
62
74
c4
4a
23
c8
d1
59
4e
c6
da
59
5f
e2
d4
36
60
80
69
50
ba
de
57
38
63
d8
d5
d0
55
45
d6
49
df
cb
e8
dd
c1
c3
dc
2b
c9
cd
e2
e0
cc
e9
d5
6b
ce
51
68
d8
ce
d0
e4
5b
d9
57
1c
6f
85
17
e2
e6
5e
5b
5f
cc
d1
4e
32
4c
4a
5a
65
46
57
c2
de
4e
60
0
d4
44
61
de
df
e2
55
d4
3d
9c
e9
53
5d
eb
eb
ce
d7
e4
b1
d6
e4
e2
56
e7
bd
cd
58
cd
51
80
e4
58
dd
e7
48
5f
5b
34
4e
ba
c1
61
64
5e
e4
0
50
cf
54
e1
3d
e3
62
38
43
de
61
e0
d3
e9
e2
32
b5
d1
de
53
48
d9
ae
e7
46
5a
4c
b3
f
38
5f
e7
68
64
5a
61
41
d4
45
c0
bf
e2
52
de
e7
5c
63
64
5c
63
53
32
5a
bd
1f
d8
c4
57
10
69
c4
6a
c9
4b
60
cc
54
e1
41
9f
1e
a8
dc
db
a8
5f
e5
48
e7
80
a0
27
c3
cf
61
8d
5e
4c
e5
d3
8e
51
eb
38
bf
41
5e
57
5f
d7
e0
c4
3e
e0
1b
5d
5d
9a
53
da
46
56
a6
cf
2c
d2
d1
ec
f0
e1
3d
da
4b
4b
5b
e5
62
d4
ce
3b
e3
d0
56
d0
c4
d8
5c
54
60
5d
e0
d2
12
1d
5c
e5
55
63
4a
d5
4f
31
df
d8
80
4c
52
2c
5f
be
4b
bd
3d
1c
54
e5
43
5b
cf
5c
d0
3d
4b
64
61
11
1c
db
d6
ec
58
c8
cb
6a
d0
de
45
51
34
6c
2c
33
5a
4a
49
63
e8
65
38
f1
54
5d
dd
66
69
dc
e5
66
d6
2f
6f
d1
1a
60
e5
b4
63
32
60
ca
c5
c4
23
53
b9
bf
e7
d8
54
5c
52
d3
33
6a
e1
e5
5e
af
58
63
db
51
47
e4
b2
e0
df
5f
66
4e
ea
3c
5c
58
d5
70
d3
6e
c9
ad
60
51
cc
67
0
d1
dc
b6
be
ba
51
de
60
4b
cf
d4
41
b9
ee
65
27
e1
e8
d5
e6
57
66
b5
e0
bd
52
95
65
be
e3
80
d1
d5
d5
5b
54
be
5b
40
67
79
53
3c
dc
4c
64
54
42
6
6b
d8
f1
5c
60
d5
cd
66
57
ec
60
91
cd
64
c1
e8
d6
dd
48
db
90
34
b
de
bd
ea
e6
d1
47
c3
ee
58
80
f3
5b
57
c5
52
97
1f
4f
45
5f
5b
e0
4e
49
ac
59
dc
59
63
69
6a
4a
27
d2
80
ee
e8
d3
b3
9a
c1
51
cc
e5
50
c5
ca
59
e3
e3
dd
e4
db
c4
4c
53
59
62
d1
9b
e1
bd
46
c3
df
4c
5d
63
3e
ca
de
c6
57
9a
57
dc
58
4f
dc
e2
64
d0
b
e5
0
80
d7
e5
64
e1
e4
e1
e1
4a
5b
52
d9
d3
cb
5f
c9
b0
0
cb
bd
5e
45
65
e4
5e
d4
d8
60
5c
d4
46
4f
c3
2b
26
54
48
b6
db
e1
d8
3e
dd
38
4b
dc
cf
e0
5b
46
5e
4e
d4
dc
c5
10
5b
4c
59
c6
d6
ca
d0
d5
53
d9
44
d0
b8
c5
58
57
49
49
5a
df
e3
46
5f
d2
dc
d8
5b
df
d4
bb
da
50
9d
cc
cb
c6
5d
c4
e5
86
60
ce
e1
5f
c7
40
d4
63
42
e3
df
af
61
b8
64
e4
d8
b6
55
d8
3e
4a
a0
dc
e2
e5
59
62
1d
c8
49
e5
e1
48
c5
52
23
61
de
dc
bb
5e
59
64
37
d0
50
c8
e1
55
55
5c
e5
5d
60
43
db
61
62
3f
bf
e3
49
5a
65
b2
da
d3
47
d9
9f
b4
65
c7
4a
4f
df
5b
e0
59
cc
b3
4a
1e
42
d8
d4
a7
dc
e0
43
c1
31
60
bc
d0
cb
1d
63
e1
da
af
de
62
32
d5
b0
e4
8a
e1
e4
d6
e4
29
40
e2
d4
cd
59
d0
3d
d9
a6
4a
b1
3f
e4
28
51
4e
81
d9
4a
60
d2
81
4e
d5
ce
1a
c5
1f
e4
4d
df
4e
67
d3
46
d8
62
2b
5a
b6
d8
3c
35
da
cf
d6
90
c1
5f
e2
bd
9d
a3
a0
c1
51
5f
e3
4d
d8
4f
6c
5e
5a
c7
58
49
de
27
1c
19
54
d7
64
3a
cb
60
59
4e
c4
e3
5a
be
d8
5b
dc
dc
3e
63
63
e1
d1
d4
df
d9
d0
33
e3
4a
51
ca
59
c8
c7
38
c3
6d
e7
46
b3
e7
e2
55
dc
c3
3b
e1
61
63
11
5f
4f
c5
d4
be
dd
de
4d
e0
62
61
dc
df
e6
da
46
ea
b6
d4
4e
50
39
5f
49
bf
e1
e5
e0
e0
aa
d5
bd
5c
e1
5d
e6
cb
5d
5f
3c
d9
11
b5
e9
d7
5
5a
bb
d4
a7
59
e0
5f
dd
cc
53
9d
85
e9
4f
d1
5d
63
5c
60
dc
dc
4b
5b
a6
62
59
50
da
62
5b
ce
17
4a
de
d7
5e
44
cd
4f
42
80
d8
d6
58
d1
58
82
e4
64
5b
60
42
64
60
b3
b2
d3
20
e1
4c
61
cb
59
63
62
5e
46
62
62
5d
61
c2
d2
56
50
35
63
47
59
bd
cb
db
dd
8
ce
d8
2c
66
67
69
67
d8
c5
46
d3
5f
ae
d1
5d
cf
d7
97
5c
c5
55
d7
91
3c
ca
83
e4
ca
52
dc
d9
5d
58
43
d7
a2
e5
e5
2f
cb
e5
c8
65
5e
d3
55
5
5b
db
39
e5
d3
b5
d1
8d
ac
e5
dd
5d
32
48
e7
e6
52
57
e0
d1
62
5e
55
b3
57
3c
5c
67
5d
c8
48
d1
de
5b
d5
d7
9b
4d
b7
63
3e
63
d9
e2
45
a6
bd
d9
51
ba
55
df
ca
e6
59
55
57
6d
ce
52
25
d
5e
c2
5b
b0
5d
cb
4b
64
65
47
d9
c6
43
cc
58
61
43
55
bd
e3
48
e4
4f
3f
5e
40
df
c6
d9
df
48
4a
ca
ee
c4
58
af
db
69
e1
e9
63
e2
d8
63
c9
bf
50
d7
49
d2
2d
46
3b
dc
d3
d7
b3
65
20
d2
1f
e7
59
e2
dd
47
e8
b9
e3
49
48
e5
d5
de
4c
d0
c7
c7
34
5a
33
3c
67
c7
c2
67
6a
e4
6b
42
bd
67
56
a7
65
56
d6
67
d1
c7
14
67
c6
60
67
5c
92
db
64
b7
c9
28
de
61
5f
d3
62
33
65
ba
a8
d3
2b
5a
46
db
69
c6
4b
68
d4
e0
55
49
d2
c3
b6
5e
99
6d
68
3b
48
5f
e3
5e
52
e1
6c
5f
53
40
63
26
5e
bc
68
49
57
40
5c
de
48
55
d3
60
3b
6a
d9
23
e5
5e
3f
b4
45
dd
ed
dd
4b
df
da
53
ed
61
cf
bf
64
51
da
d3
56
f2
30
2
e6
51
20
d5
4c
62
d6
40
cb
38
df
da
80
dc
dd
34
d2
71
4f
e0
d2
c6
ac
4a
5a
ec
61
d8
47
47
d4
e9
5d
ec
e7
df
3c
d4
64
36
a7
e3
62
3a
d2
6c
4d
b6
56
8c
db
6e
57
58
d1
cf
df
e2
58
4e
c7
6b
e4
e4
50
60
ad
da
e2
59
ad
52
64
b3
5d
52
b8
65
43
cf
cc
51
d4
5f
e3
60
b6
22
65
47
49
d1
e4
54
4d
5c
ab
a3
df
4a
cf
51
62
99
d9
c3
b2
db
c9
41
46
e2
e0
ce
bb
de
db
57
14
d8
64
5f
5f
50
19
bd
c1
54
cb
44
d8
dd
f1
d8
5c
d6
3e
df
d6
58
45
64
28
6b
49
d0
da
60
57
70
44
5c
60
58
29
e4
e7
63
ee
df
92
71
1c
66
63
50
dc
58
ad
22
9c
4c
e7
d9
dc
4a
dc
50
37
b6
ba
67
cb
64
e0
e6
c0
ea
63
5c
d9
c7
3
54
e0
d9
d5
55
14
19
31
80
4e
66
58
64
61
ce
dd
dd
62
d9
37
80
e3
d8
b3
e5
60
52
c0
62
57
c8
69
d4
e1
da
68
3c
da
bb
ce
c4
51
5b
46
59
4e
4b
6a
a9
e3
5b
47
44
56
d5
5e
48
54
60
c8
59
47
e1
bd
65
43
4a
46
d3
cb
b1
42
db
57
dd
49
cd
ed
de
ea
e3
d9
5c
57
70
dd
b9
6f
dd
a9
e4
b1
e4
ec
6e
60
70
60
58
62
a3
d7
e6
c5
e6
45
e2
80
e0
53
ce
57
53
4c
bc
c1
5c
d9
5d
e2
5b
b8
cd
63
d5
df
dc
6f
69
4f
d2
28
e0
40
c8
d5
5e
1a
5f
e1
59
5d
4a
90
d1
d1
4e
db
a8
53
e5
51
52
29
52
5e
50
e2
c0
20
b
65
ae
32
21
57
b2
e0
df
e1
ad
ba
cb
4f
4c
e5
cb
b3
e4
61
bd
ab
cc
e4
c7
7
61
40
4e
45
62
cc
dc
e0
e1
58
5c
47
63
ad
4b
d8
a0
64
e2
4a
da
c2
c9
5e
55
20
4b
e3
e0
39
e4
d6
d1
d7
e7
bd
5c
a9
5f
3a
5f
d7
3f
d9
ab
38
e2
d7
62
0
5c
ce
c1
62
cf
60
53
20
5c
81
59
57
4a
5e
31
31
5c
6e
45
2a
c4
5f
4b
d2
43
47
d2
4e
49
66
4e
5e
6f
a4
c4
72
62
cd
dc
e1
bd
f3
c4
db
d7
4f
5f
48
52
62
b5
b9
e4
e3
ac
df
60
60
61
d6
bf
6b
bb
e0
b4
e3
e2
d1
ba
cd
43
60
64
10
6b
6a
69
e3
dd
80
54
4c
58
b8
e6
2b
cd
4f
5a
61
bc
2d
58
5a
e2
d7
53
ca
d1
54
27
dc
5d
e8
46
56
61
df
43
da
5e
db
e3
57
61
dc
d2
4d
d8
e8
e9
4c
df
be
21
2c
c1
be
4a
1a
ca
2f
d8
34
e4
4e
53
e8
af
50
e3
b5
e4
5a
e2
63
64
be
cf
35
e6
d8
4d
4b
47
b8
d1
c3
e9
de
4b
e6
59
47
3f
d6
de
53
e2
50
b7
dd
ce
e0
b1
99
3f
2c
59
4e
ea
cc
d7
62
c4
60
ca
df
c4
5c
54
66
64
3a
d3
c
de
db
35
dd
d1
62
d1
36
5e
e2
40
cd
dc
45
e2
d6
56
61
d2
ca
a8
da
53
60
47
25
df
35
e4
dd
38
a9
c6
62
38
e3
d9
c3
e1
dd
b7
db
60
4a
e3
c6
43
54
cb
d0
5f
5a
54
b9
d8
b6
ad
b6
36
4b
db
56
5a
62
5c
5d
e3
c6
39
60
4c
d5
5d
d9
c9
d7
5c
e2
eb
dd
c7
56
c0
dd
58
4e
cb
47
64
dd
5a
da
4f
ca
47
60
65
d3
91
68
da
ca
5b
4c
d7
69
1b
67
e4
b2
59
ea
80
e3
c9
d7
db
c8
c7
be
c4
4a
e4
cd
d7
d5
da
50
a2
b
48
b6
c6
c6
e4
d7
62
cb
ad
3e
54
dc
1a
df
cd
57
aa
3e
d5
ca
d3
58
5d
c2
dd
69
66
ca
45
a0
d3
e4
51
d9
c4
55
4b
80
d4
4f
d6
e1
e1
51
57
ac
41
dc
e5
4d
56
40
5b
d0
65
da
5b
5e
5a
58
ca
5c
9f
e3
59
5e
59
df
e3
c0
5b
47
5c
4f
5f
5b
ba
dd
d6
63
d5
33
5c
d9
48
a9
42
5d
b0
66
67
32
be
c1
27
81
98
6
ba
25
2d
61
b
ce
35
27
68
68
de
be
e1
5c
90
58
58
63
48
14
e3
52
58
dd
de
54
b0
80
de
e2
55
e4
0
63
57
ba
df
49
4a
4d
dc
c4
9c
56
28
65
5f
5d
5a
59
e4
cf
c6
d6
34
53
c6
dc
46
e3
4e
c4
e3
b3
ca
c8
dd
3b
a6
3e
da
3e
4d
34
d6
df
dd
5d
d4
5f
ea
d9
d6
e0
56
0
53
4e
49
57
b9
e5
34
d7
60
4c
51
e3
e1
52
81
56
d1
5f
5a
5e
d6
62
e1
54
4b
48
5f
da
d5
59
d2
c4
ca
c2
64
58
de
3a
bc
df
c8
c9
5a
df
e3
e5
62
17
42
db
e4
48
c2
aa
b9
e8
4f
cc
ec
63
5e
50
47
5a
e1
25
62
df
e2
ea
e3
ea
55
b3
ee
ec
d9
60
1b
c
e2
5d
cc
d2
45
b5
c5
81
37
db
e4
db
4f
5e
65
60
cc
2f
e7
25
35
47
b1
c8
ee
e7
ed
e3
df
d7
33
2c
61
27
58
e1
dc
53
48
5a
2c
65
5f
de
3b
54
dd
ea
bb
57
e7
5c
ce
df
da
52
59
37
e0
cf
da
d0
55
4b
9d
33
62
56
80
c9
e7
0
a8
bd
e5
67
32
5c
da
3a
4f
47
cb
cd
5f
db
34
e4
e2
e7
db
c2
c8
65
4b
4f
e1
c9
d5
0
a0
aa
38
55
16
67
d4
34
53
5a
e1
6a
66
5a
5f
62
26
73
67
3c
be
68
50
0
57
e5
4e
68
d6
79
75
5b
3c
4e
58
d1
ca
52
e0
3f
e6
db
1b
cb
ca
54
62
36
d9
81
50
6c
5c
4f
cf
56
5d
54
18
bd
e5
a6
dd
dd
d7
5d
5d
28
ce
d8
da
63
de
e0
52
55
e4
66
6c
55
66
df
e2
66
5f
5c
47
36
64
e0
ea
d6
e6
40
c3
31
d1
de
a1
5c
4c
57
5d
d8
c0
0
53
c6
60
61
61
e4
e1
5d
dd
d1
c8
a6
2e
e6
dd
62
dc
3e
db
61
58
d1
cc
5c
d5
5e
57
63
4b
df
4c
5a
e2
c1
63
5c
be
c5
df
5d
d7
e4
c4
48
df
c5
c9
61
4a
50
d8
55
d0
58
d6
4b
b1
54
53
5f
8e
c1
e4
60
62
c5
d2
b2
e3
5e
54
67
cc
51
d4
4f
d9
35
d1
80
56
52
de
e6
de
e3
e6
1f
62
67
85
58
da
69
54
5a
58
d2
ad
50
bb
5a
46
d4
5f
c3
5e
8
6c
e6
e1
51
49
60
61
dc
b3
cf
dc
47
5e
da
5d
93
49
96
e1
cd
d6
e2
a4
dc
e4
cd
aa
d8
63
de
1f
dc
5e
b8
de
d5
c8
cf
56
d2
d7
b7
cd
d3
c7
5a
41
cf
d6
1c
d3
59
e4
cd
21
ca
e0
d1
53
b6
d6
4d
db
4d
de
62
d8
b8
db
e3
53
d9
b9
64
ce
81
e4
d5
c5
63
57
93
4b
d3
5d
d2
51
61
64
d2
3f
53
cc
df
a0
56
5c
5f
5c
c9
61
df
56
46
2c
e4
4c
a4
3d
54
67
e5
59
6b
d8
46
51
69
c0
e3
62
d3
5d
dc
b5
d5
4a
dc
3e
bb
47
5e
e4
b0
4d
de
d5
4c
e2
c4
3a
5d
c1
d8
e0
d7
db
5d
a9
55
dc
52
d2
bf
9f
e3
c5
a9
df
43
be
59
69
c6
56
50
5d
d9
4d
d8
c1
44
0
c7
44
5e
3a
b6
5c
c9
de
ad
48
e2
dd
d2
de
bb
dd
ea
c4
d8
59
de
df
62
d2
63
e3
b3
44
d9
d7
55
c0
d9
dd
cc
ae
60
e0
c7
57
57
59
d4
37
dd
59
e5
e0
61
ba
62
62
5d
56
e2
e4
d0
5b
24
60
80
d5
cf
5e
e1
db
cf
d5
57
e0
e2
57
d6
b3
d8
d7
e4
29
cd
62
d0
d7
cd
5e
66
31
dd
56
54
62
5e
d1
da
e3
e2
58
d8
46
66
4c
da
4c
bd
3f
e4
bf
5c
d7
40
a6
53
3d
e3
58
d3
5e
a8
cd
e5
c9
50
ec
d8
64
35
bd
da
e3
56
44
5e
c9
40
d1
59
60
5a
43
2f
49
67
e2
44
55
5e
dd
a4
e0
e0
4f
36
d5
ca
5a
4a
de
d5
d5
da
bf
d1
d6
5a
e2
c1
61
52
56
58
4b
3a
cc
65
48
61
4b
e1
d1
db
21
56
41
be
63
53
a6
d3
3c
ca
5c
e1
57
de
54
5c
cd
46
d4
db
62
af
5b
36
b7
97
59
6c
5d
6a
87
d6
50
54
d4
cc
b8
6
d5
d1
d2
66
e2
34
58
b4
4f
ce
e4
e5
58
62
e9
c2
d1
c3
dc
bf
5e
c4
aa
dd
56
5f
45
e6
d6
e1
80
46
e1
5c
c2
58
a1
d4
28
45
62
2f
cc
64
4f
23
d1
dd
4c
4b
c5
db
df
57
54
4d
b2
30
49
cc
ce
55
d2
9e
c1
d4
64
c7
df
37
d0
c0
45
d6
49
df
cf
e3
4d
51
29
e0
61
55
be
27
55
de
47
d6
de
3d
c8
df
63
e4
e4
e4
db
5f
cc
65
41
de
b3
4f
da
55
56
5a
40
60
1b
b5
62
5e
47
54
b
5c
57
e2
e8
dc
52
54
da
cd
d0
9f
b9
e5
cc
2d
30
dd
5e
e2
50
60
2c
d2
d6
59
54
b5
e4
e1
49
e1
48
68
85
e0
16
69
57
df
d9
6d
ee
3e
81
43
ad
c1
ee
d0
49
3a
bc
48
cf
65
6e
71
4f
de
d5
cb
ec
47
6a
e8
b8
65
d0
aa
6a
c3
bb
6a
24
a
58
36
d9
9e
5a
51
c6
b8
f7
e0
64
d6
e0
dd
e4
dd
45
35
57
da
e6
5a
59
e0
58
36
59
d7
d4
4c
40
51
e8
b0
54
50
37
b8
52
57
e4
9d
e7
de
2b
5f
17
ca
58
dc
e2
63
bc
3e
b0
80
69
5c
63
d1
2d
47
cd
c9
e1
e5
63
35
5c
53
e2
e9
56
3f
e6
e7
40
e8
62
1b
f2
6
70
e1
54
5c
f2
d0
46
46
4e
6f
2c
d7
60
45
eb
12
41
4c
5c
58
5f
da
74
1b
40
d6
e2
b4
61
31
da
2a
2e
d2
99
60
65
d8
d8
e0
47
b9
d4
c3
5a
e1
d9
ea
e4
c0
ed
db
5c
2f
4c
49
64
39
80
65
64
af
74
5b
4a
5b
4d
f2
d0
50
d4
e8
e8
d4
cd
39
dc
62
5e
be
dc
dc
4f
d8
59
57
62
cb
3a
60
e3
25
be
5c
59
dc
5b
dc
4d
2f
e2
18
53
d7
e7
4f
61
e3
de
5d
5d
5f
5e
e0
e3
5d
c9
5c
b6
c0
b4
5b
8e
ce
4e
c1
ca
d6
5f
5a
e2
65
81
dd
64
d1
10
3a
5f
a5
d3
62
e1
f3
ef
d8
e4
d4
67
65
33
da
5c
c0
d3
56
51
48
4a
96
5b
c3
b5
c4
57
4a
da
dd
f2
cf
b9
b0
4e
62
6d
4c
bf
b1
58
33
4c
56
db
9d
b8
32
ba
e4
d0
c2
cf
5c
67
e
da
5d
ea
cc
26
ca
62
55
d1
34
59
5f
e1
db
de
34
cf
64
48
e4
64
4f
eb
cc
54
d5
4a
e1
e4
3b
33
e1
33
d7
e0
cd
4b
4d
c8
55
99
da
55
50
b8
d9
65
64
62
67
5a
5b
59
63
d9
67
62
51
cc
40
d9
60
d4
66
ba
dc
d3
b7
54
e2
47
c7
5c
a1
5d
65
61
dc
5e
35
d1
cf
60
cd
a8
e3
51
69
5f
d6
48
57
67
c5
e1
2d
56
e0
6b
6d
c9
dd
2d
d9
a7
57
d7
61
b2
e7
2d
d5
64
d5
d5
51
59
29
55
54
3f
67
48
52
d1
dd
65
c1
ea
42
ac
61
2b
4
cc
cc
45
db
a7
5d
5b
36
4a
d9
dc
3e
d3
c6
d2
e0
64
db
e3
4c
61
61
48
d9
59
d8
d5
58
8d
2f
ae
3b
5e
43
4a
67
3d
64
bc
e4
56
df
64
5d
62
cc
65
5d
50
d4
2c
d9
4f
40
4b
4c
38
57
56
d7
e2
d2
54
da
db
5b
da
64
25
50
d6
df
58
e2
5c
c2
5d
59
cc
58
39
5c
5c
5c
c9
bd
4d
ca
81
e3
61
23
ba
cd
5f
da
4e
e4
58
5c
87
56
cf
c5
4b
c9
6a
71
e2
65
52
ca
4a
e4
4f
5a
e2
be
63
1e
4c
e5
4d
ad
dc
df
24
de
e0
c2
d6
e0
d6
2b
b4
cb
d9
62
cc
57
e
5e
69
d5
bf
65
45
e8
c3
ae
ea
c9
bd
e7
db
e3
60
4f
63
c5
59
db
c3
59
be
36
cf
56
50
64
5c
29
a4
5c
c8
59
dc
eb
51
53
d5
ab
df
cd
64
d5
8e
55
d6
34
60
3a
ac
56
ba
da
52
d0
b5
51
d4
e5
e4
d8
e5
59
36
1e
bf
4a
55
50
5e
54
61
c6
d3
31
59
f
c6
57
a9
93
e0
df
d4
e0
df
66
0
cd
d6
60
cf
4f
d3
54
dc
5e
59
51
48
30
d5
51
41
d3
5c
da
d4
58
51
6c
e3
27
6e
80
c6
60
55
e7
3f
ba
58
62
58
d3
4d
5f
c6
dd
47
f1
c0
e7
df
d2
c8
2d
e1
5a
ac
58
5f
d6
90
c0
e4
e9
61
0
dc
e0
b9
e3
5a
4e
55
d7
dd
5c
d8
3e
49
53
49
cc
a9
43
65
54
62
5a
da
36
d7
c2
6d
58
f1
13
2f
ca
91
a5
e0
c0
b2
63
4b
ae
d7
b9
d8
8c
57
e2
d7
e1
ad
60
4a
dd
c7
33
ac
61
63
56
6f
df
d4
5b
61
e3
35
df
da
db
bf
e1
c2
65
3a
60
83
db
de
d6
cd
63
4a
64
3a
41
65
a3
ad
4f
d8
d0
cf
5f
5b
5a
7
41
61
98
63
3d
2d
6b
5c
4b
46
51
e1
61
5a
d9
24
53
5b
48
cd
d2
27
dd
d3
e1
e5
5a
47
43
65
c4
41
e7
c2
52
da
5c
4c
da
ea
56
da
44
c5
65
5a
da
62
da
74
c7
dd
5e
e8
ec
67
cf
65
6b
3b
d9
44
44
d8
52
cb
d8
45
61
5d
d1
60
4d
dd
ce
e0
d
65
69
db
d5
80
bd
5f
57
56
ce
25
64
53
e0
cf
62
dd
9f
ad
e3
15
e8
e4
ba
be
5c
ba
ee
cb
5b
d7
62
d7
e7
55
49
e1
b4
ca
e6
50
ec
d1
44
54
d8
59
50
3c
52
57
db
e5
b8
c9
5f
b0
d5
df
e4
ba
d0
4b
63
d6
88
80
4e
d1
d9
e6
f1
c8
50
5a
64
3a
eb
52
e3
6f
6a
5a
5d
da
ed
6f
64
3e
58
bb
e3
f
e5
c1
44
ec
e9
cc
cc
55
da
31
d1
54
4c
ba
a5
ea
46
2f
e8
c0
5a
34
c0
df
dd
ed
61
e6
e6
e5
c5
e2
50
64
b5
65
0
e5
d7
3e
ee
50
65
ee
5c
66
d0
67
58
b3
3a
60
dd
d6
e3
5a
d2
b3
b7
63
e1
b7
d2
e6
5
4c
5f
5e
42
61
ca
d0
57
61
bd
dd
80
da
63
c6
4b
e5
51
4d
59
15
5d
dc
3e
38
df
3c
58
d8
45
56
df
4b
46
cf
e4
da
11
e5
dc
ce
d6
33
59
dd
e5
d5
e2
3e
60
2a
d9
65
58
d2
30
cf
42
94
dc
57
3c
de
d2
c6
29
d2
4a
e5
63
d6
cf
43
28
5d
57
3b
a9
2f
39
5d
2e
51
d4
d5
5c
d3
54
31
68
d8
57
6f
65
21
69
f1
dd
6c
e4
60
6a
e6
64
46
df
d5
46
d8
54
c6
cf
db
44
cc
e2
e0
c4
e4
5e
84
63
e2
d6
d9
b5
ce
d6
e3
3f
d6
56
80
d2
f2
57
68
a8
3b
65
ca
59
4d
c1
d3
61
3f
d5
ce
d7
ae
2c
6a
43
4c
b9
d4
e1
57
d6
cf
57
db
d5
58
41
44
54
b4
5c
e1
31
e2
6e
e2
e0
5b
df
51
e4
ba
d0
e0
cb
d0
e4
92
e0
d2
af
ca
dc
e0
2d
55
de
66
e5
4a
5b
90
d4
6d
3d
e3
5d
d2
67
6e
7b
4e
5b
6b
9f
89
51
35
2f
e3
57
ab
e2
53
81
60
c8
3a
d7
65
da
5a
6c
58
48
c9
5c
e7
ec
e5
c7
1a
d3
53
e7
5b
69
cf
cf
5e
c3
e
e3
c5
21
60
5e
59
60
43
60
50
ce
df
6b
c4
69
57
e4
d9
33
cf
bc
cf
ed
5a
63
bd
57
3e
4e
2f
66
66
be
cd
65
59
4b
66
af
5c
c9
62
be
e5
de
e0
d7
df
4e
3a
d8
e0
63
de
d6
e3
de
cf
e1
9c
0
e1
51
4c
d1
60
c9
d2
ab
5c
c2
4d
c6
c0
5d
61
d3
4e
e4
e2
33
57
62
bc
d1
db
e8
df
0
22
5b
63
80
61
80
ea
32
33
ed
52
4b
58
54
d7
d8
4f
cd
4f
dc
d0
51
f6
89
e2
14
dd
d
5c
e8
ed
a0
66
6f
d2
5f
67
ed
62
3b
61
84
63
d0
e0
58
6c
68
33
db
3f
e6
e4
68
3d
61
c3
bc
ef
d4
64
5d
e8
5a
49
63
65
37
44
c8
4b
4d
5b
4b
17
80
6a
0
ef
ca
e0
c8
d5
a7
14
4f
d0
d1
c3
62
d8
44
65
7
c8
c3
d6
62
e0
62
59
e6
e6
59
44
ef
c4
f1
f
e1
e8
d8
b7
d2
ea
c9
c3
ea
cd
51
80
a5
d2
d1
59
d9
13
51
cf
6c
e1
cc
a1
56
5f
5f
d6
db
55
60
4d
5c
e4
eb
5b
55
d0
cd
70
67
d7
6d
71
d6
da
d0
3e
64
5e
d3
67
60
69
d3
e6
59
ae
bc
e8
df
dc
e8
80
3e
d0
6b
5c
6b
db
f2
c6
dd
e1
d9
d4
a4
5e
df
4e
db
df
b9
da
e5
3e
dc
e9
5f
c7
b4
e2
cf
63
5d
d9
d1
51
82
d3
d8
5e
58
d3
cc
68
64
da
50
5e
c0
49
d3
e9
bc
5d
d6
cf
b0
db
5a
d1
42
d3
db
37
bd
d2
ab
4d
da
57
e5
e1
cc
59
5a
59
e3
ce
70
6b
d4
62
58
e3
74
64
60
ae
e3
c4
e3
db
d5
5d
e1
61
60
64
8d
31
bd
e4
de
57
cd
45
cd
46
dd
5c
db
80
b3
61
c3
c1
5c
61
e2
62
d4
49
ca
6f
36
54
c0
53
1e
dd
e1
4f
58
9b
64
dd
e0
40
5c
38
5f
d1
d8
4e
5f
48
4a
4a
e0
da
e1
c
ca
eb
dc
67
64
64
d8
e3
59
b2
bc
4a
d8
4f
e9
e6
66
da
42
4e
3e
5a
bc
5f
70
b1
72
67
c8
d3
e2
32
32
58
60
d0
d9
e0
35
d5
c6
ae
9a
69
5a
ec
b3
c9
0
25
d0
30
97
54
c8
5b
23
3b
d0
e6
d6
d7
c0
39
d2
dd
ed
b1
aa
e1
e4
d8
4e
3b
e2
4e
de
ca
d6
d7
4e
5b
ce
5e
c9
5e
e2
e4
53
e4
ab
d0
50
5f
67
d7
df
91
db
e4
46
62
d5
dc
9d
ba
63
d8
5c
5f
de
80
5f
60
80
bd
5b
e9
e1
ba
de
ef
d6
d1
64
d8
46
71
d5
da
70
56
81
54
c0
61
c1
55
49
6b
69
ca
2c
53
3d
5c
d9
bf
a3
2b
d3
cc
86
e0
c7
e9
30
d5
ed
b0
44
f1
37
cf
d7
80
dd
5c
2c
5e
58
de
19
59
d9
52
58
4e
53
59
53
80
63
d6
de
ae
5f
bf
6a
63
ec
3b
d1
45
d2
58
d1
dc
2f
d6
d4
dd
c7
3e
d7
dc
e4
27
e3
e5
dc
dd
5f
e4
da
22
e5
55
e2
52
e5
2e
d3
55
64
5d
e1
dc
da
35
e2
e2
c6
40
5a
b5
e4
4f
63
1e
e4
d5
da
58
c4
db
63
dc
62
d6
da
4f
57
50
56
63
cb
da
ab
5e
ec
e3
36
e8
e4
cf
c6
5d
5d
44
d9
bf
dc
e4
47
5d
54
da
d1
53
c8
dd
63
68
e5
db
bc
d6
49
36
66
2e
d4
46
51
63
4f
ae
4e
de
e2
d5
db
5d
e3
e3
ca
df
65
58
4c
c6
b0
5f
5e
22
4f
a6
65
62
d2
ca
ca
50
e7
4a
80
e6
aa
df
64
d0
4e
cd
d3
e2
de
6f
b0
5b
49
64
4a
4c
60
64
c2
da
df
4a
4f
df
df
0
d7
4e
a3
5b
d1
5b
5a
31
6e
c5
60
d9
51
e2
b2
bf
64
e7
cc
24
36
db
ea
e5
cf
e6
de
e3
d1
4d
30
de
50
53
5d
53
61
5b
e7
e2
dd
2c
e2
5c
c0
4e
d0
5d
b6
61
d5
e3
df
de
b0
60
70
51
51
54
d2
a5
6e
5b
68
66
40
55
63
58
63
5e
cb
e5
30
e5
d6
5f
57
61
e1
d7
58
58
f1
eb
52
4b
5e
d7
61
d3
53
55
63
df
d7
b5
31
61
2c
51
af
49
4e
d0
53
dd
3c
34
db
57
68
46
dc
43
24
1f
f0
59
e8
4a
e3
d1
33
a0
45
53
62
c9
5f
59
61
38
9d
d9
e3
63
42
61
5b
e3
d9
cd
dd
e5
64
57
da
c8
47
c1
4c
54
e6
5d
de
54
59
4e
e1
5e
64
4a
52
26
39
0
d9
c0
50
5a
64
49
e1
4f
5f
49
e1
63
c7
e2
e0
a2
5c
54
d8
e3
44
4d
db
ee
32
b5
5e
d1
58
58
37
d3
d6
c3
50
cf
a7
55
64
c5
5d
dc
57
d9
44
db
56
b1
59
3f
c9
a
56
d6
e1
80
e7
3f
bc
d1
4b
e2
6f
5d
60
64
43
ab
85
df
d9
57
e4
de
e2
e2
5e
d9
e8
4c
c1
65
67
b0
36
35
e0
c6
5e
d0
44
e0
be
e3
60
48
d5
4f
cb
b1
c9
1d
a8
43
d3
df
61
d3
63
df
c5
dd
4b
c1
3f
e0
3f
e2
5d
53
e7
3b
bd
dd
64
d6
e0
e7
e6
40
54
5f
e9
e8
2c
d8
87
63
d8
e6
c1
63
d6
d3
47
5f
f
e0
db
e1
10
e1
40
c2
4d
cf
d5
ca
56
d1
b1
bd
57
cc
36
2
64
d9
d9
4f
49
95
45
59
c5
21
a5
62
cc
5f
56
dd
62
e8
bb
cd
eb
cc
1c
4b
d8
58
ec
e5
5f
57
d7
58
29
63
58
59
eb
e9
dd
64
c6
54
38
4e
e2
b4
d9
5b
d5
59
4a
47
47
59
da
e4
cd
54
34
5e
a8
5c
e4
59
5b
5a
bb
5b
ac
d2
e8
e5
e5
da
69
b5
47
54
de
ed
cf
0
5d
50
68
4
d8
37
5a
5b
47
e1
de
e3
b4
e1
2e
b1
34
33
72
65
37
6f
dc
3b
67
e1
50
d4
ce
5d
4c
59
60
5a
4a
61
56
3e
df
50
dc
e0
dd
64
e4
b9
d2
c7
59
53
c9
64
ce
5d
5c
de
2a
ac
43
35
d9
62
52
64
cc
56
23
38
b2
de
ea
f3
16
d2
4b
63
5e
e2
ba
ce
61
de
cf
59
67
35
9d
5b
4a
53
e9
de
59
ef
81
62
63
54
68
75
26
5d
49
60
da
f2
e0
ea
6c
db
de
31
3d
22
e6
cd
1
7a
64
4f
d7
c4
d7
f1
ef
e9
bd
52
43
37
e6
44
64
62
e5
bc
9c
eb
db
60
d8
ad
e9
d8
e1
cb
ad
4d
64
de
53
4d
da
e8
59
e0
e1
4d
c5
56
db
5c
3e
d7
ea
e9
b9
d6
44
c8
5c
d5
d8
68
68
6a
5c
bc
54
49
5b
63
46
4e
9a
3f
c9
bc
59
d3
7
42
e4
d7
e4
0
dd
3e
c2
53
4c
80
62
d3
df
df
5a
ea
c3
b2
94
50
64
ed
ce
d5
57
bb
58
eb
22
18
47
71
6b
b7
a5
dc
52
63
61
50
63
16
50
d1
e5
58
63
df
51
57
a1
4c
4a
ed
4a
43
55
5c
32
a2
4b
cb
65
cb
49
47
db
e5
46
d8
49
4a
60
e2
61
e0
b4
d1
64
d4
d4
d0
c6
58
de
61
63
26
52
e7
5f
45
c7
3a
5b
65
dc
2c
d3
d4
3c
dc
d3
5e
49
ab
38
62
dd
5b
58
5f
55
4e
51
e7
66
5d
e8
c7
e5
ea
e6
c8
5e
47
4b
5d
43
38
e2
61
40
5e
61
d6
42
17
e3
c7
5e
b2
5e
5c
d3
e0
dc
5a
60
62
d7
e5
cf
9d
c7
58
df
5f
4f
4f
5b
54
d3
39
46
f6
2e
b5
52
4d
38
c3
80
a7
4e
65
e1
cf
e5
5
9d
9a
e9
df
d5
43
c3
2f
e0
e3
d1
cf
dd
d3
df
68
6a
68
4c
be
e1
e2
e2
ed
ad
a3
59
1a
dc
d3
d3
d3
51
cb
c5
e2
e6
34
a9
ea
ea
46
a4
57
dd
5b
d5
df
45
5b
c9
6a
20
e7
55
6d
b1
43
df
dd
60
d0
e6
ce
da
9c
65
1b
4c
d5
dc
db
5b
bc
42
6c
64
50
62
da
ea
9
62
dd
67
40
c3
de
d8
68
5f
e0
64
d5
db
c3
4d
5f
e2
eb
92
61
c4
31
e2
df
66
63
55
55
62
e3
e5
dc
bf
2d
61
31
4e
39
26
2e
be
5a
36
4c
e1
c5
8c
48
3d
a5
6e
5d
50
6c
c8
dc
e6
30
41
dc
5f
65
d3
e0
5c
e6
e2
cb
55
6a
4b
a2
69
c7
54
2e
e1
62
dd
e8
57
ee
eb
49
f2
ef
64
62
cd
4a
df
5d
5a
49
10
4e
99
61
58
4a
de
63
e0
e3
2a
53
6e
de
42
6a
e2
50
70
dd
56
68
be
4d
9c
5b
b0
b4
c1
25
4b
2d
4e
ca
65
38
80
4d
51
34
db
e3
d3
81
bd
4d
6d
58
4b
c6
2e
da
c4
e8
50
10
e4
57
55
cf
64
dc
e3
dc
31
df
45
59
e0
2b
46
da
a4
d8
56
51
e3
3f
99
5c
cd
65
da
5c
5c
e6
d6
db
3e
e3
c7
5d
4a
d3
d9
52
c6
f2
ef
f1
d2
db
31
dd
56
63
da
c8
d6
73
6b
6c
52
2
46
b3
cf
ca
3c
d2
ab
31
59
c9
50
e5
e0
5e
57
3a
e2
bf
35
eb
a4
da
64
6c
67
12
b0
c6
a6
cf
60
63
65
65
ee
da
ce
e6
b7
e0
4a
e8
d2
56
d2
1
29
cd
dd
d6
5f
6f
b1
61
69
51
ce
70
d1
dc
4e
5b
e
5d
48
c6
e4
e6
dc
35
48
d3
de
cb
df
ca
5d
3b
18
b0
bc
b2
c2
5e
5a
c6
cf
c7
ce
d5
65
c8
c4
39
c0
58
67
3b
2e
63
23
d0
80
34
e4
e4
0
ce
b1
67
d0
c5
e3
e6
b5
55
e0
9e
b8
c5
ca
c5
d7
4d
56
58
e2
e1
9f
d6
61
3f
45
5d
21
64
67
a0
4f
65
28
d2
c4
d4
4d
5c
97
e8
2e
55
4d
8b
55
d3
c6
60
46
39
e8
ea
4b
5c
5a
a8
4b
c7
c8
31
c3
b8
42
45
dc
d8
dd
59
5c
d9
cf
64
26
dc
62
e2
db
60
56
d5
58
cb
e7
cd
4e
d9
ca
64
4f
cf
93
53
40
35
c8
5e
68
64
59
61
39
61
d3
54
e1
df
32
1a
56
43
b4
d3
bd
49
42
e0
dd
d6
d1
5b
50
de
5c
e4
e2
4c
48
62
e4
4d
4c
54
4d
86
e4
ca
50
60
1b
63
c7
d1
e5
49
dc
e6
52
50
c5
d4
d4
55
4e
56
e1
5d
dc
55
df
e9
4b
d6
e8
6b
e5
e4
5e
55
60
e1
cc
82
e1
62
55
59
cc
50
4a
3d
db
e9
64
d9
63
dc
ca
e4
e7
e6
dc
e9
e1
65
d5
4c
5a
62
d2
58
46
5d
49
12
cb
c3
be
50
64
d7
55
59
5e
49
c9
cb
b7
96
51
d9
da
e0
9e
50
40
59
62
50
49
ec
e3
db
ce
ce
e8
4c
f2
d7
3a
3d
5c
dc
bf
55
45
33
c3
45
ac
80
62
50
dd
16
d8
d6
52
38
d9
46
52
dc
3d
4b
d8
65
b0
62
63
51
cb
6c
48
68
62
5d
46
5f
4c
50
4d
5a
4f
cb
5e
59
34
5b
60
cf
cb
d8
66
3d
de
d8
3d
42
bb
49
46
d1
d
58
c6
de
55
51
67
54
66
d7
f1
6f
e4
dd
69
ea
36
66
3b
4c
d5
65
66
47
c8
cf
60
de
47
d2
63
d0
ce
db
97
29
69
58
d8
63
c5
e1
60
e4
5b
d8
c2
80
e5
d8
3e
e5
9f
d7
dd
bc
d5
64
2f
10
e1
56
49
60
46
de
ce
58
6e
b1
c9
3b
59
14
66
e5
5c
c0
e0
c6
60
d2
e5
e5
d0
c8
27
60
51
ce
aa
62
e0
c8
df
80
e0
2d
d6
80
c5
dc
2c
58
d3
3e
64
a5
c8
62
df
bf
60
e0
dd
d8
3e
4d
e1
dd
5f
52
d6
2e
db
e2
b8
cc
d9
5a
60
64
4d
5e
63
60
60
43
5d
e2
59
48
1d
b7
5d
d8
53
61
e4
60
55
cc
5a
b8
64
5e
64
db
d9
80
4f
5e
58
35
63
67
5d
64
65
39
50
60
5c
4e
50
e5
e1
ed
ec
ce
a3
c5
46
d8
9d
da
cd
2b
df
5d
5f
2a
5c
48
5c
3e
c2
2b
c4
b4
47
b6
6a
e1
25
64
38
55
c6
9f
dd
d7
51
cf
5d
64
3c
48
e5
58
5b
bc
c2
ef
4a
ae
e2
b4
9d
61
a9
af
4d
e4
53
e0
e2
d4
cf
c1
cb
25
49
4b
e8
c3
c8
d4
48
de
31
43
da
bf
d3
50
c2
ca
d9
d0
1a
46
ec
b9
48
d7
df
4f
db
ce
62
ce
5b
48
ce
e6
bc
56
63
55
4c
36
48
55
58
5c
db
c0
db
b2
32
b2
de
27
d3
5e
e
4e
53
e7
47
e7
e6
68
51
45
51
98
49
db
41
37
e6
ef
45
f5
57
5a
4b
5c
d8
54
3e
5a
d5
47
42
69
67
51
67
63
51
de
88
e9
43
d7
e6
e4
e4
ba
5b
54
de
d1
5f
56
e2
58
de
ac
2f
e9
0
40
55
51
e8
56
57
b9
2d
e4
c6
ca
c8
5e
db
de
21
65
58
5e
5c
b5
b5
a6
4e
60
d2
b5
de
e4
e4
64
55
5f
39
5b
ce
4b
c4
dd
e4
b0
e4
e4
46
48
59
e4
a5
e2
5a
e4
e1
a9
5e
5e
e1
60
e4
61
5a
cc
5c
da
db
64
dd
d2
e0
b7
d5
51
da
d7
4b
e2
dc
dd
db
e4
61
5b
33
ce
e7
5d
5c
55
59
e1
d9
25
60
b1
e2
ac
3a
62
60
d9
36
61
47
a9
4e
de
0
d5
5f
cd
e3
c8
b1
43
dd
d5
e1
53
b5
31
5f
e6
63
54
41
aa
81
df
e5
61
58
45
da
47
e0
33
4f
62
b8
58
e1
61
50
e2
cd
61
5a
cc
d9
c5
50
df
55
5d
e2
aa
e3
4f
4b
5b
54
dc
d1
64
56
51
54
cf
5d
5c
dc
cc
2d
8c
4a
3
65
55
d4
81
da
d6
63
64
3f
59
46
5b
48
c7
af
dc
d1
60
56
5d
9d
4b
57
e2
e3
36
e4
62
22
4b
b6
5e
35
d8
de
3c
5c
4f
60
df
de
d9
56
8c
e3
3d
47
d9
19
c6
37
80
e2
2f
a6
e3
c9
b9
db
90
e4
34
60
60
e0
35
dc
d1
47
27
5f
51
4a
e4
61
ca
d1
57
5d
c3
80
40
64
5a
bf
27
5f
d7
59
e6
58
56
c2
51
da
60
58
d4
e0
dd
de
55
5e
63
d3
d6
df
b8
d6
41
c0
df
5d
cd
de
ce
df
d5
c4
65
da
e1
c5
58
53
46
e0
d8
5d
e1
63
ab
54
5f
5b
e5
e2
ce
be
63
33
4d
52
b2
67
5c
da
f1
e1
b9
a3
e3
ba
61
d1
60
51
5c
14
3d
58
df
4b
bd
cc
cd
d1
c6
e4
bf
d3
62
dc
d3
62
44
3b
51
65
af
b4
e5
47
e4
d9
e4
58
d8
dc
20
24
e1
3c
60
63
cd
cd
69
ac
62
55
42
5d
36
da
de
61
42
d3
ca
c2
b4
da
65
80
68
81
d3
45
6c
37
42
60
3b
65
65
71
60
35
5b
44
e5
5d
f0
1f
61
81
39
9c
e5
df
c6
c0
59
70
75
81
d2
4d
e7
cb
f0
dc
61
58
50
e3
c6
d1
58
e0
d7
4f
cf
70
35
67
a7
d8
e0
46
4b
4a
d9
5c
5e
62
50
de
15
ce
4c
80
d8
45
e4
b8
e4
5c
66
c6
c8
b5
e3
e4
e0
ad
e5
dc
e0
59
45
5a
43
66
59
52
d1
18
d5
3e
5d
42
5d
5d
e1
cf
d6
63
62
54
50
da
61
b7
b3
54
57
d4
cc
64
dc
d3
37
68
de
e2
c4
98
5b
b4
df
6f
64
6a
48
db
bf
ed
c5
e0
dc
b9
f2
52
4a
36
5f
67
a6
e2
61
5d
49
1d
de
dd
de
30
e2
e4
e8
2c
a7
e9
5e
c5
8b
dc
60
a0
2e
d6
dd
e8
d5
d9
e0
36
51
be
4f
49
be
64
41
64
54
ea
d7
bf
e4
d2
36
51
d0
11
c4
de
1e
3c
e1
ed
66
53
59
50
d1
4c
cb
51
c8
a9
53
80
43
3c
e3
58
de
59
d6
ee
0
df
c2
df
d2
d1
ba
ad
a1
a3
4f
80
0
2f
d8
3a
de
5f
b
61
62
51
df
e4
d7
e2
47
df
e4
c3
5d
e4
df
43
e0
29
e4
d9
55
65
e4
da
55
80
ce
e5
e3
56
df
e1
61
40
57
4e
e4
e0
e4
d0
54
e1
54
ba
61
60
dd
d8
5a
5c
6b
af
c1
62
b0
59
b5
67
dd
f0
f4
f2
55
26
18
56
4b
51
68
5c
a2
e8
e4
59
3c
d3
8c
2c
5a
e3
55
cf
e5
65
69
52
dd
ee
e7
5b
37
da
64
63
60
5a
ce
59
b5
b1
c4
5d
d4
e3
39
81
5d
44
53
61
54
de
3d
58
e2
ab
2f
d9
d4
4e
5c
b3
59
49
52
b6
33
af
da
58
63
4b
c5
c9
c8
60
5c
46
be
47
db
62
54
3d
42
70
3e
d3
81
5b
62
4e
db
5b
46
e2
df
d7
db
54
de
50
39
aa
52
5d
d2
3e
93
d9
6e
e7
58
c6
69
36
8f
4b
5c
31
22
65
5f
48
35
61
db
0
36
5a
67
5c
5e
4c
c8
bd
df
da
57
d6
5e
e2
c
57
e1
56
c4
67
35
d8
42
c8
dd
eb
e8
d5
47
68
ce
e5
37
58
57
2c
be
5e
4f
1d
18
36
56
e2
42
2a
52
5f
dd
43
58
e8
eb
6b
59
60
55
dc
39
3f
53
e6
d8
c8
63
e2
55
e4
61
5b
e5
59
d8
d3
56
5b
d1
51
e3
55
d0
57
8c
92
50
5a
cf
55
bd
bc
d6
cf
e1
d6
3f
5a
e2
de
d9
d8
d2
c4
d6
63
d0
e0
55
43
d6
4d
cc
cd
c1
80
61
5d
e0
30
c3
53
28
5f
da
43
4d
64
9b
37
dd
e0
d5
e3
23
16
ed
55
64
d1
57
10
5f
4f
c0
ba
80
4b
ae
52
5b
e2
81
e9
1a
ee
3d
d7
d9
d7
64
e9
67
4f
62
5c
dc
6d
6a
db
47
81
e2
d0
8d
d0
ee
d1
c6
f1
57
e3
d8
c0
5f
ce
dd
46
db
d7
c2
d8
e2
5d
d3
b3
33
5f
5c
62
74
2e
61
40
c6
5f
ed
a9
c9
de
42
e9
62
df
e7
c7
33
d6
e8
56
4d
bc
e6
4a
e3
d2
52
df
51
52
5f
da
44
58
b0
3f
5a
d0
4c
da
54
69
4b
e0
5c
df
1b
51
3c
d8
df
df
57
d6
4c
e2
c4
66
46
3e
5b
bc
50
db
59
e6
5d
4d
e3
49
a1
e2
5a
85
d7
5c
52
ae
57
d7
db
cc
5d
5f
6b
75
61
51
5f
51
cd
41
62
bf
55
cc
5e
67
55
60
69
a8
99
4c
56
e4
5b
26
ea
e0
d3
57
d0
27
5d
9f
4b
e4
e3
3a
b8
5a
b5
56
e3
c6
c6
45
d4
50
87
60
4f
b9
27
db
b8
db
51
4c
b0
e4
b5
d2
db
e3
51
bf
d4
6f
19
db
4d
41
86
4f
d6
62
cc
ca
e3
b9
c4
64
e1
c9
2d
cd
ce
e0
da
4e
62
59
cb
9a
6a
bc
5a
e0
df
5e
c7
38
e4
ba
cd
d3
cf
da
56
b6
63
64
d0
45
4d
ce
cd
c2
a9
da
dc
d7
5c
d9
c8
5e
df
cb
ce
63
d5
d8
5f
3c
e5
c7
cc
c9
69
66
d1
d5
62
df
61
da
e1
4a
a
c5
d5
a2
bc
ca
e4
5d
d4
45
53
47
d4
5a
e0
e5
3d
5e
60
58
40
69
40
81
54
52
6a
55
e4
e3
db
6b
5c
e6
5b
e0
e4
e8
e2
3d
e6
e6
aa
41
a9
49
d9
2f
e1
df
63
5c
47
e3
e4
33
52
de
da
34
45
b0
dd
5c
cc
55
c6
80
59
62
56
bd
21
9
48
80
5d
49
5b
c3
d6
df
d7
45
5a
db
e1
5b
e7
2d
d4
61
61
a5
de
80
d6
d1
d7
45
dd
63
c9
c4
16
31
67
37
65
32
a9
5a
df
cd
d6
58
e1
a9
a0
e4
d7
e6
d0
21
ce
4c
c7
43
5b
de
61
e1
62
59
25
4e
ba
e9
cb
97
63
c3
cc
b8
a1
51
cc
65
51
d1
57
cf
5e
c8
d8
4f
e4
d8
55
dc
66
40
e1
41
e2
bf
5f
55
54
be
51
d3
e6
ed
e0
e9
3a
52
5d
51
42
48
b5
30
64
cd
d8
9c
28
32
cf
d0
5d
5a
a6
61
b5
5f
e4
ba
46
de
5b
bb
58
d5
67
d6
cd
e1
a3
46
d4
64
53
59
dc
cc
35
b3
d6
d7
c9
4e
db
dc
52
d5
3e
36
cc
15
56
5e
3d
d1
57
46
e0
4f
61
64
56
e3
58
e1
c0
d9
ca
d5
56
dc
a9
5f
a7
4f
56
cb
4c
5c
b7
cc
60
d1
db
63
19
d9
e2
c7
d9
c6
61
4e
47
db
69
e0
66
be
49
de
51
5f
3a
5d
c0
b1
5d
10
e0
dc
d4
dc
dd
63
5a
61
65
e1
e8
d5
44
a7
e7
96
db
5e
e7
da
70
65
d1
3e
d3
58
d9
62
60
da
11
5f
e0
48
61
5b
dc
5a
96
61
3b
d8
df
5b
da
5f
31
d6
4e
cc
56
bf
e4
d3
c2
63
b6
be
c4
5d
ba
d9
da
e5
d6
cf
c0
60
3f
d5
34
56
b4
61
52
5d
66
82
c9
58
e3
e0
50
68
63
5e
cc
b5
63
da
4f
55
60
ce
57
dd
ba
de
5b
57
c3
d0
5f
63
5a
59
db
d2
bd
ba
24
20
44
d0
c6
d4
60
53
d1
e1
de
50
52
e4
df
d3
e6
de
34
63
41
c1
52
50
e2
44
52
d1
5b
45
3b
ce
b4
e1
9e
e6
30
d9
de
c8
60
d7
39
5e
4b
cd
d1
df
b8
b3
bd
56
de
4c
57
da
e2
c9
c7
e1
e4
c9
25
51
b2
81
56
b8
5d
4e
dd
3b
b6
58
d0
dc
c9
dc
63
5a
65
b
54
d9
e0
e3
e8
5f
da
9b
50
63
63
eb
61
65
db
cb
c8
c8
a4
d5
65
56
0
4f
2a
3b
9c
80
36
e0
60
e1
e1
e2
ba
d8
e3
eb
59
da
60
e0
59
cc
59
b1
c7
9d
df
53
4c
32
2f
5d
b1
d7
27
4e
c4
d3
58
df
c1
b8
63
da
64
80
53
dc
dd
25
de
5f
5e
15
e0
51
57
57
5e
4a
70
d4
a9
e2
50
d2
54
5a
45
59
cb
65
42
d3
56
57
5e
56
5a
b7
c9
68
cf
64
db
ed
d8
63
4b
d1
d1
ca
d2
a3
db
b7
d9
46
5f
14
d6
64
2b
d2
d6
63
d9
db
68
d5
5c
65
5f
b7
5d
e7
dd
36
ed
bd
5f
ac
e2
50
29
de
c9
50
cf
5a
ec
a0
b9
ea
5e
3a
47
61
df
57
df
e2
55
4f
44
1b
54
5a
80
e1
58
49
3c
20
59
81
e2
6a
c2
48
60
68
67
26
60
61
de
5b
59
4d
c6
e3
ec
f0
ec
18
51
27
dd
5f
b1
c3
e8
be
0
5d
e5
d1
e3
3e
5e
d8
df
e3
e6
cb
58
36
42
b6
67
5f
e3
14
d7
d6
57
e3
6c
59
a8
5f
e5
e2
80
6a
5c
39
64
d4
f3
10
d9
3c
e5
36
64
db
ab
df
0
3f
ce
da
63
cc
69
63
c5
ed
eb
e8
64
6b
64
65
64
2b
36
9c
9b
e4
dc
3b
cc
a4
4e
e2
dc
df
d7
64
44
48
49
df
d8
c6
e1
56
da
6c
45
cd
57
56
0
60
63
8e
c4
26
e9
3e
d8
cc
56
37
a2
e1
bd
da
cf
85
e0
65
e2
c3
e3
56
4c
dc
cd
95
da
55
e6
e2
ae
50
de
e0
55
60
aa
61
dc
52
93
e1
dc
86
5c
d8
d5
d4
27
60
d7
57
20
80
e3
e5
58
61
59
e1
d7
4a
34
de
5f
1e
5f
cf
60
a9
52
59
df
e5
d9
48
65
e3
51
5f
5b
d3
64
4b
dc
5d
58
56
5d
9d
e1
3c
60
65
d9
6d
5e
5b
d7
60
5c
a5
e7
e7
e1
e0
e0
c8
53
61
66
61
4e
c8
db
2a
d7
5e
61
d5
4b
0
c4
5e
59
cc
d6
57
63
9f
c6
5a
59
64
62
50
28
48
61
d4
4c
ae
df
54
e5
e0
dd
59
e3
53
62
49
64
2b
66
df
57
e1
d0
61
cb
e1
ce
d7
4c
e0
cf
9a
51
58
d3
59
4f
cf
e6
e6
c7
e1
59
d8
e8
3a
40
43
42
dc
d6
57
61
4c
e3
5e
df
e6
d6
d3
3c
80
47
ac
d8
da
e0
c7
91
67
5b
de
4f
bf
5a
d4
c7
36
5d
44
4f
ba
db
bb
63
66
4d
c1
c5
34
d8
5f
5e
85
65
43
2e
a1
dc
b6
46
a6
d3
37
5d
c8
50
e5
51
d3
52
5b
5b
51
d0
d8
cf
5c
0
47
de
58
46
53
d8
e6
d6
d6
60
e3
5d
e1
33
df
58
2d
e1
e3
b4
d9
de
cc
6a
da
3e
c
17
3a
de
e3
cb
e5
e0
48
2a
3c
cd
15
49
e2
e3
d2
65
a8
ca
b7
d0
a8
63
55
e1
91
54
b1
de
49
cd
61
50
63
de
d6
66
cc
ce
cd
c6
d5
de
d9
43
2e
42
2d
15
d9
cf
d8
5f
58
5f
5c
4c
bb
d9
43
d3
dc
ca
50
35
5f
86
5e
5b
d9
44
5b
e2
bf
de
ed
dd
d8
e3
db
c1
e4
c5
e2
59
55
d8
89
d3
cd
37
b7
de
44
5e
51
58
4e
9e
e4
4e
cc
58
ca
d2
da
3d
aa
e1
6a
dd
a8
d1
d0
26
68
47
5f
5e
4a
c1
49
61
63
42
e1
e1
b3
94
4a
5f
db
41
b6
68
5c
69
3e
dd
cc
e5
95
3a
ca
d5
55
e8
dd
44
e7
d8
d0
4b
59
cc
88
35
dc
3d
de
51
2d
cd
d7
da
54
57
ae
e1
5f
dd
df
55
e4
d1
d2
de
5a
56
dd
3a
60
dc
a6
ad
3d
5f
d8
e1
c7
e6
61
40
e2
df
db
cd
c7
cd
64
e3
e3
3f
64
cf
60
62
a7
d3
64
d5
59
cb
2f
54
63
cf
52
d2
5e
1d
6c
5e
52
56
60
5d
e8
e5
b6
49
52
c3
54
19
3e
43
4e
48
3e
63
4c
4e
80
c4
49
80
d3
c9
37
d3
49
59
40
c2
36
68
b7
ce
4d
1c
4b
38
cb
cc
9a
5f
35
e4
b7
59
30
37
d3
4a
44
bf
41
56
5e
dc
63
de
49
c4
e2
31
c1
5f
5e
61
6b
cd
9b
d0
a0
5e
6a
6f
8b
81
3b
bd
93
ce
a0
b9
de
2a
53
c5
4f
49
3f
d5
5f
db
5f
0
d9
e0
ea
e8
5d
4a
ed
d6
c8
97
db
b9
40
55
5e
5e
8d
ce
e2
de
db
1c
57
d7
4c
4f
36
50
50
d3
5c
da
4f
ce
dc
55
52
df
46
5a
b3
2f
5c
e9
1c
68
18
c4
1c
f9
f0
71
4e
d7
5b
60
cf
d7
d8
b1
b3
b3
c4
47
3f
c4
5a
71
c9
9f
c7
db
63
da
56
d6
ed
44
5d
bc
a5
45
38
d9
67
5f
5f
65
c1
3d
48
65
62
cf
d5
e5
a1
14
48
72
e5
dd
6a
cd
39
7a
af
ca
c0
9f
cb
4f
e3
d7
af
ca
10
75
e9
dd
6f
e0
ab
6a
df
85
4b
37
d5
50
5a
e3
e0
54
4
b4
61
d4
d0
32
5e
dc
3a
db
8f
42
80
81
52
bc
df
29
eb
3c
d4
e9
8f
d0
e8
c0
47
c6
5a
53
c9
38
e1
37
27
64
d7
c6
b7
ce
b0
e3
49
4f
c2
dd
d6
10
d8
e4
58
64
b6
b9
e4
51
d8
a3
e9
48
44
ca
f5
d8
7c
e0
e6
71
f0
e8
6a
d8
4f
5b
56
ac
61
61
b7
e3
b0
e8
53
cd
5b
5a
e1
c0
e4
e3
d9
3a
cd
f5
b
4
d5
66
dd
2f
67
be
63
d6
ea
9d
d0
df
a3
60
e1
59
3e
56
b1
de
66
93
c2
41
37
d4
5f
30
e4
4c
4a
e0
ca
e6
53
5a
40
81
e1
52
d5
bc
d6
e1
e0
41
43
49
3f
35
60
64
59
c8
5c
d5
d4
8d
be
55
ca
49
b5
33
4c
c5
e3
d6
43
49
db
41
3b
e0
5b
51
b8
54
47
e0
e1
c8
58
e2
e3
29
4b
e0
d6
5f
c8
64
d9
27
5b
56
d4
5b
d8
dd
e0
59
60
95
92
d8
4c
6b
dd
ce
e2
d2
d3
47
df
e4
e5
df
5c
4
c2
60
3b
6c
ce
63
ce
cd
5a
1f
bb
61
d2
55
f4
e7
f2
48
3e
56
e3
52
4c
5f
2b
61
ef
38
5f
ba
5d
56
6b
93
e2
72
db
dd
66
dc
2e
dc
63
5a
4a
56
51
59
d7
2b
e4
b9
e0
d7
9b
f4
6b
60
f2
5d
62
ce
4c
62
8d
d7
df
ba
e1
c2
26
d3
3f
dc
bd
14
56
66
d7
1f
5c
6b
54
5a
87
e2
d5
e6
d1
d5
df
46
e0
cf
66
46
33
5e
57
dd
ba
66
61
68
be
e2
34
5b
cf
bf
61
dd
d2
2
3d
63
dd
d4
df
d0
f
61
63
60
df
60
e1
cd
e9
4b
de
66
64
c5
59
3d
4e
b8
a6
ef
68
25
f0
6b
5e
4c
ba
9f
62
42
e6
46
47
41
4f
52
d6
5e
5b
64
d2
4a
1c
51
e5
55
e7
de
e9
f3
b8
d5
da
ae
f
56
c
e1
5e
c9
3a
56
d2
52
dd
bb
c
e3
92
d9
60
e0
56
1c
d2
b7
6a
e4
ee
39
df
de
b0
db
f2
cc
d4
5e
66
54
d7
58
dc
d7
df
80
dc
d0
53
b9
52
61
ce
50
5f
56
57
e0
17
cd
e1
d8
db
d8
63
52
d8
53
e1
e4
b8
d3
5e
d8
c2
32
c7
5b
62
29
53
58
5d
c3
b2
59
5c
e2
19
d4
8d
df
5e
4f
63
e0
4c
49
96
5a
67
59
67
4d
cd
c6
63
df
ca
35
61
c3
cc
96
5c
44
cf
a5
55
b8
c5
4e
db
e0
e8
df
63
e3
cc
af
a9
4c
6c
61
e6
df
1e
56
59
50
5f
22
af
80
59
62
ca
67
61
ce
65
5c
60
3e
e9
df
5f
c8
e8
ae
14
e6
5c
49
d7
49
b6
8f
63
55
b5
da
de
a2
5c
3c
36
d9
43
da
60
3a
d4
d7
26
5e
64
3b
67
32
cc
e3
43
58
43
5f
60
65
d9
c9
99
e9
ea
59
80
50
c0
da
d7
d4
d6
65
60
62
c8
ad
55
58
ee
5f
36
d9
de
c7
62
d4
5b
c7
d9
5d
d9
5e
a5
cf
63
49
67
56
81
2b
d9
c8
42
da
d2
48
46
b5
51
cf
c2
eb
52
61
5e
2b
e2
45
70
d7
a6
be
4e
da
51
5e
45
5a
c3
52
41
3d
de
d8
d7
cd
30
dd
53
cf
e0
4c
e0
c9
d4
55
56
4d
64
65
d0
53
e5
c0
68
d0
4f
5c
54
5b
cd
4a
dc
24
cc
60
d2
60
54
53
60
d3
33
66
54
c1
c3
4b
d0
d4
e3
55
b7
e9
da
e0
9b
da
86
5a
d7
2c
67
1e
50
59
d3
c2
d8
db
67
3e
cd
da
9f
ec
39
b0
19
ef
40
cf
59
df
b6
de
e5
e1
e0
59
3a
c3
4e
3f
48
83
48
51
d2
5d
62
61
e2
59
43
62
24
49
b8
e3
dc
e3
d1
c3
de
de
64
e5
b7
eb
5b
42
ed
31
f
2c
42
55
54
d2
61
c8
dd
3c
b4
5f
d0
56
5e
ac
3d
dd
d3
e6
c1
9e
81
54
3b
ce
c2
c9
d2
60
5e
6a
4b
e2
66
6e
4b
6e
80
ed
cd
e2
b9
62
d5
d8
ce
1c
ec
e2
65
e8
eb
59
54
eb
bf
5f
5f
e4
5c
58
d5
44
cb
f1
ed
eb
d1
de
a0
c4
b1
6c
3c
35
60
b1
c5
dc
d6
cf
d7
66
16
64
42
47
68
bf
0
6b
d5
39
d6
e0
cc
63
5a
65
5e
3b
23
55
61
be
bc
4a
c5
5e
d0
dc
58
b0
cd
db
e0
4f
1e
95
e0
c1
61
e4
cd
5e
33
25
ac
cc
c7
5d
8c
4f
66
bd
43
79
62
76
65
29
52
53
31
6a
24
64
38
df
e5
60
71
66
68
61
55
43
cd
de
5a
58
6b
65
db
43
dc
60
e4
40
53
5e
58
3b
32
41
e7
e9
30
ce
da
a2
53
da
ba
d6
db
e3
ce
56
de
10
d2
4c
cf
b4
5c
c6
43
62
5b
cb
c3
1e
e2
ae
5e
e8
d3
3e
b3
f1
3e
bc
0
2c
ca
ee
29
47
59
a4
80
d1
c7
db
2f
e5
3a
d7
60
af
4c
e5
d9
cf
52
d4
c4
52
42
db
d0
44
60
ce
5c
5e
33
3c
4b
d4
e1
dc
43
c5
b4
d9
d9
52
64
3e
aa
53
de
e3
63
42
50
21
57
cf
d7
d6
de
e3
aa
d7
62
45
55
42
b7
c7
56
5c
44
6d
67
59
d7
d4
d6
3f
c2
db
da
c2
4c
4d
e3
58
d6
e4
e9
de
da
df
65
67
e7
5c
dd
ef
3a
d9
dc
e9
4e
d3
5e
38
c0
e8
be
69
61
0
c2
ce
be
51
ca
5d
c9
4a
56
e3
6e
4c
45
36
55
54
45
3c
5a
49
d2
d4
4e
24
61
55
57
4d
e9
33
c7
ed
db
d5
c3
d6
de
4a
5d
e0
54
e2
0
d5
57
63
5b
cc
e8
dd
92
e7
b5
5f
44
58
1b
e4
34
ac
55
c4
5f
ce
b8
d3
d1
10
d6
e2
b3
93
cc
e3
de
ab
e2
dc
bd
4f
e2
28
df
56
54
e6
5c
53
61
ab
dc
d7
dd
24
c5
50
49
d6
51
4a
45
44
66
3e
e
6e
d5
6b
b4
ed
2d
4c
ea
6f
df
e0
48
55
65
5e
55
2d
d8
54
c5
4c
5b
49
e1
3e
43
32
53
5a
5a
ec
54
64
50
c0
e6
ad
4e
e0
cd
36
ca
c2
e7
ce
43
e1
e4
1
d9
65
5a
d5
2d
db
c5
54
45
66
da
6
47
60
d5
3c
61
2f
57
d5
80
3e
28
e9
e6
30
54
49
ca
3b
de
b8
5c
21
e2
d6
d5
4b
4a
55
4a
d8
1b
e2
de
4b
39
39
63
54
5f
3b
a4
4a
e1
24
5a
e3
d5
e0
bf
d4
e2
d
61
de
d0
da
e3
54
de
5c
e5
5a
dd
e5
49
43
48
dd
d7
cb
db
55
e1
57
64
e7
d4
e7
47
e9
81
62
46
d6
a7
cd
62
64
c8
5c
da
df
c6
e4
dd
5a
c1
3c
d6
e1
4b
e8
55
62
55
e7
d3
e6
bc
e7
c6
5e
e1
c9
62
4a
69
3d
b7
61
e9
c1
5b
c6
5b
e0
e2
4d
d8
69
bc
e2
be
66
51
61
d5
56
da
59
22
cd
b0
38
e5
5f
a2
c8
4f
dd
ce
dc
ea
5a
46
e9
e5
af
b9
5d
53
d3
de
59
62
dc
db
5c
5a
67
d9
5d
59
69
36
d0
d7
e0
67
ac
d4
42
53
ce
53
ac
c3
60
30
35
43
38
66
44
49
5a
da
d7
46
df
56
d6
49
5b
46
50
e2
dc
5b
50
4d
5f
d5
65
d6
cc
66
de
e2
65
d4
61
52
45
69
20
33
70
66
d4
c9
a0
e2
dc
50
d0
e9
4c
6c
df
e1
36
dd
d1
df
4f
dd
e9
bd
d1
5d
de
55
bd
65
68
71
62
d7
dc
70
c1
dc
5a
68
3c
cd
60
33
d0
5b
59
42
47
64
5a
a6
5e
dd
80
de
3e
dc
38
6b
3c
b5
c7
d3
41
58
96
64
cd
55
c4
db
52
3e
66
d6
0
4f
5a
60
54
e3
5c
5f
59
d6
db
c1
60
5e
b1
e4
dd
3d
c4
e7
5b
e4
cf
56
9f
dc
e1
50
d5
66
d8
80
dd
bc
47
50
14
55
55
5a
e4
65
63
44
d4
d6
41
57
d1
d8
e4
63
cc
e0
cc
55
46
63
d2
cb
d5
63
cf
5f
3d
66
29
e4
5d
4b
45
37
4f
de
e4
62
64
63
61
57
e5
d1
c8
e0
9f
93
44
e4
d1
d5
57
d1
53
d4
50
b9
c0
2f
b4
25
21
54
20
da
75
6e
71
e8
dc
d0
d8
db
55
57
ed
c3
52
d5
e9
65
54
d1
4e
c0
2f
16
cd
cd
cb
3d
22
5b
4e
c4
6c
dc
63
65
54
d6
cd
e3
d2
45
be
33
5e
66
c8
d0
d6
64
50
23
e1
45
58
5b
dd
c4
41
6a
6a
b6
56
58
58
cd
cb
dc
cf
52
cf
3a
df
ce
55
3b
65
6b
64
4f
c7
5b
9c
c0
39
3c
53
5b
b1
d8
60
e2
50
e4
29
eb
e3
e0
5a
31
e0
ed
81
da
e4
c2
44
2d
d5
b2
ca
50
67
53
b8
be
32
c9
59
a9
d0
e7
5a
69
36
31
66
c6
53
e0
43
4e
3d
22
d4
5c
e7
eb
58
d8
e3
dc
57
da
d1
27
c0
61
5c
4f
e1
65
d9
d9
5b
3e
df
52
e3
e0
51
47
65
cd
af
5f
df
80
4e
cb
cb
36
61
e1
e5
4d
34
ed
e6
65
de
ed
67
e9
eb
3c
e2
61
c8
b1
d1
c2
56
5e
61
e4
cd
58
5d
d7
b2
98
e3
5d
33
dc
4a
53
21
e3
e4
5a
50
58
5c
c1
5d
37
de
45
e3
5b
59
e2
e3
c7
dd
b1
60
10
62
d6
d5
bb
c2
e1
db
e0
df
56
e1
cd
5a
4f
d3
ce
d7
4e
62
31
46
53
35
e0
ad
d6
4f
5e
d0
dc
5e
5c
e5
61
24
5c
24
d6
63
b3
45
58
3e
47
43
e9
e8
da
56
3d
53
df
e0
ea
b7
d2
c7
cb
4b
d2
e9
b9
4d
c6
cc
4c
cc
c2
56
61
a9
bb
52
ed
ea
55
e0
e0
53
36
e4
62
29
5d
e2
c3
18
61
61
5c
5c
50
4a
48
25
e2
4a
d5
3c
d9
d5
37
82
d1
64
d2
c7
5a
4b
b2
5c
68
e3
5a
58
d6
5e
63
63
6c
65
5e
ca
4d
d1
50
3a
dd
6a
e2
dc
21
17
e5
d5
b1
58
a2
5b
c4
a
bb
4f
c7
5a
63
be
38
d2
ae
df
bb
63
92
55
e5
67
4a
5d
54
c6
53
9e
c7
cc
c3
d8
e0
17
b3
a8
56
28
64
bd
5f
32
6f
5f
5c
c4
67
cf
d7
66
66
62
61
71
c3
bb
cf
41
4c
5b
4d
53
db
e3
df
c6
3e
e8
d7
81
df
6a
5e
43
de
90
3d
50
52
b4
63
3e
62
ce
63
d6
4e
42
ba
38
36
c9
68
58
d8
18
59
66
61
d2
d1
ef
62
ca
c3
5a
6a
55
65
5b
be
3c
e0
85
e5
ab
4a
bc
d5
e2
5f
4b
d0
44
5d
50
ab
d6
b1
ce
5a
e0
e7
5d
5f
54
cf
e3
48
41
b7
e1
da
62
da
5a
53
5b
4c
ad
80
d7
cb
5a
e3
c1
ca
dc
b1
e4
34
e4
d0
d4
61
b0
5b
64
e1
c4
e3
ce
30
e6
52
53
ee
c1
48
cc
5f
3f
d8
cd
58
42
e0
df
e3
62
66
63
16
1c
c6
5b
58
d9
48
d8
d4
6b
50
5f
63
46
c0
1c
b8
6a
4b
4c
5f
b
ea
bd
ed
e9
e8
59
93
c2
ca
55
de
e9
ed
fa
e1
39
b0
6e
db
59
63
61
e4
67
e1
d5
aa
4e
5c
64
db
41
57
e4
60
57
c9
3f
cf
e2
e7
da
d2
94
5d
d8
e0
37
58
5b
61
60
59
ca
e2
bf
0
5a
58
df
a3
67
5b
61
d7
5a
da
5b
2e
63
1d
b2
56
e3
93
e3
3d
c0
84
9e
d2
e6
bf
80
ab
37
df
32
31
50
da
e4
dd
e4
c8
cf
dd
d8
50
cc
63
4f
b5
5e
e5
43
59
60
59
ae
dd
e3
ea
e0
b9
9e
61
65
69
66
6c
92
ab
59
98
c9
d7
20
c2
4e
74
64
d0
52
5f
53
31
f0
f6
e5
5
c6
6c
56
69
51
ee
dd
53
3a
e0
4e
51
a9
37
de
81
52
50
e3
d2
e0
da
55
b8
31
cb
dc
de
c8
5b
4d
5c
4e
63
d0
5b
d7
c8
68
3b
3d
d9
22
d6
db
d9
d9
e0
c9
64
4b
61
4c
e4
d4
5c
5f
c6
c4
5a
80
db
98
d6
b2
61
cf
5d
ce
35
63
38
d4
da
5d
8
5e
5d
5f
65
ba
da
5e
d2
c5
64
5e
e1
db
cb
c9
62
e0
b5
e2
cb
c8
d9
d8
e3
53
5b
59
e3
62
dd
4f
5a
a8
e9
d8
df
e5
a0
b8
c9
1f
da
a3
b9
da
5c
da
20
d1
29
43
4d
4a
56
60
c5
ad
2
3d
cb
5f
5c
bf
d8
58
b0
d8
9f
5d
cb
d1
c9
a6
8c
e0
e9
9d
cc
e5
e2
e1
cf
4f
c9
c0
cd
d8
d1
56
41
dc
5f
63
52
81
62
26
66
e3
43
dc
c2
c6
18
d4
60
49
d4
d6
61
d6
c4
62
c1
d7
5d
62
66
be
63
a9
c8
5a
67
5d
60
43
c1
44
4c
d4
e0
b4
bc
d9
dc
e4
c8
e0
d6
32
d4
60
a2
45
5e
41
1e
63
b8
5f
66
97
5d
b4
d5
cb
e4
c7
e4
63
da
e0
d6
d7
5e
5e
61
d7
64
3a
bf
d9
db
ce
45
d3
5f
49
e4
22
b9
18
cc
c7
61
37
60
b1
e0
5f
66
6f
b1
5f
30
65
63
3f
d8
de
c4
db
de
e7
d0
c6
d8
dd
5a
30
67
d0
a8
3d
c5
60
26
0
4b
5e
5f
40
c5
5f
c7
cc
4f
80
64
c7
dd
45
e4
ca
c5
dc
60
59
5e
ad
55
62
d8
4a
5f
d5
42
63
69
d0
d9
4a
d8
5a
56
54
d7
57
52
4f
57
bd
d8
d4
cf
2f
d4
64
de
4f
df
5b
ae
5d
55
c1
c0
da
a3
de
5e
5d
3f
c6
47
5d
3c
da
5a
51
55
30
d5
4b
e4
3d
b7
53
59
5d
36
e1
81
dd
de
cc
dd
bd
50
b7
d4
3b
4d
60
62
d9
b4
49
4c
de
da
4e
e5
e5
b7
d5
4c
47
e0
60
cd
65
26
56
8b
5e
e5
d1
68
38
e1
65
c9
c8
97
ba
18
66
50
da
3d
bc
f
62
55
d0
2a
cc
3f
67
62
4d
c8
b0
d6
64
d6
53
58
f0
57
e6
53
1a
d3
1d
d0
a9
da
62
dc
e5
e0
d1
dd
dc
d0
da
4a
61
56
df
64
5b
d9
d2
5d
cf
41
5f
c2
29
57
61
55
c5
5e
e1
3c
5d
4f
e6
cb
45
ca
a6
56
2d
d9
61
dc
de
65
d2
47
5b
d7
e4
59
63
e0
61
d7
4d
cf
6a
db
5d
5f
69
dc
61
63
e0
2c
1c
59
af
e4
1c
e8
51
60
ca
be
56
e7
db
e2
5e
81
b4
67
69
61
e0
e7
43
80
1f
dc
6b
d0
64
67
cb
d9
5c
68
69
d5
98
5e
45
63
cd
e1
48
50
e3
5b
db
4c
da
5b
ce
e0
ce
e1
df
af
4c
5d
1a
e4
9d
3b
e3
ce
e0
e7
d1
5b
d8
af
32
dc
d7
de
df
64
d0
bd
de
ef
4a
63
d6
d0
ca
a6
56
54
69
d0
cc
49
ae
e4
52
5f
da
de
62
5a
5c
61
4f
c3
4a
ca
58
da
e3
60
c1
62
d5
e4
e6
31
58
d3
4c
67
47
db
d6
55
5a
40
4f
e4
60
49
3f
48
94
9c
28
38
60
e0
54
40
5c
e2
e3
56
c4
d3
a4
ce
cd
e0
64
cd
bd
45
18
a9
d6
61
da
c2
b5
57
58
cc
ca
d0
db
c4
d9
44
d5
e3
37
dd
d1
d2
5e
dd
81
5a
52
6b
a5
4a
d4
d3
e3
5b
6a
b1
dd
d2
5e
d4
d1
b9
63
d7
5b
e5
54
55
d7
2e
66
c2
55
39
57
58
5a
4b
e9
e7
66
e4
80
35
ea
55
62
5a
d1
5d
62
c7
cd
54
db
63
d0
d2
f1
60
38
ea
57
e3
e0
33
49
2d
65
5c
55
d0
e1
dc
54
2a
41
5f
3f
e5
63
db
4d
dd
5d
d3
5d
ac
da
51
ab
5e
c3
e1
d7
e2
e5
4d
5c
54
55
81
30
53
43
e4
4f
56
cd
ce
e3
d2
c4
5e
63
cc
55
db
66
c5
1f
d0
b9
c8
5a
e0
5a
db
a4
47
48
58
5c
df
c5
56
d6
65
39
eb
ca
d3
e2
6c
d9
dc
61
62
d2
4d
da
63
69
34
aa
ad
cf
6a
53
60
4c
4d
6a
41
e4
de
d9
ae
de
e1
3f
5d
3b
5e
54
d8
2f
d3
41
6a
dd
eb
57
ca
5e
d5
64
0
32
5b
da
d6
61
de
59
52
57
e1
c8
b1
61
ce
c2
da
c3
c7
e3
80
da
0
60
60
a0
5e
c8
3e
63
5a
d0
c6
b7
63
e1
e4
55
c6
35
35
c9
53
dd
62
44
e
dd
46
4d
c0
1c
3e
1d
e2
5f
63
e2
59
e4
d7
58
39
38
4f
e5
c5
8a
5f
d1
cd
d7
bf
d3
e0
81
3d
39
42
60
64
47
3e
c9
cf
cc
d1
df
2c
4e
5e
45
20
d6
d8
80
dd
d2
e2
47
ce
56
38
d2
c3
b7
43
64
4f
81
c1
3d
af
24
5f
e3
60
e0
b6
d5
e5
5d
de
44
63
52
64
99
5f
e0
5d
ce
3b
e3
42
3b
c2
e3
c4
bb
de
45
c1
2c
51
95
dc
e3
24
e4
5c
bf
54
e1
d8
d5
54
d0
d0
54
cd
5c
61
53
dd
39
da
37
65
e3
c6
40
d6
60
65
4d
d6
e0
5d
dc
c3
5d
da
da
5a
de
65
dc
da
2f
62
5a
df
61
e5
62
de
d8
52
b5
53
5c
de
9b
3a
5b
4f
e3
1b
c0
1c
e1
34
64
d3
52
37
e5
cf
cf
42
c8
dc
da
e1
e2
53
db
cd
a9
5f
e4
5c
b9
d9
46
45
9c
e2
81
be
65
c6
e0
c7
a1
c5
c0
26
4b
2d
60
5a
df
e4
da
c3
37
53
a9
41
5f
3c
dc
19
54
58
59
cb
5c
53
62
d0
56
cb
db
64
e2
dc
59
c1
c2
4c
3e
cd
e3
df
83
4b
5e
ce
64
80
52
b1
4d
cd
62
5d
46
3e
e4
20
3b
5c
4b
5c
e1
66
ab
ab
c5
60
5b
d5
42
d8
e3
62
d5
63
52
5f
dc
4a
43
26
2a
53
e6
5f
63
62
a3
c6
55
64
44
de
64
37
e0
df
5d
e4
b6
5f
d9
cc
52
e0
db
37
64
b2
cd
48
e4
e0
4f
ce
d9
53
cb
62
de
53
d0
e3
45
58
82
60
54
5a
62
47
80
33
60
5c
ed
e2
cb
4e
e0
4b
c8
4f
5f
5d
60
c4
61
64
5d
c9
6c
dd
49
e3
51
b2
df
bd
d2
9e
61
39
51
50
f0
19
d1
51
f1
f2
f3
d9
f1
ca
71
50
d6
5e
4f
58
64
da
59
64
59
ca
5c
40
eb
4b
5f
e0
db
c6
a8
dc
56
57
c7
d6
54
e7
41
45
da
60
bb
45
50
63
e5
da
cd
1a
df
bb
23
60
de
e6
b2
3c
b2
e8
de
ec
d8
81
bf
da
dc
32
da
60
61
16
bd
4d
94
56
c7
bc
bd
be
d7
d5
81
e1
85
29
6a
59
d4
de
bb
60
d0
0
e2
57
54
68
d5
60
53
68
5c
44
4e
e5
dd
bd
ce
64
59
6a
d4
db
da
34
d8
dd
5b
56
49
e4
5c
d0
ce
49
63
e3
9d
4e
dc
cf
72
3f
c8
bb
e6
d8
c4
e3
3c
61
58
58
ef
64
53
a9
49
50
d7
c0
63
55
5f
e3
5c
bd
30
e0
d5
d8
51
37
ce
d2
e2
c5
36
da
d1
d9
57
59
c4
81
5e
61
3c
ed
ec
59
eb
ce
ea
53
5d
6a
6c
20
c4
c5
cf
cd
db
d4
65
5b
bb
48
e5
62
bd
24
4a
d5
64
e1
44
e9
d7
34
54
d2
56
de
e5
bb
e1
5d
b0
4e
d3
cc
48
5e
d4
56
59
dd
21
60
ad
d0
4d
3d
ce
45
43
47
36
c0
58
cb
bf
e7
51
df
aa
50
a9
4e
58
dc
e
de
cb
52
d7
d9
dd
c7
db
5c
35
e
d3
df
5e
56
56
ad
e3
ec
e8
ac
c8
60
d2
e8
4a
dc
45
b9
e2
69
5d
62
51
5b
42
5b
72
6a
48
5b
da
c8
c7
d0
61
66
57
54
3f
cf
96
bf
38
4e
c2
c1
28
d1
57
d6
e2
d1
df
3a
d0
d8
40
52
6e
ee
5f
c6
f7
e8
cf
bc
56
45
61
41
61
d
4f
d8
e4
ef
b5
db
e9
b1
4c
d0
5f
a9
d4
e7
b9
49
5c
d0
4f
e2
cc
4a
53
ca
e6
e2
e9
34
dd
5d
4d
64
69
a4
de
d9
51
da
5b
cb
ac
63
b5
c9
62
48
ce
50
ce
41
47
4b
cb
10
9a
57
2b
b9
e1
cb
69
40
dd
af
e0
42
6b
6e
2b
64
d8
5b
60
68
28
56
b3
55
55
47
60
9b
d9
db
62
6d
e6
64
c7
c1
db
27
62
4b
59
d0
50
14
5d
48
d7
e5
d4
d9
a9
e7
e2
ec
5c
43
d9
e1
5f
e2
d3
d2
61
dd
cb
65
5b
dd
4c
cd
d7
52
44
dc
64
5d
ad
58
ca
65
e4
f1
e1
53
5b
d8
60
66
63
d8
58
d9
d1
ca
dd
4d
e1
42
d9
52
4c
d7
d0
b8
d2
ab
40
cc
e2
c1
c0
3d
5c
50
65
60
32
be
52
e2
5d
d9
d2
80
52
48
49
b9
52
5d
5c
e2
cb
58
3b
e4
58
dc
d9
bd
4a
5c
45
99
d9
62
70
45
0
6c
80
be
5c
c9
ae
e3
d6
e4
e2
53
c2
5d
c9
e3
d5
62
d7
b3
d9
bc
e0
4e
6d
5e
ac
b8
b9
e1
d1
64
e1
d9
e7
81
47
de
1d
55
da
60
6c
54
d4
d4
3f
66
53
41
6b
80
66
da
ef
c3
db
d8
54
29
d9
c0
5a
e2
e3
50
d6
d1
5e
db
e3
37
73
60
34
c6
5b
c9
91
51
5e
2e
5d
5a
5e
e3
4f
68
5a
d7
d9
c1
dd
c7
e3
5b
c2
df
58
5a
44
df
5e
4e
5d
dc
ac
d5
52
df
c3
e8
4d
40
d9
53
44
4
3b
e0
e9
d2
e1
41
3f
c9
62
d9
52
d2
c8
51
95
8a
d5
59
4b
b3
60
e
3a
43
65
34
53
56
39
e8
c2
cf
4d
de
66
ca
b4
62
58
30
ab
5e
32
29
92
cf
da
bf
69
2e
f0
eb
cf
c6
52
64
3b
d
66
22
41
a6
ec
58
e9
41
61
85
0
99
e4
34
e2
4e
56
eb
0
4d
e4
db
ac
5e
e1
65
c7
e4
63
50
5c
30
3b
5d
c9
1a
dc
e3
e4
47
2c
5e
d9
da
5b
43
b1
df
5b
66
63
5f
d5
57
d0
55
c9
62
e0
43
39
61
4d
63
e4
c3
d8
e4
c1
ce
5c
dc
c6
aa
b9
d1
cc
5c
52
c3
9c
39
48
d1
5b
d7
62
60
41
80
5a
51
bd
bd
5b
cc
d6
5f
53
d9
64
58
e4
cd
e4
5f
df
9c
c8
df
63
3b
30
b1
49
c9
53
d7
df
c3
5b
d4
e0
cb
41
c3
dc
50
b9
e2
50
dc
5d
34
5e
51
48
65
3d
e6
38
cd
64
e0
43
da
5b
cb
d5
51
c1
d4
e5
50
d4
56
15
b2
c5
4b
e0
2a
4e
e2
c2
2a
dd
1f
e8
5f
b2
46
12
d8
d6
a2
63
64
62
ba
db
56
d4
64
db
69
4a
5e
dc
b6
67
58
d2
3b
d8
64
63
36
d3
d7
2c
4e
dd
60
5f
b4
dd
f
cd
b6
45
80
d1
60
c6
de
bd
a0
ca
d2
60
5a
5d
df
60
e0
d6
49
68
28
67
4e
55
d2
66
58
61
cf
bb
5e
5b
50
54
e4
23
45
bd
80
d8
e3
d7
5c
3f
ca
4d
b0
e1
dd
a3
a8
5f
43
d7
d
26
ea
5e
37
5c
ce
46
4d
40
ce
d6
d2
de
e3
d2
54
56
e1
e4
e0
2a
cc
e4
c2
38
e2
c1
67
e6
e0
b3
e6
5a
17
d4
52
9d
5a
5f
58
cd
61
d5
d3
e3
e2
51
d0
e4
5c
e0
80
48
a7
d4
5d
58
e0
62
58
5e
d2
3f
25
52
de
4b
5e
5a
30
80
37
5e
e0
e0
c2
b6
df
a3
c9
3d
52
d4
dd
cd
b9
d3
4f
d3
45
da
4c
c6
e4
c8
3d
d6
1e
16
5f
d6
44
d2
5b
e0
41
55
de
62
4a
cd
13
4f
e5
d1
5c
c3
81
e4
a
37
c8
62
64
49
51
cf
c7
bd
e4
e0
e4
60
e4
e6
b2
5e
d9
5e
60
e0
c9
34
4c
52
39
de
e1
60
d5
dc
63
df
4d
e4
e4
a3
34
64
4d
4d
da
df
61
c1
63
2f
e0
5c
33
c0
b5
60
d4
3c
d7
a1
62
48
de
22
cb
22
e2
e5
49
e2
de
50
a0
d0
e5
de
4d
5f
d4
59
56
53
26
42
e5
e5
d4
53
cd
d5
44
9
aa
db
d7
61
bd
9f
5c
5e
49
80
db
50
4e
ce
55
b4
4e
da
dd
ca
dd
df
3d
58
e2
e3
bc
ba
e3
d5
c2
b4
57
5e
da
d7
55
58
e5
db
47
4e
2b
b6
c8
e2
80
dd
37
4c
cf
4c
5d
e3
ad
da
d3
de
e3
5c
44
dc
e3
bb
da
55
5f
5f
42
d4
df
d3
df
df
cf
4b
cc
db
93
87
e6
c8
e3
5a
ca
de
c1
df
e2
57
47
46
cc
3e
80
e1
c5
64
d3
2c
bd
a4
d3
d2
de
5e
db
11
cb
c1
ca
db
44
e1
b4
39
da
d9
5d
ce
ae
43
64
51
8c
5a
4e
60
5c
61
ce
2f
e3
dc
4a
3f
db
52
af
5e
53
70
53
ae
c5
24
ea
e1
d5
ee
2c
c0
e2
d5
d9
b0
50
3a
d4
3a
47
e4
28
cb
e1
57
59
c0
9c
40
ce
bf
cc
e0
db
ee
f0
48
60
58
5e
49
e5
59
d5
4d
df
5b
3a
55
d9
c6
d9
e5
8f
db
44
d9
e1
34
64
a5
d8
c0
af
cf
ce
5c
dd
df
43
64
67
6a
dc
ef
e8
d1
ba
56
69
61
e2
48
db
d2
5f
cd
cf
dd
c4
62
5e
47
c4
b4
45
c4
51
a4
55
60
59
39
be
5a
bd
38
da
df
c3
5b
d9
ab
6c
60
58
53
5c
d2
4d
57
d7
e4
df
c5
29
66
d5
d4
c7
de
49
d7
4f
58
62
c5
62
bf
62
46
5a
dc
d8
ed
db
4d
a6
d9
39
6f
70
61
5b
e5
d9
dd
5e
d4
29
5d
61
21
6f
5c
d2
d2
45
e5
ec
53
61
43
36
60
5c
5c
e2
ca
3b
58
dd
54
e1
3c
70
db
d0
cf
41
e9
e8
55
e2
ad
5b
4b
63
40
98
63
4a
5e
40
df
e2
ab
63
5f
e0
64
e5
42
5b
4c
d9
cd
df
41
d4
d6
37
43
5c
56
6c
6c
59
e9
d9
e0
27
e1
e7
da
21
de
33
44
ba
5f
1a
4f
47
dd
e5
53
d3
dd
61
d6
6b
5f
54
d6
e1
4e
53
54
56
63
be
d5
d7
67
ca
d8
6a
63
61
cf
dc
a2
60
37
52
5a
e3
4d
58
81
6b
2f
db
c4
60
d9
52
e1
31
6f
96
e2
6d
60
30
65
c4
53
b3
ca
4e
d2
d2
e3
d6
4c
af
60
dd
d4
ab
c8
4d
3b
e7
b8
e1
ed
4a
e0
eb
2d
ed
5c
80
65
41
52
3c
d7
35
cd
db
36
d4
df
4d
65
3f
d4
e2
b2
55
24
4d
64
d2
4d
62
62
5a
c7
d8
66
39
d3
db
da
62
46
e1
3e
bb
b8
4c
4c
e4
68
de
e0
5d
56
4a
4d
58
59
80
b0
5c
66
bf
c8
db
cc
c1
d7
64
48
c6
cc
59
48
5f
d9
70
cd
b6
1f
47
51
cf
6b
69
56
f5
2a
42
bb
6b
53
e7
ca
e8
cb
c9
6f
43
cf
b6
c8
d7
b
40
d9
de
ca
e1
c4
5e
51
4e
cf
53
80
90
ae
59
68
c6
db
6b
b5
63
6a
61
80
5c
be
dd
57
55
6a
60
cc
58
50
65
66
9d
c4
3e
df
df
ec
47
5a
e3
80
5a
45
a4
62
54
55
cb
59
ed
cb
ee
d7
5d
be
80
2c
df
48
9f
57
e1
60
df
25
d2
d9
5b
c9
66
d5
56
4f
1e
48
62
72
59
67
d3
d3
cc
61
cc
d7
66
65
d9
e0
c2
df
da
3
4d
55
d6
4a
5a
5f
5f
d6
c1
5c
5b
4a
43
af
30
d5
e5
c9
d5
51
56
d7
5c
cb
e2
61
e7
f0
46
c5
15
4e
a8
b9
4c
c4
3c
e1
d2
b5
cc
cf
3c
60
5c
bb
de
ce
e5
cc
c0
de
d2
4f
36
bf
dc
4d
58
56
5a
df
a3
40
60
da
b9
4c
52
c2
4b
2c
a4
b5
df
b2
e2
d9
63
e5
df
de
67
e2
e7
5b
5e
e4
56
4e
3d
4d
84
ad
5b
55
c3
60
cc
2a
4f
5f
a1
37
5d
52
60
5d
c0
5
d4
e4
5c
2e
c5
e2
d7
53
5a
c9
49
d9
b1
41
e4
64
d4
4c
e1
22
d5
57
eb
c9
4c
3f
5e
5f
dc
b2
d3
a6
d7
c8
5d
33
dc
d6
ca
e0
d1
5e
56
45
63
e8
52
bf
db
d3
49
c5
80
40
e0
b7
dd
80
e4
da
d4
39
76
3a
cd
62
66
e4
d0
e3
e3
cb
c8
1f
2f
e0
6c
31
59
b3
29
0
4d
d5
4b
25
b7
2b
55
54
5d
bc
da
b8
69
6e
74
61
d2
d7
c9
61
de
df
3f
55
60
d5
53
ce
63
5d
d7
d5
dc
e0
5c
61
4f
96
db
d5
ce
d4
3f
65
4a
61
b7
de
64
c8
df
8c
58
44
de
d1
97
e6
60
e6
ce
e3
54
80
80
d6
5f
b5
63
5e
e2
52
e2
df
cb
d5
5e
a3
57
ca
26
e4
d3
bf
5b
b8
6c
69
de
df
f1
51
cf
b2
3a
2c
d7
61
60
ca
c5
40
d9
33
3b
5b
d9
63
ca
dd
5f
d3
55
c4
42
15
e8
0
67
e3
c0
d6
ba
5e
4b
de
62
66
b7
0
47
63
e3
57
54
5e
5a
d9
c8
d4
e0
64
c7
39
60
61
4a
d6
47
e4
d1
22
0
3d
41
4f
e9
5d
ca
5f
d0
d1
3c
e3
60
dc
e1
57
69
54
cd
b5
51
4e
db
63
30
5d
6d
ca
bc
59
d5
ef
dc
e3
ed
cc
d4
a7
48
59
57
de
42
0
ca
d4
5c
5f
c9
47
64
db
15
55
d2
55
d6
e4
62
d4
4b
5f
cf
db
d3
d5
de
63
c3
b4
d3
6f
53
4b
67
e1
e2
5c
d1
6c
56
c1
d1
5a
43
ca
9e
c6
5d
c3
5b
95
67
d1
d5
e0
80
c6
df
50
49
49
5e
3f
58
80
4c
52
59
eb
51
c5
ba
ea
ec
de
e1
46
33
5b
80
c9
c6
2f
4c
4f
41
58
4a
16
e6
c8
d6
5d
4e
e6
8d
d6
2d
55
be
c1
d3
4f
5c
0
c9
46
4e
66
50
53
12
df
47
58
c6
50
cf
e5
dd
51
40
e3
56
92
e6
4e
e7
ea
d4
da
a
e6
d1
62
5a
d6
3c
5f
3c
d7
e2
41
df
e0
41
66
53
55
ce
5b
45
e2
da
bb
b1
ce
e1
67
45
cf
67
d6
10
bf
5d
be
cb
5d
5b
ce
cd
c0
e2
e3
c2
ec
e7
e0
d2
de
5c
55
d6
d6
e6
2c
cf
4c
52
60
d2
b8
af
6c
6a
58
5e
33
64
61
3d
61
d6
4b
e1
5f
5a
64
81
5f
5d
52
60
ee
32
53
3a
c9
32
d1
b6
50
66
e1
4b
20
da
b8
df
da
61
1c
56
d1
3f
cb
e7
e6
ed
58
41
56
d7
6e
6e
a6
35
62
36
d3
52
c8
d8
ce
61
65
c3
46
51
f
5d
50
3f
82
42
e1
d0
5f
d5
22
5d
cb
d6
19
53
b6
5f
57
6b
4c
c5
63
d7
e2
3a
b9
49
df
e6
58
c8
9a
5e
e1
a
63
63
5f
53
a7
5a
e2
53
d2
60
58
de
4f
64
4d
61
b3
db
52
5f
c0
df
56
4f
e2
4c
46
2b
eb
d3
eb
65
41
de
dd
55
48
63
60
5b
66
69
4d
62
37
c3
5c
dc
54
20
e3
58
11
39
af
b3
38
5d
5c
db
d0
52
35
64
5e
25
eb
d7
55
5b
50
48
e6
58
e7
ee
cf
a9
68
da
5f
e6
53
b8
57
55
5f
59
64
e5
85
df
60
cf
6e
4e
d8
d2
ea
ec
63
de
93
5f
da
cd
e2
5c
ba
48
e8
e7
58
61
c8
44
b5
66
cf
26
67
d8
64
ab
4e
5d
d3
62
5a
62
e4
d2
df
e4
4e
26
20
e6
65
6a
50
28
6c
63
62
66
e1
60
56
e0
c5
4f
cf
55
e0
af
d3
e7
e0
e8
36
4b
e2
56
d4
cc
cc
4f
c5
60
55
5a
65
59
64
6c
0
6c
30
62
cd
d6
d8
d5
ee
ee
e7
de
dd
e0
d7
45
db
64
ce
e8
3e
ab
af
64
cf
e1
cf
4a
cf
d4
5d
cf
80
bc
62
cb
4d
53
2
e3
4e
48
59
d8
df
d1
5e
26
d0
61
59
4e
3a
e4
4b
d4
b7
b1
d9
d3
30
cc
e0
61
de
48
b4
4c
d4
88
0
b5
b4
bf
33
df
5c
68
61
b4
58
61
a9
54
5d
4a
59
4e
9c
d5
53
14
37
c1
de
a9
e1
b4
54
5b
19
51
e2
cb
de
d5
35
95
4a
e4
59
da
df
df
61
4b
47
df
e5
2a
c7
cf
56
60
42
e2
d6
cd
e2
e3
51
d3
e0
54
dd
5a
61
5b
94
55
4c
2a
63
4a
53
48
dd
12
1b
45
e2
80
53
47
dd
ec
4f
57
e2
34
a1
45
c5
e2
52
9e
b1
ab
e5
af
6b
f
69
41
62
4e
df
60
de
e4
ca
d5
56
dc
e3
e5
51
cf
42
60
50
c5
5c
2b
35
14
3f
62
57
e3
e0
20
57
c7
d6
59
5e
df
cc
e3
e8
e0
5f
63
3d
4d
62
da
4b
9f
51
de
4e
d6
d0
37
64
c9
d
5e
66
dd
59
5d
d8
d7
64
63
e1
4c
33
45
5f
2d
54
40
3c
47
dc
81
65
55
5d
9
da
13
cf
d9
d7
da
5f
46
86
93
63
d3
cb
0
66
4d
b6
de
e4
dc
57
e2
e5
e1
68
63
63
36
df
c2
e4
d2
25
4b
ba
30
ca
d8
cc
e5
ea
c4
46
62
4f
e0
42
d2
54
e4
5c
5b
52
58
de
bf
e8
d9
e4
60
4b
60
c3
53
41
1e
d6
ca
21
37
62
5e
d9
dd
e8
de
59
ca
3d
e3
d6
5f
59
57
cb
47
e0
e6
32
bf
cd
62
52
bc
55
5d
df
4d
f6
44
3f
f3
e2
4f
e6
4d
e1
65
68
d9
5f
67
5e
47
5f
40
c9
5e
bd
de
b9
d5
88
a5
dc
40
d9
4d
d5
34
c9
c2
dd
42
63
d8
cb
d6
c1
d8
5c
60
3a
62
e2
da
49
49
16
64
e1
94
97
e2
52
e0
5c
43
c6
62
b7
80
56
b1
96
ba
66
39
d5
e1
c4
5c
66
a9
4b
3e
d4
62
e5
e4
55
3a
90
37
be
53
c9
d3
cf
53
eb
d9
63
e1
50
ee
bb
5b
e5
bc
51
e4
6e
b0
68
3a
37
63
3e
51
63
64
ce
f7
e1
e7
e5
d2
62
eb
5b
33
9b
62
37
6d
6a
44
65
6b
44
e4
5c
44
c9
d9
52
cd
63
5c
4b
e1
d8
d4
51
60
5f
c2
67
65
4d
e1
42
e4
e0
d0
5d
e1
e6
c6
e2
d5
d7
df
e7
c9
b8
cd
db
42
5e
d6
4d
ce
de
9e
51
2
e3
cf
c7
c4
5c
df
e1
d9
49
ea
67
2f
d8
40
0
cc
61
8a
be
54
d1
80
a4
dd
52
b6
62
d4
5a
e0
53
e5
1e
4d
6f
cb
63
e3
30
aa
51
2d
57
3d
59
c3
dd
81
68
61
6a
70
e2
59
63
e1
5f
64
da
5f
55
73
e7
dc
4b
0
2d
26
e3
d8
dd
58
ce
db
e5
7
cc
9c
5b
49
ad
da
40
e8
db
e2
c4
69
59
60
d4
63
e2
5c
86
da
d9
dc
e2
cf
63
45
47
df
dc
ea
d5
5b
bf
56
d1
62
60
51
61
42
e2
df
5a
c5
46
5f
da
bd
d4
62
41
e4
dc
50
e3
d
e3
62
cb
9d
31
d3
5f
d7
e3
4b
62
43
da
50
aa
e2
4e
5f
d2
be
43
a3
41
b5
53
d2
ca
d9
de
63
ce
c8
e2
d7
b4
5c
64
e1
47
4d
d6
3e
df
c2
5d
64
b7
d4
5d
97
dc
db
e2
1b
df
80
62
e4
df
d0
de
da
c7
42
c5
14
d3
c3
d1
54
51
60
ca
1d
3f
dc
47
5b
a3
60
46
d4
62
cb
cb
d6
d7
e0
cf
42
53
cd
51
54
59
63
d8
bc
48
e4
db
4b
df
27
d5
53
64
5d
d3
e0
6
52
af
dc
ce
51
d4
cd
d0
d6
98
5c
94
63
56
e5
2b
80
e4
d2
58
59
61
64
bc
3c
59
d6
bf
61
5e
ce
cd
d4
2e
63
dd
df
4c
d4
59
da
61
23
e3
56
50
e4
58
43
58
9a
d4
d8
5c
bd
d2
b9
4e
64
51
c1
63
36
5c
9c
2a
24
4e
80
be
d5
c5
59
d7
e3
c9
c1
d8
d9
4e
3a
e7
d1
5c
e3
d6
e2
d4
d8
c3
4a
29
e7
dd
56
bb
41
e1
61
50
50
b8
60
52
d9
d1
dd
4b
e6
5f
5f
e1
b6
58
4c
aa
b9
5e
8b
dd
43
5c
d8
d4
97
5f
e5
df
65
4e
d1
62
80
de
5f
59
d6
44
d4
58
92
40
df
dc
e2
99
d3
d4
3e
61
c1
f8
dd
5a
e5
58
d5
ca
df
69
61
d1
d9
66
e4
ab
4f
e0
dd
d3
5d
5e
45
58
5d
4c
ce
57
50
5a
62
5f
5c
44
16
ca
be
5b
e5
e3
59
e4
b1
4d
e2
57
58
de
61
58
bd
d4
63
cc
49
dd
d2
e1
62
d1
41
e4
58
44
88
cb
61
d5
e0
62
4f
63
dd
d4
d6
e3
4a
b0
c0
5f
5c
5d
b0
38
80
5c
d8
51
de
c8
61
58
36
d6
de
5b
5b
b3
d4
dd
0
4b
d2
e5
e7
4c
ca
62
5e
6a
69
d2
e8
bd
c9
5f
5f
36
ec
5b
c5
ae
49
61
d5
3c
d6
e6
8f
24
d1
e3
5a
eb
60
63
db
39
80
ba
21
df
57
65
57
4b
e7
d3
e3
de
d5
2d
2d
db
65
3d
66
dd
3d
31
cb
53
e1
3b
d2
62
d0
62
b3
bf
31
61
de
ab
d4
49
9b
3e
cb
52
d9
e5
54
e5
42
e0
36
63
5b
e5
38
d5
ac
af
4c
da
57
a6
5f
35
cf
69
de
22
60
48
5d
df
37
65
c9
de
e0
54
ce
58
51
62
22
49
5c
d7
55
5b
da
e4
58
43
c0
3e
c5
55
58
98
6b
e3
5e
17
c6
3a
48
42
b7
6c
af
c7
42
59
54
5c
46
53
64
6a
67
e2
50
d4
4a
ae
54
16
5c
9c
dc
d3
53
d4
a1
e5
c9
e0
5f
40
62
d6
d5
d3
cb
ba
e6
b9
3b
55
51
e0
65
35
6f
56
ed
67
5f
e9
dd
4a
d1
62
bd
5d
4a
d7
3f
4d
57
e1
61
c2
5b
81
21
44
5b
64
c6
99
67
65
d1
e9
d5
5c
da
e5
da
5c
e0
22
80
42
db
bb
5b
2a
e5
4e
80
4a
59
52
54
cb
e3
d9
56
44
d8
e2
e1
a9
c2
df
53
64
c5
d5
1b
80
37
5e
dc
cb
df
e4
e5
62
67
c7
61
a3
b7
c8
bc
e2
dc
3a
44
60
d8
b7
39
14
6d
c5
cc
5c
5f
93
42
d4
5e
6d
de
66
d4
e3
57
60
d1
56
55
de
dc
80
21
cc
5b
de
e0
f0
5d
60
45
55
5c
f2
b5
60
51
51
5c
d2
ce
b9
de
55
58
4e
56
80
56
5f
da
e2
56
d0
44
e9
5d
3
c8
4b
4d
65
64
df
de
63
bf
d8
b5
4f
e9
e3
e0
c9
cf
55
e2
c6
bc
d7
d3
dc
4d
d8
e1
29
62
56
3a
d6
c1
4a
56
cb
4e
e0
48
d8
ea
52
4f
5b
e1
59
60
52
de
54
17
cf
d8
62
e1
d4
63
de
e7
cc
e2
de
d2
e2
4d
6e
50
60
4e
d8
1f
1b
52
c6
5c
a3
5b
a1
5b
71
e8
48
27
e0
56
e1
61
39
df
b7
3f
d5
d6
6a
98
61
47
28
d4
aa
e2
e4
ef
de
45
55
58
23
5b
97
67
dd
56
d5
52
66
c9
61
47
58
65
4e
55
58
4b
81
96
d0
56
bb
af
2e
53
67
e0
f
bc
dd
ac
d3
4f
cf
57
d4
d3
46
52
c9
e5
60
dd
e3
47
4f
b5
60
bf
41
e
5b
dc
e4
53
da
43
e7
df
cf
44
40
d3
d9
58
2
81
d2
d4
df
62
cd
51
56
61
2c
59
5a
5c
64
a
63
60
47
80
e1
d7
de
be
4f
24
33
cc
de
60
5d
3c
df
64
d9
54
51
c4
cc
52
e3
47
6d
e5
63
db
4c
15
61
62
4a
60
e2
c7
1c
5d
5e
dd
cb
e1
e2
59
52
58
26
38
45
5b
dc
e6
ad
cf
65
e4
5d
db
63
d2
66
db
2c
b8
be
e4
36
db
ba
a5
e0
5f
e9
e3
52
38
5a
ca
5a
63
5c
48
5d
bc
dd
d6
5d
60
62
d6
5b
b9
d4
50
d7
52
44
2d
63
b5
0
c4
c5
5b
d1
ce
40
5c
2b
2d
3e
62
ce
5d
e4
c3
b9
b7
d9
53
62
e1
43
d9
e1
d6
e1
54
d7
e0
5f
5d
67
50
46
56
41
dd
52
5c
c6
af
64
df
64
ac
c3
65
dc
1a
50
a7
43
30
5f
5a
25
11
bf
c6
50
cc
e4
c6
2e
dd
e0
3a
e1
9f
53
b9
c2
dd
65
9c
3a
e4
d0
a6
c
5e
cf
e5
60
e
54
bc
c2
8f
61
55
68
5f
be
65
a0
b8
48
cb
68
e0
60
e3
da
56
cf
6a
49
68
3f
d9
2b
3f
e5
59
85
48
5c
e3
e2
cd
5a
d7
5e
e7
2e
e9
df
ea
cb
35
4b
ea
5f
60
c0
65
d6
52
2f
67
80
ea
40
e2
d8
4f
46
d2
96
1f
27
41
e
38
b6
5a
d0
e4
5c
dc
da
ee
c9
59
bc
37
df
d7
64
e0
e4
4e
2f
b7
dd
24
35
64
e3
44
5f
dc
43
13
45
17
3c
d5
be
bd
5d
57
d0
18
ca
dd
1a
c7
38
dc
5b
57
3d
e0
d4
55
2b
51
e9
be
c8
e3
eb
db
a4
d4
c7
d7
62
e2
d6
52
e5
e2
a4
49
e3
d1
2c
db
47
a2
26
4a
e0
be
c4
5d
5e
4d
a9
46
d4
60
52
49
e9
42
e6
63
bc
3b
5f
ce
e4
de
3e
5d
b7
d1
e1
dc
92
cf
d6
ac
56
3f
5c
e0
63
d9
c3
27
dc
8f
67
a0
e1
d8
22
51
49
e0
4b
57
5b
b7
d1
60
d9
5e
de
60
c9
ba
d6
c8
dd
62
68
32
49
d8
a8
d9
e1
b3
e4
ad
3f
41
5e
42
55
20
e1
e3
4c
4a
eb
33
bd
c4
cb
45
c9
4a
9c
48
5e
e1
e0
57
65
c7
d6
de
43
61
60
b7
de
52
e2
d3
db
3b
d
d0
69
c1
59
92
da
ec
cf
54
44
b1
4b
d4
69
73
64
5d
e5
5d
67
da
de
5f
e1
a1
d6
63
54
4f
d1
5b
c
58
cb
64
af
67
df
60
5d
5b
db
e1
34
db
4b
5a
81
5c
c2
dd
2b
5c
df
df
d2
e0
d9
2c
ce
df
62
59
5f
cf
39
d2
47
4d
6a
b8
46
c4
ad
ce
b1
40
5c
c9
1b
d0
d6
63
80
63
dd
e0
db
db
52
d5
23
5a
6
24
e4
63
ba
d1
df
43
81
ce
56
4f
5d
dc
c2
c3
d8
de
21
d9
5a
50
55
38
63
d3
be
d9
62
e4
cf
d2
56
e3
b1
34
98
47
60
52
c4
bc
d4
55
be
59
55
64
e1
e5
58
98
60
dc
a8
da
55
4a
5e
d8
d4
d7
64
3e
63
bc
55
cd
5f
9f
e2
27
5f
e3
b3
62
45
e1
45
be
e2
dc
64
4e
57
cf
50
45
de
2f
4b
c8
44
e2
53
d2
c1
3b
d0
bf
e7
d0
61
53
59
d3
5b
b1
ca
a3
4d
80
57
59
57
37
c7
52
ca
4a
ce
ae
3a
54
cd
df
b3
51
51
df
d3
d7
c6
64
e4
4b
dd
61
3a
5f
5c
cf
4a
5f
5e
62
c8
db
62
a7
d4
df
bc
c8
e4
59
d3
53
e2
55
65
e2
e3
5c
5c
ce
5b
57
5a
58
d5
b5
de
da
e2
c8
5d
e2
de
df
63
a5
b1
d5
d8
5f
d6
5b
de
5e
55
de
55
63
e1
ce
da
d8
d5
de
29
e2
ca
54
e5
b3
e0
c5
d3
b2
d9
5e
cd
e3
c7
2b
cc
d
ca
db
64
a7
dd
57
36
52
dc
5c
5d
e2
42
5b
40
57
e1
de
de
d2
5f
c6
d9
df
be
8a
80
36
d8
c0
da
d2
dc
df
48
d1
5d
d6
c1
df
5f
c9
5a
af
48
5a
64
d6
ee
ea
e7
b5
d7
c5
51
c8
6e
5e
d9
df
41
df
c4
4d
5f
63
b0
33
bf
c6
3c
30
63
d0
4b
46
a8
5d
c7
be
9b
5b
d0
b4
4e
da
c4
a4
61
62
c6
53
60
55
5e
d6
4d
cf
bf
5e
8e
3f
64
53
5b
5d
55
b0
de
5b
4e
64
5d
61
e0
5c
55
5c
df
61
e6
ec
54
41
97
5f
57
69
47
4f
5c
3f
34
e0
da
62
4a
46
d3
60
5e
44
d1
35
58
40
cb
f1
ac
65
ba
58
51
e4
b8
58
65
d1
e8
56
ce
4d
68
4
c5
f0
e9
50
eb
dd
69
e9
e6
4c
39
58
5b
5d
2b
5c
cf
cd
d9
65
c1
5c
57
e5
56
96
d4
b4
72
d2
db
50
4f
68
b2
da
e4
c3
1f
d4
e1
db
e5
cd
58
62
eb
cc
56
63
cc
41
60
48
cd
56
dd
bf
e0
d4
e8
c4
ec
a3
e6
5d
35
4c
5d
47
60
60
e5
37
5c
56
38
e4
be
5b
c5
5f
bf
80
d0
d0
cc
cd
e0
28
d0
d6
de
a0
47
d1
e1
e3
d1
bc
c0
e8
ef
55
d0
6a
4c
6a
63
52
9d
db
b7
57
62
59
47
68
ce
55
41
9a
d5
47
e6
55
d1
6b
72
71
63
5f
ae
e2
e4
4c
3d
d8
40
2d
60
52
e9
53
e0
de
a5
c7
4b
23
2e
b6
cf
59
c5
55
63
36
4b
b9
de
e2
d8
6f
58
43
d6
35
52
b5
3f
20
43
d3
ca
30
62
53
57
3f
62
61
46
e1
b5
e1
19
62
58
c2
63
5f
53
dc
57
57
61
ab
5d
d4
5d
68
49
c8
df
dd
d5
60
63
e2
37
61
ba
dd
62
4d
80
61
b8
58
cb
62
4d
49
df
dc
e1
44
dc
5c
61
97
62
d5
d8
4a
1c
62
61
d5
5b
4d
63
c5
3b
ec
e3
e3
c2
28
de
41
d6
dc
1
54
e0
65
dd
e1
d7
62
55
44
d3
e7
af
49
e0
e1
60
57
41
6b
59
db
5d
bb
5c
6c
db
c9
60
e0
d9
80
60
d0
4f
f3
3f
22
2c
c3
ce
4b
68
5a
e0
b4
d3
ea
e8
59
df
df
65
e3
da
80
53
cf
e4
4b
e4
10
bf
d0
49
c9
d2
5c
20
94
1e
63
61
5d
57
5c
dd
55
dd
56
aa
d7
c0
43
4a
50
4e
60
af
de
3a
64
4f
da
d8
3a
5a
48
c2
5a
5a
c0
da
e2
e5
3c
e0
4b
64
61
db
c4
6b
d9
ca
c6
e4
3b
54
47
3c
de
57
c5
e2
4d
50
3c
e2
54
34
5f
cb
19
4f
de
d1
46
bb
d8
4b
bc
b
ef
e0
62
37
44
5c
db
46
57
5d
46
44
64
58
b3
d6
d5
5a
e2
48
d9
4b
57
38
59
50
d7
50
59
5b
ce
4f
1c
cd
de
d3
5c
e1
a8
e6
c5
5e
b6
62
37
5d
4d
64
e1
63
10
62
df
d6
61
e8
ac
61
5c
c8
92
b4
4a
61
55
c8
5b
dc
5c
e6
e7
23
5e
81
e3
ce
d1
c9
d3
59
24
ce
61
58
c7
2b
63
e1
aa
2d
3e
52
e4
e0
e6
4a
d1
64
43
4f
ce
c9
e0
5c
de
57
62
61
61
d3
5d
42
cd
de
de
5d
df
5e
62
af
4e
48
5e
0
4d
46
64
4d
33
dc
62
58
43
ae
5f
62
64
64
db
94
c0
da
35
e0
e3
54
e2
d9
62
bf
46
60
1b
ab
59
50
b9
61
2d
56
81
5d
c6
60
c3
58
b2
d2
53
e0
1d
ee
b9
46
e1
c7
1d
4c
14
21
5c
2d
df
66
d6
4b
67
df
80
46
e3
23
ad
ab
d9
4d
45
ce
d8
92
55
5a
db
c6
b5
e3
5d
54
64
5f
42
b8
3b
48
57
e8
59
5f
48
b9
5a
5d
47
d8
5f
c9
e2
5f
aa
d4
5c
d0
60
cc
dc
c6
ce
e2
b9
30
49
e2
5a
39
63
df
41
65
4b
63
d7
5c
e2
ac
48
66
5d
51
59
d7
e7
e3
c7
c4
50
5b
4f
4e
cc
59
59
da
61
67
62
d4
b2
51
db
e3
20
8c
55
ca
a2
e2
df
4f
80
dd
e6
c5
64
48
dd
de
3a
eb
e6
99
de
5c
5c
c7
5b
3b
4c
53
c
ca
e5
5b
bf
e9
d2
56
4c
cf
80
d5
dc
4d
d5
31
55
46
e3
5a
e5
d6
b2
4f
5a
b9
d7
58
d8
5b
5b
d0
4c
55
46
b0
ac
6a
bb
d9
38
b6
ca
11
3e
65
c5
bb
56
3f
c4
ba
e1
da
59
80
df
80
59
db
8d
35
1d
dd
58
e2
62
64
4e
5a
61
9a
33
65
4e
4f
d8
d5
e0
e3
ba
c5
3e
be
55
63
60
df
4c
5b
c0
e4
d3
3f
4c
b7
e2
d3
e4
4c
4f
b6
4e
57
da
60
d4
65
5c
cc
dd
b8
ce
ca
5c
e3
ce
4f
58
e0
27
e3
42
57
d4
e4
e3
5e
3d
5e
5f
b6
48
d2
dd
5b
5b
e0
53
56
d1
e3
23
5d
65
58
e1
e1
4e
ec
93
cb
d6
cb
e5
dc
50
5d
73
5f
d9
d6
e3
e1
b9
c1
c0
60
d4
4e
bf
65
33
eb
65
5a
54
6b
55
e3
db
5a
d4
64
b3
e3
37
af
ae
5e
5f
bb
d0
d1
b1
1b
5f
57
d9
5e
56
4c
d7
3d
e2
32
4e
55
e6
e1
5f
48
5b
3e
d1
57
cd
c2
58
4e
e2
eb
5b
4c
dc
5f
62
57
62
52
41
e0
35
50
53
31
50
cb
2b
d9
d1
e3
3d
d5
c1
dc
96
5d
4d
d9
43
d6
50
5d
e5
61
d3
e3
df
a3
51
da
81
5e
40
45
58
d1
dc
64
5d
e2
e2
3f
65
d7
67
65
d8
63
aa
61
ab
e4
e3
dd
ca
5e
d0
5e
de
c0
5c
60
cd
e5
e7
37
a3
51
d1
d1
e5
db
e0
d5
47
cc
d5
50
87
9d
d4
e3
4b
5f
a7
d6
33
cb
d3
33
b4
de
35
39
61
e3
49
52
68
48
e7
40
3f
40
d3
27
5b
ae
4a
4e
51
dc
5e
5d
4c
59
cf
42
54
5a
dd
54
e2
54
60
63
53
d1
60
5a
3a
5e
4f
5f
52
c3
a1
62
df
1e
28
e2
58
58
cc
3f
c6
dc
c7
63
d2
96
45
d7
e1
be
60
cd
d9
61
37
d8
c0
62
b0
d2
b4
d3
64
60
bf
d8
de
43
93
df
be
da
62
b5
9c
64
5d
62
5d
4f
9f
21
b0
d5
c3
d7
d5
64
c1
53
d1
b1
cd
e7
db
de
32
36
55
8a
e0
d4
b4
ad
61
4f
d3
cc
35
67
d4
c0
c7
55
3e
e2
33
49
1a
c9
4a
e2
3f
5c
5c
68
df
5d
cf
e0
c7
5b
5f
64
a7
e3
dc
da
dd
3b
e1
55
5a
bc
cf
5d
d9
56
bd
43
b
de
3f
63
54
55
55
50
63
e6
c1
53
50
c1
65
d8
a9
53
df
cf
61
40
df
80
60
5e
cd
e4
d2
c8
5d
d6
30
c5
dd
41
d5
b4
db
99
49
4f
b6
d9
cc
da
59
63
c3
cb
bb
48
c9
4d
15
d2
33
42
36
59
5d
e0
e3
c5
b7
cf
44
4e
d
d4
a4
4c
d5
49
d7
51
47
d5
e2
e0
c2
5a
d8
61
5b
d3
d9
e5
e0
5c
67
67
d1
da
d7
d0
e7
ca
d6
e7
e7
bf
59
59
d8
cb
5d
df
30
de
50
24
58
5a
63
cb
49
9f
5a
5b
1b
a0
c2
a3
b9
c6
be
c8
e4
52
ce
6f
81
d6
0
43
99
53
ac
5d
59
80
60
c3
df
46
4d
c7
db
cd
e5
5e
de
d4
59
26
5f
e0
42
52
d5
67
cc
d1
57
44
ce
45
de
4f
ce
3
5b
e2
ca
d4
da
5d
45
c4
41
4f
51
d3
56
43
e4
58
e4
65
5a
a8
5d
48
d8
4f
63
e3
62
5a
cb
cb
4d
62
62
d4
53
e8
aa
c0
d5
4e
54
ca
e3
d9
a3
5a
b9
62
a4
65
38
d9
50
43
e8
b8
70
6e
e9
af
35
f3
55
bc
bd
66
6c
f5
3e
de
ea
59
63
d7
e4
d4
ce
60
55
a8
58
56
9a
68
37
52
e3
db
e1
67
6d
f0
b2
63
a2
cb
d3
60
e7
d5
67
df
b3
df
d2
65
5c
68
5d
10
87
52
80
d8
e2
cc
d8
60
4d
be
57
47
57
d7
b1
49
44
2a
d9
54
5f
49
ea
39
e0
a2
5d
60
c8
de
62
63
5b
e0
da
d4
9b
96
67
61
b8
c5
22
d5
4
be
cb
61
31
a1
48
3b
db
58
4b
0
dc
cd
d0
da
b7
c6
3b
39
4f
dd
d4
61
d4
4c
4d
f0
e6
8b
ef
5f
d7
db
4c
40
d0
4c
db
76
64
39
58
4b
d0
58
de
54
d4
d1
48
d9
bf
bb
b3
14
d1
da
cf
e3
a4
5a
68
52
70
5e
eb
e3
e2
d2
cb
e0
da
e4
57
58
e3
4f
32
e0
e3
d9
ce
5e
eb
4b
71
e9
68
40
e9
55
5a
62
60
61
24
b3
5c
e2
e0
e8
db
45
dd
66
26
52
51
5a
4d
d7
df
e
d7
5e
53
1a
60
ce
da
3e
d0
e3
62
36
af
d3
55
5b
cc
58
4e
d5
dc
de
54
e1
58
d1
48
4f
58
cb
c0
61
c9
e3
d6
33
d2
db
de
bc
d5
93
5c
3e
43
e1
f
c1
40
5b
60
d1
c5
4f
e1
d7
da
a3
57
ba
62
48
d3
dd
ce
d5
d8
b5
53
e2
38
4a
c4
5a
5d
5f
67
62
cc
5b
4c
e6
e7
e4
5e
6e
58
f0
db
28
c4
64
43
d8
e2
6c
2e
6f
6b
e6
c8
43
cc
e2
5d
de
b2
c5
55
62
e1
ca
30
e2
48
40
50
65
56
23
5b
cd
da
c5
d2
5b
d7
db
52
63
0
60
b9
3a
bf
df
48
8b
db
db
5c
e5
dc
d4
50
25
9b
d1
dd
e3
d7
e7
cd
45
20
60
da
de
62
d0
d6
64
8
20
d6
28
3f
3e
d0
2f
d9
d9
56
59
c7
e2
ba
c4
d5
cf
61
e4
a9
63
59
4c
56
4f
6a
d2
c1
43
42
cd
5a
e8
d8
d6
53
54
d5
58
e1
d8
4d
65
68
de
4f
c9
e6
be
d2
53
c2
4f
e3
1d
e1
ce
56
5b
43
e1
4d
55
d5
d6
5f
dc
d4
5f
37
5e
52
64
2d
68
d3
a3
ce
58
5b
61
38
ce
55
a2
39
55
54
48
e3
81
c6
95
d8
d4
e8
6e
61
4c
65
4f
df
e2
ca
25
e4
d8
c5
59
54
4b
64
5b
e3
ce
50
44
5d
dc
5f
c6
6a
52
50
3d
3e
c9
d2
63
5d
d8
ce
86
66
bb
58
17
58
64
2f
d4
df
b7
5c
30
63
be
a7
50
5b
25
db
d6
5e
a1
62
63
df
37
48
63
5c
c2
63
5d
d3
4f
55
c0
e1
5e
97
5e
b7
e2
49
f7
32
64
c9
b8
69
51
47
68
d2
e4
db
52
d0
17
b2
5d
62
b9
ad
df
b7
d3
dd
b6
4b
c5
40
8e
ea
2c
71
c4
67
3d
c5
56
ab
d2
d9
81
e5
5e
51
de
4d
d3
e6
3
bd
b2
e9
4e
68
5d
5d
cf
60
57
ab
cb
57
ca
3a
2e
59
e5
4e
52
da
3d
43
c1
e3
23
e3
5b
4b
db
de
60
3d
d4
3a
df
29
c3
c3
cb
e0
40
66
be
5e
52
34
cd
80
b8
23
4a
e1
ce
d9
d9
99
b9
59
db
61
d5
67
e5
e5
c2
5c
df
e4
d9
62
52
db
63
e4
58
61
61
5c
5b
5c
58
60
d2
4d
d7
df
d1
e4
b7
c5
4f
da
50
55
55
80
b3
2f
5a
e1
67
43
e8
80
3b
d2
d0
68
50
1c
50
5e
e0
ea
ae
63
cd
62
48
e9
d0
ec
44
e7
e7
e3
e2
37
d5
d1
4b
23
d7
db
4d
dd
aa
5e
de
2e
ea
c3
ea
32
da
8b
a4
44
5b
36
40
99
80
d9
da
32
e3
4e
c8
da
58
d6
dc
5e
b7
43
c7
55
ac
1
63
49
94
c9
dd
d1
cd
4a
21
4e
5c
80
1f
51
ca
5b
5f
d9
a9
c9
57
63
50
45
67
5a
a1
da
5e
d7
e7
53
57
48
e1
a1
8d
64
60
e4
d4
63
d5
c7
df
5a
d8
62
d4
e1
d3
61
de
58
29
55
c4
61
4e
3c
c6
58
d2
d8
3d
62
d4
38
cb
c5
dc
ca
67
ca
52
50
cf
d4
61
3b
db
5a
61
4a
da
d4
df
2a
e1
aa
d8
67
51
52
b7
d3
4f
e9
60
81
e8
a4
ce
4a
ea
63
59
e0
a4
db
e6
4e
c2
66
4f
e4
62
a0
5c
6b
60
cf
69
68
62
d3
51
50
68
d3
2f
e4
b3
3d
52
d7
dc
c5
58
e5
3f
36
68
e5
d2
be
e0
50
32
47
42
41
31
e5
39
54
2d
52
d8
55
0
e8
4b
db
54
d6
e0
59
df
48
44
3a
5d
a9
cc
b5
3a
b8
c7
db
64
e6
53
35
d9
68
c8
65
ad
4c
5a
af
cc
44
57
d7
b8
57
64
4a
cc
55
5b
cf
d9
5a
b1
d3
dd
60
1d
18
ec
4d
41
e6
df
e1
bb
e1
da
c2
b1
dd
df
e1
49
c3
d4
4c
d6
64
c3
7
c7
d1
d7
c0
d7
e8
bb
43
43
55
ca
b5
66
4a
60
60
33
4d
22
b4
5d
e2
5e
b7
b7
56
cb
32
d2
4e
eb
d5
e4
5a
51
0
4d
48
d7
54
45
59
bf
d6
5a
68
54
bf
63
61
63
41
cc
bb
3f
3c
5d
44
62
af
5f
e1
dd
61
e0
14
ce
41
e5
e5
dd
db
0
e2
c4
df
db
2e
8c
e8
3f
c9
9b
81
ef
ed
e0
d1
43
d7
4d
ab
e4
55
4b
55
e2
49
d5
60
61
4b
30
a7
da
d1
81
db
46
e3
48
e3
55
cd
e5
36
c8
d9
b0
b0
64
e5
46
42
ea
f1
d0
5a
fd
55
7b
65
4a
a9
24
80
57
5a
5f
d7
3e
b4
50
5e
1d
26
77
5f
d3
d6
53
d3
5f
e0
cf
dc
e7
5b
d1
da
27
5a
11
3f
79
63
51
cc
df
cd
13
d4
dd
b6
db
d4
4b
d4
ba
5f
d3
54
d7
65
64
a9
d9
e6
bd
57
c1
e7
37
d3
e0
ca
62
e3
52
5f
ee
72
64
dd
b1
ca
59
b4
5e
c1
4a
0
53
a1
65
56
f0
5d
5b
d5
99
b2
57
bb
d3
d2
c6
a0
5c
4e
4e
20
9c
d4
e2
cb
da
3f
e8
ee
42
b3
e8
e4
d4
45
36
cb
b6
ae
c0
9
55
46
d8
e1
dc
60
43
eb
45
54
20
dd
4a
45
64
61
72
e3
e3
33
3b
b3
4d
e1
56
7b
e6
8d
5e
ef
f1
6f
48
62
ec
c2
da
d6
67
b2
d4
e4
4d
a9
53
cf
3f
af
2b
24
b4
e4
59
4f
dd
ba
ec
50
d7
cb
52
e0
45
dd
5c
e8
da
d7
e0
37
c7
d1
64
dd
60
5d
cb
6a
53
5e
58
d3
dd
4c
e8
ee
bd
53
5e
c6
a8
63
43
53
c1
4d
42
5d
5c
5d
d8
c2
9d
a9
5e
59
5f
d4
e4
46
63
5b
62
61
6a
70
e3
c8
3a
c0
d9
db
62
dc
4a
5c
dd
87
64
b7
d8
bd
bc
5d
e1
a7
e4
17
46
29
5b
5d
d9
d0
a8
dc
c8
61
df
e1
e0
67
5e
2e
cb
64
61
b2
e4
22
71
35
e5
40
f1
e9
ed
ca
d6
d2
e2
e4
df
dc
e4
60
65
6e
6f
cc
4a
4b
ea
d1
d4
6b
e2
ce
5f
aa
44
78
c4
d8
ef
64
67
d9
d8
4e
31
bb
e6
47
5d
52
d9
d8
ea
66
ce
b5
d0
d6
cd
cd
e6
bf
ce
64
5a
e0
dd
57
3c
3c
5f
dc
de
e2
e7
ac
66
b1
55
50
5b
3e
2c
4a
2f
67
2
b7
d4
56
d3
3d
e3
2c
e1
56
e5
b5
42
bd
d7
46
b6
51
5b
58
34
e5
3f
df
9d
e1
d2
48
e3
51
45
61
6c
e2
5c
34
63
61
61
d3
e6
48
5b
a6
df
62
c9
5a
49
80
bb
40
d6
46
5d
4b
d9
de
5f
46
e1
de
c1
5b
bd
cf
dc
db
59
be
d0
ac
c1
53
45
4f
c8
f6
cf
ce
ec
ce
36
30
d7
56
64
a3
61
ba
c9
54
42
5f
d3
6a
5b
ea
4b
46
e6
d5
ae
ce
61
45
ca
61
4a
de
de
cd
c7
54
55
e0
94
e2
12
5c
65
28
35
43
51
56
69
e3
22
6c
60
68
c8
c7
da
56
28
c5
31
d3
e6
e3
80
be
d7
a8
d6
c5
d1
dc
d3
64
c
d5
d4
5c
e3
60
c3
ca
bb
54
ce
50
b8
cf
64
de
cf
d7
dc
b5
5a
df
0
62
de
3c
21
dd
d8
e1
c3
dd
4f
54
55
4b
af
cf
cb
59
31
63
4e
42
5d
17
50
be
64
af
4a
1d
54
59
55
4b
4c
6a
68
5f
db
5d
b4
35
e2
5e
3f
de
61
51
47
4e
b2
db
c4
47
e7
c9
15
49
3c
d2
d7
ac
47
ea
db
54
49
64
df
e0
50
45
1f
4d
67
d2
e2
17
4f
c3
dd
6e
52
48
c5
c5
e1
3f
5d
5b
4d
67
65
ce
81
e2
e5
cb
de
38
10
47
6d
6c
41
40
3a
69
e1
cb
d1
45
cb
24
a6
cf
57
df
c4
60
ed
51
39
e6
d0
ce
e6
c9
e8
df
e6
e9
57
e9
d7
5b
d6
de
52
ad
a9
c7
e0
53
ea
ee
e3
dc
d5
47
4e
bf
da
2b
4e
af
40
17
56
58
d6
63
c4
62
d0
5e
63
3f
e8
59
f
e4
e7
d1
5e
a1
d2
eb
d1
c4
62
39
67
ff
e9
eb
d7
ed
c5
61
68
74
71
48
71
5f
5d
6f
d6
bf
c7
f2
2c
e7
80
98
57
54
51
65
f3
e9
cf
d7
54
1c
5e
c6
63
b2
66
af
bb
ba
d7
dc
a5
53
e4
57
47
b3
5b
43
64
64
63
54
58
4a
60
c4
46
be
59
53
d0
57
5f
d1
e1
53
e6
38
36
d5
68
64
de
c6
2a
e1
d6
db
26
5e
c3
e4
c
dd
5f
e3
3a
d8
e6
56
35
c4
c1
e1
18
35
d8
52
e1
42
53
51
32
44
e3
dc
62
d9
13
d2
5f
45
de
5c
df
4f
bc
60
47
e3
51
e3
59
c4
8
4b
57
d5
80
e3
51
56
dc
d9
c1
d0
5f
66
d8
db
d7
9f
5a
63
ac
af
d7
2b
24
80
df
dc
dc
55
d8
6c
d2
5b
de
9
37
ec
5a
be
68
5f
54
60
d4
38
da
4b
4a
c3
de
4a
d5
dd
46
53
3a
42
a6
53
5b
c8
e2
c9
4f
60
4
d7
51
80
48
b3
59
e5
bf
df
df
43
5c
bb
61
58
55
56
43
ea
a
de
b2
67
d7
bf
e0
b3
da
30
5b
46
ba
cf
9b
a2
5c
e3
e1
e0
dd
3a
e1
db
41
e8
48
4f
e0
d5
d1
d6
69
57
a8
58
60
dd
4e
62
b6
a6
60
cc
3f
5d
df
81
df
e0
e3
7
df
60
d8
62
d3
d2
59
5e
df
bc
5b
2a
53
e4
5e
55
60
63
d7
80
c1
d9
f1
c7
d5
e0
38
c8
c5
e6
e9
d7
5c
59
5e
6f
68
56
21
4a
cb
3b
e5
47
dd
3f
57
da
d9
d8
41
46
52
bb
da
61
5a
56
5b
ac
ca
dd
22
60
61
c5
cc
4a
e3
d6
be
c0
43
dc
b
db
e1
64
66
56
5e
c6
d9
e1
e7
21
5c
53
63
da
ac
e0
f1
db
c4
4
60
ce
b8
67
c6
47
5e
ae
e3
53
cd
5d
21
cf
5b
44
54
66
a8
62
5d
68
5f
dc
56
db
5b
3d
9f
e2
62
57
1b
df
58
a3
da
d0
c0
58
af
5d
e3
64
c9
53
d5
e1
63
44
dc
df
d8
db
d6
49
e5
9f
e5
d1
dc
d4
61
30
50
23
df
29
6e
6f
38
c2
4c
a4
46
42
62
4d
da
d6
cc
cc
65
5d
50
ce
62
60
68
29
c6
cc
ea
c4
57
ee
5e
5f
49
cf
5e
d3
5d
57
39
ac
63
38
3b
61
34
e3
e0
65
26
a0
d3
30
d1
65
5c
6a
b1
eb
dd
4b
68
5e
57
d9
db
59
b3
60
65
e5
e4
d3
d7
54
52
b5
31
5f
d9
d4
54
54
df
5c
51
e0
11
ce
c9
dc
e0
b5
d7
c4
da
e2
e0
96
99
43
cc
c0
5c
cb
e8
aa
9d
3a
e2
e4
ab
67
d7
90
33
d6
df
52
e0
e1
41
e7
60
58
d1
60
e1
5c
63
55
55
69
33
80
e8
64
ba
e4
e1
66
70
c2
d6
c8
3c
d4
54
d8
ea
41
ac
6c
62
4e
b3
bd
f4
dc
e3
e2
e3
b4
e9
5d
65
48
70
c0
66
a7
46
58
d8
83
e2
92
2c
da
d1
52
e9
f0
cf
e9
1a
59
bc
4c
e5
34
4a
5a
59
35
e1
4f
5f
9a
d9
5b
d9
4b
4f
65
e7
e0
51
aa
98
de
6d
cd
de
6c
ba
bf
df
58
4f
c9
5c
52
5d
36
e5
45
e1
5c
dc
cc
cc
5a
9f
c7
dd
4b
b8
d7
7
2b
5d
5c
e1
63
3b
d8
67
69
5a
bc
56
df
ca
d7
5b
de
64
5c
d1
5c
5f
63
21
60
8e
b9
bf
42
b7
5c
b0
48
4f
8
d6
1c
58
54
b2
93
e1
23
d5
54
dd
e0
f1
c9
51
e0
60
53
e0
60
c9
e2
64
55
52
51
47
5b
e3
45
e7
d7
65
37
e7
5d
e7
d3
de
80
e1
62
9a
3a
5
df
e0
39
53
ac
66
cb
44
60
c7
5f
5e
ec
3b
4d
d9
63
da
40
c5
3b
65
61
48
46
9e
4f
5c
5e
51
14
89
51
2e
48
a9
da
19
d1
de
69
c1
e7
98
46
45
f
61
59
55
58
e3
9b
4e
57
cf
64
49
9d
d6
68
ac
e2
69
50
5d
5b
d2
49
c5
d6
d1
de
4c
d6
e2
da
e1
2f
62
46
e0
cd
45
ea
c9
de
cb
56
4d
5a
58
4a
cc
5a
e1
97
cc
e3
e2
ae
5c
5b
db
d9
e0
54
59
c5
59
5d
63
56
d6
26
a8
d6
d1
da
45
e6
4a
ca
22
bb
69
3d
5c
60
e4
dd
57
ca
ce
21
4e
dd
d4
b1
51
ca
ca
61
cf
df
cd
57
d5
df
49
36
57
63
bf
c1
34
ad
da
de
59
de
60
c1
dc
cf
e2
e1
25
bb
cf
22
b7
e2
b3
e3
4b
d2
e0
61
d4
c3
a5
68
42
ae
c9
4e
e6
2a
18
5c
0
59
5c
52
c4
54
4a
dc
55
65
64
da
4f
de
bb
be
59
46
e0
67
96
d6
60
50
b8
da
63
a6
c4
d9
5c
da
5a
49
d7
e1
e1
d1
e5
51
e5
52
64
9
9
4d
39
d2
df
2d
33
d9
d3
56
ce
da
4f
4d
5f
dd
e2
d7
60
e5
d2
26
4f
5c
70
33
d5
5b
c0
4e
cb
c7
d6
55
cf
4e
e3
e6
dc
55
64
be
43
c4
b8
dd
4b
4a
e3
db
55
bd
57
53
db
eb
31
de
56
58
d7
dc
65
dc
2f
5b
67
3b
d9
e9
4a
2e
dd
66
43
68
49
e7
5e
d7
52
62
4f
dc
d6
5b
ca
cd
59
e0
5c
5c
50
d9
54
5a
b6
80
46
b8
e6
4a
dd
cf
51
64
63
41
cc
66
6a
61
c3
58
80
57
63
26
d1
56
4c
e4
54
c3
c1
de
b4
5f
48
e6
b
91
de
43
4e
58
de
e1
dc
60
5c
5c
37
e1
d5
5c
56
dc
52
c5
d8
4e
29
6e
67
52
5f
c7
c5
e4
42
68
cc
e7
5f
ea
df
5a
b3
b0
d2
ce
db
ae
56
49
6e
d9
bc
80
c3
b3
cd
e2
e0
54
d4
69
58
4f
1d
da
64
5c
5d
ca
23
d6
2b
ba
d7
d6
a7
f0
e5
d4
50
d4
58
1b
e0
df
62
58
d9
6b
dd
34
63
c5
d9
53
e3
62
64
39
54
dd
0
df
ab
6d
66
50
d6
d4
c6
de
42
e4
c8
5c
df
63
bd
5b
c2
5a
de
e2
d3
da
bd
65
47
56
37
9e
e4
cb
59
dc
e5
d6
23
5e
e2
cf
5d
e2
59
5d
b1
41
e5
57
db
a2
52
60
55
d8
ca
e2
5c
5a
e3
cf
5a
bd
e5
b4
36
5b
ba
5e
61
d1
bc
80
64
46
d6
5f
20
e0
c9
d8
4d
eb
ee
d1
cb
5d
51
60
53
5b
80
d4
d7
4f
51
5a
51
53
57
55
c2
a3
5c
e6
40
69
58
c6
51
d7
ce
d7
c1
29
c2
6d
c0
cf
d5
e5
6a
6b
ee
65
59
60
4e
59
51
c7
a2
a1
4d
e7
c1
d7
60
3e
6e
6d
e1
81
40
65
64
23
db
df
61
c0
49
58
eb
5e
54
3c
97
2f
de
5b
e3
d8
3b
d9
5e
5e
64
db
17
6b
d9
94
4f
c7
e2
e0
db
c6
b3
80
de
e2
2c
94
b6
d7
e0
60
5a
e6
db
4a
39
d8
e9
cb
25
3c
5e
b8
6c
e1
3f
5f
52
55
4c
ce
63
d7
5c
61
63
4a
e2
d4
e3
55
1b
c7
51
d7
4e
e1
de
bf
97
e9
56
71
e8
81
62
d5
36
69
e2
62
57
cb
d2
cf
5e
e9
44
bc
e1
a2
d5
d6
dc
bd
af
de
dd
ba
55
55
e0
a7
ca
45
4b
59
5f
5a
62
c7
a5
ad
d4
38
63
e8
3c
31
cc
db
60
e2
49
3f
32
d6
87
66
c3
53
63
58
44
28
4b
dd
42
60
4d
59
61
9a
51
64
c8
d8
c7
e2
be
5a
de
5e
58
e1
60
df
4f
c1
e0
2f
b6
2c
4f
4b
5e
54
b3
9a
d4
52
ae
e6
63
49
df
5e
51
49
57
55
3d
41
5a
dc
c5
d3
61
5a
dd
da
51
de
e3
bb
18
e2
19
df
a1
dd
c4
de
61
5c
dc
40
da
5c
55
c5
49
81
da
b7
a4
d2
db
61
c6
59
d9
c3
bd
c3
c0
cd
4b
d0
39
48
4a
59
e0
e9
e2
28
80
59
e0
ca
b5
c6
de
e4
64
5d
c6
40
52
db
ba
de
81
f8
dd
db
22
6c
de
53
64
c7
50
dd
58
a9
db
5c
34
64
c1
5d
df
c0
59
e5
b9
e3
c4
dc
ed
e6
ea
6a
df
52
80
63
e5
50
45
3e
28
5f
cc
63
e0
49
e4
16
51
aa
e4
55
da
d8
39
5f
e2
d9
4e
45
60
3
bf
56
3a
e0
5c
60
62
4c
d5
dd
6c
d4
40
5c
56
59
62
52
a6
d5
cf
58
cf
62
d1
57
e4
bd
c2
0
b7
bf
5d
64
54
40
bb
dc
70
60
de
c9
b5
25
5f
98
37
74
40
a3
67
53
55
48
64
d9
a8
5e
cf
0
54
65
ba
b1
c1
5e
dc
cf
52
5e
c8
cf
2a
b5
e0
57
db
ce
2f
ad
38
4a
81
44
be
4c
57
c0
56
6c
d7
4a
d5
48
dd
e2
34
5a
53
57
d9
e6
d6
27
3c
c9
5c
dd
c8
96
44
4f
64
3b
4f
d9
2d
17
69
d1
dd
de
33
bc
df
d9
de
61
cc
c1
60
5f
1e
e4
3e
d6
dd
df
47
d0
57
60
a3
60
6a
d4
4e
dc
dc
62
62
de
b5
e2
4c
3b
e0
e2
db
df
9b
5f
62
60
58
67
c8
2c
e3
48
e2
d0
3c
bb
d6
c0
cd
9
e4
52
e3
db
55
bf
2a
cb
54
d7
1d
dc
d8
62
50
e3
c1
57
da
43
5e
dc
dd
59
f
29
e7
5b
d0
60
49
ed
de
e8
e6
31
e2
e6
bf
df
cf
3e
e9
c9
21
4b
e1
e7
45
45
d2
5b
e1
db
51
61
df
36
ca
43
c0
31
d5
c1
c0
c2
9a
cb
ce
5f
58
e1
55
41
3d
c5
6d
6d
6f
c5
56
52
70
68
57
44
5a
e5
58
bc
d4
dc
e2
60
c8
e1
56
ba
63
5a
cb
d2
ab
5f
c8
c6
57
c1
64
64
52
67
5f
de
5a
d0
49
e2
62
46
67
65
65
59
56
4e
d5
5e
a9
5a
3a
d0
61
ae
cd
59
b1
d9
3e
b6
aa
e0
ce
eb
e1
ae
df
55
d8
e1
d
e8
a0
b3
5d
c9
26
42
cf
41
cd
34
e7
cb
46
5b
66
50
56
c1
2b
40
41
c2
b8
5f
e4
3b
3f
d6
bf
5a
50
db
58
c5
da
d0
50
63
c7
bd
5e
e0
12
e6
c6
1f
56
4f
d2
db
63
81
e3
51
4d
50
63
4b
58
66
66
68
ca
ae
28
3a
47
33
d4
6a
a1
53
5a
59
50
40
ab
e8
cd
9e
3b
e6
4a
5f
e6
4f
da
e1
d4
5d
52
c6
d0
57
30
5f
d2
e5
69
5f
51
dc
d7
5d
c6
34
e5
4d
d4
4a
d8
51
ae
42
dd
d6
61
ce
64
64
5a
56
44
62
56
b6
dd
49
66
ac
bf
d3
d4
1e
d5
2e
4b
df
44
9c
e0
48
e4
54
e8
da
cf
ce
58
39
9e
e0
d0
af
5c
e1
be
b6
51
da
47
bb
66
30
36
dc
ca
f1
d7
e6
e9
dd
ca
65
c4
58
e7
e5
ec
e2
91
df
bb
c5
b4
6f
41
61
e3
44
4c
80
40
b4
cf
5d
ce
cc
5f
23
64
c3
49
62
cc
dd
e4
c7
df
62
53
40
68
5a
b8
d0
e9
40
2c
53
45
64
5
52
b0
dd
62
e2
d4
48
a1
b8
d5
d5
d1
d1
e1
1a
df
ca
db
51
c2
59
4e
5a
dc
0
41
d9
8
d9
49
ec
d6
de
e1
d1
b4
52
e6
3d
d3
5a
bc
43
4b
47
61
c4
64
49
d9
51
56
64
5b
43
58
58
e5
47
b6
66
3b
c0
60
d4
66
4b
e7
cd
c7
ed
e4
e4
5a
d8
10
63
65
66
bc
d7
d8
e4
ce
45
ea
c6
d2
62
5d
31
5f
c7
bb
43
4a
67
66
6a
59
4c
c9
a5
a8
58
5b
65
4d
d4
dc
9a
5b
3b
e2
5c
81
d6
81
60
50
50
42
62
54
6f
67
61
52
ba
37
cf
53
44
66
59
5e
68
db
d6
de
56
d
3f
d0
64
db
bf
c9
cc
1c
d6
e6
db
d8
56
63
dc
3d
bc
da
63
5e
4d
4b
ca
46
56
62
5c
d3
26
d2
cb
60
c9
43
60
60
bf
61
30
db
e2
3c
34
5d
61
e1
64
62
9a
e1
5f
5b
de
56
41
2d
e3
32
e2
4b
de
d5
55
d8
da
db
5a
4f
df
6c
69
c1
5e
59
4a
43
c3
80
e3
da
d5
42
b7
4c
3c
e5
5d
62
60
d1
e7
cf
5e
d4
65
d8
61
c8
2b
50
62
3e
af
d2
53
d1
4c
52
7c
dd
bc
5d
9d
61
63
47
c2
0
6c
55
68
3d
47
5d
42
da
d4
55
2e
df
5f
ce
56
60
d7
4d
3c
c8
d0
50
65
5b
d0
b6
c1
63
ce
c5
e0
43
5f
c9
4b
e6
46
df
dc
2a
55
d9
de
cf
db
cb
33
50
e8
d1
48
e5
58
d3
e
e9
5e
db
2d
e4
d3
dc
d8
49
60
97
e1
e8
8a
40
e3
5c
db
34
d5
81
5f
dc
e4
63
66
63
dd
44
d8
df
39
2c
e3
c0
ca
e1
d6
d7
bf
bc
4e
5f
4c
2f
80
65
c7
4c
35
5e
bd
db
e9
e2
c6
4e
cc
eb
e7
51
bc
60
3f
4d
59
56
be
38
62
e7
52
b3
e3
d2
d2
c5
4f
c5
e2
5a
5f
b2
cf
dc
e9
e5
e5
e0
c2
e5
55
4d
5e
58
5a
54
ca
e7
3f
d4
65
59
ca
5e
be
b4
d0
e0
62
d3
58
e0
e5
e3
e0
e0
e2
64
54
57
53
4b
2f
dc
5f
d9
58
db
53
5c
cd
36
53
df
e4
e0
c3
64
e3
16
51
50
e0
5d
81
db
c7
af
80
d5
d0
5c
ce
98
48
e4
45
e3
61
52
54
53
d4
4a
52
55
ba
58
5d
52
10
62
bf
5d
29
d3
c1
cd
c3
5b
c6
4e
e4
5e
31
5d
be
54
62
0
64
bd
d5
d1
b9
ca
61
5a
e1
e0
5e
63
36
e2
d3
1d
50
5a
da
db
d4
d3
47
49
af
b9
53
61
0
21
d8
5a
de
3b
cd
b6
35
5c
d4
23
ce
cd
cf
da
d5
64
57
dd
ac
e5
5a
e4
dd
43
e0
64
42
df
dc
d5
e1
e3
2b
db
63
5d
da
d5
62
c2
e2
bf
da
dc
b9
60
44
e1
d9
dd
65
5d
50
64
44
55
e3
a5
9b
c7
41
5f
db
c9
45
e3
9f
dd
da
55
c4
61
3c
da
53
55
4b
62
cc
55
9d
dc
61
40
60
55
60
5a
b4
d7
c5
dd
57
4b
df
de
ac
52
de
e4
62
e5
80
61
db
ca
62
5b
57
e0
cd
45
dd
5f
d6
3d
e5
e5
cd
dc
55
bd
dc
c3
b1
3a
e3
ba
dd
cf
5b
c4
c4
e6
61
d6
ad
9d
d9
64
2d
b3
e3
4f
d5
4d
de
ad
dd
b6
44
54
62
5f
e2
c4
d6
5a
59
ba
55
c7
63
aa
b6
2c
25
cf
5d
b8
81
5b
bc
6c
3b
ec
3c
53
24
67
3e
e1
dd
5c
56
50
2d
45
63
4e
64
5a
df
d4
5f
60
63
58
47
