76
42
47
7c
52
ec
dd
5c
64
e6
33
cc
46
e8
5e
70
ee
57
cf
d8
5e
ec
50
47
ee
d7
76
d7
d5
55
5a
6f
69
bd
d0
e1
76
80
65
6a
c2
3d
ed
d0
c1
e0
58
6b
cd
dc
dc
cc
6e
44
be
3d
ee
c3
d9
ce
3d
e4
eb
f
57
ae
10
d9
d6
d3
db
df
c8
3d
39
45
2b
9f
38
c9
49
d3
cf
d8
c0
5a
d6
5b
ce
38
80
5a
81
d4
25
bf
2a
48
56
c8
dc
17
d4
c2
21
32
ca
50
cd
e2
c2
c9
cc
4f
19
4f
e0
dd
d8
e3
af
81
d2
53
39
d9
11
52
65
64
54
59
e1
51
79
e5
60
d6
1d
46
58
aa
48
6b
67
74
d6
d3
c0
5e
40
cf
69
54
6b
c5
67
97
ce
d6
ce
c1
55
77
58
5c
e2
55
69
67
d6
5b
64
66
22
d3
bc
bb
c8
6f
51
43
e8
4d
34
72
66
75
54
f
e4
e8
5f
5c
cf
59
e9
3d
57
32
b0
53
51
5a
59
e3
40
63
6e
54
40
de
e8
ae
6d
d5
6b
21
54
de
5e
50
64
69
38
d3
e9
67
4d
ee
38
d8
44
64
b6
81
d8
6d
6f
c3
6c
b9
7c
66
a6
f1
c8
e2
c9
f0
69
27
54
ba
31
12
5a
b0
58
5a
bd
3e
4b
e4
5b
d8
52
dc
52
c9
53
57
d2
6c
d1
8a
34
d8
6d
b3
ec
e4
58
c8
41
63
cc
cc
6e
c2
e5
e2
70
48
5b
1f
d9
53
dd
80
55
e9
ec
eb
70
42
55
d3
d9
f0
57
e1
e1
70
e9
cf
39
e0
55
52
5c
70
69
43
5a
46
71
ee
79
5b
d4
d4
bd
e1
53
88
d1
d7
4f
d5
63
4b
55
2b
80
b5
64
59
5d
5b
de
c9
dd
e0
38
61
74
73
65
5b
6b
70
55
d5
76
54
6a
39
e6
5a
c2
72
63
f0
7b
6c
61
d4
5c
41
4f
6d
42
f1
72
e8
c6
66
c2
5c
de
31
e0
3c
3c
5a
60
55
df
9b
d3
6f
64
58
5d
c1
e3
56
61
47
7a
63
52
e8
d2
5f
62
6f
e9
2c
e9
71
d3
67
6f
d5
b8
2
9b
56
d4
f7
e5
ce
2c
5c
e5
f0
40
d7
6a
97
67
d7
b7
53
68
61
5a
56
5f
e3
bf
d2
69
f2
4a
6c
4d
5c
d4
5c
e9
64
68
78
4b
a8
5b
d7
d7
4b
62
6f
67
e4
66
dc
47
cf
e6
a2
7f
db
35
58
55
66
76
6a
e9
d6
3a
e0
e2
64
5e
58
d9
bf
60
db
43
56
d6
36
59
d6
5c
44
d1
de
