30
25
bc
4b
23
8
9e
46
37
a0
c8
36
30
d1
b6
83
c5
a6
33
af
bb
31
ad
8
a7
ab
39
c
bd
c1
2e
a7
c9
b3
31
5
37
d0
3d
b2
ca
31
93
c9
40
49
50
45
40
4c
44
40
31
19
0
40
bb
aa
26
1e
a8
1d
81
3d
a1
80
ad
0
1c
33
b4
b6
ac
47
1f
c5
4c
b0
18
4e
17
c4
c9
a1
36
cb
aa
2d
be
a7
45
49
80
2f
35
4e
a0
2d
37
81
53
c1
33
53
b0
4d
52
9e
42
1b
2f
1f
b2
1f
34
38
a9
d6
ad
45
cc
95
9b
d1
9f
80
ab
80
4f
90
29
19
45
b6
a5
27
48
aa
1e
42
9f
a0
35
30
e
bb
aa
a3
cb
b0
a7
c8
80
a3
3a
1e
3a
86
38
1a
7
31
99
b5
81
a6
ac
b9
26
21
c2
13
ba
2b
ad
a6
80
ab
3c
b6
bf
29
51
c6
26
47
bc
b7
44
39
43
af
47
80
1b
93
a9
26
7
c1
3a
31
94
41
c6
0
4d
a
b4
b5
35
80
9f
d
43
21
ba
c1
3d
cb
b7
3e
c1
ac
40
c7
ba
b9
1e
a6
b5
4c
c1
30
b4
aa
43
ab
f
80
4a
80
b4
b6
c2
40
a3
34
bb
2d
bc
3a
35
9f
ad
23
a3
b3
9
39
3b
bf
5
a3
21
27
80
24
ab
af
27
bc
a5
36
ba
c7
29
85
bd
92
19
a
99
41
1d
30
3f
24
3e
54
99
46
4d
28
14
43
81
81
40
a6
1e
98
c3
31
c6
9d
b9
40
aa
80
28
40
45
3
3d
cb
10
3f
1f
b2
0
3
ad
bb
80
ba
a8
48
ad
1f
30
39
2f
43
c5
ba
38
80
3c
1c
a4
10
c0
bd
3a
be
be
b4
c0
b9
45
bc
1e
22
4
33
3f
47
4a
90
a6
25
37
b5
21
22
b9
80
3c
2f
30
ad
3c
94
8c
17
b2
a3
29
30
b7
27
4a
b5
42
aa
32
a8
b5
b2
c1
2f
a7
8e
b1
80
25
23
b1
1
2a
b8
37
2d
37
3c
50
3f
93
53
57
bb
4e
3d
44
c5
c3
0
b4
d2
cb
9c
b7
9d
32
b6
92
b1
cd
3c
b8
cd
aa
d6
a5
b7
c3
91
39
b9
8f
a8
bf
ad
ca
ca
a4
bc
ca
ab
cc
aa
37
c7
bd
b9
bf
a3
9e
4c
14
c8
50
80
bd
33
30
9a
c6
35
2f
c5
2b
3a
ad
9e
3a
af
a
b4
8a
33
80
a6
3f
bd
86
b0
1a
bc
c0
81
32
b8
ab
be
ba
31
2b
24
ba
1d
4
1a
8a
be
80
d1
38
b5
c3
81
21
b5
ab
a0
89
92
c7
b1
80
b6
81
ad
30
4a
c2
c7
27
c9
ca
cf
0
43
c9
22
34
b6
8
1b
c9
c5
97
0
b7
80
37
2b
b8
2f
46
33
46
1
b2
a1
c
3e
a6
b4
96
2c
b4
2b
80
9d
3a
48
2a
b2
38
3e
80
14
e
47
c2
cb
2a
c0
d1
83
3a
ae
cf
b3
39
32
48
36
40
41
36
46
aa
b9
c3
32
b7
bd
80
46
b8
a7
45
b9
99
37
2c
18
39
c6
b6
aa
31
98
ae
3f
b4
81
34
15
e
21
13
12
21
3e
20
80
3a
2d
be
44
ba
1f
3e
10
b8
53
a9
d0
48
21
c4
19
9
b3
dc
97
54
d5
ac
47
c4
c1
38
21
49
87
0
80
3b
b6
b9
26
bf
c3
cb
1a
be
cd
e
c5
8b
34
bf
d0
3c
b8
d4
48
14
bd
a7
37
24
37
3f
21
bd
a7
44
35
3f
43
26
81
bd
a3
80
32
19
16
bd
29
46
a6
81
4
2b
b2
b8
f
3d
bc
b6
37
39
bb
c9
c1
34
a8
aa
80
39
24
9
b4
3e
48
b2
37
38
be
c9
aa
39
43
b7
46
a5
2d
f
2f
47
42
b5
33
af
25
44
a1
ac
2a
a8
46
96
1d
3b
bf
30
3c
2
86
36
a1
af
30
85
80
80
88
a4
a0
b1
4b
9d
bf
9c
21
b9
19
2f
40
3c
3c
36
b7
26
a6
81
a5
f
a6
b3
4a
c1
cb
51
1f
9d
97
80
2a
2a
3b
41
a4
3e
8d
a9
4a
34
d1
44
89
c5
b7
33
38
1a
a
1f
31
40
b8
23
42
b7
2d
af
22
34
bd
a6
33
bd
b6
a9
34
80
c0
b
32
a8
d
37
bb
b5
37
b6
1d
47
37
49
27
2e
47
39
a3
9b
31
d4
c7
b
c7
b0
1b
38
a9
b5
41
a8
a2
a5
0
b6
20
10
2c
5c
2d
de
52
3d
9b
3e
33
3f
e
d7
aa
81
c4
27
b9
a1
1f
3f
dd
4a
b2
d5
52
b1
49
36
ea
df
42
e3
d3
29
d6
ba
2a
a1
14
bc
bf
b6
d
cc
21
36
db
bd
55
d6
a3
4c
d9
d7
44
c9
24
3f
ac
14
3d
96
c7
3d
81
d3
bd
9f
ca
80
bb
c6
2
4e
c7
ae
be
44
40
d9
3f
58
d5
b4
2c
cc
a5
3d
b5
b2
20
47
d
30
33
c3
20
c1
c0
ab
23
cd
db
d0
e9
bc
d5
db
80
c1
e
5
1d
12
42
3a
9b
b9
c5
a7
b1
b9
af
ac
a3
3d
93
41
35
9d
54
38
ab
a1
35
28
c3
b2
43
17
ca
b6
be
bc
c4
81
4b
5c
c5
49
52
d1
24
57
b5
39
40
a3
43
35
95
2b
3c
2c
3d
2f
b1
b4
80
bd
33
9e
c9
a0
43
d4
2c
5
b6
9c
bb
33
be
c5
46
b3
2d
31
a6
16
48
b2
c7
43
c6
c0
32
be
1e
e0
cf
bb
dc
c9
22
cd
c3
18
30
aa
36
2d
81
41
c1
ab
44
4f
be
a2
4a
1
b8
25
8f
80
da
d6
b1
cb
d4
b8
3d
c1
80
8c
a6
85
a5
3e
1c
a4
9e
c0
60
d9
4b
5d
da
54
c1
af
3f
af
42
56
b4
35
54
a1
2c
4c
48
d
c5
2d
18
c1
10
c6
16
38
c3
bf
4f
d1
a4
6
bf
14
0
38
48
39
88
49
35
b6
46
bc
bc
80
be
92
80
45
32
c9
5c
d3
80
59
ca
ba
55
c4
bb
0
c2
36
3b
3b
3a
1c
3b
27
2d
8c
53
c7
ad
26
b2
a9
47
34
54
ae
55
59
af
56
64
b1
a1
66
da
12
61
d9
9c
8d
bb
c2
ba
b9
81
0
c9
c5
c6
44
c1
23
81
31
46
23
48
3d
80
9d
d1
5e
b5
c2
57
b6
24
48
cb
a5
34
d8
b2
37
d8
48
43
b7
2c
16
98
22
0
3a
b9
af
40
bb
b9
42
30
b9
44
17
b3
cb
2d
14
c4
80
41
c7
27
80
d1
44
58
dd
4c
52
c4
27
33
cd
43
4b
cf
26
4a
de
cc
52
3f
37
b0
39
2c
1a
47
41
80
45
66
31
a3
6d
3b
40
48
0
bc
ab
b8
17
80
d7
36
b0
80
38
34
19
b5
27
3e
b0
9f
38
97
61
98
ac
52
81
3a
30
c5
c0
27
44
d3
53
4e
bc
49
50
51
45
d9
50
4d
d9
50
a0
d0
df
49
bb
d5
e
9f
c1
bf
3f
96
45
1f
13
c9
5d
a0
cc
48
2e
80
93
86
36
84
24
80
c1
5b
4e
29
3c
3f
92
18
c1
cb
86
17
33
98
96
80
b3
b1
46
50
a
99
3c
1b
cc
40
b3
b1
2a
95
9a
27
c8
c0
2c
cc
c7
7
c8
c9
9f
bc
c6
39
ab
33
cc
5d
6c
d1
3f
64
de
39
60
2c
4b
4d
9a
48
55
bb
51
5b
3a
50
49
39
4a
9e
2c
39
c9
2c
48
35
3c
31
cb
c3
2f
bf
26
56
26
3b
52
49
1c
50
48
d0
ad
84
d4
bf
c9
c9
d2
b0
b0
bd
c0
94
49
ba
37
8b
a7
af
36
48
b0
92
49
c3
39
ce
52
44
ab
5a
28
cc
47
1e
ba
b7
36
33
36
3b
2e
9a
a2
38
b7
87
25
b0
38
47
c5
c1
4b
90
c9
b4
40
b4
c1
46
9c
c1
d4
38
4c
c1
27
26
1b
be
81
96
3d
4b
a0
2e
46
24
38
59
45
d2
c3
52
e2
b9
57
db
b8
a5
3d
c9
30
32
95
19
90
81
d7
cd
42
40
ca
b9
3c
36
c2
3e
3c
b9
41
52
ce
28
48
c5
e
41
8b
81
4b
30
9d
32
96
1
ab
a6
c9
4b
cd
1b
22
be
21
d2
d0
56
a8
d9
25
3d
cf
bc
bc
38
b4
17
90
c6
3f
43
90
aa
80
21
c2
cb
49
be
d1
e2
c8
39
d3
d0
6
c1
cd
3c
36
9
40
1f
ce
4b
3b
3b
38
bb
35
51
26
49
54
3e
4e
47
22
4b
51
43
24
5a
49
4a
56
8b
94
13
80
0
c9
40
bb
8c
0
ba
1d
c6
c8
45
cb
bf
43
45
4f
52
43
54
c6
23
3a
c
46
4b
8f
31
45
2f
19
22
80
c
46
d1
8c
b0
58
80
80
5a
2f
36
1c
aa
35
98
38
3d
2c
45
3c
26
3b
ab
19
29
b5
1d
27
39
8c
3c
80
81
6
ba
c4
38
81
37
24
10
3e
15
1d
ae
15
39
a8
aa
81
5
c8
bb
b6
32
41
30
4f
4e
18
4a
4a
34
97
8e
39
b5
c1
bc
b7
b1
b3
47
81
e
45
80
3c
9f
4d
3e
c3
bc
0
c3
a7
a5
b0
2f
c1
36
1d
bb
27
37
9e
81
ad
2c
29
cf
bf
80
b7
ab
9a
89
36
80
cc
bb
bc
b9
c0
b7
33
34
c0
c4
41
0
30
81
80
4a
80
81
91
d7
af
c9
d6
80
d2
d3
19
26
81
9c
2f
27
b1
bf
2c
80
b2
bd
3e
24
23
c4
b3
81
36
b3
b8
90
2c
19
a2
a5
87
b3
36
19
bb
15
4f
c5
c2
81
33
bd
3a
ce
cc
c3
c9
af
3e
31
45
93
34
d0
a1
20
41
b2
bb
c8
b7
80
38
ab
b9
23
30
c1
3
bf
45
4c
80
0
3f
3d
b1
a1
c5
1e
ac
b4
28
3c
3a
9e
ab
b4
92
6
17
34
4c
1b
97
4d
97
a9
b6
27
a8
c3
27
a1
81
85
3f
96
3c
d4
c
0
2c
98
36
2e
4d
48
bf
a6
80
3a
30
3a
22
20
b0
22
81
0
33
4a
80
2f
36
42
9d
2a
42
3e
49
37
41
31
9d
b4
17
0
b1
80
9
1b
18
20
bd
1f
4b
c3
26
37
80
0
1f
4b
40
92
ad
2
8a
c4
a9
ba
a3
81
b8
a2
3c
3b
44
40
80
32
c3
ab
97
b8
ad
80
b9
b7
b8
16
3b
26
9f
c5
4e
b2
bb
38
26
15
c4
42
1d
c5
38
a3
34
b8
aa
a8
9a
af
d5
bf
2e
44
43
38
1d
6
c0
0
80
3d
30
2c
a3
a4
ae
14
22
84
52
c4
81
25
c5
2b
c7
a0
c8
be
b4
b4
b4
bb
a7
ad
25
b8
b3
31
39
24
bd
80
2a
3a
2c
2e
7
2d
3d
c1
b4
1d
b5
b1
97
e
2a
bf
21
26
b2
48
5d
3f
43
c0
8b
b0
ac
9f
81
1d
2e
45
49
39
ab
3b
b4
e
26
b9
aa
87
27
51
50
3e
51
5a
41
40
34
32
36
a7
b2
49
49
3f
32
4f
3a
c9
c5
b0
b5
c1
a7
33
84
2c
a1
2c
41
17
2e
a6
2c
c2
a1
b4
2b
80
bb
c6
14
3f
1f
46
3b
42
b0
3a
ac
43
80
3c
38
0
ab
81
81
28
be
b9
ab
0
c1
c3
91
23
b7
c3
42
81
9b
c2
41
ab
bf
38
37
b8
42
31
26
29
13
a2
27
b3
b8
a4
af
9d
44
31
b7
d4
b8
a8
b3
bb
3f
54
2b
35
b
c0
99
cc
94
39
3e
3c
1e
3f
3f
37
1f
81
6
34
1c
3d
4c
3d
b6
80
8e
10
36
b3
2e
b7
29
b9
b9
2c
bf
b6
be
b8
a0
c3
27
b9
36
be
bd
43
80
ae
a2
4b
3c
13
c0
cc
bf
a0
2f
48
40
4b
4c
31
3f
b2
ab
c0
aa
cb
c1
3c
81
37
31
21
a0
ac
35
47
a7
95
a7
9c
16
ab
bb
1d
ae
0
be
a7
ad
4
37
81
3b
c
a8
9c
98
ba
b5
ac
38
80
aa
49
45
4d
2d
80
45
35
4d
44
31
30
43
3f
c1
d9
2d
81
10
3d
52
ad
b1
16
3b
45
33
26
2e
3d
54
33
9e
b4
c9
a8
be
ba
29
3e
3a
b7
3b
0
c2
c0
c8
c6
2a
38
b5
35
16
c6
c6
a0
b5
18
85
32
26
c0
bb
bf
af
c2
9
38
52
58
80
bc
ae
35
42
34
3c
22
3a
22
c4
bc
3c
34
bd
2f
8c
a3
28
3b
24
b1
c2
21
1b
c2
bd
2d
35
34
47
a7
0
ba
32
3d
35
1e
3e
40
cb
c9
a5
2e
48
c1
b9
b5
2c
c1
a5
e
b0
3b
3d
86
2b
22
a3
4e
3b
be
b5
13
8f
b6
b8
c6
81
81
c2
b6
bd
43
9e
11
34
3a
1
c8
ba
9c
a8
c7
81
33
9b
bb
b3
ae
3a
b6
25
b0
c6
bf
b1
a
bb
bf
1f
9a
ae
4b
57
3f
25
30
37
26
3d
a2
d1
2b
92
c8
d5
ba
93
c4
4a
91
80
be
42
45
39
a6
34
a7
b0
2d
17
bb
b0
bf
2c
be
3c
27
2e
37
43
29
ab
3c
3a
4
a0
ce
9f
c8
c6
84
c8
c9
2a
11
1e
37
3f
c0
ad
38
b4
27
46
4e
ae
56
55
44
4e
62
5c
28
37
1f
b
12
bc
80
1e
41
40
3e
43
b1
df
d2
9d
cb
19
c6
d9
d1
cb
c8
83
aa
18
38
38
d3
b1
d0
c6
46
a8
51
2b
37
54
5a
43
29
a9
41
30
2f
38
45
40
2c
4b
5
95
99
7
c2
c5
b7
8
45
22
1b
ad
cd
f2
fe
ed
d5
e2
d8
c6
b5
ba
3c
42
a3
88
c6
a1
4e
20
41
c8
80
40
f0
f3
ce
6d
70
48
24
ca
a6
1b
a9
a2
4a
48
3e
9f
2e
be
19
b9
bd
e
39
c
a4
c2
c9
ba
e3
bd
1e
b2
6
c1
bf
ba
15
39
31
b1
b5
40
b8
3a
34
cc
14
2a
3f
8
11
5b
6c
49
43
39
3a
3
b0
35
8f
39
cd
2c
38
81
a2
cf
11
18
ae
40
18
81
a2
b1
84
b5
ac
10
22
c7
bd
31
36
0
8d
bd
b4
40
2a
bf
34
28
8f
2e
d9
eb
de
d3
d2
d1
80
bd
b4
ce
d6
b6
c4
d5
bd
30
32
3a
4c
4b
4b
cb
de
cb
81
bd
36
26
b6
9d
1e
34
2f
49
54
2b
33
94
a
0
98
14
31
af
1f
d1
a6
a6
30
48
44
3d
c0
34
38
4a
39
3a
4e
3a
be
17
29
0
2d
ab
81
aa
3c
26
33
3
c2
43
be
80
44
9a
39
d6
ae
ca
ca
b0
c1
d
be
c9
b3
c9
d2
ce
c9
af
c6
c0
1a
99
b7
2f
35
d0
47
3d
cb
da
a8
40
4
37
c1
2b
91
31
c6
c4
31
0
db
d8
1b
81
1e
53
34
ac
49
bd
32
bb
d6
c5
c0
c5
2f
46
52
57
40
4c
51
51
50
41
3a
50
41
d
aa
c2
9d
ce
4a
b
38
13
57
51
41
46
a0
35
ca
60
41
b2
e4
cf
46
4e
4d
2a
bb
b7
3a
22
b3
58
53
3f
c6
88
32
be
c5
1a
ca
bb
32
3c
11
b5
34
5e
5e
5c
69
5c
cc
c2
9d
bb
b3
a8
41
50
4b
28
c0
be
ba
3c
1a
bd
be
b6
c7
c0
bb
1
28
39
12
a0
2f
bd
ca
b7
c7
37
46
db
c3
86
3b
4d
55
62
69
59
28
48
31
b0
b8
2a
2e
b5
c4
20
a7
9b
24
3b
14
1d
80
39
3b
36
2f
cf
cf
35
47
50
25
42
3d
24
26
43
a
21
be
0
c9
db
d3
bc
db
aa
b1
c7
1b
15
0
1f
ad
c3
4c
22
ad
bd
33
17
26
d8
c4
bf
db
e3
c1
16
b5
b9
32
43
3f
4e
40
1e
40
b3
bc
ab
48
0
4a
85
af
b3
c6
44
d7
d9
34
53
4f
b5
96
32
36
bd
b7
b9
22
3
33
41
38
46
80
40
a5
80
aa
81
a2
42
34
c5
b9
a8
44
24
1e
3a
3b
47
4b
50
54
43
46
43
49
33
80
46
3e
cc
4a
61
51
35
b3
bf
da
de
d5
b5
80
4c
4c
40
4a
c4
d0
bd
4a
0
3e
5c
45
54
d5
d4
cd
85
2c
9f
64
64
55
b5
cc
d5
bd
32
21
3a
80
a3
d0
2b
36
1f
31
46
3d
b8
c1
c7
d1
c1
26
c3
a4
c9
b2
91
cd
b0
96
55
3d
80
4e
9a
bc
bf
ab
3a
b6
81
a1
c6
95
81
28
ac
1b
44
39
33
48
53
bb
25
4c
b0
80
c5
b8
32
cc
af
d1
4f
b8
c5
d3
c2
16
b3
38
a3
c9
ae
4d
ce
c7
46
4c
30
46
51
43
5f
5d
5c
c3
b6
c2
43
23
47
75
7f
5f
44
56
36
80
18
c8
c5
c4
28
bb
bb
40
5c
5a
29
4f
4b
31
e9
d4
8c
2c
cc
9
3c
a
0
c0
bc
b9
46
46
b7
0
53
4e
c7
b2
b6
46
53
a1
b4
b9
45
3d
81
a4
80
40
33
38
4c
43
4e
48
21
b5
c8
14
b7
47
4b
2c
33
ce
41
55
bd
d0
1
48
37
b9
ab
c7
d0
d2
48
2b
f
4f
2a
bd
bd
3e
17
36
15
27
ae
ad
9e
3c
80
9e
97
94
ae
ca
25
49
a5
b4
c8
a
45
43
ba
ce
50
44
b5
a7
2a
38
41
22
35
31
52
3f
9b
88
b2
be
b4
b2
3d
ad
30
af
ae
35
c3
3a
2d
be
18
ae
80
da
ed
d5
c7
b9
c9
88
56
47
44
5a
5
c1
cb
94
95
ce
c3
b5
d2
c3
c1
c1
29
d9
dc
4a
2a
10
c7
84
18
2e
3f
43
b5
2c
48
bd
b3
34
c1
39
c0
b7
b4
c6
b8
89
c0
b9
2d
41
4a
25
25
49
38
26
36
af
c0
bf
95
bc
b4
97
9d
0
3b
24
a0
3a
80
39
99
1e
2b
97
27
24
31
90
3e
8b
aa
30
bb
21
28
84
24
9
b
a9
af
bf
bb
22
9b
c7
e
0
84
2c
bd
cc
b7
30
c2
0
17
c0
b1
ac
ce
84
58
bb
a3
41
ba
a6
9d
b9
3f
2c
6
b4
b4
be
c0
bb
c7
f
12
d1
80
a2
cc
25
a4
a0
a4
ab
0
ca
ba
c2
b1
a6
af
2f
ab
2e
c2
9b
0
ca
40
94
50
30
81
3b
23
bb
1e
a9
17
a6
85
1e
ba
9d
a4
bb
0
bd
b4
19
c0
bf
2f
be
c8
89
11
4a
96
44
3b
bc
26
1b
b2
c6
35
33
c1
a6
91
c7
9f
2a
34
c8
c7
b9
c3
a9
a6
b0
ac
8d
41
ca
a9
3d
c2
c4
35
af
29
c1
80
3b
b4
9a
3f
42
45
42
44
3d
43
42
37
2b
43
13
c9
ba
33
b2
32
c4
c5
a2
a1
44
b4
af
4b
b2
af
af
0
39
47
9d
b8
48
aa
98
82
34
2a
51
35
39
3d
32
30
42
1
3c
81
bc
8d
b2
a9
c0
3a
b7
46
41
33
3a
80
39
b4
b0
7
48
4d
4b
39
2b
49
ba
c1
b6
d5
bc
a4
c3
b2
a9
80
42
2f
0
33
46
1a
a3
2f
80
ab
22
0
ce
9f
a6
c8
8a
b5
c2
17
3b
b0
2f
35
80
2a
3a
a2
9e
b8
3f
2e
ad
a8
b6
2e
8c
b5
d3
42
9
bd
aa
cc
a4
bf
b3
b4
ab
a8
2d
40
15
38
1e
96
4d
81
be
2a
c0
3d
80
bf
a9
c2
c1
c5
b3
36
bc
bc
c1
be
d5
c0
c0
d2
ac
ab
db
c7
c5
19
29
4d
33
85
48
28
30
4d
bd
d2
b2
d0
94
b7
d0
c8
c9
36
c4
bc
c2
b3
b9
b4
c3
2c
9b
29
12
32
33
8a
a3
81
b5
2e
a5
8a
3e
31
2
4b
32
1e
c1
c1
ce
d0
cb
c2
c7
bf
ad
b6
1e
27
ba
87
a
bb
d2
bc
c4
cf
d1
c2
cb
b4
1c
a9
af
8
a8
bc
bb
c2
af
9
ae
81
28
27
29
8c
21
81
30
25
2f
4a
50
40
3c
4f
42
43
83
2b
29
bc
31
b
2b
49
3b
83
3f
be
ba
89
b8
44
b7
80
46
f
b6
8e
b0
15
81
1f
95
9c
b9
34
3b
4a
2e
44
44
1d
80
36
8e
30
aa
bb
2b
41
3c
a4
b6
80
b7
2d
23
35
a3
45
4d
13
2c
9a
8a
30
25
80
41
3e
36
9d
8f
42
23
9d
3b
45
bd
a8
32
2b
2e
93
b2
35
27
b1
30
1b
c8
b4
34
a4
b5
87
bd
a7
34
24
26
9f
36
44
a4
27
33
c5
81
17
bf
b7
bf
7
b4
aa
39
ba
4e
43
81
3c
49
40
49
b8
33
51
bd
c0
43
8d
c0
b0
34
b1
47
28
3f
3f
0
b
50
4a
b1
af
3b
40
bb
3f
28
38
43
41
23
39
26
2f
2f
98
1e
81
0
a
a5
ac
96
a4
bd
29
80
b0
ac
3f
ca
ba
2f
c1
14
ac
0
2a
3a
35
3d
90
3a
34
ca
a3
2c
c1
c
81
b3
93
ad
d4
c6
30
cd
c5
b3
80
ae
91
cd
c0
13
a5
3e
43
f
31
26
44
45
33
3d
38
20
29
c6
81
91
b8
ae
b
9e
87
b7
b7
91
8b
42
48
29
80
30
15
bb
3a
3c
49
40
3e
d
3e
0
34
3c
b0
12
2d
40
34
46
a5
b0
4a
29
c5
2d
32
3a
41
30
aa
33
43
bd
1d
29
4d
40
31
47
30
47
4a
3e
49
3a
33
3d
32
44
80
31
0
81
3d
46
2d
49
0
23
10
3c
aa
1c
2b
81
a9
24
b6
3a
94
1e
20
98
24
46
81
33
e
42
c0
bf
3e
9f
bb
24
a7
49
36
31
41
20
3b
83
a3
be
b6
42
a2
c1
bc
b6
16
b9
45
87
35
b1
80
40
2d
ab
2e
3c
c5
c7
a5
81
1b
81
9e
b1
b4
a9
b9
86
2a
81
b4
b4
c7
39
a5
1b
bc
0
c4
a1
a3
93
c0
38
81
b5
b9
26
31
bb
28
1b
be
f
b2
b3
bf
80
b1
2e
4a
48
30
4a
4c
a6
35
48
13
be
ca
47
1f
3d
41
2c
32
4d
2f
bb
aa
44
21
80
4c
49
47
b7
ab
2f
b0
1d
15
ba
b6
32
9a
1a
cf
a1
a0
12
28
bd
1a
2a
45
32
3e
3a
a6
35
35
84
40
8b
46
3b
3b
46
4a
44
35
62
4d
5c
5a
47
57
5c
42
54
80
31
6
3e
45
4b
39
2a
3b
5a
81
25
57
9c
87
5f
49
40
5b
52
56
3c
1a
38
a5
ba
b3
4e
19
98
52
2d
35
4b
b2
1e
38
a0
2c
4d
15
3f
62
50
4c
44
49
2e
3f
80
b6
a6
cb
be
a0
0
37
8c
26
42
c2
b3
a7
9f
d8
d5
a1
d7
ca
ab
d6
bc
81
ac
1c
36
c1
3c
bc
9b
3c
bc
d1
cd
b4
c1
c5
2f
10
c0
be
bb
c3
a7
36
a7
b2
b1
9e
5a
45
51
21
b2
d
be
c9
c2
4d
32
4b
4b
3b
50
56
48
5b
3f
37
3d
42
55
3d
4f
47
2a
32
87
ab
27
39
3d
bd
40
35
c2
d6
d1
d2
d2
c6
d0
b9
bc
3e
88
2a
35
c
3a
2a
8f
44
9
51
41
35
36
32
ca
c6
a2
59
53
3d
5a
56
45
54
4a
37
45
46
4c
48
4c
46
4b
43
4a
9f
b2
cb
bb
c3
d9
a1
a8
b5
dc
db
c9
da
d9
d1
d4
d8
d4
e4
dd
c8
d0
cd
aa
ad
c9
10
c4
4e
49
2a
43
48
4e
41
2e
12
b6
45
98
80
25
2a
85
23
40
44
8b
31
34
81
80
36
9f
c9
c5
32
9d
45
2d
b2
99
3b
0
bf
42
8c
c7
0
9a
b6
36
ab
d1
bf
80
81
35
99
34
81
34
46
97
34
2f
80
c4
c3
b6
39
80
3f
3f
37
4c
36
10
3d
95
b9
38
2e
cd
c5
2b
cf
47
ca
e2
27
d7
e3
a4
da
e8
a0
49
35
b4
ac
34
a5
9a
a6
b6
bf
b9
cc
c
90
bc
94
9d
38
3a
3e
56
c5
c9
3c
b6
c0
4e
34
96
61
3a
22
5c
4b
4e
5c
48
32
4e
51
46
3c
4e
2c
32
42
33
c0
8e
2b
3d
a6
39
a7
4e
c8
d0
31
cf
c9
3a
b4
2b
49
ad
41
4e
3b
3d
4a
a0
1e
cf
db
da
d2
de
cc
0
b3
a7
59
47
37
57
3a
35
53
3a
48
af
3b
47
ae
a1
37
40
29
44
d5
dc
c3
c7
d7
b7
cf
ce
a9
34
c0
83
27
be
af
bf
c7
85
57
55
4a
55
43
48
4f
bb
3d
50
5f
50
46
54
51
f
37
47
be
c2
be
c2
d4
cc
c0
cf
d6
d2
b4
8e
cc
22
1b
c
d
80
51
c9
30
4a
1f
ad
39
b1
3e
4d
44
a9
49
49
40
43
39
40
cd
c7
31
c5
c0
ac
b0
0
42
18
33
47
32
49
4d
93
37
44
c1
b6
b7
0
15
15
ba
be
2a
a5
2b
c
cb
16
c2
c2
b6
b2
3b
c8
b1
5
d3
b2
a5
c7
a2
55
42
30
47
36
a5
2d
46
34
5a
54
68
46
9b
60
47
b2
59
44
34
50
48
41
55
4b
42
58
ba
12
16
be
33
37
b0
22
33
4a
22
3e
ba
97
81
2b
ba
af
40
43
50
8e
a0
f
b7
c1
b9
51
2e
0
4b
3f
3f
50
22
41
ba
85
81
b7
c2
80
cd
c1
9
47
37
3c
49
38
48
20
81
9d
cb
bd
88
d9
b7
a0
d6
c5
b4
3b
2b
b6
95
50
9
94
2c
26
49
b0
c5
4a
cd
c2
50
2c
b0
4b
3e
32
50
1b
2a
3c
36
3e
36
81
21
24
36
2b
a4
bf
a0
bf
c6
81
ad
b6
93
cb
c8
3d
22
3b
3c
0
54
80
bc
43
be
c2
d2
d6
c3
dd
da
af
c9
cb
50
c7
c3
a3
16
b2
26
3d
31
48
12
2c
43
27
2f
17
bb
b5
48
34
2b
47
29
3a
28
24
39
8
9c
2f
3c
2f
38
1e
3e
4
bd
d4
cc
b4
b4
b9
b2
bc
b4
38
d6
bc
33
d4
d2
43
cd
cb
3e
c1
ba
41
b3
9a
16
c1
c9
59
45
2e
4a
42
26
3d
44
4a
23
cd
c7
2f
97
c2
9
9a
a0
2f
33
59
38
3b
52
32
2e
4d
50
3f
40
45
2c
2
11
bc
3
ba
b2
c6
26
10
9c
26
95
c3
2c
9e
4d
42
2b
2e
39
2c
20
b5
30
4f
36
45
3f
45
48
43
a8
d5
c8
b5
c0
bb
ba
ce
be
81
81
35
81
ad
56
2f
4a
51
3a
31
22
98
3b
a0
bc
2e
1f
97
cf
c4
b6
cd
b4
14
c8
b7
a2
b3
8c
80
9d
e
33
81
b2
b5
2c
85
80
2a
80
90
94
a9
8f
af
bd
22
ae
ae
2
24
81
a7
ad
9a
2e
87
14
80
a1
46
99
3c
39
c
3e
3c
29
3e
29
d0
b9
be
cf
d4
c4
21
af
c3
a5
3e
3f
3b
36
3b
29
1b
a5
20
80
37
41
c3
b9
ab
b5
ab
3d
18
33
35
42
b2
5
8e
c3
bd
38
9b
9c
3d
32
ac
46
43
18
b2
b0
c
80
11
37
30
9b
96
ba
27
a5
26
99
a1
c2
d1
4e
56
4e
34
45
80
2f
17
2f
3b
8b
80
1f
1e
1b
b7
9f
0
97
a8
1b
bf
b2
9d
9b
37
3c
af
3e
49
9e
37
3e
b9
ad
a0
bd
44
f
2e
35
92
8
1f
9b
13
41
34
9d
34
3b
1e
42
39
41
50
34
19
45
2e
9c
3d
81
b2
8d
97
9d
be
c1
42
0
33
53
4d
42
47
4d
5
37
40
9c
81
39
c4
32
8d
30
31
2a
80
b3
3c
c2
b6
15
c4
bd
cf
9f
28
40
22
92
8d
2c
88
21
a6
c4
0
c6
cd
c7
cc
bd
c4
b6
2f
3b
24
b9
c0
80
a7
2f
1f
1a
8f
95
3c
a4
a5
a5
ac
b8
3d
8c
0
ac
36
b2
ad
b7
c5
be
0
98
b6
33
86
0
39
1d
4d
42
26
2b
2b
11
3b
27
a5
33
23
34
3a
47
1c
3b
3e
31
20
ab
2a
12
34
38
b9
8e
88
a4
41
c0
42
e
a3
35
a8
ad
b6
47
0
23
3b
b7
0
2d
1a
48
1c
28
32
3c
45
47
48
3e
4c
a2
c6
44
c3
ac
18
b9
bb
9f
1c
b6
3d
ae
3e
43
a
ae
b4
99
ba
9
41
e
c9
af
cb
4f
4e
46
42
3a
28
80
32
38
ac
b4
3f
89
43
3a
41
3b
9b
aa
12
17
15
80
84
33
29
2d
27
38
99
35
80
b8
81
80
c3
1a
38
3b
11
0
b1
4d
39
80
a0
80
c0
b3
b3
bc
b0
97
2c
8b
12
1e
cb
8e
c2
cc
d7
d2
34
cb
9b
a5
a2
37
2b
45
3e
58
5c
55
46
43
51
4c
46
39
49
30
96
42
48
1d
3b
40
3b
55
4b
40
45
35
34
32
82
11
80
9b
1f
34
42
37
49
4e
46
bd
ba
b2
bc
36
b9
40
31
21
a1
8
a9
95
af
b1
b8
b6
ac
3c
4b
3a
1f
51
4b
33
3b
34
c1
b0
be
14
bf
9a
3e
31
3c
96
ce
c1
a5
bd
b7
94
29
5
3a
b3
80
3c
a8
b6
3d
ab
16
1c
19
37
22
9
37
44
15
29
b2
9d
ae
c7
b9
b6
81
8b
b1
1a
af
b1
b1
81
1e
80
93
80
80
81
22
c0
2b
aa
c0
9b
b5
bb
24
81
81
2a
bc
bf
cb
31
2f
18
31
3f
42
2c
50
52
34
4a
46
49
0
23
4f
42
3a
45
b
0
c0
48
4f
0
35
45
3b
4d
3a
1e
31
4b
ad
48
37
3f
c4
c5
b7
af
c4
83
80
99
80
81
25
37
42
80
80
2b
2c
31
9c
b7
b
35
ba
c3
11
b5
b1
a1
94
b5
3c
3a
1c
31
31
9f
80
46
2b
c8
80
80
bd
80
b3
d1
c4
3f
b8
98
b2
b4
a3
b9
b8
c2
d2
97
8a
c4
2c
9e
bb
32
0
a3
ae
b5
c5
b3
d1
c8
b7
b8
81
95
b3
bd
bf
c0
87
1a
46
3c
ad
33
9f
b9
13
a7
4f
55
47
49
47
a4
b0
b0
23
34
39
3c
4c
54
48
b2
36
2b
3f
26
29
1d
3b
b8
39
85
8c
80
9c
32
b8
3b
2e
9d
43
40
3d
4c
38
33
39
1f
3d
2a
24
37
40
40
43
51
4e
48
40
29
3a
34
32
b7
26
b8
be
1d
28
b7
82
b6
c4
aa
ad
a7
30
23
42
3f
39
2d
32
2b
2f
42
98
32
4a
33
3e
3a
26
34
8d
af
a6
2e
2b
32
1e
80
9c
3e
9e
7
8e
0
21
0
cb
a3
a9
b9
27
c5
c8
b5
c1
c9
c0
33
e
27
21
b2
30
2f
9f
36
38
80
2b
26
40
c2
82
a2
a5
2e
80
1b
1b
9b
ae
ab
40
80
3d
33
bf
c0
b9
b4
a3
2a
25
b8
44
2b
3f
af
1a
46
c0
c5
29
b5
9f
c7
38
1b
b7
bb
2a
21
37
5b
49
25
57
4e
80
5b
64
55
3d
b6
80
98
b4
8d
be
c2
b3
ac
0
b2
c2
a6
a
bb
3a
3a
5e
5e
4d
41
48
9d
49
41
bb
2e
32
34
b
34
27
41
4d
40
b2
d7
d0
b0
9f
38
28
36
45
b4
39
30
2d
48
3d
43
3e
80
55
3a
b0
32
0
bf
49
40
c9
69
6f
68
53
57
50
3b
2d
2b
3d
53
51
48
53
45
4b
39
38
24
2a
34
82
ab
2e
69
62
51
8d
48
30
80
39
89
85
1f
a5
bd
90
b3
c1
23
88
be
96
b1
8e
a6
be
a4
c9
b9
9b
bf
80
b9
2d
80
80
94
39
ba
a4
c1
4b
b2
c1
3d
80
c1
52
84
ba
be
b8
bd
10
39
af
22
28
80
54
50
40
26
b4
b8
b0
cb
cf
32
2c
bb
b4
b8
c8
80
ac
b
48
4b
3e
42
50
80
50
4f
94
2a
26
c2
39
bf
b6
3b
b1
b4
c4
cd
cd
d5
d3
c4
c2
b7
b5
4f
4c
3b
3b
3b
18
2f
45
3c
b8
54
29
30
51
23
c6
c7
c5
4c
47
e
4e
56
35
55
56
3b
3d
4d
36
48
4b
3c
49
46
4f
47
a7
bb
b5
c2
d4
a2
29
a4
d4
d1
c6
cd
ca
be
c4
b7
ce
e3
d7
b9
d4
cc
a3
ab
22
3b
2c
33
41
37
39
22
3f
b6
31
a3
b0
2b
0
87
b7
ac
ae
b8
41
52
46
44
48
29
3b
4a
26
a5
81
19
3c
4f
4
c6
b4
50
41
36
53
b1
af
3d
c4
1c
37
47
15
b8
43
53
3a
4b
54
1f
29
44
3f
a8
32
9f
b4
ae
30
c6
ce
d7
9e
bc
b4
b5
c1
c3
80
4f
5f
47
42
37
44
9
4c
5b
58
28
64
5e
3c
5a
52
81
3f
35
22
99
b3
36
36
3b
2f
4c
48
a5
3c
46
c5
57
50
af
4b
3e
45
b3
c0
a0
2b
81
41
33
56
5a
40
5a
55
56
65
5e
4c
4b
49
4c
49
24
45
48
36
85
c1
9b
11
81
1f
b0
30
b5
30
2d
2d
b0
ce
c1
b8
c1
2b
3a
ae
46
a3
45
46
c3
a3
a6
d8
db
df
e1
e0
d7
c1
ae
a8
85
a3
cc
18
4
be
2a
16
b6
3c
16
3f
45
80
31
43
3a
3d
2b
1d
a3
84
a6
9d
26
36
a5
91
99
0
a5
b9
cb
c1
c0
cb
3f
31
3d
4b
46
2c
31
b4
ab
37
4b
3b
34
4f
33
18
39
45
c1
9d
b9
b6
cf
d1
b5
d0
db
aa
35
33
2f
4f
0
4a
3d
b6
12
c7
3d
a8
27
33
8f
9d
48
51
4c
ae
44
50
2f
34
3d
2d
1c
2d
33
47
3c
8
4c
49
47
c9
b5
8a
ae
39
81
95
2b
32
31
2
27
a2
e
23
9e
ad
2f
cf
0
b6
ce
a8
c6
27
c0
bb
c7
c9
b8
d2
d8
c6
3b
38
80
52
5f
58
3b
43
31
2e
50
47
44
37
14
37
27
15
50
b4
a7
5d
5a
5c
5c
5b
59
60
64
5e
47
30
38
1
aa
92
48
95
10
56
5d
55
c0
2c
81
2e
19
97
48
4c
4d
29
80
a5
93
c0
ad
52
4f
29
48
53
3e
4c
43
a5
b6
96
b9
3b
1f
5
aa
0
bf
46
41
39
42
42
48
4f
54
2e
ba
38
39
cf
80
34
d5
c0
1b
80
1d
ab
bb
11
a7
b8
c1
83
15
b0
c4
37
c8
c9
52
3f
38
b3
bc
bc
bb
c8
c8
38
43
97
41
38
ab
56
5e
3a
4a
42
32
2a
30
30
93
27
11
ae
9b
81
c2
7
21
9c
36
90
b9
a4
b8
c9
c9
d8
c7
d4
d3
bc
bd
c9
3d
9
a5
2f
2c
c
46
52
4d
52
42
52
3f
2e
a2
2e
c
43
45
40
1a
4c
3e
3c
49
48
36
c8
b8
27
bd
af
3b
80
39
28
0
81
bc
ab
1f
be
af
2a
b3
35
47
54
2c
b0
b1
3f
a8
a8
3b
38
80
e
33
a0
b8
81
bc
1e
38
49
b4
81
b
b8
21
3b
39
aa
ad
80
39
29
ba
a6
36
10
4e
4f
3e
53
48
1e
4d
44
cd
c3
ce
b4
c7
d7
cf
cf
ce
b1
bb
c
c3
9e
a7
ad
29
c4
80
b1
80
d3
d4
d6
c7
85
c8
25
3b
34
3e
3c
3d
25
41
39
b5
1e
99
c1
35
9f
a9
1a
0
9a
1d
a5
b3
b2
29
34
3c
b0
