f0
ea
d8
61
71
f0
f4
d2
ea
74
e6
c8
e0
f2
80
6d
5c
5a
5c
b1
ec
6f
da
ee
ef
f1
f5
3c
f5
d9
3e
7a
1b
74
f6
f1
d6
d7
76
ea
71
51
cd
fb
72
47
75
e4
d9
5b
72
d3
f0
f6
de
12
6f
5a
58
f7
70
e1
ec
3a
64
74
56
eb
5d
54
ec
31
d1
6c
f3
ef
cd
f1
be
75
ea
d2
68
f2
47
5b
f4
72
c8
ec
6a
a5
d4
68
aa
77
70
b8
72
f2
68
e1
64
71
69
75
ec
df
6e
d4
6b
ec
dc
ee
ef
34
61
da
68
d2
f1
77
f5
f5
57
ba
62
7a
4e
f8
57
6e
6a
f4
6e
f5
e0
5c
77
f4
8e
68
f6
b0
b3
f8
74
ef
61
f2
57
5a
e2
64
f6
73
de
76
c6
5b
4e
63
ed
74
68
f7
f5
d2
bc
ea
da
e1
57
6d
fc
6b
6d
9e
9f
e1
f2
49
49
ed
e7
73
be
f5
69
d8
36
6a
5e
68
e4
5c
cf
dd
69
df
c9
f6
f1
b2
eb
67
f1
4a
ea
65
5c
6d
75
73
c7
d0
11
49
ed
69
59
fb
eb
de
f4
c6
54
76
72
f9
e2
6c
70
fb
56
eb
61
ee
73
6e
ee
e5
d0
ed
2f
57
5e
64
e2
a8
25
cc
61
cb
f6
61
f2
60
5d
68
ed
66
e2
d8
d1
5a
3d
57
f7
36
d3
ec
e8
73
f7
71
85
70
3c
f6
f4
6c
d1
48
f8
6e
b8
f4
ca
69
f3
e2
f6
f1
75
75
da
eb
f3
58
78
e3
e5
d4
58
6d
e0
c7
f5
67
f8
ef
72
f8
71
ef
ce
54
c6
70
63
f1
6a
6b
50
e6
ec
6d
ef
74
75
68
6f
d9
f4
fb
71
f8
0
64
6d
ec
71
a3
75
5a
d6
70
62
ed
f2
ef
c0
54
63
72
e4
ec
60
f6
d5
b9
f6
9a
57
d8
38
64
6f
b3
c5
74
4f
f3
5e
77
42
72
6b
e5
5d
e3
52
d8
72
f8
f5
f3
5d
db
6d
ee
ea
73
bb
dc
f5
c7
76
ed
ef
ec
f3
56
72
d8
77
4c
ec
71
5c
68
70
de
32
f4
f1
da
57
58
d3
cb
6d
ee
36
b5
75
f6
f6
72
f4
d9
6f
6c
f1
bc
46
4c
36
4d
ef
70
f0
35
d0
ca
74
6f
f2
cd
e7
6f
78
6b
6a
e3
6c
df
69
61
69
e7
e0
e0
f8
ea
df
5c
d4
50
63
e7
6c
f4
f2
5f
f3
f6
e4
dd
f7
e4
d2
d1
e7
61
d8
ee
46
74
ec
f7
5f
e1
71
e0
f9
70
45
77
63
45
7a
f0
f3
76
66
70
a5
f8
d1
ee
de
f6
ca
e8
99
d1
6d
dc
ec
f2
f7
ec
f2
ca
f1
5c
f5
f5
cc
f9
6a
f6
cc
f2
f5
7b
79
e6
77
64
78
f4
f7
de
76
d6
5d
5c
e3
ec
dd
eb
94
e4
f5
4f
51
d1
75
75
f4
60
74
f2
dd
f7
f0
70
e5
f3
73
75
f3
e6
e8
f7
ae
73
74
e8
f5
bf
d6
4c
e1
ec
f7
eb
bb
e7
ee
d7
ed
6c
f6
6f
64
f9
65
77
35
e7
59
f3
f6
31
d9
f7
f8
f0
5c
4e
f3
3e
ca
59
66
5e
66
e6
72
6c
77
56
65
e0
56
f3
c8
73
66
e9
ed
99
55
1e
cd
f5
61
5d
56
f5
61
ed
e2
78
f6
57
eb
d7
f5
d2
6a
77
e2
f4
f8
dc
ee
c1
f7
65
80
f5
f5
e7
3b
a
6b
f8
ea
63
fa
dd
66
fb
68
e6
47
77
48
e9
df
5f
e7
6b
34
bd
e2
65
f5
65
f2
5d
e3
47
78
ee
f8
db
eb
60
72
f
ee
60
ec
70
ed
73
12
4b
78
5d
71
e3
ee
75
da
71
e3
29
f9
eb
5d
35
f7
74
da
65
ec
6e
71
74
66
65
cb
cc
78
d9
bd
12
77
eb
ca
ee
b3
db
65
70
af
6f
f3
cb
4c
f7
6f
6a
6a
61
e5
44
f6
5d
d0
80
f1
77
69
63
58
5c
55
72
75
dc
fc
bd
6d
55
59
4c
ea
68
e4
f2
e4
70
67
f9
6f
ef
5b
5f
68
5c
f2
67
4b
3d
e1
6a
68
b2
f9
e0
c6
6c
df
f2
4e
6d
d7
ef
62
75
f4
f6
7
f7
72
f1
d4
5e
49
e2
5c
f7
e7
f4
e5
34
e5
bf
e5
ec
ec
d8
50
e4
69
79
f4
c6
f2
ea
f1
2c
59
6e
ed
e4
df
74
c4
ef
f7
70
78
62
f0
f4
66
62
73
62
73
ed
dc
ec
5b
c6
6b
76
e5
df
49
60
1b
e9
e3
cb
74
4c
ea
59
f5
f7
23
b7
77
fa
e3
6d
49
f9
ef
f1
77
f3
64
c1
61
f1
ef
71
d6
d1
64
df
d5
6e
6b
e0
f0
ee
92
af
6d
f7
30
f4
39
4c
73
ef
e0
57
43
4f
0
f4
f1
e4
f5
e8
6c
fb
f3
ee
68
5b
ad
f4
f2
eb
f0
55
f6
e3
db
60
6b
6e
ae
69
73
3a
3d
cc
5d
73
2a
cb
d4
f3
65
6f
f5
d8
f1
17
f2
5b
e0
4f
ef
6d
5e
ca
70
6e
f7
56
eb
d8
ea
eb
6c
f6
58
6d
e7
d4
e7
63
ef
71
6f
5d
64
e3
5e
5e
68
ed
ef
d2
68
bb
ec
cb
eb
75
ed
f7
f7
76
c3
f4
f6
69
f7
65
4e
5d
73
75
db
cc
67
73
5f
56
ec
50
62
5e
61
c5
f8
6c
f8
76
d2
5f
ef
c4
6e
6c
ca
dc
e5
6e
78
ef
db
76
68
ee
ae
ec
6e
ee
fa
f4
b2
57
4a
f8
ed
e8
3b
fa
6f
be
de
74
e0
76
f8
f9
f1
7c
64
e8
72
f9
db
64
e1
c5
c0
71
81
70
76
5c
6f
ec
e1
c7
f9
f7
e9
fd
de
63
e9
74
53
62
5e
e4
53
dc
5d
d4
f9
66
78
ee
62
d6
76
37
b2
80
ec
56
64
f2
75
74
c1
f0
bf
f0
d6
db
e3
f7
e6
80
76
f5
5e
e5
57
69
69
f8
d9
c2
65
f1
55
7d
78
d7
57
6e
64
f8
d8
dc
eb
5e
62
d9
ab
6
60
f3
4e
54
23
e4
70
a6
ed
5a
f1
6c
f1
d7
4c
6c
f3
e7
49
77
e5
76
64
d8
a1
ec
ac
75
cb
dc
53
eb
d9
6d
69
f6
4b
6f
62
d6
70
4b
65
6f
f3
66
b6
d5
d3
e2
6a
d6
d7
ec
43
77
e9
5f
60
e0
e8
4e
e3
63
e0
73
33
e7
6e
c9
e7
73
57
61
62
71
5f
ea
dc
5b
ef
e4
65
98
38
f5
e8
6e
eb
e4
cf
db
57
6d
e9
e2
d4
d9
6e
61
f8
e1
71
52
62
f4
dc
db
33
50
bc
71
f0
be
61
6e
f7
d4
71
39
f9
56
f6
c1
6f
f8
6f
62
59
e3
5c
ec
47
de
f3
e5
d9
76
64
4d
51
f5
e1
33
b6
f4
a2
68
74
f1
f3
ac
f3
5
f6
75
dd
f1
d6
2c
f3
ef
e5
ee
a5
70
73
2a
56
f8
cb
63
f6
e1
e7
f6
f2
5e
77
f4
f3
d2
64
f5
2e
f0
77
6a
ea
47
de
3b
72
d9
5e
71
9b
51
70
dd
6d
f0
f3
e1
68
43
d3
f6
f6
28
6f
f5
e8
f0
77
43
d9
df
eb
ef
6e
e9
42
f5
5f
ed
ef
61
5c
f6
e1
f3
40
df
66
dd
5b
ed
8e
72
60
e1
9f
b5
d6
df
ed
72
2b
57
f7
ee
93
ec
75
e8
4a
d2
6a
ae
d6
f7
57
f0
e9
65
39
77
6f
ea
eb
f2
f5
6f
e7
f0
f9
f2
5f
59
f4
bc
fb
f1
b0
d0
ca
6f
69
77
f3
6c
ce
59
e9
75
4a
ce
e9
f8
f4
42
77
f7
6f
f2
f3
e4
f3
e3
ec
55
5d
f3
76
a1
ec
66
73
30
f4
f0
74
cc
65
5e
e8
4c
e8
55
fa
74
70
f0
46
d9
e2
ef
a9
73
dd
ee
ed
72
cc
f6
76
c6
ea
69
ec
72
64
4f
60
ef
6a
72
f2
61
54
5e
f4
ef
e7
e9
e8
ee
eb
f7
39
f6
59
36
f1
67
f8
4f
db
75
dd
75
40
f8
74
d3
f1
70
2e
f4
c8
61
56
41
dc
1a
1f
f5
59
ee
6b
32
bc
6b
f6
73
e6
52
df
d8
5c
74
75
ea
e0
f4
74
cc
61
e2
ef
3f
67
dc
f9
4a
e3
f3
5c
76
f0
c2
60
e0
ee
76
ed
74
df
f7
6f
76
57
f2
eb
0
ef
71
f7
cc
3f
71
60
ee
5d
e6
f2
c0
68
db
5f
ec
bc
23
c2
53
5e
61
cf
f7
f1
e7
73
6f
db
5b
76
b6
48
50
5b
b5
f5
73
5a
dd
72
62
58
64
f6
ed
61
f4
73
f5
5d
50
fa
cc
3
4d
62
ee
f6
ed
f3
3a
48
a2
d9
f6
5c
7f
e3
ef
5d
f7
fa
e6
4d
f2
48
c1
f6
e9
67
76
44
ed
72
49
fc
65
3e
6f
f3
e2
77
80
f7
66
6b
6f
f3
65
6d
da
71
70
77
99
11
5a
e1
f7
bd
59
d6
53
31
71
ee
60
67
79
f3
ef
e8
db
eb
f6
e3
74
f2
d1
f0
f8
51
ed
e4
f3
e8
df
13
e5
76
f5
5c
d6
ea
79
f1
5b
5a
65
69
71
70
9d
72
cf
f5
dc
ee
df
ec
e5
ef
f5
f7
61
55
60
ef
f0
ec
45
e4
73
5a
f4
f6
d5
f3
7f
f8
d9
d7
5f
da
e8
d9
6f
ec
51
da
22
45
f4
1f
e3
63
49
d1
74
69
f6
78
f6
59
e5
e1
4d
5c
66
d7
6e
70
58
58
b9
a1
ad
ec
d6
4f
6d
d2
e8
44
39
ef
b8
b4
e9
f6
e1
1d
25
d1
e5
f1
e6
e8
f0
ce
53
f8
a4
ef
fa
5f
eb
f0
70
dd
7e
49
56
e7
43
ed
4e
64
d7
eb
f7
54
ee
c1
f4
ab
f6
ec
63
75
63
e8
77
df
b4
e3
d1
71
f8
f7
71
d4
3e
48
77
db
6d
6f
62
ec
e7
f6
f6
f2
f2
5e
f7
f5
77
cf
5c
68
e4
53
60
f8
f5
4a
ea
4b
eb
46
67
50
b8
eb
da
c8
79
cd
f3
67
e4
e9
ab
f5
6e
f7
f2
eb
5a
69
6f
57
ef
f7
75
6f
39
f8
b2
e7
74
e7
f3
d5
65
65
ef
4b
76
5a
c9
f1
f0
63
63
f8
ca
f6
e0
e4
f3
f0
56
d2
e3
e1
e4
70
70
f4
ea
f1
da
d9
65
f0
b9
f8
f0
45
f7
f7
ee
72
ad
d6
78
74
66
74
f0
f4
73
71
f3
67
6a
dc
5c
ea
64
b9
70
e6
54
77
d6
d8
d2
ee
bd
72
4d
58
66
1e
e3
58
75
e5
cb
3c
c6
e3
f8
e0
f
f9
ef
71
6e
72
ed
93
6f
63
c7
76
45
6b
cb
d2
f0
e8
dc
f2
f3
d5
f7
be
75
5a
60
6c
66
eb
6a
9f
f5
ee
b5
ca
6a
73
71
f4
62
f2
e6
e4
f6
9b
3d
ef
f7
f5
76
5e
e6
63
72
f4
5e
73
77
71
55
ed
f6
10
e1
57
c8
f6
6b
5a
5e
f0
f0
5f
ec
5e
e9
cc
be
eb
3e
db
df
e1
69
f0
e7
77
f3
6a
9e
6a
56
f4
c4
76
62
fc
40
6c
e2
80
e5
eb
72
69
eb
f6
f2
d6
57
71
48
5e
3e
6a
63
f1
e3
ce
51
f8
af
f5
d8
4b
f8
8
f6
f0
66
6b
e8
f4
75
6c
26
78
c6
f3
e3
ef
f5
0
6e
f4
f8
48
6b
73
d4
ce
e9
37
61
67
da
f8
76
6b
e9
c0
66
f2
86
f4
72
d9
51
c8
f8
f6
f1
de
72
f4
5c
67
e8
4e
dd
f8
d5
74
f4
f6
49
dd
5d
f5
76
ef
57
d3
76
c0
b7
50
e5
f9
dc
f1
72
67
d0
e
4e
68
6d
f6
81
ec
46
c0
6b
71
cf
6f
76
3e
f0
4e
ef
54
c7
5e
4f
ed
db
d5
d0
6d
d1
e1
6d
e2
66
72
f2
76
3d
43
78
cc
ce
f6
f5
f1
f3
f0
db
c1
df
e9
2b
