509
fffff7c0
fffff8f2
258
fffffcaf
fffffff8
fffffea2
e6f
fffffbbf
1237
4bf
791
276
ffffffe4
fffff8b0
6e4
52d
702
3d4
284
436
133
813
fffffc94
4bd
b09
5b9
ffffff71
14
fffff182
fffffc6f
642
fffffefa
fffffcf3
fffffd35
1b
5
fffff95a
7a6
aa4
90e
ffffffa3
ab2
fffffee0
bd
767
ffffff52
25f
fffff53c
fffffd47
88
ffffffa9
5bb
1130
ac0
bb9
fffffcc5
1d4
fffffeed
fffffe4e
ae0
6a6
3a
fffff9f4
fffffdd1
167
fffffd7d
fffffc0e
fffffcad
7fb
3ea
fffffa38
ad
8e3
ffffffe5
59
fffffe39
253
fffffb0b
7b8
ffffffb6
f61
fffffd5f
fffffeb1
eba
288
fffffc9b
cd3
fffffdea
ab0
84c
c53
2de
fffff18d
14
616
fffffd7c
fffffc7d
fffffc2a
fffffa16
fffffc78
fffff9d0
2c4
491
917
896
6c5
fffffa89
fffffd22
22a
fffffbea
700
fffffb5f
1429
fffffcde
6b4
686
99e
bc0
b21
fffff507
6d0
fffffab4
fffffee6
af3
603
ffffff86
5d9
