16
15
0
ffffffb0
ffffffc8
cd
fffffffb
2
ffffffe8
ffffffe3
ffffffe1
9
fffffff0
79
fffffffd
ffffffcb
ffffffd5
44
fffffff3
c
4a
28
1a
b
ffffffcf
fffffff6
a4
fffffffa
fffffffa
4e
31
ffffffef
ffffffe7
fffffffe
e
fffffff4
4d
10
1d
22
24
81
fffffffc
ffffffec
fffffff7
ffffffea
fffffffc
10
3b
23
6
31
10
fffffff4
fffffff2
7
ffffffea
ffffffec
2a
c8
fffffffb
fffffff8
3
ffffffc3
