6f
56
48
e2
ea
df
6c
ed
eb
dc
ee
f8
73
58
5f
f3
77
b1
41
e1
5a
d6
6e
d9
72
f7
dd
66
dd
da
64
6b
f2
52
6b
75
68
41
79
f5
ea
3b
e3
f5
63
ee
dc
79
4e
bc
73
da
da
e4
d5
79
b6
5a
eb
5c
68
f1
78
fa
f7
74
9d
f3
ef
e1
5b
f4
fa
f0
6a
73
f7
de
ee
f2
50
f8
53
b8
e5
fb
67
6e
fa
f4
71
73
ef
d7
df
73
eb
ca
ee
f8
39
2e
6d
73
e7
6c
e2
e8
ef
7a
43
3b
4e
e3
fe
6b
d1
59
67
71
69
dd
5e
77
73
f3
f7
66
53
c4
4d
f7
f4
7a
da
4c
77
ca
c6
ef
75
f9
e8
69
78
f4
6f
57
d7
53
f3
d3
4b
ee
ef
78
f4
63
f6
7b
53
54
e7
6b
28
71
57
74
80
fa
5d
50
76
dc
fd
61
fe
76
c3
71
ec
6e
4c
6f
6b
f4
9c
4e
77
fa
74
ec
f3
da
e6
d5
ef
f8
f3
72
f6
f2
ee
75
1d
46
c5
f3
c3
75
7f
ef
6e
f4
3b
ea
80
f3
70
7b
f4
a1
52
eb
ed
76
fa
f9
ea
e2
5d
ef
72
77
f1
de
5e
e9
80
78
65
eb
ea
6b
f6
75
34
f2
7e
f1
f5
4a
de
f5
60
f4
