40
4e
de
de
55
c8
d2
9b
ca
ce
b8
d9
cf
3a
5a
3d
b5
b8
5a
5d
d6
d6
5a
c8
de
e5
d3
3a
30
4b
4f
2c
dc
61
52
bd
b8
5c
3d
5c
c2
44
51
c8
ab
4a
d4
3b
a8
14
34
bf
48
53
b9
ce
59
1c
1c
e1
c9
47
df
da
bd
83
4f
d3
4d
d5
e7
b6
b5
b8
b4
c0
5a
60
4c
48
ca
82
3f
f
50
da
55
1e
55
43
44
61
8a
d5
e0
38
5c
d9
5a
56
5b
c7
cd
42
5c
49
3e
4f
47
c9
44
da
55
ba
43
9d
d3
a5
d3
53
c9
1c
4c
4a
e1
c2
4f
28
bf
de
ba
49
c2
69
4f
2e
3f
62
cd
33
82
46
26
3b
5b
69
d3
24
47
3c
e7
e7
bc
da
d4
cc
53
4e
65
df
ad
67
9
61
4c
b9
d2
5d
cb
dd
4c
67
66
c4
16
44
d8
0
de
d0
ab
d3
53
cc
d4
55
c4
39
31
0
60
da
c0
32
c9
67
81
3c
67
46
6a
e6
25
5d
df
c2
6b
5c
49
35
c3
5b
d1
86
bd
df
d9
dd
e0
41
0
8d
9e
1e
4f
4
45
5c
cb
d7
5d
da
61
54
be
3b
d1
67
d1
db
54
e7
0
c6
0
bb
e5
ce
d7
cf
e6
58
e0
de
c4
d4
cd
54
d9
4c
c
bb
bb
4c
44
da
d7
c5
c2
b1
d0
4b
dd
57
5e
25
dc
4d
d6
b4
c0
60
32
54
e0
5f
63
3d
d2
c2
5a
db
52
62
3e
c2
56
45
1b
d7
4c
55
2c
d5
5f
a6
cc
80
62
c8
e5
44
64
df
c6
56
d4
d9
50
da
4a
b9
30
30
d5
b9
d7
80
c4
52
de
3a
57
d6
81
dc
4b
5a
5
2e
dd
b1
2b
ce
5b
de
37
4f
da
54
3c
4b
80
c2
49
39
5f
53
d0
57
90
c
b9
5c
80
5a
5d
2e
57
dc
2e
19
bc
d8
cd
24
ca
d7
d1
54
46
52
d1
ba
4e
dd
6d
d0
d3
69
6a
67
55
e1
63
d8
38
39
66
3a
20
d0
b1
5d
e8
53
67
be
59
c1
3e
cb
e0
2d
5b
c5
5d
57
5c
d6
ac
56
48
69
57
56
58
80
34
db
cd
61
e1
d0
77
63
c4
cd
ba
e9
6e
66
c6
b1
e8
c4
5f
1d
68
68
74
de
d2
e8
df
4e
3a
df
2d
cd
47
69
cb
5d
c1
32
5c
5a
cc
cd
c1
6e
3f
4d
d1
bd
59
50
69
25
61
dc
cf
c5
6f
d8
8f
66
32
c0
e0
df
d4
e4
e5
5b
cd
da
e6
db
2d
d3
b3
81
ab
5e
e2
d9
5e
d7
63
45
e2
3a
c1
2d
5e
e7
4f
34
b5
40
38
b1
d6
80
33
1d
50
c2
b1
5e
3c
88
3e
c0
27
52
5e
c1
b7
bd
c9
ec
dd
37
32
d8
eb
39
60
5b
4c
39
cf
51
4f
4d
c4
dd
58
58
d4
61
d6
9d
d3
d6
d4
db
3d
26
41
50
59
5a
45
23
dc
de
ce
cf
c6
4c
da
1c
cb
51
4f
d8
f
81
58
d
5f
3c
65
d8
2b
3d
4e
cf
e0
dc
cf
d2
cf
52
44
dc
51
4d
59
db
b2
d9
c
3b
46
5d
ea
cb
5a
55
3b
4f
a1
de
5e
5c
ba
cd
b8
e0
d9
5c
bd
56
2f
53
cf
73
4b
5f
91
65
de
ce
e0
6a
de
e0
c2
bd
be
e1
bd
bf
d7
dd
5f
e9
e9
d8
6b
6c
cc
f0
da
16
f6
4c
49
71
eb
26
2e
69
a2
80
ab
d5
4f
c
5e
6f
ad
ee
4c
dc
f2
49
81
e4
d6
d0
4b
68
e2
d8
da
64
c7
bd
da
b3
e9
d5
ef
63
e8
cf
c2
d9
d3
c9
6a
6d
e3
be
b4
f3
cd
67
eb
81
54
4b
3b
60
4d
b9
59
d6
6f
c8
cf
51
e0
de
c6
48
4e
2a
e4
60
d5
7a
e7
62
73
eb
d8
44
46
59
e3
5c
76
bf
e0
a0
df
e3
73
ce
c7
5b
57
65
d7
e5
42
d6
46
3a
d1
41
db
48
c6
e1
d5
52
4e
29
43
d0
55
cd
4f
48
34
49
4a
c7
d0
ce
5e
4d
4e
49
50
e6
da
c5
c5
33
81
da
5a
da
cc
3c
39
d4
d2
ce
d6
53
e3
5e
12
60
ed
40
94
c8
52
df
d5
5f
5a
31
de
81
93
83
d3
d2
69
4f
ec
56
d3
69
d6
61
51
59
df
2
e8
cf
4e
3c
d8
61
a4
60
45
62
df
b2
ce
61
de
5d
df
3e
c5
5f
80
51
2f
ac
98
80
4e
cf
37
5f
b8
5b
e3
8f
57
e6
58
d0
ac
bc
c0
53
59
59
2b
74
62
b0
64
d6
22
d8
4c
57
47
62
cd
f4
dc
3a
cd
f7
dd
5a
6f
ef
d8
5c
78
de
e1
c2
3e
71
ec
b8
ac
e2
e9
56
e0
dc
5e
e1
ea
67
e7
53
5c
67
d8
3b
55
dc
f2
d0
e8
6f
d1
d5
e6
d6
5c
41
77
61
ed
c3
63
cb
c5
51
f0
72
b6
67
48
4e
40
d8
64
64
5f
2c
d8
5d
df
4d
3b
4d
de
53
d9
c7
da
de
ae
59
52
49
df
6f
69
63
4e
d7
c3
f2
c7
58
55
43
d4
b8
60
64
ee
f7
6a
cf
57
d7
e4
e5
9f
c5
e3
45
e6
d8
1b
69
ba
62
33
5f
31
b6
b4
e8
d2
dc
3c
29
10
9d
5e
d9
50
3c
cd
12
45
53
d9
d0
48
cd
ce
97
c8
bf
a8
63
d2
55
e0
57
d
b1
e3
5e
c4
cb
51
32
cd
58
d2
46
d9
e1
c4
50
c7
e0
38
b4
ce
dc
60
b2
52
d3
d8
4f
b8
4b
dd
a5
29
d0
cf
d1
51
5f
c5
d3
8b
4e
d7
de
27
5b
c8
31
b4
3f
ce
c6
a8
e3
cf
b3
d8
4d
bf
4d
d7
b5
b9
d2
1d
2a
de
db
cb
c8
e3
c3
5b
59
94
5b
55
54
bb
5a
df
d5
65
5f
c5
d7
b3
9c
cf
47
54
38
1f
5b
eb
ed
e5
ec
e3
53
e2
4e
62
d0
c6
ab
59
c9
b4
62
5f
33
75
75
6f
64
e8
52
ef
5c
35
e4
da
df
db
a7
ea
c7
57
c4
b9
58
da
ea
df
e5
c8
71
b1
41
bf
a7
f2
eb
54
e5
3e
69
e9
e3
cf
dd
d9
44
d1
71
4a
65
61
e5
cd
d8
5b
5f
ca
69
5f
32
ce
ec
68
c8
4c
62
6a
f2
d9
f2
ed
62
52
66
6b
db
c6
d8
e6
63
b8
d3
4c
f1
3c
e2
3b
73
de
fa
bf
5d
4a
9
c6
6b
e1
46
48
da
de
45
67
40
d1
46
36
ea
4d
5b
68
eb
e0
dc
52
ba
55
d1
52
d3
57
35
d2
55
58
ca
4d
e5
47
de
92
54
ce
59
d6
cb
e3
36
8a
5e
53
5c
c5
bc
b8
43
e5
0
49
bb
da
dd
e0
33
45
52
b1
33
c1
bc
de
80
4b
d2
52
50
49
d2
b7
81
3d
c1
d6
ca
52
d4
ba
67
5c
c3
d2
98
c5
ca
50
48
6b
2f
52
d9
af
d6
ab
4f
48
64
37
5c
64
13
d4
c3
d0
b7
d5
c6
dc
cd
42
d0
97
43
df
43
5e
3f
5b
c3
ea
59
42
ab
4c
56
5f
a9
48
e6
c2
4f
5c
5c
4a
48
2a
c5
22
df
dc
4b
d9
7c
d6
51
47
39
dd
db
f9
6b
dc
e8
5f
6e
40
a5
61
c1
5a
5d
59
71
6c
d0
5a
6f
9c
d8
52
ee
5d
d1
e8
54
b8
3b
68
75
5f
dd
80
c2
df
f8
6f
71
e2
e0
a0
f6
6c
f0
5b
c8
51
5b
da
5b
eb
b5
ea
b4
53
7f
72
56
50
f2
e0
80
48
77
b4
da
37
81
50
6c
ea
e2
58
61
53
d6
d7
ee
45
dd
d0
5e
5d
d8
5f
2d
74
e1
d9
a6
3c
f9
cf
e2
47
7d
f5
9b
ed
6d
d8
53
62
36
e0
69
cd
41
dd
df
71
cb
c5
b3
d4
d6
6f
e5
41
f4
5f
42
38
80
44
56
df
51
48
60
81
d8
d5
b9
4e
cf
1c
3f
d2
80
cc
97
de
de
c4
d9
d8
dc
5d
56
c3
d9
49
d6
36
e0
3f
2f
d3
d1
50
5d
5c
d8
5f
c8
5d
5c
58
d2
2f
e0
44
29
49
bd
cb
5f
d7
44
57
5f
52
d2
aa
a7
cb
b6
cb
d6
c0
db
e1
57
c9
ba
5b
5b
5f
43
db
b
56
3d
3f
26
52
34
3a
a1
b9
19
5f
3f
b6
42
dd
52
c2
32
c2
49
51
34
de
d1
56
3c
c0
60
d5
60
4f
5e
bd
de
4c
aa
60
43
51
56
d9
dd
48
c8
5b
51
5a
dd
cc
de
cc
ac
da
da
d4
5e
c2
3b
2e
d7
d7
3a
d9
9e
dc
c6
d6
d3
b5
be
d6
57
cb
b9
c4
80
cc
dc
c4
db
56
5d
4b
13
c0
5d
46
d
c0
3f
d3
d3
d9
de
4b
c3
c9
3f
46
48
df
bd
5c
c9
1b
58
5a
dd
c6
c9
d7
d4
80
59
41
d5
df
57
e0
3f
5e
db
c6
25
57
dc
5c
ca
25
a8
e0
c4
27
80
3f
d3
55
3d
56
4b
41
d8
9f
5c
38
b9
9d
de
d5
d1
59
bf
d6
d9
df
bb
c1
ce
bd
4f
4c
52
b2
dd
57
2b
1e
55
d3
d2
32
e0
db
51
5c
58
53
4c
d7
4b
47
cd
d4
2c
ce
d5
bd
da
da
32
cb
65
3b
aa
52
57
bd
26
cb
cc
4e
12
54
3c
41
57
43
d1
d4
5c
bd
c8
d0
c3
5e
a1
51
d2
4b
9e
49
53
41
db
c8
3e
b7
58
df
4c
4c
da
c2
16
d6
5a
53
d5
d6
ba
54
d0
53
e0
60
d3
d6
46
51
54
c8
52
d4
1f
b3
1
3a
5a
36
cb
50
44
82
58
59
4d
23
51
cb
d8
bd
c8
d8
5f
b5
55
d5
23
d5
b3
a7
d9
50
d6
a4
53
d6
dd
d8
3e
d3
24
d5
17
ce
5a
d1
d9
c6
a2
ba
44
cc
e1
4f
d2
d4
d8
c5
d9
62
e0
62
81
d6
ab
50
5f
1f
51
e8
60
4f
55
6e
dc
3e
b1
24
8d
c7
dc
3a
45
e0
dc
67
57
21
50
66
d0
5f
58
56
49
b1
c7
65
60
bb
da
e5
5a
a3
da
55
2d
11
4f
e3
c8
37
44
5d
3e
3b
da
58
c7
3c
45
80
30
49
69
a4
df
d0
5a
3e
29
30
a9
6a
c0
db
c7
da
65
c0
a6
e1
56
df
da
88
3e
b6
e2
c8
54
4e
2f
de
55
81
4e
d4
5f
53
c9
ca
bb
d7
a3
e3
a8
67
17
ce
0
d8
cc
3d
a0
74
9b
5c
48
36
34
58
5a
46
d5
47
ee
60
9e
d3
bd
dc
41
bc
5d
df
5
80
ce
34
cf
c0
b8
d7
db
5d
4e
4f
d6
1f
ce
54
0
46
5e
27
5a
b3
d9
c3
40
52
48
ba
23
da
da
c6
5b
54
a9
d5
a7
6d
43
4b
c4
d3
1c
a3
23
b4
1c
48
d0
48
cd
47
db
55
1f
1a
de
c8
a6
5b
60
cf
ee
c4
48
62
4d
67
61
e5
d3
c9
df
54
b7
4d
16
81
c7
4d
58
ad
d3
5d
ba
60
68
9b
8c
1d
d6
50
d9
27
3b
59
34
c6
da
a1
d4
c1
40
4d
ed
54
dc
65
b6
c3
c8
f6
66
8a
ed
ea
61
66
e8
e3
66
e7
42
4d
42
5a
63
62
d0
6c
54
57
db
e7
42
58
cf
60
5e
48
51
5c
c7
51
de
64
c8
9b
63
56
69
f9
e0
4d
e8
68
42
f3
21
e3
e4
69
d8
5b
c6
57
d8
64
73
43
6a
5a
5d
56
5f
64
47
79
e7
2c
52
5d
6c
c5
59
d3
aa
b0
60
c1
86
bb
5c
af
47
b3
e6
6a
61
50
1a
68
d7
65
62
6b
d6
6a
60
60
ef
e6
ed
41
52
d4
dc
46
67
e5
5b
e2
61
5a
de
d4
a6
a6
59
bc
59
eb
d2
ae
c5
33
dd
4b
ed
df
37
9e
c4
6
e2
c6
dd
49
53
d0
4b
51
be
55
5c
3d
5f
a9
13
5f
b4
cf
ce
a4
cd
5f
af
b4
d9
55
5d
db
b5
df
3a
62
e8
5d
43
da
5b
68
42
37
3f
53
ea
34
a2
4b
d3
ba
48
cd
c4
5f
d6
dd
c3
62
53
bb
97
5c
4a
d0
b2
d8
64
d7
2a
a1
b6
5c
66
d7
83
a3
da
40
97
cd
38
55
5d
33
da
46
ca
49
56
d7
b1
df
d7
55
46
35
da
49
4d
56
2a
d2
d3
52
ce
d2
1b
53
d1
2d
44
3d
60
d0
41
51
ce
4c
e2
e3
54
57
56
4a
5d
6a
30
ee
79
4e
c9
ee
4e
ca
5b
6a
dd
0
66
df
f8
c7
56
61
d5
65
70
57
4a
f
70
df
ab
0
c8
70
1a
ea
6c
2a
6a
57
75
66
db
7e
ec
50
70
7c
42
de
4c
e6
50
8c
cd
68
6d
5c
75
ec
f4
dd
ed
e8
b0
5b
6c
e9
37
6a
58
aa
f
d4
e2
d0
86
e7
95
f4
71
63
e4
3f
39
ec
48
f5
f1
db
f8
57
e8
d7
b4
57
48
fa
db
e0
5d
41
72
6a
dc
e6
29
ed
62
ee
54
67
31
46
e7
69
4d
6e
48
ec
5d
72
d4
e3
75
db
aa
a1
8e
cb
c0
dc
60
59
4c
c8
55
2e
80
d7
d3
bd
45
b8
35
36
b1
59
90
4d
64
35
5e
60
5a
35
5c
dd
db
4a
bc
d9
cb
3b
9e
2d
4b
cb
a4
bb
ce
5c
50
52
46
39
e3
d6
58
5f
5d
52
63
54
52
d6
15
98
4a
45
d1
55
5c
cb
3c
dc
dd
4c
b9
b6
3e
d5
4f
bc
19
52
dc
5a
51
43
44
52
47
9e
40
ec
de
ae
3b
d7
52
a7
4c
db
17
5f
57
c8
2c
be
93
4f
cf
12
45
bc
0
d0
2b
bf
d2
d5
d7
a1
51
34
dd
d6
d2
5b
19
47
5e
d4
34
2b
5a
97
db
dc
4a
d0
16
52
64
e6
58
db
6c
a8
de
d3
43
8c
c9
cd
b3
45
5e
d8
56
c1
40
de
6c
5b
60
c0
de
5f
4a
66
6d
76
e8
62
5a
5a
60
37
59
67
ea
c3
70
e4
e2
62
5c
dd
c1
72
e4
2c
67
69
16
e6
e3
ce
38
5f
6f
57
e7
60
c9
47
6b
58
cd
c7
51
c8
5b
62
48
c4
e2
df
e1
72
df
41
5f
5c
db
4a
4d
53
65
ae
dd
61
d8
aa
50
d9
da
e7
61
5e
6d
de
e8
d8
81
d8
54
c1
57
70
5d
97
40
b9
64
55
60
68
5f
64
e1
4f
45
b6
d2
bd
64
d2
da
dd
d3
d8
49
db
4f
dd
47
cc
59
9d
57
4c
5b
b4
d9
c1
d6
d0
aa
bb
3b
d8
33
52
5f
52
32
d
43
57
c9
db
5d
4f
51
c4
cd
56
35
5c
18
61
56
db
cb
5f
59
4a
d6
2f
d7
c9
d6
4d
cf
ce
5f
2c
d1
a7
4c
5f
59
3d
55
56
49
39
5b
22
d3
23
5a
cf
ba
50
db
df
56
c2
e1
d7
d5
5b
b8
cb
ae
a8
48
48
4e
54
5f
5a
cc
60
52
53
51
d9
49
33
9f
dc
5c
55
da
36
c8
4f
c5
e1
5b
de
5b
ce
53
d1
bd
51
ac
c5
53
4c
27
4f
b4
df
32
cc
e1
63
ea
26
8e
1f
43
c6
64
dc
da
41
db
e8
44
e1
da
cc
49
c1
c8
c5
57
49
22
80
67
53
e0
de
a5
da
81
53
60
5f
b0
68
dc
b3
6c
55
d5
e3
31
c8
e3
42
ab
da
5a
e6
c5
5d
de
1b
d4
e1
3f
da
4a
d0
23
65
5e
a5
49
c6
42
4c
62
e5
5c
d0
4c
e5
b5
2a
25
48
c5
51
4c
e1
c5
c4
54
54
39
a4
a6
48
b8
d3
61
69
d0
3f
db
4a
c0
e3
e1
4f
80
25
46
df
ad
5a
1f
1a
65
5c
dd
b4
81
d3
e1
ba
d2
58
4d
d2
64
dc
5f
ba
e9
b6
54
33
e4
dc
e5
23
44
d6
81
56
99
9d
24
bd
cd
d0
b
3e
c4
4b
d8
4f
1d
c9
c9
59
53
4b
d3
d1
96
54
53
dd
50
c4
e0
b8
d8
d5
24
d5
66
b6
33
5b
c7
c2
56
56
60
c0
56
ce
57
40
4f
54
de
5b
63
44
bc
d2
44
ad
38
d0
64
bf
e8
c7
4
52
bb
50
d6
c9
11
58
be
5b
5f
c4
dd
d4
52
b9
5b
d8
5a
b2
49
5b
9f
55
58
d0
5d
da
4a
8e
55
63
3f
c7
cb
d6
d1
cd
61
c1
e0
32
52
80
51
4d
ea
b4
62
6e
d5
e7
52
b7
5a
ec
76
eb
d1
52
49
f2
e5
e0
b2
c8
51
e0
73
19
4c
df
1f
e4
c7
5c
56
e8
52
d1
5b
25
9f
4c
81
d7
df
61
c9
dc
e2
e1
1a
e2
d7
e5
e0
6a
53
70
d9
5b
c2
69
e2
e6
c1
df
5e
df
ec
74
cc
df
e4
2e
db
67
cd
45
2b
48
5a
cc
eb
e6
d8
4f
69
57
e4
70
ca
5f
eb
52
57
ed
e0
62
dc
3c
c9
50
ae
52
c4
44
5a
3b
13
ef
f1
d4
be
3b
55
5c
66
c5
a2
37
d1
5c
b8
bb
55
4f
ca
6b
d6
4c
e7
e0
be
c1
81
5b
d8
27
af
d0
36
d2
80
4d
dd
49
4c
c7
37
5d
51
20
5b
46
db
ac
d9
3c
45
ba
2c
d6
2e
33
c0
80
34
d5
5a
c0
bd
8
47
30
3e
60
c2
c3
cb
51
80
5a
cb
d1
5b
de
de
bb
df
5c
81
51
d8
dc
b2
41
53
b1
bd
57
5b
56
3c
c6
56
48
51
58
b3
49
cb
c5
58
d2
34
b6
4a
d9
e0
28
2d
9d
52
5c
cc
d4
ca
44
dd
da
b6
42
d8
16
3e
50
43
cd
e7
3b
54
50
16
de
82
5e
4b
cf
da
5d
4c
55
62
2b
df
80
59
d6
df
46
42
dd
da
49
db
ea
61
59
5d
dd
61
f0
de
da
d7
45
53
27
d5
e1
c6
6f
d1
50
c8
80
8a
e0
ea
db
60
e7
da
55
c8
da
4e
8f
d0
d2
db
49
82
c9
db
66
66
59
d2
40
68
6d
d6
c7
aa
c3
45
e3
5c
cd
cc
d9
d3
8e
df
d2
c9
c8
cb
27
db
5e
d1
49
df
c2
54
4d
c5
dc
57
c2
53
1f
e7
3e
e6
bf
61
47
ca
d9
5a
70
33
69
d5
d9
c9
4e
ef
65
4e
97
45
c8
56
bc
68
55
58
22
53
49
5f
54
5b
6c
be
5d
30
d4
dd
b2
32
66
25
cb
56
b0
ca
a3
a9
c9
e0
ba
dd
38
c9
5d
51
26
d8
5a
45
d6
5a
5a
5c
cd
40
41
33
d5
c9
58
99
58
d1
db
ce
cf
24
e5
5e
2a
d4
4b
db
a7
b8
45
b0
92
1d
c6
c4
bd
57
d7
d9
9b
d7
da
3e
a8
cc
3d
54
61
51
42
bd
4c
cb
5c
3f
d8
5b
10
cf
47
af
38
31
cf
55
5c
11
bb
4f
5f
cc
4e
da
d5
8a
bd
4b
4a
d9
5e
5e
c2
d8
41
60
60
d8
1d
bb
4d
d1
bf
36
ba
45
bd
5f
40
0
30
e7
39
1b
c7
4b
3b
c4
d8
42
bd
c1
d4
a9
8
55
d3
4d
cb
c7
d9
50
d4
59
e9
85
eb
d6
c7
ea
b9
d1
5b
c
cb
de
d2
e8
3e
59
47
42
21
34
c7
3e
dc
c4
ac
6b
5d
d9
58
47
4e
61
e2
63
58
e0
da
73
6e
ed
4f
67
e1
51
61
e5
57
6c
e5
53
d4
a4
cf
ea
a3
aa
d1
f5
f3
e9
e1
5e
ee
d6
39
c7
6f
db
3b
4c
e7
d3
ca
c9
72
37
63
5f
c6
65
b3
64
0
5f
32
db
68
c5
42
64
49
e3
e8
64
e8
c3
de
df
e3
1d
d0
65
6d
67
5e
db
d7
ad
40
5d
66
59
6b
da
c8
df
68
6b
c2
59
56
ab
cd
99
5d
d7
52
ba
31
de
5b
e1
57
b5
5e
5c
e0
4e
b5
c1
df
50
0
45
c8
4d
d9
b2
25
d0
cd
80
49
58
59
51
35
51
c3
1c
3e
e5
cc
d8
32
8e
c6
d4
3d
4a
4a
d2
37
d5
4b
d5
25
52
5c
e1
a3
41
52
df
58
c8
25
57
2f
da
a1
d7
3a
d7
63
4e
b9
3d
d8
d0
cb
d9
c7
c3
ce
40
55
4c
59
48
44
41
1e
e1
5d
dd
c7
80
54
da
ce
90
b4
44
54
e3
54
c3
b7
11
5f
dd
de
57
41
df
be
56
55
55
b8
38
ca
dc
c6
d9
4d
55
cf
30
42
b8
58
d0
59
2c
d5
ab
c0
4c
a2
34
8d
bc
5d
5d
4f
5a
44
4f
49
b1
c9
ce
5a
d4
3d
39
da
cc
55
9b
66
d9
61
0
3a
50
ce
d4
c2
9
5a
db
3c
e5
e0
57
4d
5f
d4
5a
46
b3
a6
d3
58
9e
da
d5
55
9f
62
ca
df
57
df
df
da
40
45
df
bd
44
cf
d4
27
35
5d
55
54
9b
d9
c3
2f
af
cd
e5
45
5c
10
a8
9f
d4
47
a8
11
dd
d1
47
e0
db
5d
d8
0
59
b7
5d
9c
b9
d7
d3
95
b4
bd
5d
c4
4c
e1
55
44
d8
cc
5a
d3
59
32
31
c4
5b
d1
ce
56
96
c4
3a
9f
e0
3c
c2
bd
a5
c9
a5
d1
51
de
54
e5
3a
49
19
8e
44
db
ac
5a
38
ca
bc
63
4a
54
52
db
d2
56
59
64
56
da
2a
12
80
c7
e1
dc
b7
53
b2
bf
4c
58
4b
d9
5a
42
5a
51
5c
d8
bc
dd
5d
d2
db
af
5c
b9
e1
b2
81
61
9f
ce
2f
a4
c3
bf
df
b8
ca
39
3f
5e
c2
e4
a2
c1
d6
dc
20
e2
5b
b9
92
12
59
63
52
d1
b2
4b
e1
46
df
cd
c6
5d
58
4a
4c
b7
57
c
d3
51
16
57
81
45
80
e1
c5
43
da
30
24
5a
d1
80
d0
5e
4a
65
dd
2b
65
98
56
be
64
46
d4
64
a8
2c
24
6e
42
68
41
59
60
68
d9
d4
3d
51
6c
cd
6b
61
2c
4f
cc
ea
68
b3
e1
53
63
c2
e5
1a
5d
cd
5c
b0
e3
d8
b9
cd
5e
4f
3c
df
e5
c9
40
70
45
5c
cb
57
6a
dc
62
e3
81
ed
5b
6a
a9
53
71
44
c8
6c
60
4e
70
9a
cd
e4
e2
54
ba
92
6c
3f
d4
49
5e
5f
f2
e2
e7
55
67
d5
69
cb
cd
d3
5a
4c
dd
ac
54
c7
56
48
50
e3
d7
3e
68
e7
dd
6f
c9
59
34
e4
80
49
3f
bd
d3
8e
de
2a
c2
2c
3e
5b
de
8f
d5
55
c4
cf
47
d1
6b
d7
d1
5a
e1
bc
5f
a2
35
62
4f
ab
ad
6a
59
c3
87
d0
33
db
50
56
5c
4e
57
d2
d9
23
3b
55
56
e0
e6
be
d2
37
d1
bc
2c
3a
4d
5d
c0
5f
b7
20
53
46
56
2d
0
4d
1f
c8
58
de
35
d7
82
d6
62
5c
57
28
d4
7
5f
8c
2b
ce
4e
d5
2d
c7
4e
d3
58
42
aa
2f
38
57
cb
5e
52
5c
d0
56
ce
1d
55
c8
d9
1d
c3
86
43
d5
4d
8a
0
d9
31
ca
de
5d
da
74
ef
e8
54
4d
e7
dd
6b
48
59
55
78
e6
3e
d0
5d
67
bc
3c
e6
dc
e2
3c
30
e8
62
58
cd
28
d1
b6
81
be
4d
d4
55
4f
e5
46
5c
6d
cd
d0
bf
69
43
d1
d4
d5
f4
62
46
5e
e1
de
5a
e1
4a
5c
d2
4b
dd
53
6c
69
57
38
ed
5e
3c
6b
e6
70
5d
5a
64
5f
c3
cc
63
6c
42
46
d5
53
60
5e
6e
e6
38
b2
46
cc
dc
c9
bc
5b
5e
50
25
23
24
ba
57
54
5d
55
5c
d2
36
b6
53
e7
5e
45
ad
e6
e6
ed
e3
39
62
62
70
5e
4d
df
80
df
51
df
22
29
52
d1
25
46
c7
55
80
5f
b0
5b
cf
d8
c3
e0
5e
d9
e1
55
b6
18
16
ab
49
58
dc
5d
38
df
45
c6
af
4f
b3
ca
d4
df
58
5c
54
5a
e0
47
96
5d
b4
92
da
db
d9
29
ca
c9
4b
5a
5b
88
de
34
5b
4d
80
48
4f
df
c9
39
d8
dc
d7
d8
d4
cb
56
de
b3
c9
5c
e0
3f
56
e0
5f
d8
da
47
36
4b
d6
30
44
e0
d3
5a
57
c9
d9
e2
3f
0
c1
5d
47
d2
59
4a
1c
58
d1
59
36
48
58
4a
42
d3
c6
b9
17
df
da
53
4e
5a
3f
35
e0
44
5e
45
e2
d2
4b
cf
5a
38
dc
51
cd
a5
a7
c2
4f
57
5d
57
d8
ce
b9
d1
cb
5b
50
d7
d6
5d
52
aa
c8
4f
e0
d1
47
38
46
32
4a
4f
db
ce
cc
df
e1
c9
be
bc
d0
a3
80
94
5a
da
dd
40
c4
1a
2e
d6
dc
5b
61
15
d0
c9
dc
c5
55
56
da
cf
d2
5d
d0
d0
dc
52
59
39
52
60
d9
4f
5e
ba
d7
5f
4a
e1
53
c1
df
dd
dd
c8
ac
d8
de
c0
41
5e
d0
a0
47
d0
e1
5f
44
c3
4a
d6
d9
50
d3
c8
59
d5
d2
5d
2c
ab
cc
db
dd
35
80
29
44
c6
3b
38
d6
4d
a7
bd
29
cd
da
e1
d3
b2
d5
dd
c8
d0
d5
d8
0
63
c8
4b
63
a3
cd
54
5a
cf
99
cb
c9
31
8e
cb
49
c0
51
51
d1
22
d3
59
d3
51
c9
92
dd
3b
59
59
5e
dd
c8
36
c4
9d
ca
db
5a
cd
45
d3
4e
51
4c
2d
a1
51
5a
3c
cd
de
2b
d7
c5
57
df
58
50
53
a9
38
ab
e
20
5c
dd
d5
df
db
c7
45
c5
32
5a
3c
d9
5f
b5
1
59
3a
da
5b
5c
81
5c
ca
5e
41
49
cb
29
d5
e4
60
2c
4a
3c
63
c7
68
c4
d7
d8
4a
d4
43
d2
e6
60
56
59
bc
23
40
dc
49
ba
c6
ba
ac
4a
4b
9e
c9
e5
d2
dd
d0
e1
db
c1
c8
d0
0
5c
c5
89
48
b9
de
e0
d7
3e
64
c7
47
59
30
bf
58
ad
da
55
50
37
3d
4a
bd
e1
46
e3
47
5c
e0
c6
45
dc
d3
ed
66
d8
a6
56
dd
65
3f
d7
1
5d
df
50
5d
d2
c7
56
c1
d4
b8
61
bd
59
d5
4f
d7
d3
5d
60
29
c8
e3
58
d1
e1
50
54
66
e3
ad
4c
c3
e4
da
13
c8
59
54
6a
d6
e3
14
46
cf
4b
54
62
56
dc
5e
db
b1
4b
43
5c
dd
35
d9
d3
a3
52
24
cd
11
a7
60
34
53
b7
5b
ab
34
d9
5a
4b
d2
55
cf
d8
49
d8
dc
57
d7
be
d5
4a
1d
e4
e6
cc
66
55
5d
dc
c2
cd
2c
af
48
5d
d2
d3
e2
d6
58
cc
df
5e
d7
58
3f
b3
cc
de
e1
cb
d2
de
58
d6
de
b5
cd
5f
50
2b
e3
d7
1f
54
31
6a
cd
d7
50
d5
48
a4
45
58
d0
aa
d2
4f
1a
dc
54
d3
e2
13
5d
3e
d2
b0
5f
dd
df
d9
d1
45
d8
e4
cc
34
d5
4e
5e
59
c7
64
44
d0
5c
43
ca
5e
68
e4
d9
d5
ca
ee
24
eb
58
e5
df
52
e4
95
eb
95
62
33
57
52
bb
64
62
ea
50
e1
ea
65
e6
45
df
49
6f
d4
ea
c4
59
5c
d2
47
e4
5f
eb
cd
72
4d
e9
4a
a0
e2
df
49
d5
55
73
57
4c
d8
4b
c9
19
c7
69
bf
ca
dd
1d
d3
be
d6
42
57
59
e3
5f
64
6e
e7
3a
c0
e4
4d
d9
eb
c4
de
e8
bf
5f
6b
61
97
c4
d5
81
5f
3b
de
dd
8b
cb
6c
74
e8
db
c9
6a
e2
50
58
ca
5d
66
d5
24
dd
66
74
36
d9
c9
c8
d8
6c
49
5e
86
43
bf
8e
df
48
39
e0
df
13
cd
d9
df
d3
52
de
42
bf
56
e1
3b
dd
de
cc
a3
56
bc
c4
bf
80
c6
54
56
c8
a2
de
4b
5c
46
4b
d3
81
d5
cc
dd
58
27
d4
e2
df
52
5c
dc
60
bc
d7
5d
3a
40
4d
a0
57
c8
47
de
33
d7
50
d5
d8
4c
e0
5c
d7
d1
bf
48
5f
5d
5b
59
57
4b
dc
b4
5a
d5
50
ce
d3
de
3d
5d
59
41
5f
5f
2c
d9
b3
3a
3b
de
45
dc
1c
46
2b
d9
14
c7
2e
c8
dd
54
43
d8
30
5a
db
ac
d4
5e
d9
d4
59
d9
5e
dc
43
e0
32
bd
de
ab
d0
58
54
93
4e
c3
51
de
d3
44
b5
54
d0
db
da
d1
58
df
bd
da
1f
d5
d4
55
d3
96
cc
c6
53
56
4c
da
db
d6
d8
d9
3b
d6
49
3f
cd
cf
c5
ce
36
36
ad
de
c6
d4
80
3e
b9
da
b8
5a
2d
de
46
d3
df
5c
cf
b8
33
58
d4
3f
b1
b4
e2
d5
bd
3b
52
c1
80
55
4d
b6
c0
ba
2
44
5a
dd
18
54
59
50
d6
d5
d8
58
d5
46
93
37
42
dd
5b
e0
58
4e
50
d8
54
36
d4
4c
ce
5e
c8
9b
45
c7
c3
e1
53
5e
80
39
4f
a8
60
46
cc
c7
59
db
5a
ad
0
da
46
49
d9
4e
d1
55
39
e3
5f
42
aa
d1
d4
4b
db
4a
0
cb
47
bb
80
4f
8f
d3
de
d4
d2
c3
d8
3c
34
4f
44
48
d0
37
40
57
c0
25
c6
44
c9
9b
d6
88
c5
4e
c8
bc
44
5d
cf
c3
5e
5f
f
df
60
ca
e7
c0
cf
d6
d6
c4
c0
5c
ba
c7
d8
2d
3d
d5
99
5a
45
4b
d0
db
da
39
d6
d4
ca
4c
5c
c3
5a
d5
4e
4a
d6
c3
ce
d8
a4
c3
b8
bb
c6
c9
4f
dd
d2
ce
5a
40
5c
3d
5a
56
de
2d
b5
3f
57
e6
e2
c6
cd
98
c9
40
ca
c0
c8
55
c2
59
dc
9f
dc
4c
c6
55
d0
6b
31
c0
1a
3a
db
28
59
d9
65
54
c5
41
bc
de
47
57
d6
d5
5f
56
25
40
5c
d7
39
52
d8
d1
43
d5
d7
5b
57
68
57
c3
5d
d6
c7
b1
c9
ad
55
4f
68
bf
59
57
e1
de
4b
d7
4d
3c
dc
91
4d
53
56
bd
1a
54
e3
51
da
b5
d2
3f
be
54
46
de
da
b4
4f
4f
d6
c4
e5
52
44
da
bd
9b
b8
61
bf
57
94
91
a7
2e
c7
d3
d6
cd
d9
56
d8
cb
37
52
d6
e3
62
c0
56
60
c9
ca
bb
4d
2a
d2
4b
dc
d7
36
d7
c4
61
a6
4c
4b
bb
4c
d8
ce
d3
ba
dc
2a
1d
5c
e4
d4
ca
c9
64
de
57
dc
58
ba
53
2a
52
d2
4a
61
59
5d
32
f
b1
d6
36
38
36
9b
bc
0
58
dc
55
4c
bd
db
e0
d3
58
37
d4
a3
3e
41
5f
63
d1
2c
d3
c7
5a
4c
5b
8
50
56
5f
4f
4c
be
dc
c8
b3
d1
da
59
d
65
57
15
dc
d3
a1
33
b5
d3
b0
58
63
81
58
ac
2c
50
5e
cc
5a
c2
db
4d
9e
51
e0
42
1e
3e
3e
53
21
4f
cb
2c
63
e0
c9
6a
ec
d4
ce
d1
c9
d9
e4
5d
5c
c8
d8
47
ce
5b
e5
c0
6a
c4
64
48
5a
5e
dc
62
99
4f
dd
cf
ca
63
da
e5
53
67
5f
5b
a9
38
55
59
d6
45
0
d4
e9
c8
db
ec
55
e7
d8
51
f6
5c
de
ad
59
5c
56
64
e1
dc
3a
50
c0
ea
e6
ef
e9
ce
64
dd
68
68
da
68
4e
3a
69
b3
3d
57
c1
6a
5b
5f
e4
56
38
5b
48
65
62
66
db
e4
6b
6c
45
55
9d
e2
c4
59
42
66
45
36
c1
51
d2
55
81
5c
be
17
ea
d8
c0
db
5e
6a
57
dc
5a
4f
ad
49
59
67
60
61
d1
a9
45
bd
d2
3f
47
46
61
51
54
d3
96
b6
b0
4e
cf
b9
ad
ad
29
57
bb
52
c2
dd
cc
89
d1
ad
d9
da
56
2a
51
3d
ac
39
9d
be
db
c8
cc
43
c7
dc
c9
c7
ca
d7
cd
ab
4f
c4
d2
d6
57
15
e0
d
cf
cc
2d
2f
e4
4b
56
61
c3
ca
55
ec
e0
4c
b3
63
dd
d7
2b
3f
52
56
5d
db
3e
4e
d9
59
42
5c
da
88
4e
42
cf
5d
e2
30
36
5e
53
a1
c4
4b
46
d3
59
3e
b7
d3
4e
54
e0
3d
3f
80
c8
0
c4
3a
d3
d1
f0
d1
f3
cd
d6
5f
50
8
24
ba
81
51
47
f5
bd
70
d8
54
73
78
71
75
e3
25
e8
6e
93
ea
69
90
4d
32
69
c4
68
55
d0
5a
67
e8
d4
59
6c
da
e9
65
4c
76
3a
47
64
db
3e
65
73
e3
c7
d6
e0
6d
65
77
58
6d
69
f4
78
70
b5
f6
e
65
ee
d7
c1
53
d3
b4
d5
c2
9a
f5
26
df
ee
4f
d7
6f
6e
ca
ee
a2
26
66
40
52
c7
e5
20
6d
62
61
54
fa
d7
e6
6d
ee
f5
69
e5
45
65
e1
d3
1e
d6
66
6c
62
6c
f6
ef
dd
e9
43
d8
19
bd
cd
54
bb
60
48
de
2e
90
ac
b2
d6
d7
ce
d8
5c
4d
4f
db
ba
33
4f
5f
5c
4b
d5
59
55
58
dc
50
5f
b1
3c
b2
56
c2
d6
d7
5c
1a
3b
bc
e2
60
dc
80
d9
45
ca
2d
c6
db
c9
cf
c9
43
5f
96
4b
d7
5f
57
5b
5e
9e
db
b1
54
3a
6b
49
d1
2c
9e
47
a3
dd
9b
cf
1d
52
dc
dd
63
4f
38
5f
5e
5c
2f
48
ad
d5
2b
de
5d
5f
38
64
5e
5a
ca
e9
c3
b8
9c
34
63
e0
61
bb
52
d2
d9
4b
60
53
d2
57
db
5f
35
db
1c
d6
a6
c4
2a
33
ac
c9
63
e0
ad
4c
be
d9
31
bb
c1
76
39
d3
4d
c9
3b
d6
50
54
e3
de
db
62
b3
da
e8
de
d7
d4
e0
63
db
4a
3d
c6
55
b0
c8
e2
58
60
d0
50
c3
58
6f
d0
b8
45
2a
58
d1
99
5d
64
4b
29
dc
dd
ed
5f
cd
10
cb
53
64
dc
cc
e4
da
8d
e5
d7
42
42
52
61
33
da
cd
de
b7
98
b9
5b
3a
d6
43
23
59
9d
d9
b9
5c
d6
cb
5a
c7
3e
da
cd
4c
cb
9e
65
c3
e4
c
2d
e1
dd
ac
53
4d
62
56
d6
4f
56
e2
5a
de
d8
d3
38
1c
5e
38
ba
d8
2f
45
5b
47
d7
5d
c9
31
48
d9
e3
d5
c9
88
5a
3a
59
dc
e7
5b
d1
29
de
39
2c
89
c7
9
41
e5
4e
58
cb
de
d7
93
5f
c4
5a
3a
cb
9f
ca
df
49
4a
32
dc
1e
24
d4
4d
c0
51
5a
b6
d5
c3
bf
c5
c5
dd
8
23
5b
49
c8
4f
da
28
42
5d
d7
58
d3
c8
63
6e
4f
b7
d2
be
4d
da
b6
c4
3e
b0
58
5c
ba
be
51
b9
56
44
5b
53
5a
46
c0
2d
e0
c6
d2
dc
be
23
d5
4c
3b
e7
64
dc
cb
61
43
45
41
4f
53
71
4a
8f
56
cd
52
5c
d8
d6
5d
61
4e
4c
50
e8
cb
4d
40
3a
5e
0
ed
d3
35
b8
e7
e9
44
d8
d5
d5
33
43
57
60
58
3e
34
da
d7
9b
65
5e
61
e
c4
40
be
5e
5b
64
32
e7
c7
c9
99
35
64
68
48
45
df
25
df
e5
63
ec
a9
98
ed
49
53
d8
9a
56
49
cd
e4
d9
41
15
30
e7
cd
d4
eb
d9
df
5c
5d
b6
b8
2d
5d
3c
5d
52
96
55
5c
4e
46
e1
e7
5e
44
c2
dc
d7
3f
db
5f
d5
12
e2
d9
c8
e0
de
45
ae
b1
37
56
53
53
61
e6
3f
52
3e
c4
df
d5
47
5c
4e
da
80
ac
d8
d0
c2
4e
58
3b
91
94
de
b8
b7
5b
d8
da
ba
e0
c6
c0
d7
4f
87
c1
25
4e
c8
af
5c
4c
da
5e
d3
c5
e0
a4
5a
96
45
4d
45
5e
4a
46
e3
42
5f
ce
55
da
3d
43
5e
c7
5f
4f
5f
9b
d4
ac
53
80
dc
d3
5e
bc
5c
dd
bf
d7
5a
43
5a
dd
d9
d3
d2
de
db
b4
d6
59
d7
5f
c8
5d
f
9f
5a
db
2e
d2
46
d7
c8
cc
5a
b0
ce
dd
2e
57
d8
c8
4c
4b
c5
cc
db
e1
5f
26
de
53
df
5c
32
41
ce
b9
3b
db
b5
d3
53
4c
50
99
50
c9
dd
4e
54
ca
d3
dc
4f
df
53
60
d0
dd
5d
df
5a
e1
db
58
54
dd
59
df
5b
dc
55
a1
83
df
dc
d4
37
c1
20
5a
ac
c0
c4
d9
55
d1
5e
5a
56
f
d8
dc
8e
58
de
48
d8
40
d9
c7
57
4a
c3
d5
19
da
e1
57
df
46
5c
3b
ce
3b
d9
49
d7
d9
b2
d6
d6
d5
b8
e0
b0
33
9e
cd
de
cd
4c
dd
b4
56
ba
47
5a
db
14
54
4c
c7
af
db
ca
dc
47
49
80
5f
b7
d8
d8
ae
da
43
1a
81
3b
5f
d9
cb
61
66
e2
4d
bb
a4
5c
d0
51
30
4f
c5
b0
33
e1
a2
4d
cc
4e
4c
e0
c4
2a
48
4d
4a
4e
40
59
c4
b1
cb
49
8d
bd
3d
ab
53
19
b6
be
d5
cd
1
4d
54
50
49
5d
dc
d0
d3
61
81
3a
4d
57
d6
a9
b9
da
bc
c2
e1
4d
c3
91
47
56
d5
3d
57
52
d2
cf
d5
5d
57
4d
ea
5c
55
ce
ac
5f
50
c8
a2
31
53
61
55
d5
c5
11
cf
5b
51
db
12
d2
3a
d3
66
4e
5c
40
8b
5f
46
47
d7
5d
ab
d6
cd
b8
a0
54
d3
eb
bf
52
b4
dd
db
4c
d7
4e
58
af
4b
e7
e7
76
e4
59
65
f1
58
dc
0
6b
33
4b
72
d3
cd
d1
d4
68
f0
4d
e8
f0
73
6d
ea
df
60
d4
ee
ce
c7
a9
eb
db
56
f6
ec
4d
50
0
eb
58
cb
42
57
65
6c
c3
29
b1
63
de
3c
56
40
67
d3
af
e6
ca
2b
d4
df
d9
da
e2
e3
d5
40
67
53
e4
ee
d2
b1
d7
47
6d
52
35
65
5f
c6
d0
6c
54
50
31
da
ec
e8
44
e7
55
e8
d5
bf
62
e4
71
ed
74
e8
91
66
de
24
db
75
42
5c
9f
d9
62
d8
59
e1
8d
3d
c2
53
6b
60
39
c2
d4
3
ab
47
ca
2c
60
dd
a3
c4
60
55
58
43
c3
50
e7
d6
9b
db
df
d3
5a
d6
37
db
3b
e7
17
4e
60
db
51
e1
3
dc
30
c4
62
10
dc
b9
d3
35
ca
63
de
c9
de
e0
c2
e4
2d
d8
d3
bd
4f
54
53
57
9c
dc
5c
55
db
b4
4d
93
d0
c8
c6
b
d7
c8
ae
5e
49
bc
d7
5d
3e
ce
22
18
be
39
d3
d0
60
40
c4
b4
dd
5b
33
27
56
35
ca
56
dc
44
c4
da
1a
19
b3
53
48
4e
34
e1
c7
d6
4d
dd
ca
d4
27
4a
0
56
42
dc
2c
db
3c
e9
51
ea
55
60
66
c1
e5
d8
f3
5d
55
e1
53
5e
da
65
22
5d
52
e4
aa
47
19
62
ee
cb
f4
a2
eb
d7
69
10
dd
df
5e
ee
ae
4b
db
e5
56
22
56
dd
77
cf
de
7a
e5
63
d6
5f
5e
d1
40
54
ea
dd
6b
e7
49
f1
e6
dc
55
50
40
3b
68
b7
59
ce
ca
a3
68
dc
4e
5d
50
1f
dc
cd
69
c9
5c
6b
cd
cb
ca
63
72
b9
67
f1
d3
36
a
d9
61
2f
54
ee
da
cc
d8
4f
4a
6f
e7
52
cf
6f
71
50
70
49
c0
6a
cf
b6
c5
55
49
d3
e1
6a
35
5a
5c
cf
df
c6
c5
20
c4
87
5a
dc
5a
cc
dd
50
53
da
26
c3
49
d6
d7
20
bd
4e
c1
e4
d6
dc
5f
14
56
57
4a
b3
c3
4e
48
56
4d
81
81
d6
81
b0
41
5d
da
a9
c5
db
89
b0
40
d5
3f
93
de
51
33
b4
41
d6
d8
61
b5
54
3a
d6
62
ce
d3
59
da
d4
d3
3d
0
4e
3b
b8
80
db
d3
d6
28
e2
38
55
39
3e
2a
c3
54
2f
de
b9
5c
5b
cc
da
28
c8
d3
5e
50
b
d2
28
42
49
c9
d6
a8
d8
db
49
9c
3e
ce
40
c6
c8
dc
8d
3c
c0
da
bf
5a
1
37
c7
de
5c
e3
dc
5b
48
2c
39
d7
53
d8
49
68
de
cc
45
51
cc
56
de
cc
34
c8
60
a7
b4
aa
4d
43
c5
80
ae
58
c7
be
e2
d8
57
5e
4f
3c
43
cd
63
a1
54
be
35
d1
91
67
c4
da
d8
e0
db
2f
2f
4d
69
80
da
60
4f
65
b8
2f
5a
0
dc
d2
dc
43
58
8e
c9
dd
2c
c4
df
be
cd
5d
e0
ca
57
52
db
9f
c9
ca
58
d0
56
5c
24
d0
50
3f
b8
c7
44
41
5a
51
d7
a1
cc
45
dd
c8
5c
bf
a6
4c
de
da
11
1a
46
e0
d0
c3
de
9d
58
cf
58
de
4b
57
50
d3
20
5b
e4
c5
4c
4f
4a
46
48
ba
4f
5d
53
52
d5
5a
3f
bf
e6
4e
43
d9
4f
da
43
ad
46
3a
db
9a
da
38
d1
4b
5c
28
17
5e
b2
37
c1
d4
39
80
62
bc
42
dc
58
dd
52
5b
c5
d0
d5
5f
2f
c8
cd
53
da
df
b1
b5
3b
50
34
4f
cf
5a
4f
50
57
4c
a3
ae
c6
d9
d1
d5
b4
57
35
4c
54
c3
58
d6
29
d0
db
dd
57
d7
9e
56
e0
5d
bf
5f
52
db
d8
ba
5c
53
d3
c8
5e
51
cb
86
db
c9
60
d6
d8
e1
d9
a1
de
9e
4f
47
ce
de
eb
c6
50
53
e4
67
46
49
3b
29
48
4c
69
6c
5f
db
e9
e4
6b
36
ca
65
5e
df
d9
5e
5c
51
ee
d6
4e
56
c7
1c
df
45
d9
47
6e
4d
66
5c
60
31
e1
bf
cc
4a
66
63
c6
2a
b3
bf
cc
da
e3
15
a0
cd
50
d5
91
56
69
b2
5a
6c
59
2a
c2
c1
f1
b7
e0
dd
42
39
d5
4b
e1
45
8d
ce
49
d8
c8
cb
df
61
62
e3
a6
8f
66
d9
c6
61
a3
c2
eb
3e
cc
da
4e
28
54
47
e0
ce
c9
6f
4c
64
42
ea
4b
e4
98
