c8
46
a5
53
43
56
49
cf
a2
25
c3
48
19
34
4a
d7
a6
d8
89
38
bc
3b
42
19
46
56
81
e9
95
ed
43
7d
39
e2
e1
ed
5a
67
d9
4d
b6
b1
59
c2
d2
cf
b7
a8
5a
52
48
ce
45
54
6d
d8
6d
3f
df
4d
4c
d7
d5
80
67
b3
38
56
c1
c7
ce
21
57
5a
d9
d4
32
cd
44
46
50
14
c2
d2
c7
ca
5a
d4
ce
a5
80
e0
57
4d
37
55
3f
bc
4e
d9
d9
db
54
54
42
bd
5b
c6
47
dd
a4
53
ea
c6
d2
4d
54
d1
80
a9
d7
13
14
c1
bb
56
5c
d5
dd
2f
cb
47
1f
ba
de
bf
de
c3
4d
d9
c4
5e
c6
54
cd
d6
51
d8
bd
cd
d7
d3
54
53
4e
da
cc
d8
d5
57
51
1a
ef
fb
fb
a2
bd
d7
37
3a
56
c1
dd
5c
d1
20
42
57
4c
c8
51
52
52
39
58
c9
47
49
e
38
d3
d5
cd
ce
37
53
d1
52
bb
9c
d8
5c
4f
d6
80
51
44
5c
ca
ab
d1
20
34
c8
4e
18
53
52
20
a9
c8
55
bf
d4
96
d8
c4
c4
44
48
53
d7
56
31
d1
3a
7
99
66
c2
80
c8
31
68
71
2d
6c
55
5e
e9
f1
df
c4
52
b3
43
40
ba
3f
df
49
c3
55
d7
a6
37
51
cb
36
be
2d
c0
0
e1
de
cd
c9
c7
8e
92
d2
d3
d2
4b
9d
a5
d9
40
59
24
3e
3d
50
d7
d5
42
b0
c0
25
5b
cb
b7
c5
3d
48
50
b7
d9
c2
db
e5
d7
d4
e5
ce
d1
b1
aa
33
5a
e3
c4
63
16
a9
da
ef
4d
5b
0
d5
4e
c8
46
49
d4
d0
55
23
3f
3b
50
cc
df
33
65
73
67
aa
5f
45
e4
cc
61
d7
c4
be
d2
bb
d2
4e
3c
54
b6
96
5a
bb
a3
a2
55
0
c8
40
ba
da
44
3a
cc
bd
c6
4e
dc
b4
3f
2b
3a
4b
29
b4
c3
81
50
51
5f
49
ca
63
4d
5b
2
43
c1
d5
37
4b
d7
c5
d8
cc
da
98
d0
d8
a2
53
c0
c4
63
54
15
6e
c8
d1
de
e2
cb
f4
db
4f
f6
bc
cd
9e
4c
58
4c
50
5b
9b
32
38
5b
55
d4
41
ca
58
55
47
41
4c
57
47
b1
d0
98
48
63
33
bb
6e
c9
58
2c
c0
5e
d8
2e
d8
ec
d4
b5
69
45
1d
cb
52
3e
d7
d9
aa
d6
21
d3
d3
bd
c8
e2
bb
48
67
5d
bd
e7
d4
eb
ee
d4
80
5b
34
5b
b5
b0
d6
4f
c9
56
c7
95
d6
da
53
c0
4a
41
cc
be
be
33
d5
d7
30
59
45
4e
de
47
4b
ca
4e
2e
4e
d8
e2
6e
e5
3f
83
5c
28
68
56
4d
8
b8
5c
d4
46
4e
50
4d
c6
57
da
57
33
d7
43
e7
2e
d5
6c
d4
8f
6b
cf
e8
c6
53
3a
e1
2b
9e
d8
51
2d
bb
b3
cb
d7
4a
42
da
b7
27
c6
53
ac
3a
41
33
d5
c3
61
3a
45
52
e0
55
38
df
55
9d
6f
61
33
c4
e9
38
30
e5
39
e0
d9
42
bd
da
5c
5c
c5
d1
da
d9
db
24
45
d6
3c
1f
c0
80
4f
db
5f
5a
c0
67
a2
e5
f3
d0
d8
ef
da
52
5d
c0
ab
17
d5
52
32
db
41
4b
d2
4e
4c
4f
47
52
80
53
27
cd
ee
e0
48
42
5c
c1
c3
94
2b
6f
76
3e
4a
ca
7
d5
e0
c8
db
ed
db
2f
80
4f
3b
44
b6
4b
c0
94
48
59
97
58
4b
4e
d6
e5
88
ca
e0
46
95
57
56
4c
5e
4c
d2
31
80
a4
a7
ae
2f
aa
d1
4b
ce
b8
d9
4e
da
cc
54
52
cb
23
14
d2
cc
cd
32
d5
bc
d9
2f
2b
b5
c0
54
ea
52
60
6b
d0
e1
57
d5
d4
b5
ce
47
8c
69
c2
5c
ef
cc
bc
5a
d3
80
85
80
4b
54
46
37
60
45
4a
6e
af
4f
ea
ec
a4
46
3f
51
69
c4
48
e1
d5
80
db
5b
cf
42
47
da
34
40
51
ba
5b
c0
5b
36
d5
50
ca
aa
d6
cf
d5
d9
b7
c2
43
cd
95
50
37
b9
43
d4
cc
c7
d3
d1
4d
c7
de
4c
b2
40
31
3e
55
40
43
3f
1c
90
bf
c9
57
4a
d1
4f
57
23
46
cd
22
3c
32
bd
4b
46
c7
45
d8
2d
d9
52
50
bb
d8
41
4d
d0
4f
bd
53
50
46
51
53
a4
d5
da
35
32
11
cf
d5
ee
e1
41
d0
af
61
62
56
26
ee
e4
4b
d9
ac
58
48
54
40
56
45
5b
51
4c
d7
d2
ab
b3
4b
c2
cf
3b
58
37
57
56
59
8a
cd
32
c4
d7
c5
b6
15
46
ee
c5
52
36
a1
c5
12
cf
44
41
58
ca
d2
58
4b
57
c2
cc
59
c6
43
da
ac
d5
d0
3e
e5
5a
4a
80
bd
41
9e
31
bb
4d
e7
47
6a
cc
2f
c0
ba
e2
5e
31
5f
4d
57
5d
53
1e
23
18
16
c2
57
0
c1
57
63
e5
aa
d5
a9
d7
50
42
5f
47
62
ef
cb
1b
f0
dc
c9
52
db
44
d1
59
4d
59
4b
ab
1f
85
42
c8
59
31
ce
46
c1
e5
90
4e
92
ea
9d
38
35
81
ec
ef
da
67
72
d9
47
52
57
61
45
50
46
11
49
b1
bb
30
32
cf
1f
47
c4
0
bc
d7
4b
50
a
42
81
b6
43
d2
cc
1a
dc
48
b1
cb
d6
59
4b
44
38
d1
d5
cc
d5
59
bf
95
15
1e
c8
54
4b
43
d9
40
37
d7
d2
b2
ff
c3
27
36
53
3e
62
0
58
73
5a
34
63
2e
d1
e8
c5
cc
de
50
4f
1c
5b
4e
a9
20
31
44
2f
cf
4b
cf
d6
50
48
c1
e5
cd
47
d
c9
d0
bd
da
53
d8
dc
56
bc
3c
98
cd
4f
54
d7
d6
55
57
d4
9a
cd
c1
4e
a9
2f
49
52
44
46
cb
c4
d4
e5
c0
b1
f2
38
63
e3
5d
8
ca
c2
64
4a
df
a1
47
c7
5b
e0
bf
ae
e2
ee
56
62
b6
b0
56
4e
d0
4f
4d
d6
db
58
4f
d2
64
34
45
66
cc
0
bf
42
30
58
31
57
cd
5f
4d
cb
43
e
58
a4
d7
50
c
b3
2b
d2
4a
d3
da
59
3e
d6
d8
4f
b5
d7
c6
d2
45
51
a7
8c
5
d6
37
e0
dd
d7
32
d4
9e
df
c5
57
d5
4a
d8
cf
34
1d
cf
38
d7
d0
35
4d
43
d0
7
ce
d2
4d
d4
33
da
a3
ac
ac
11
58
52
58
bd
50
2e
3c
c6
43
a6
57
51
c4
d4
59
4b
d1
c7
4b
49
db
4d
54
53
cd
d8
59
b5
34
ba
81
cc
63
2a
b2
25
53
e3
df
57
6d
cc
b8
4f
23
46
f4
4a
5b
16
e9
4d
62
cb
48
4a
c2
4a
5a
3e
c1
cb
c1
ef
ef
61
64
58
e0
57
63
d1
db
66
88
dd
d4
a4
35
52
d3
c7
28
5b
3c
b7
d6
d6
53
ca
14
12
3f
d
ce
49
47
4a
52
55
ce
e5
49
ca
b5
b7
d0
0
55
5e
cb
db
c
ac
cd
d6
5e
67
48
3b
ca
e3
e2
d4
dc
e6
3c
49
db
ac
96
57
58
15
99
dc
d4
4f
a0
d8
3a
4e
6a
9d
d4
cd
ca
61
5c
5e
43
5d
4d
da
18
ce
c9
da
52
d5
51
36
b7
d9
2a
48
38
36
4d
9c
b1
ab
ae
a6
d3
52
e0
6
37
da
2f
3f
db
5a
2f
df
4b
66
e6
5a
ab
cb
a9
31
3f
c0
a4
de
ba
1c
cb
34
54
ca
bd
54
d8
12
37
e0
3f
30
da
aa
50
21
db
39
d0
3e
2c
db
80
4c
ca
d9
c6
d7
3f
52
46
5a
b4
4e
39
58
cd
51
ca
3e
44
54
d1
cd
58
53
e8
da
4d
e5
dd
56
5c
be
3e
54
69
49
bf
b4
db
c1
68
55
f3
40
b9
f6
48
4f
80
d4
37
c1
54
3e
c9
cb
e
1c
e3
e3
72
ce
cf
5a
e2
bd
d8
8e
68
5c
a5
cf
58
34
13
56
d3
5a
b2
9a
c5
37
57
ba
be
50
52
ad
47
49
50
4d
46
c6
f4
f1
4d
57
5c
cd
4e
a8
80
5b
5f
2f
d4
3f
5a
b4
bf
63
6b
a1
9c
46
34
af
b8
44
3f
3b
2a
40
5b
c0
ca
c3
d6
56
da
d6
2d
47
4f
53
bf
3e
fc
e6
65
e9
4f
3b
56
27
9e
56
cc
da
4f
db
4e
d2
5b
d6
d5
4b
40
58
c4
80
4d
51
b9
93
b0
d0
4b
bb
2d
30
d9
d1
44
cb
a9
cf
d9
d9
4c
61
24
b8
5d
45
b9
67
61
d8
4c
37
5a
45
42
c4
52
d8
c1
d0
be
2
e8
dc
5c
55
5f
38
30
d2
30
4a
5c
d6
58
6b
d9
96
c4
d7
48
81
49
40
52
0
d5
a1
aa
d5
34
b8
c2
5a
81
49
94
c8
c6
df
4b
5e
d3
58
c8
cb
ec
e6
57
d9
53
6a
a7
71
4e
0
5c
bc
c9
bc
19
cd
e1
48
cb
ca
54
29
9b
d
cb
80
d5
70
4a
d7
b5
e9
64
c4
ef
25
a7
c8
bd
e0
c1
59
54
c4
8a
25
5b
5b
da
da
b7
11
53
4d
d9
51
42
4c
80
10
b8
50
54
5c
48
81
5b
cb
d7
9f
dd
d3
5b
50
5d
d7
6
35
69
58
ee
6d
37
ea
5a
0
c3
1b
63
c6
ce
a7
49
58
ce
27
c0
51
c2
e6
d7
45
d9
e7
76
dd
c4
64
5d
64
ea
64
2f
f2
4c
c6
fb
39
cc
d8
c7
d5
58
81
db
33
30
4f
8d
d7
4c
d8
56
ab
48
50
2e
54
23
d6
d6
50
cf
44
81
55
2a
e1
e9
d3
68
0
55
58
6d
80
59
cc
e3
19
f2
ef
d9
50
59
3e
c9
59
57
57
53
cd
60
de
0
61
55
9a
56
61
9d
68
5e
db
eb
54
d6
ee
31
57
57
0
51
c7
a3
4b
58
4f
37
cb
ce
d4
d4
97
48
d0
52
5c
5b
32
eb
e1
c4
f4
eb
3a
8b
b4
ca
db
ce
5a
5e
5f
b2
18
4d
b4
5b
33
5b
42
c6
c8
5b
db
3b
55
34
3a
f
1c
cb
42
55
b4
c3
ba
4d
e5
e9
5c
52
57
35
9e
42
56
4e
44
80
45
b7
d0
b7
51
c7
b0
ae
c0
35
55
47
d1
4a
d8
50
6
3a
3a
39
ae
c6
bb
cf
3b
25
3b
46
cd
d8
d2
37
43
d7
bf
cd
c9
4f
cd
d4
c7
ab
1a
da
a8
38
4a
bb
bd
59
55
da
cc
af
c1
d0
59
47
58
4f
bf
cc
da
48
d3
49
c3
c2
37
d0
a3
b3
ba
c8
59
4c
5a
90
d0
3c
b7
58
3b
d6
48
db
8f
bd
34
2d
d1
63
44
34
66
d7
4d
31
b2
9d
db
39
5a
ea
49
39
5e
3e
c0
5a
5c
54
68
dd
56
a4
d8
3b
47
c4
9e
59
40
23
44
4
48
6b
36
d5
e7
df
91
4d
c7
46
eb
e1
c1
5b
66
d9
b6
4b
da
bd
4e
cb
4e
c2
d2
43
d5
cb
8e
d0
af
52
55
bf
ce
cd
32
ae
d7
a4
36
bf
80
98
48
6e
e3
de
73
c0
ee
53
a7
cb
af
5a
5f
c6
d7
cd
a9
48
81
b6
97
cf
40
d2
c2
be
da
d2
da
44
61
b8
59
d7
8f
48
cf
e6
bb
c3
1c
65
b
d4
44
a0
a0
4f
da
34
d5
42
d3
d6
ba
52
54
da
9b
44
53
52
a4
c8
8d
22
93
b9
4b
ca
43
94
a9
d7
45
4d
3
57
43
d2
de
ad
da
61
62
e1
ed
6d
49
e1
52
22
b6
c2
b2
17
9a
4d
a5
96
56
1e
d6
40
be
c6
c7
b3
60
e0
de
44
da
56
76
d2
33
b4
