f9
e6
58
4a
6a
67
e7
6a
f8
7a
70
e1
44
e8
68
c5
54
53
ed
ea
35
f6
f6
ef
e5
ef
65
7c
50
78
f2
f5
ea
f4
f5
2f
f0
ee
a4
c2
6e
ee
2b
ec
68
77
f6
f8
68
75
dd
ae
f2
62
f0
59
e7
ba
58
ef
7f
b0
ea
ec
3d
5c
68
3f
ef
6a
f5
a6
f8
e7
78
ef
70
33
ec
63
f4
6b
64
f3
74
78
67
19
74
bc
59
dc
ed
78
75
6b
f1
19
6b
66
e0
6a
49
70
78
6f
c1
fa
f9
d6
f4
dc
de
ea
c9
e5
d1
cd
5c
10
78
60
67
55
e9
6a
e5
51
77
f7
ee
60
db
ec
e2
61
6f
f7
d9
56
e9
d2
ea
b0
d2
4b
33
72
6b
54
d8
67
59
d0
c0
f5
2f
79
52
4e
65
e7
6c
76
69
e1
56
5a
55
4e
e7
eb
e5
5c
f4
6e
59
d1
ab
68
b2
ef
43
74
ba
f7
46
70
44
ef
f5
77
f8
e2
68
e8
b4
56
de
66
66
f7
6f
47
68
df
e8
e1
ca
65
d1
6e
31
de
ee
45
69
6c
cd
bb
70
ed
e4
75
c1
c5
f7
6c
4e
ef
5e
bb
e7
6a
72
5c
ed
57
5c
7a
e5
f4
f5
d5
7a
e1
b8
f0
53
f7
58
70
ee
6c
45
b9
71
6f
ba
5f
f4
eb
79
f1
70
e4
37
ec
58
e8
e6
f3
3a
d5
f4
69
f0
e8
f0
74
6d
f3
e4
f8
70
63
77
ed
cd
5b
76
d6
bf
f2
71
68
53
79
e6
f9
ef
69
4c
6e
60
fa
62
3d
f1
74
ee
75
4e
e2
ec
c6
f8
6f
67
69
42
59
41
f9
66
69
ee
43
6a
75
e1
eb
ec
5d
fd
b0
67
f4
70
e9
ec
f1
f0
d1
f3
57
eb
f9
77
f7
71
e0
ec
ef
fa
75
6f
5f
f9
6f
d4
6a
f3
40
6d
67
ea
f8
ed
6f
d2
76
e1
ef
65
f1
e2
49
68
6a
ed
6d
f4
78
4e
df
6c
e9
66
60
76
59
d7
73
e7
57
e3
f2
d2
f9
fb
ac
ea
59
72
c6
68
bc
ec
63
f1
e0
4d
ed
f3
33
5b
45
71
6c
80
ea
70
eb
71
6c
9b
6b
e5
30
3d
6d
f2
ec
f9
c9
dc
6f
e5
ed
f1
6c
5c
d1
71
79
ec
f4
6d
46
f2
f5
b1
ca
6d
e5
37
dc
e2
ea
f2
78
64
6d
ef
6d
e9
e0
59
f2
d7
ec
e2
f1
70
47
5f
78
6c
76
f1
62
30
5f
f4
d4
ee
f6
f1
71
64
81
f1
f7
73
73
e2
35
68
71
f7
e4
f3
72
f0
74
6a
f2
4e
58
f9
80
2c
5d
74
e9
ed
f5
64
e8
72
78
b7
e9
ee
66
e9
ef
e9
ed
da
f8
4a
48
bf
f7
39
54
f9
f5
69
69
64
62
e4
68
6c
f1
ec
6d
58
d8
70
ed
cb
33
74
f5
fa
76
f3
f3
f6
73
f6
5a
f8
40
73
f9
8e
e2
6b
f2
d2
c3
30
51
ef
36
d9
3c
eb
8
71
eb
f1
66
77
5c
69
cb
75
6c
d8
e9
28
b4
71
62
5d
5d
f6
ef
ef
ed
55
f4
e0
33
bb
78
f3
5d
f4
e8
71
76
75
d8
6f
ef
f0
6d
dd
5a
d0
61
ec
ec
16
bd
74
73
6f
d9
74
6b
e0
ea
12
38
eb
6a
6f
e1
63
6b
ef
3e
9b
6c
f4
c9
66
fa
5c
4d
20
5d
f3
e1
1f
63
6a
d4
ec
ad
e6
6d
72
65
d9
db
ea
f1
ec
f3
4c
f6
6d
5f
df
f3
5c
74
71
f9
f9
d1
d9
fa
6a
f6
66
78
e7
74
69
6d
6e
6f
70
f5
f7
6e
f2
63
72
4d
f8
b9
e3
79
f8
e2
e9
c7
f6
cb
2c
e4
7b
5b
4d
d3
77
64
d5
73
71
e2
ee
6f
ed
68
f6
db
f8
f3
c9
cd
df
67
23
e1
e2
51
70
e0
e9
66
75
65
ca
e4
6f
be
f2
4d
f6
e0
0
ce
6f
6c
f4
28
e1
fa
69
f0
5c
b2
e7
cb
64
f4
34
6c
47
69
70
79
3e
f4
f1
75
b9
d8
69
d9
d5
70
3d
f5
79
eb
53
64
f5
f8
f1
ec
6d
6c
6f
f0
e9
e5
51
66
72
55
72
dc
fc
6a
73
5c
74
eb
72
74
73
6b
74
b3
ed
f9
dd
db
5a
f7
f8
69
5d
f6
6a
22
ee
75
78
b7
f4
f2
f7
76
f5
c7
71
61
e7
f5
59
75
f5
f5
f2
3a
77
64
f5
f8
6b
f7
e4
56
4e
ea
50
6e
76
ed
cc
5b
f1
da
f3
f5
ce
e2
ac
78
cc
f6
6a
6e
74
e4
5f
e9
47
59
f4
f3
ed
4
f7
41
d0
6f
78
0
c8
74
6d
76
ec
71
5b
f2
f2
f5
dc
f9
b5
6d
ef
da
e3
f6
64
6c
e3
5b
da
e1
52
5f
6f
ac
e8
66
f0
ee
80
f0
70
66
d7
af
fd
72
53
cf
78
e8
ec
73
d1
e3
65
f3
6c
5d
df
21
59
d8
6b
ac
6f
5e
cb
fc
e0
56
6d
72
76
e4
c4
60
5f
e5
e9
f9
f4
5b
63
6e
ee
db
ea
e6
e3
f2
42
2c
67
45
77
ef
bf
f0
69
c1
e7
74
f0
d4
ef
e9
d3
d4
ef
4f
e7
e6
68
72
f6
c3
e9
db
e8
76
74
57
6d
77
67
60
