15
0
d2
2e
48
d3
c4
92
40
d3
40
41
cf
4c
26
b3
c3
5
9b
58
85
12
2c
20
c7
d9
51
ca
4c
80
3a
80
d2
d0
be
37
2d
a4
b6
a1
50
3f
bf
81
d3
be
1e
c7
c4
63
d6
d3
22
a2
93
92
1a
3d
d0
ce
26
36
c1
0
b5
9f
af
c6
c8
ca
56
d3
57
e3
1b
e2
ca
54
c4
d1
60
52
33
cb
4d
50
cd
d5
d6
c1
5c
c7
25
4d
59
d8
cf
d1
ac
dc
3c
53
dd
6a
cd
92
66
5c
cb
d6
a3
e1
6d
d1
46
62
4d
c9
d1
ba
48
ae
53
5e
6f
ca
54
c0
54
92
c5
98
8f
3a
a2
ce
d0
42
35
ca
50
2a
54
92
8a
d1
55
be
2f
44
32
83
ca
16
ce
14
4f
1f
ad
c5
4c
4c
94
ae
aa
47
53
3f
dd
55
cb
bb
3d
bb
ad
2b
b9
51
a7
ce
52
81
af
be
cc
d2
c3
c0
44
ad
47
59
c7
c9
41
21
9a
c6
25
4d
d1
1e
80
b5
4e
40
19
b2
9f
3a
35
5c
e1
4d
33
54
81
c0
b7
32
d4
40
cd
4e
3b
59
56
cf
4a
cd
a8
38
5f
a2
a1
42
cd
c9
af
cb
4a
38
3f
d6
5b
be
c7
ba
5c
d0
cf
47
d8
53
d9
3f
ab
80
cc
e3
de
63
52
ca
d8
80
ad
3f
12
58
a0
bd
4c
55
d9
3c
41
44
c5
56
4e
0
3d
39
cc
58
36
4d
3e
1b
5b
b9
4b
9e
56
c4
b8
39
55
2f
e7
a0
bf
58
3f
5d
10
5b
be
43
cd
58
d7
c3
92
b1
d7
cd
ac
ba
9e
5d
71
e4
ce
59
61
5a
64
6c
d7
65
6a
d7
57
81
52
69
c8
c7
4b
97
58
dc
4c
c3
e3
dd
62
c4
6a
d0
c0
81
d3
53
c5
be
c9
cc
4e
4c
22
d3
36
5b
22
bc
d1
97
53
81
2c
dc
e1
37
e7
59
65
64
42
d1
3e
ea
5d
d9
54
57
4f
db
4c
d3
a7
2f
40
de
c9
4b
c7
51
3f
65
c2
d6
49
25
59
bc
cf
a5
2e
dc
92
d
49
d6
bc
b4
3d
d7
4a
4b
55
3d
e5
40
a5
b9
cb
ce
d9
cb
57
37
5c
de
4b
d2
d5
57
dd
53
8
b8
4e
b5
49
60
a7
2d
68
58
4a
60
3b
e8
6e
32
c6
dc
52
b4
50
bb
d6
ee
63
40
d0
e4
21
64
21
61
57
c5
45
c7
cd
d4
43
4a
de
e2
80
bd
80
ba
4b
63
e4
d5
d2
5b
3f
59
a0
68
68
45
27
dd
52
64
3a
63
4d
d5
4e
63
cd
bd
47
cf
d1
65
a1
45
2b
20
9a
dd
35
33
bf
3f
3d
e0
c5
b3
ab
d8
2c
d7
bc
53
4b
c2
5e
46
ca
81
49
cc
b6
96
d0
c7
66
c0
30
e
a0
58
4b
b6
c0
59
21
80
4b
bc
84
c3
d1
21
0
b0
d7
be
9d
56
a4
18
c0
60
4b
da
80
a
43
0
cf
c9
5d
56
f0
53
90
e5
25
c6
e3
b4
e8
d0
5b
a2
58
50
5d
80
81
e8
de
77
b2
25
80
6a
4d
37
72
cc
4e
5b
1e
36
cf
dd
66
72
86
5b
dd
85
61
bb
6a
64
3e
47
50
b1
dd
59
e7
d3
5c
4c
61
c5
4a
3a
4e
67
be
53
cc
46
3b
9f
47
aa
cb
cf
4e
c0
42
ab
cc
c8
da
50
b9
d4
5f
31
d1
83
80
53
c4
4f
ce
c0
b6
a5
46
9d
c9
b6
d1
5e
81
53
d0
da
a1
47
4b
8e
c2
d6
c2
c8
4e
3d
b9
15
4f
1b
d2
14
c0
c3
c8
b4
2b
5a
5a
9d
53
d7
3b
31
c8
d6
5f
dc
d8
ad
bb
d8
81
65
cd
81
26
2a
bb
59
28
d3
cc
cc
c9
ca
ca
32
34
c1
55
8f
b0
cd
d5
49
be
8a
53
d5
20
65
e4
c0
d2
cd
b1
de
c4
5c
2e
32
cd
b9
2b
ad
21
81
4c
93
4f
82
c9
95
9e
3e
d8
56
d4
81
42
3d
de
25
1a
b7
37
d9
3e
c4
1c
c5
8
d0
d4
da
2f
af
17
5a
de
5
58
b4
5d
e1
c9
c7
23
45
c4
2b
d0
4a
c4
b3
50
46
c5
cc
39
11
39
4d
4f
3d
bf
58
cf
55
4e
5b
e4
e0
50
66
e9
32
53
71
5e
59
57
e0
d4
2b
e8
dd
12
57
ec
dc
7f
a0
5d
c3
c4
d6
e2
5e
ca
39
c9
70
b1
37
d2
dd
83
e9
62
c8
bf
e1
e3
6a
3f
65
4e
6c
b0
3e
65
64
d8
e7
2a
e1
6c
3c
ba
d4
68
54
e
d4
39
d1
c9
ce
cf
a0
4e
51
2c
1a
d4
ba
6
c0
ca
d2
d3
b2
43
cc
9c
19
a4
b9
c2
4c
ad
c5
c2
2b
21
d4
1c
ac
81
ca
d3
b1
b9
4d
2c
a8
bc
cd
bb
b8
46
50
38
41
d1
d4
ce
3c
d3
d2
cf
ce
29
c9
d2
50
d2
cc
35
23
a6
42
12
4e
d6
d4
55
c0
2b
4d
c8
4b
b5
93
d5
80
50
2d
45
a9
51
d4
c1
aa
d0
28
d5
d2
2e
4b
46
d3
44
3b
d0
52
d4
3a
d3
d3
28
d8
ae
c4
d5
d2
d3
3e
ce
42
c0
43
56
49
d5
d3
a9
d2
e
1a
3e
3f
cb
54
59
50
9f
ac
d3
be
d4
94
bf
31
80
cb
d3
de
34
be
a3
2c
98
0
2b
61
57
19
2b
80
bf
34
cd
46
30
4a
4f
52
c1
5e
52
55
46
c2
94
b5
4d
5f
de
80
80
1f
46
0
33
d4
54
d0
d1
62
32
b3
d0
d9
52
64
de
4e
62
c6
0
59
61
33
b8
dc
d4
d2
d4
56
ba
63
b7
60
c3
3f
c5
cd
5d
c4
51
54
ce
bf
c5
5a
53
d5
69
b8
c7
c6
d8
d2
c6
b1
5d
d8
81
cc
67
48
5e
e4
22
63
dc
d6
1f
db
e1
3a
d0
8
57
50
69
ea
4f
58
ca
54
c1
55
bf
cf
d4
5d
b6
57
92
4d
dc
d8
1b
ce
b9
b6
54
d7
dc
c0
32
3a
5a
a3
4c
b4
4e
c3
cc
4d
d6
4f
55
a1
4a
90
39
62
13
d5
c7
cf
c2
44
c6
d0
53
9e
b2
c4
34
88
d1
c9
52
65
52
b0
cc
5a
35
5f
e0
ea
68
d6
d3
d1
b5
57
e6
2d
67
e3
d1
4f
d3
d5
6c
d8
b2
50
5e
80
d5
29
be
d3
64
56
e2
28
36
47
e2
49
59
c4
da
c6
c9
e3
be
c6
35
63
5b
ec
de
67
58
bf
5b
4d
d0
4d
80
49
5b
38
dc
a7
61
32
3e
5e
c5
3b
d6
18
c9
47
52
c1
4d
ca
46
3c
38
3e
92
31
ae
47
a6
b3
de
49
ce
3d
51
57
3d
c4
4e
53
31
c3
50
d3
bd
a5
be
80
3c
38
d3
bf
54
50
cd
d9
b7
81
20
b0
cd
49
2b
c8
31
be
ae
2c
54
28
b8
37
18
d5
a8
c5
cc
54
42
14
dc
b3
57
bb
b0
c9
59
c4
59
d7
52
6c
59
64
4b
c4
b2
ab
d9
b1
30
3c
39
49
d2
c0
36
c9
be
3b
51
52
24
d7
d0
43
4b
d4
4e
33
d6
d1
b8
56
41
46
6d
56
a3
67
60
4c
55
d8
a8
5e
da
43
d2
db
bb
54
d
52
44
c4
cf
25
44
5e
5c
40
bb
35
2c
87
4e
c2
39
4f
c6
1c
20
80
ca
bc
bc
42
34
43
4f
47
bb
b5
5b
2b
c6
b8
4a
df
c5
5a
c9
d5
57
81
16
4d
4c
4b
ac
c1
cf
9e
45
53
d7
54
ae
d0
4f
d3
d0
4a
57
d2
b7
1a
5e
80
4f
3b
af
2e
5c
52
c5
2a
3d
8c
5a
9f
99
df
c5
6e
db
d4
ca
e2
bc
6b
b3
83
9b
c6
81
5f
e1
29
e6
25
da
42
d3
50
d3
0
ba
63
e0
cc
ca
b8
46
d
d6
57
da
db
27
64
d4
d0
c1
c2
bc
37
4c
d5
5e
81
d5
b9
3e
be
be
b0
59
c6
b9
3d
d8
58
5e
60
e0
45
39
3d
ab
4f
c6
d6
28
bf
de
41
55
ae
ce
d1
45
5b
d2
d4
56
c0
bd
d0
4d
9f
c8
80
cb
cf
36
3f
c5
48
cf
37
d4
c6
18
3e
26
56
c8
61
4b
46
a2
d8
59
63
ba
e0
cf
5a
63
49
3f
52
27
4c
dd
e4
34
42
e9
e9
50
74
d9
5f
43
eb
48
3b
d6
39
c9
47
35
75
f1
6e
ed
6a
72
6f
e0
32
32
bf
c1
51
30
67
c9
ed
5a
f0
c4
61
43
e4
b3
60
67
c3
cb
42
3c
c4
32
d8
46
1a
4e
c0
a0
57
d0
3b
d3
89
4f
4d
d5
2d
a2
b0
49
43
d0
b9
a6
c0
48
cf
4b
d3
43
55
80
4e
bc
35
d4
cc
44
c8
b2
d3
ce
29
b8
37
40
cf
33
c0
ce
bd
3b
51
a3
4d
be
48
19
45
c1
d4
52
80
3e
cc
40
d4
3a
c4
29
33
c
52
45
ba
47
d2
ca
c2
4c
96
b6
91
59
cd
44
cf
c1
d8
13
2e
cf
bd
ad
52
52
d3
be
17
4e
49
57
bc
48
d4
42
b4
d0
36
d5
c9
53
41
d6
52
4c
c1
4a
d6
c5
d0
ca
cf
d1
95
4b
ad
46
a6
d3
5f
80
d1
52
a6
bf
b7
a7
a3
d6
cf
c2
42
94
af
e7
cc
4b
ce
5f
35
59
36
89
33
54
4a
bf
b7
a5
bb
5e
58
cc
bf
53
d5
36
b1
d9
2e
cc
17
42
cd
a3
57
d5
56
2b
39
5b
cd
ac
41
5c
3f
37
5b
b5
1d
33
58
e0
99
a7
d6
b6
b2
69
c1
69
59
da
5a
55
1f
be
61
44
3b
e1
73
5b
25
57
48
46
54
41
54
3c
49
80
c8
c0
ca
63
d4
47
30
41
17
54
4a
e5
5f
9c
5a
e4
4e
e4
58
34
e9
71
59
db
30
55
56
da
25
a8
1f
3c
af
39
5d
a9
2d
dc
39
d1
b0
40
4d
49
81
95
d4
80
60
24
de
38
d6
c9
d2
53
d1
b8
3b
b2
1
cc
dc
57
d8
69
54
55
88
44
54
cd
19
1a
4e
b5
53
47
38
b9
d4
49
ba
29
c1
4b
d4
d5
4c
61
19
41
4d
c3
2e
4c
45
37
db
d5
a9
d8
d7
c7
c6
df
42
58
6d
cb
57
e1
5f
d5
d7
e3
15
2a
a5
e0
69
30
6
52
4c
ab
62
65
20
d1
b0
e2
5d
64
4d
da
69
cd
4f
d8
3a
5f
c4
5a
6c
6f
ac
db
d4
56
ea
4a
e2
c7
be
d2
db
