69
8b
d
57
fffffff7
2f
3
106
bc
35
fffffff4
fffffff4
1e
fffffff8
2e
ffffffdb
ffffffcc
68
1e
c
d
63
2
ffffff93
44
53
ffffffa6
ffffffde
fffffdd6
40
46
1f
f5
fffffffb
fffffff9
ffffff8d
11
19
fffffff9
ffffffc9
ffffffbe
56
6e
10
ffffffef
1f
fffffff6
25
b9
1d
ffffffea
a0
88
fffffffe
ffffffe8
d
c8
ffffff7d
ffffffe1
4d
fffffff5
4c
77
ffffff7a
