f6
97
37
31
ee
da
e8
3e
f6
6c
f1
69
74
73
cc
6f
f8
71
d4
f4
11
57
66
65
63
d1
71
9c
5d
5f
53
e7
67
f2
51
f4
6a
dc
b5
74
e4
4c
52
ce
cf
e0
73
43
de
72
6b
58
ea
45
6e
ed
74
f0
d8
e2
66
e5
ec
ce
f0
79
62
e3
df
6c
6b
d0
e5
ea
da
ea
f0
78
41
f4
b5
75
e3
d6
4c
ee
5c
ef
72
d5
db
5a
de
eb
f8
61
74
f7
f9
d2
6a
d5
e0
fa
d8
e3
cc
6f
69
6e
74
d4
4b
22
e8
74
72
90
5b
fc
6c
72
4d
ba
d1
69
74
74
e6
60
f0
75
6c
f8
72
f6
e0
f8
24
f8
5a
6b
b5
e5
ee
dc
f1
f0
de
f8
67
f5
f8
6f
e5
6f
76
61
73
59
74
f6
dd
f2
5b
50
47
6f
3c
ce
f4
d3
65
74
d4
e0
ef
e8
48
77
35
4a
e6
f5
71
65
6c
ec
75
6d
9d
67
df
69
6c
e2
56
40
f4
f0
ec
63
59
ef
76
73
a7
d7
eb
a9
53
bd
da
dc
f0
72
e7
3d
d4
ec
64
71
b3
f8
f5
e5
c6
6a
64
f6
f4
74
4b
ea
63
20
77
63
5c
f1
5f
c1
e3
6e
de
61
73
68
f7
e2
70
d0
f4
2b
eb
66
4b
fb
d
62
e3
eb
ea
69
67
71
ae
d5
f8
e2
6b
e5
6b
eb
c6
3f
e1
79
e6
4a
f3
52
6f
e9
f3
f5
c0
75
75
f7
44
d4
5e
76
43
f0
5c
f2
f7
e1
69
c7
6e
79
de
f3
56
70
e3
0
ee
77
d3
77
52
65
d7
6d
5d
69
61
6d
e0
f7
68
4c
4c
6b
f9
4f
22
d2
5b
51
ed
68
1b
a7
f1
70
53
41
f5
f9
c3
40
eb
ca
65
74
6a
d8
61
f0
db
77
f8
f5
d1
5c
ab
e2
56
f0
50
f8
6f
c7
f2
f8
6a
f2
ce
f0
4f
ed
54
63
e3
55
53
f6
5b
6c
6d
f9
c6
ee
b3
f8
f4
59
e4
f5
79
ef
ea
61
e6
80
f3
eb
55
6d
ee
f2
77
ec
bf
72
62
ce
dc
7a
f6
de
d7
f8
f2
f5
71
6e
78
f
e6
6b
6c
e7
6e
f6
f9
f2
6c
f1
f1
de
77
6f
65
63
b9
72
4a
ed
cf
f5
6f
ea
76
ce
51
f7
56
6e
77
f3
61
de
6f
f4
75
ef
f4
78
f1
46
6a
db
5c
67
4b
5b
61
f7
f3
c5
f4
72
76
d4
eb
ef
f6
77
e8
e7
f9
f0
71
ca
f7
f4
ee
74
f5
6d
f3
4d
74
7b
f4
69
e8
5d
f7
5b
eb
63
76
a9
77
75
5b
65
74
eb
e2
74
54
e5
f4
d5
58
de
f8
e0
f9
78
bb
56
ea
3e
54
f4
6c
e9
73
68
42
da
88
df
3a
c8
d3
f0
67
e9
de
5c
f0
76
0
5c
ca
5f
eb
76
76
56
62
59
e5
f4
f9
f6
76
f3
f3
58
53
eb
3b
67
6e
6d
54
76
f
59
76
65
f0
3f
ff
e6
74
c5
70
d9
f6
51
6c
5e
de
58
d6
65
75
77
e3
6c
6c
cf
8f
60
f5
6e
c4
6a
61
46
30
fc
76
f8
6d
d9
f0
68
76
f6
59
db
e6
d0
f6
21
61
56
e0
eb
65
66
ca
e3
2d
72
c8
6d
c9
f1
f9
65
65
6b
71
62
e3
f4
f1
f0
f0
6b
6b
f6
6c
6e
f7
5d
42
70
e1
61
4f
ed
63
31
59
db
6b
80
da
4a
77
5c
73
e7
f8
e5
ea
51
be
e9
f1
e6
6a
ef
e7
69
54
73
d8
f9
d7
d9
e8
f9
59
75
f3
6f
f6
df
fa
61
53
7b
6a
71
56
4a
fe
76
e9
51
e9
23
e2
43
fa
ee
80
79
b1
76
79
f3
c6
f8
f9
c5
1e
4a
71
b0
44
57
71
db
79
66
74
f6
62
3f
fd
e3
d9
f7
23
57
61
e7
d4
5c
70
4d
76
5b
6c
68
71
c2
fa
ed
70
f3
55
fa
72
af
f9
f8
73
72
f8
e5
6b
42
ca
75
c5
94
91
b7
76
ea
39
70
e3
ee
5d
ec
a9
d5
6f
6d
e4
f3
5e
df
ee
f1
da
f0
73
bb
f2
6e
6f
6d
62
3f
d6
ec
b9
66
de
69
fa
c8
78
c8
6b
73
61
75
61
f0
ee
6f
5b
27
f5
57
64
ca
75
49
5c
4b
ef
cd
64
fa
76
ce
ca
e8
62
1e
b2
77
69
6b
db
d9
e1
64
f0
45
75
5a
f7
e0
68
f3
ed
e9
77
74
5e
c1
c6
ee
61
78
53
68
f9
e3
ec
d9
6e
f8
50
76
35
78
f9
5c
bb
6d
68
f1
f2
63
dd
ea
49
40
62
e8
72
de
f1
bf
59
79
66
6d
f3
f3
31
d4
e8
f0
73
39
35
81
d6
5
e3
e8
ed
53
e1
a6
57
48
6e
f3
eb
f1
77
f4
5c
64
df
cc
ed
66
6f
d5
e0
df
d1
74
66
ba
5b
f5
e6
77
f8
88
68
e2
57
f8
7b
66
75
5e
b2
70
f6
dc
f0
f1
de
73
37
73
b8
35
70
6d
ee
65
f6
ef
6f
dd
dc
8e
f5
4e
d6
f3
68
6d
f0
e8
e2
f9
eb
dd
ec
ce
73
24
af
f9
df
f4
76
72
48
70
48
db
72
66
f7
ac
77
66
5f
e9
65
e9
a1
67
f2
5b
e7
f2
ec
f6
80
6f
68
f5
28
d6
ec
f0
f6
70
75
49
2b
1f
6b
f9
71
67
74
e9
ee
f9
77
64
df
f9
7e
e6
81
41
f6
e4
50
43
68
f8
f7
f6
e8
6a
2f
42
20
ec
77
74
6d
4a
e9
59
f7
f1
f9
ed
63
44
d9
f3
7c
6e
d2
eb
6e
70
f8
b6
5c
4e
f5
7a
e2
e0
ce
f6
e4
53
d9
70
72
3d
ec
f8
f3
70
61
63
65
f7
ee
5e
5e
6f
f8
d8
f6
71
5d
64
f7
57
38
61
3b
76
61
e8
f3
68
e4
75
f3
e9
53
ee
e4
64
f0
68
d0
47
73
6e
e6
6b
9f
9e
68
66
eb
2b
6d
c9
5f
71
5d
74
69
63
65
da
e8
6d
f2
ea
e1
78
70
43
fa
fb
78
77
5d
f1
64
f4
f8
6b
69
ec
da
63
e1
e3
75
77
ef
57
3e
65
50
53
60
de
f8
72
f9
e7
33
ac
ab
b7
e8
e8
73
f8
e4
76
74
6e
f1
d5
c5
f1
62
5a
ee
d
f7
f6
61
e4
53
42
f4
ec
6c
b8
cc
76
72
43
b3
65
f7
f8
6d
62
ea
e9
f0
74
67
69
6d
df
ec
f4
f4
d9
f5
f3
75
fb
76
76
ea
65
6d
ee
ed
79
d8
f2
e6
5f
f5
77
f0
74
76
e8
63
59
6c
6f
f2
df
6e
eb
f3
74
ef
e6
e4
e9
74
f5
5a
70
d5
e1
6c
d8
bc
5c
6e
4f
ec
e7
76
eb
f7
ee
f9
e3
ac
cc
68
eb
74
6c
e9
d3
50
d4
ee
d3
73
74
72
66
3f
da
51
74
5e
b5
f2
5b
6b
75
70
67
70
de
56
de
e5
71
cd
f5
fc
5c
ed
d9
74
76
e8
eb
f0
62
77
eb
f0
75
67
ea
70
d8
5f
71
f5
f5
68
66
a3
77
70
68
74
f7
5f
55
f5
76
44
53
51
dd
e4
d8
f1
c4
eb
73
d8
74
f4
f0
f7
f3
d0
f4
6d
51
f9
62
f3
30
f7
f8
77
52
f6
5e
71
eb
5b
ef
ec
72
c8
6b
e2
78
72
f6
70
75
ef
e6
27
33
5b
68
f6
12
e4
d7
70
da
6a
f3
c4
e6
52
bb
f3
f7
75
cf
76
34
50
d3
cf
75
43
6c
f8
76
f2
68
ec
14
d4
73
de
f4
f5
70
ee
f1
f6
e8
75
e5
fa
5b
f4
78
ea
e6
69
dc
6d
72
76
54
e1
f6
68
7a
f9
70
6d
e0
75
f8
ec
9a
62
e2
6d
80
41
bf
75
e2
71
6e
6d
4d
dc
af
e
e5
f6
d6
f3
ca
c3
f3
52
d2
3b
f5
e7
60
f9
f0
9a
66
eb
72
e3
d4
bf
f3
5d
e4
5f
5c
ca
c2
f1
59
e8
78
e9
54
73
72
dd
d9
5d
61
c5
df
6e
ed
6c
f5
46
e7
e9
f2
6d
e1
f8
f1
72
3d
f6
53
6d
b2
d2
f7
dd
64
60
6e
64
76
73
e6
df
50
71
78
6e
40
f3
5f
f3
e5
ed
77
71
dc
73
77
f9
69
ee
e4
db
f5
f6
6c
e2
72
e4
ea
f0
f5
ce
72
5d
d8
ee
63
75
f2
63
f8
6c
eb
d2
f4
6c
80
6b
66
e2
d0
65
67
70
4d
f1
20
72
55
e1
f5
71
e6
fa
6d
f7
6e
f5
78
6d
74
e7
ed
61
f0
d1
5c
ea
64
f5
4d
c4
e1
73
ea
f4
d1
6c
e5
72
f5
fb
61
f2
e7
e4
74
de
c9
e2
3b
70
6f
b5
80
78
6e
70
e0
de
50
73
74
55
6d
f7
a4
f5
63
f6
f6
e8
33
7a
d1
65
f6
f9
e9
c3
ba
75
f0
f4
f4
f7
6f
78
f4
59
64
3c
50
78
61
60
fa
fa
53
36
e5
ca
56
57
78
47
6a
2f
f2
73
51
60
61
5c
e6
77
64
eb
6b
22
e0
72
57
6b
51
4e
df
9a
68
71
aa
65
f6
74
eb
f3
5f
ec
4a
72
72
ee
f4
6f
66
f3
3e
f3
c3
e1
9f
ed
66
f5
ee
bb
69
53
e4
70
30
f9
51
e5
6e
f7
dc
ce
5a
6a
5b
e4
4a
77
eb
ec
5d
58
66
bc
f2
6f
58
71
74
f6
74
7d
f7
ef
d1
73
da
f1
4d
d1
f1
74
71
d2
f2
f2
e8
b3
68
71
59
71
ea
48
6b
52
73
4b
56
6d
dd
6c
dd
ad
5e
74
d5
eb
73
d1
d8
f7
74
73
74
f5
c4
f0
74
5a
4d
eb
ef
6d
6b
d6
75
4a
5a
ed
5f
5b
6d
f5
51
5e
71
e9
73
56
7
35
e0
1f
d2
2d
6c
6a
ef
68
fa
f5
77
f7
f2
e7
5f
ea
e7
ec
29
e4
dd
4b
e5
d5
f9
da
72
ef
12
f3
f3
f7
70
6e
f7
e5
50
f1
f5
87
f8
e8
78
37
e3
ca
f8
4b
f6
6c
57
75
f6
67
ea
58
4e
7c
e6
f6
e3
6c
eb
f6
4d
6e
d8
f0
79
69
6b
ed
d6
d0
78
f3
78
e1
f1
aa
72
cc
ec
de
63
f1
8c
70
72
69
f9
e7
f7
78
fb
df
f7
62
72
f8
62
f0
6a
77
64
cc
69
6f
61
52
65
6f
4d
f8
f4
ec
68
58
61
e9
e2
e5
7d
54
ea
ce
73
fb
6d
5f
f3
61
da
e8
63
ee
e3
eb
e0
5c
4e
4a
cc
ec
71
a3
72
3c
e9
f6
f6
c5
f6
ee
d5
69
77
5a
73
53
64
c1
d3
ec
66
e9
59
c4
e5
6e
f8
30
ca
dd
dd
62
dd
b1
b2
ee
f5
e1
65
68
69
73
59
9a
e6
74
72
ed
ec
46
74
f8
26
6b
46
ce
74
57
db
f8
67
c5
db
81
71
57
77
df
5e
e6
51
da
41
ee
f8
78
66
db
f7
de
67
5d
71
43
6f
50
6e
e2
bc
f3
65
f3
71
23
73
d5
68
f6
e5
6c
f2
f2
45
f2
f2
64
77
77
cb
f8
f7
d1
bb
eb
ef
71
e5
c8
ed
73
5b
55
59
43
45
6a
f0
67
f0
51
ea
e9
dd
79
68
f8
64
f2
79
e8
f4
70
ec
2b
ee
c9
39
6f
e4
62
74
62
f7
e9
f1
f9
df
e0
87
4c
65
0
26
6e
e6
57
5e
dd
ca
6c
c6
ed
3e
72
f9
5d
6e
67
ea
e9
64
f8
c3
f8
b7
4c
60
f7
d8
f6
f5
f3
77
b9
47
dd
df
5e
74
6b
e7
6e
50
77
e
71
f4
74
d6
f9
4f
f8
62
f3
74
c0
f4
f2
63
3a
ee
eb
65
5b
93
75
48
64
f9
78
f5
44
58
73
60
ef
6d
df
e7
66
4e
ce
e1
ac
ea
16
6e
65
2b
6d
72
f9
66
f0
3f
f9
f2
57
d1
e8
ee
e3
4c
b3
6d
ec
c5
3a
df
66
f5
eb
f5
f5
75
e2
eb
71
31
72
65
79
d8
6b
59
5f
53
6d
6e
e3
e9
63
e4
77
f8
72
ce
6c
5e
f5
56
e1
f7
c3
fa
c1
46
e2
f7
77
cf
63
f7
f2
3a
ec
6c
ed
f3
db
4c
70
67
75
e8
f0
71
64
72
5f
70
75
57
54
f7
bf
d9
c4
75
72
79
2d
dd
e4
fc
6c
76
45
bc
76
6f
e9
cc
dc
64
6b
e9
6e
70
db
73
ca
ec
6b
24
78
d0
67
65
fa
de
73
67
69
a5
6d
4f
f4
45
57
f2
ea
f4
f1
ec
6d
5c
e0
ed
f0
e4
50
59
26
f1
55
6b
f9
6f
64
51
a0
76
eb
6d
31
d6
dd
f9
f7
41
74
6f
69
f4
39
d0
e8
f5
ec
c0
b7
77
32
f0
76
77
a8
f0
45
75
f0
6f
62
75
f8
59
c2
eb
f8
f2
6d
f3
e9
6b
f5
40
e0
ec
53
dc
f6
67
19
e6
f3
e5
db
60
e7
ec
69
79
67
26
e2
c4
a1
ea
a4
e7
e5
41
6d
6d
65
64
74
5a
4a
76
79
4c
d5
fc
6f
ee
d0
76
eb
f2
f6
6f
e2
e7
6d
d9
67
e6
77
db
f8
57
ef
ed
72
78
58
db
e5
4d
f0
4e
6b
52
65
60
e0
69
4a
73
59
6c
ef
65
ef
f4
9f
64
c1
ab
d2
d7
6e
6d
c3
bd
dd
6a
e3
f9
61
58
f4
58
eb
70
f3
69
35
59
68
64
66
f6
75
f7
ea
3f
6a
e5
6b
72
6c
e3
78
3d
54
f6
75
60
de
53
ce
70
f6
62
c3
f8
e2
e7
ec
91
71
d5
6c
f9
7b
76
f2
6a
d3
c6
cb
73
c0
ec
6c
f1
f2
f5
68
58
67
73
f0
67
da
98
24
4d
45
66
4f
65
ea
f5
e3
ac
71
f8
eb
65
4e
df
72
d6
e2
65
eb
46
76
eb
6f
ea
70
df
78
73
fa
ec
79
dd
55
f7
ea
5a
60
fa
d5
60
76
71
f9
6e
80
d8
fb
26
63
76
5c
e1
eb
f4
6d
62
91
1c
fa
ce
6b
6c
67
44
69
72
c1
e0
6b
4d
e7
d4
52
70
d9
ed
ef
44
6a
2d
c7
b7
f2
e8
75
ea
f9
43
64
ec
c8
ed
da
d5
76
b9
73
dc
78
70
9b
69
67
62
56
f6
77
ca
33
f2
a4
70
f8
30
6a
0
df
9f
f3
d8
56
5f
5a
f9
f6
69
6c
64
6c
46
e9
ae
f2
6d
f5
67
f2
ed
ec
56
73
e1
71
75
d1
f5
6f
77
e0
f7
f6
aa
f8
50
db
58
f0
c9
0
34
f3
6f
75
e1
b9
48
75
6a
81
e8
4f
e9
fa
48
75
72
ca
eb
6b
5e
f4
f4
6d
7c
46
79
ec
65
f3
ee
d3
69
f0
55
44
f4
60
c4
e5
eb
54
75
f9
5e
66
f4
4c
f4
d6
77
cc
f1
c3
f4
73
f4
f9
f1
e8
72
e1
e6
5c
f3
d1
77
d8
5b
cc
6f
5a
b1
74
6b
af
63
30
ee
5a
14
ce
63
f1
f2
d3
d5
4b
6e
db
54
f8
f4
10
df
6f
ef
81
26
f1
76
3d
66
f0
72
ea
69
6b
c6
bd
90
5c
77
3b
80
5e
67
c1
b6
e7
dc
68
f5
6a
31
f3
31
73
b9
61
eb
e4
f3
f4
d1
f7
5c
6e
f0
e7
76
f8
6e
f7
f7
25
67
e3
f6
51
4e
78
d5
d5
f1
70
7b
fa
51
58
d2
68
f6
6b
76
e5
de
db
6a
a0
e7
f8
6c
ed
f7
ea
d0
6d
f4
e9
f8
f8
c7
f7
f3
f7
6d
f3
ed
72
4
62
e0
74
47
f4
e0
6c
71
f9
e2
db
78
f8
58
e1
b8
e6
49
60
e7
63
ce
60
cc
62
63
1
b3
f9
d3
94
dd
f7
75
ee
53
f9
7a
b3
76
6c
ee
79
94
e9
77
ec
57
fd
7a
3b
67
72
f2
e4
39
63
5e
63
53
70
71
60
76
e0
34
f2
ca
c0
67
f8
ba
60
71
6c
6f
f6
da
4e
65
f1
47
d8
79
3c
68
f4
4a
63
73
ed
ed
d5
f7
35
3f
54
db
5e
f5
f8
76
46
ee
f0
ec
72
b9
e0
cf
6f
d0
6b
cb
49
e9
4a
f3
dd
72
5d
f5
ec
43
59
e7
f6
74
ce
39
6d
f1
61
ed
ed
6e
ed
a5
51
f2
da
5d
6b
74
8
f2
4f
4a
f8
79
fa
4b
4b
74
63
4f
ef
53
ec
72
63
6a
4c
69
66
f9
61
50
69
f5
41
68
f3
62
f5
eb
76
74
5a
f7
65
c0
75
44
b2
37
61
2e
6c
5c
ab
6d
54
3f
e7
da
c7
df
9f
6f
f8
f8
f0
f7
ed
78
e9
d6
f9
40
4a
62
80
75
67
e1
f0
e9
70
70
f2
66
26
c4
5d
77
70
6a
e3
6b
52
dc
f0
55
e1
66
e9
d7
ef
eb
f3
47
68
f4
63
70
6b
e1
f2
f7
f8
f3
50
62
c7
e7
ee
b4
59
77
f9
e6
f6
ec
e0
d9
70
d9
f9
32
f4
77
67
ec
f9
60
f4
76
ee
6e
74
bb
e8
48
d9
f0
58
e2
c5
6e
e4
75
6f
e7
77
33
f3
43
f4
ca
63
60
32
ca
dc
e9
60
23
d4
55
ec
6c
cf
72
c7
da
76
3d
e6
6a
74
f7
f1
cb
5b
bc
ec
3c
ea
55
e6
d0
f3
74
e1
a2
6f
78
6e
e6
57
71
69
d6
e6
62
6f
53
66
33
fa
6f
f9
d0
54
78
f7
6e
af
6f
72
5e
69
f7
64
e8
4c
fb
ef
73
d3
e9
71
60
64
6d
6a
33
ed
dd
d7
ec
66
ef
da
f4
64
6d
4a
eb
6d
62
7c
e7
ec
5a
6d
f5
f2
66
68
f7
b6
78
f1
52
f2
e5
ea
47
7b
61
f8
d0
f4
e0
da
f5
b6
56
f3
70
68
67
52
c9
e5
61
e8
59
51
f9
e8
f3
ea
ed
f1
ed
6b
68
70
9c
ed
a8
e9
67
f0
d8
ef
f1
c5
76
3e
e3
ea
f2
d8
e5
6a
f0
6b
f6
72
63
72
72
f9
72
d6
bd
e9
5d
f4
69
de
64
e4
e0
ef
c1
31
79
cc
3f
60
50
ee
f7
56
d7
76
6d
70
73
68
f1
6d
e5
ea
1e
f5
f6
e3
5b
77
d5
67
4f
f4
ec
f8
64
52
75
f4
33
72
3a
f5
da
5e
70
71
f2
72
75
f0
16
b4
56
61
4a
74
1f
f7
42
f4
6b
62
70
76
ea
f5
42
73
73
ee
6c
cb
df
6f
4c
4f
ee
45
45
f1
66
fa
f6
f8
61
c6
77
ca
6b
d8
6d
73
dd
e3
d0
2d
72
ef
5a
e5
77
65
73
63
76
64
b5
f1
9b
b5
f9
dd
ef
c3
4e
65
ed
e5
3e
f4
f1
f7
c7
e4
54
bd
dc
4e
6c
67
58
79
6c
ec
5c
62
e9
74
5c
f1
e9
75
de
ef
73
e8
d5
67
ac
6f
f1
e1
6b
d7
c3
73
d2
76
67
73
ec
77
68
f7
e7
38
e8
d9
e7
76
77
f8
e5
b4
5c
bf
d8
c5
c8
67
74
5b
dc
ad
5d
d1
ec
35
db
d2
b3
e8
6b
e8
56
71
79
32
be
1d
e5
6b
4e
52
72
5c
da
47
e9
f3
59
fa
6e
53
a9
6c
6c
57
eb
c3
cf
42
62
eb
74
d6
d7
d6
78
69
41
f1
f2
6f
ba
68
c2
f8
75
74
f4
f7
5f
78
5f
6c
cb
e9
72
eb
f6
63
c8
72
e4
74
f3
d1
60
74
6d
45
f9
ee
6f
65
e6
f3
e9
e0
f4
72
e7
6d
74
9e
22
f0
f6
70
f7
ee
70
52
e7
d4
76
e7
5e
ef
7b
3c
f0
f3
ed
ca
5e
6d
60
f8
f9
67
5d
51
5c
d3
e9
46
f6
77
5e
ed
5d
67
64
6d
61
c9
bf
f9
ea
67
76
e9
f1
cc
de
f6
7b
3e
64
cd
dd
79
6d
6e
e0
42
68
fb
6d
f5
5f
f8
43
b0
da
e7
76
66
e6
df
73
f7
46
74
ca
28
56
67
2b
f5
de
e5
e1
41
0
4d
df
fc
f6
ef
76
66
6d
6c
ca
3d
c7
6a
51
f4
74
61
f9
6d
6a
f9
a7
5f
5c
69
6c
6c
d1
d8
fa
74
78
44
64
de
f7
77
33
ad
6e
f8
f3
cf
64
50
ee
6d
6f
75
dc
4d
6a
f0
ee
ec
f2
ba
d3
72
d6
ea
ce
af
f5
f0
d2
dc
6f
78
f7
e7
f8
d9
74
df
7c
51
72
da
6c
78
f6
eb
61
9d
78
f1
f2
f8
61
57
a1
6f
f1
ce
de
ee
5d
d7
da
5d
f8
79
61
44
75
fa
52
77
eb
e7
aa
f7
76
6f
e5
5b
77
d8
2d
df
de
6a
f7
65
ee
73
f5
73
f2
6f
f9
5f
60
e5
61
73
ce
6b
f8
75
f2
33
70
e9
ca
f7
c0
78
f9
64
5d
59
f0
57
d9
66
bc
76
63
1d
74
59
ec
6e
f4
75
65
f2
3b
69
72
55
f5
63
ec
5d
f9
fa
5a
ec
62
d3
f5
f8
f5
43
cf
f5
d8
d9
9b
5b
62
6e
63
44
71
cf
57
6a
66
f5
6e
ec
f5
60
bd
f4
f2
e6
e1
db
c3
f7
6a
f4
76
f6
78
3a
eb
e0
79
64
f4
f8
db
66
e3
71
ed
ce
f9
e6
3e
f5
77
ab
e3
c6
70
ef
ea
6c
cf
f6
e7
77
6d
