fffffde6
ffffff40
22c
126
4b
72
ffffff30
201
fffffd46
28b
fffffed9
ffffffd8
ffffffca
fffffe71
ffffff7e
fffff9d3
121
1ee
386
ffffff3a
ffffff17
ffffffdc
b6
ffffff80
fffffd65
ffffff07
ffffffc6
ffffffdc
2a2
ffffff80
219
fffffdc4
2d7
74
fffffffa
624
3f
56
ffffffea
52
fffffee8
117
ffffffef
fffffe54
168
54
8f
246
fb
ffffff6a
1e2
1aa
ffffffe7
fffffef9
a3
fffffff4
ffffffe6
fffffe42
fffffe7a
152
3
e2
ffffffea
ffffff9e
b
c0
ffffff77
a5
152
ffffff8e
202
298
ffffff8e
fffffffc
ffffffea
fffffda1
23b
fffffe9c
fffffee8
fffffff6
5e
2c
fffffe8e
43
ffffffe5
fffffefd
fffffd2b
ffffffe6
fffffee6
ffffffba
1a3
1d
1
e
fffffe89
ffffffc1
