bc
6c
25
e7
45
ed
c6
ee
5a
d8
ca
5f
eb
ea
5f
e6
3b
eb
c4
72
6b
e2
72
e0
51
f2
d5
5a
66
f1
e3
3e
63
ec
68
65
32
d9
f3
41
9
68
c4
70
62
5e
73
e7
eb
d5
70
60
f5
40
df
59
5c
43
49
ee
ec
f4
6c
57
75
cd
d9
4f
c7
ea
40
75
73
f8
f3
6f
65
48
e6
80
40
6b
58
74
60
4f
f2
4a
6f
f1
63
54
54
5d
bf
eb
e1
5e
6a
c8
ea
59
62
de
70
ec
3b
dc
9
69
c5
d9
f1
6b
f9
71
ea
e4
ce
f4
20
f7
67
67
74
73
5b
f5
dc
4b
d2
f2
e2
63
d7
4f
ef
f1
80
f1
62
dd
e9
69
ea
52
ef
d4
56
68
ca
e5
f5
f3
e6
51
f7
6f
f5
35
c6
ec
45
6e
f1
c7
5c
55
6a
73
ea
f2
f4
6f
62
d8
75
6b
da
6f
66
de
f4
f1
7
d2
74
f3
59
5f
f6
6e
64
ef
61
6a
f2
82
60
d6
65
d7
c1
66
eb
f5
ea
72
e6
f4
ec
dd
6c
e7
70
ed
e2
e8
60
a9
6f
67
e4
40
eb
f4
59
6f
ee
6e
f4
d3
e6
6f
f6
6b
e9
f2
63
69
62
57
6e
b3
cb
4a
ca
ef
69
74
5a
71
d7
d6
4c
f3
66
60
e1
70
9d
bf
dd
f4
67
4b
71
4e
f8
da
f2
f6
4c
ed
37
6e
6f
df
f1
e8
f4
e9
67
6d
63
57
f4
c2
70
67
6c
ef
6b
75
f2
f6
73
58
c9
ed
20
da
23
f1
de
d7
bf
46
66
ef
5d
4e
eb
6a
e5
69
66
62
6e
62
eb
12
5c
71
6a
44
cb
f0
72
4e
d2
60
cc
c6
f2
e9
ee
68
71
27
ea
d5
69
6b
f3
6f
65
73
ee
d1
69
4c
ef
65
54
6e
ef
1a
d4
72
56
68
ea
2f
f0
e2
6a
6d
67
5d
3c
6c
6b
ec
d1
cc
f0
4d
45
61
68
23
eb
cb
ec
d9
1c
f4
de
6a
73
f1
98
72
aa
a3
a1
6e
51
4b
c0
f6
e4
70
e8
c9
74
57
70
c9
cf
73
6e
71
61
55
65
74
6c
f1
bd
ef
75
4d
e9
db
f0
64
de
54
e2
5d
f3
db
d3
6d
66
6d
6d
cd
e1
6b
f2
66
65
4a
71
e7
d1
55
e8
ac
62
4b
6c
74
6d
f1
c5
ee
f1
f1
5a
b5
e8
5f
47
5e
ef
59
1
d7
6d
4d
eb
f4
ee
d3
cb
66
67
55
67
f4
f0
f1
64
6b
e2
ed
c7
c9
71
6f
73
57
4b
da
ec
d5
39
72
ca
e4
6c
49
3a
f0
e4
47
69
f2
32
d1
68
ee
6b
e4
6e
ba
f1
50
eb
6c
5d
6b
ce
57
72
be
e5
6a
5e
5b
5f
e3
6d
e2
6a
f2
81
42
31
5b
70
b2
55
d7
df
e1
bb
72
62
e9
a7
e7
e9
ef
8d
44
d9
36
b5
f0
e5
b9
ee
eb
68
e0
b5
5e
d9
de
ea
73
cd
31
f2
65
ce
aa
d9
c2
c3
e6
70
f5
d
69
64
43
cd
56
56
d8
2f
24
63
e5
73
5f
e9
6b
45
dd
cf
ed
3d
9c
6f
53
da
eb
f1
70
e0
e5
69
ed
6c
c3
6b
68
ea
53
54
51
50
56
70
71
58
f2
e9
63
6d
f3
6f
e8
ba
c5
c3
ee
72
6e
5e
e1
ec
f0
d0
e2
c7
76
e5
ef
63
e9
e0
e9
e7
70
f3
75
e2
ef
69
f2
de
a6
e7
67
69
4d
2f
5a
e8
e6
68
35
51
db
dd
f4
ed
81
e3
5f
e1
ee
6d
5c
69
55
6a
58
ee
48
71
f5
66
62
b2
47
5e
dd
ed
f3
40
ce
e5
66
34
ea
b0
6a
75
71
f7
65
5c
e0
dd
e5
65
f
cf
f4
d8
6d
73
d3
71
f7
e
5c
ef
40
4f
74
e5
5a
f5
6d
cd
60
cf
5b
6d
d8
5f
6b
f2
ef
55
f4
e7
61
e5
5f
75
e5
61
ec
e6
ee
ec
75
f2
f7
bb
6a
3e
6e
5a
6b
da
f6
48
59
c2
6d
55
e5
d5
df
cd
5b
cc
e9
ea
ec
f5
74
ed
e5
53
e3
56
6e
6f
bd
d5
66
5c
1c
e4
41
d3
ef
df
67
6d
f5
f0
c6
63
dd
72
e8
27
6a
b9
44
ec
e4
35
4e
ec
6d
df
eb
53
e0
cd
6c
ea
72
d4
ef
67
ec
77
6a
51
ee
6b
aa
e0
6d
50
65
76
df
d5
ec
68
d6
a0
d0
69
f2
e3
dc
e2
c4
ce
f5
c5
71
d2
60
b3
66
bf
f0
56
67
70
e0
e6
70
e6
6e
44
ef
f1
2b
ce
6e
64
62
5c
ed
f5
e6
e4
d3
ed
64
d5
5b
d5
e2
f1
f6
71
c6
f1
d7
f3
55
f4
e5
77
63
60
72
63
32
d1
f2
4b
6b
d8
28
71
cf
f2
e2
df
f1
62
75
f0
c4
ac
fa
59
4d
d8
da
e9
ea
ce
74
6e
d4
62
69
68
bd
61
3d
80
6c
56
ea
61
e9
62
d4
ee
66
70
ef
e3
49
70
dc
c9
f5
ef
5c
f4
71
f5
57
ef
6a
f2
39
41
aa
e6
66
46
4d
da
70
d7
6c
f3
6e
71
e2
67
58
56
e4
f1
4c
d0
e7
6d
65
e9
c5
6d
fa
65
64
51
6d
be
69
d2
eb
81
5d
e0
4d
ca
67
57
57
64
a7
d7
d7
5e
61
6e
6b
ec
e3
5d
64
e9
c1
68
f2
da
f3
60
f4
6d
ef
80
f5
e1
ee
6f
70
df
f3
63
70
d6
de
e6
37
75
e9
65
de
f2
73
d1
6a
74
4f
6e
e8
e0
3e
48
6d
6b
6f
e4
72
d2
d0
ed
2b
ce
c7
4d
71
f1
f0
ec
e4
50
5f
6d
80
e7
6b
e4
47
67
de
72
70
e6
5f
68
e0
ea
68
4e
e2
f2
6e
f7
6f
72
64
59
64
f5
61
6b
71
dc
6d
d0
c9
e2
63
72
31
73
b5
ea
49
db
eb
f0
5e
72
f0
6c
6f
ef
6c
d3
8d
ac
ec
63
5d
6a
6a
c7
5c
d0
ea
ea
6f
6c
35
f6
61
e1
42
56
c1
be
68
e6
d1
a6
6a
74
6e
e9
ec
f5
f3
71
58
6f
71
6b
69
72
ee
d0
f0
d6
6e
71
a8
e9
e0
f2
ec
e6
c7
cb
f4
e3
62
68
54
e5
d4
73
73
ec
48
dc
d1
6d
da
54
71
6b
55
ec
ca
62
dd
f5
49
d4
d7
47
ef
f5
5d
6d
71
4c
77
76
4f
53
70
4e
dd
de
76
67
dd
f0
e9
5e
e1
ce
d3
6f
f0
f1
d8
e9
e1
5d
f5
e3
dd
69
d7
73
4d
5e
71
72
e6
d0
59
cc
67
de
f1
5d
e2
65
0
73
71
70
66
64
d8
70
f4
e9
52
e4
5e
f0
74
f1
d9
5a
c5
64
f4
39
69
5f
df
ef
f4
72
e9
d5
ab
51
e2
6d
d6
ed
60
59
6e
ec
72
72
2b
eb
40
d2
d3
f2
61
ec
aa
e2
f6
73
38
6e
f3
6d
cc
67
e7
49
81
f1
f4
6a
76
be
e8
65
70
ee
f4
0
df
53
6c
f0
f2
89
ec
b3
68
97
56
61
e3
69
81
eb
6f
63
40
eb
40
44
ad
5b
6b
5f
f3
62
e4
74
c7
70
31
ef
5e
e7
74
e8
d4
ec
cc
f1
f5
4e
65
71
3f
6c
6a
de
5f
e8
ee
e8
e7
d4
65
67
5f
eb
41
6c
da
d0
5c
c8
6d
e1
55
6e
e3
74
f4
66
5e
cb
bd
f3
e2
f0
60
76
ee
e0
52
6a
4d
ee
70
74
74
b5
cd
73
60
d6
75
4d
e7
4f
e4
68
f4
6c
45
ee
4f
f3
71
67
d9
e9
59
e6
63
b5
e3
d7
6f
f5
94
c9
72
71
f0
6c
62
ed
59
71
72
e9
75
d8
ff
6d
6c
57
6b
d2
57
61
c3
75
75
6e
5e
e9
e6
5e
f5
e0
ea
ef
4b
5d
73
47
e0
74
58
ee
ee
e8
ae
6b
6a
d3
67
53
63
f4
e8
f0
74
b5
e7
f6
db
13
e0
f1
ee
44
36
e5
e2
74
e5
eb
c2
60
ed
e1
e0
ed
f5
48
ee
72
dd
75
55
7a
f3
65
cb
f5
65
65
4a
b2
64
e3
6a
f6
6b
54
6a
5e
f6
e6
4d
63
38
70
e7
c3
c8
e2
53
e4
53
dd
cb
e1
d0
c7
69
e9
e5
5d
6d
64
d7
48
cd
e1
73
47
f2
47
ed
6a
dd
e6
6f
6c
c0
ec
52
e9
66
f2
c3
1d
60
eb
6d
cb
51
65
e1
65
dd
5e
36
e5
da
73
81
6d
f4
f4
ec
9
d8
62
d1
e7
f6
d6
f5
e0
5a
a8
ef
e5
65
d7
62
f3
ea
6c
60
f1
ea
70
54
ce
ed
ea
75
62
71
4d
ef
4c
73
60
e2
57
68
6e
25
6e
4c
ef
2c
eb
6e
f3
68
4b
e2
eb
54
66
63
dc
f2
c4
be
70
4a
f1
4f
e4
5c
6c
5b
f2
80
e9
f1
f1
73
75
50
ec
54
eb
ed
71
d8
45
70
e7
c3
e4
e6
e0
85
e0
ef
e8
59
6a
e4
5d
c3
57
e0
6a
f3
d6
38
6e
ee
3e
73
e3
58
6e
68
76
ee
bb
e5
da
d9
41
6d
44
19
cc
f2
75
71
64
ed
ce
ba
64
5c
58
6d
70
ea
5c
ea
65
2e
6b
d7
66
75
e7
32
f3
73
72
f5
f8
50
51
37
ca
e9
e5
d0
e9
b4
5d
63
f2
59
b3
49
5f
5d
67
d9
6f
68
73
27
f2
ec
e8
ef
f2
49
6c
68
e7
68
62
da
cf
6d
f1
58
69
db
73
dc
49
65
67
de
4f
f0
53
f1
5b
5d
ac
6e
df
6f
e9
e8
c7
e4
6b
de
f7
75
ea
e9
42
ec
2f
f5
f0
61
ec
f0
61
68
6c
be
71
f5
f3
ba
f6
6a
eb
74
98
e2
f4
31
f1
68
6c
6c
4b
64
e5
70
71
eb
52
f2
f3
d6
61
f5
d0
b8
73
6f
59
23
e2
b2
64
70
e2
73
e7
80
64
42
ea
4e
fa
64
b2
f3
6d
d1
ca
ec
6b
f6
3a
e3
ec
5d
ed
ef
28
80
e5
62
f5
f4
5b
68
ef
64
5f
f5
64
e0
ef
5d
70
3d
f2
71
d5
47
5d
69
f3
ec
56
e8
e4
f6
d5
72
d5
ee
eb
ec
6c
6e
60
64
f5
f5
51
f2
e9
69
f4
eb
71
75
f3
6d
57
e6
57
6d
ed
6a
76
c2
eb
c9
61
f4
64
c9
dc
df
be
72
e2
6a
5e
f
69
f0
df
56
69
51
e5
6d
9f
5c
4f
64
71
e1
62
ec
5e
e5
68
ee
73
ed
4a
c3
e5
58
ec
f1
e6
e9
74
ea
69
f2
b7
31
eb
da
4e
51
ea
6f
d1
e4
e8
ed
d0
f5
6a
ee
74
ed
f4
38
56
f5
e4
42
e2
cd
58
63
52
70
55
6d
e2
50
cb
f4
cb
5c
e6
62
c2
ec
e3
c5
e0
f3
ee
65
52
67
64
ca
df
f4
f0
d5
ea
c1
cb
72
64
c9
da
f2
72
c8
da
e5
ee
70
5e
72
49
65
eb
76
d2
c8
ed
f1
52
dc
48
d0
70
60
eb
6a
31
ec
d9
66
eb
bd
76
d3
f1
75
59
11
60
f6
eb
67
6e
62
f2
5c
64
6d
66
70
a6
2c
5f
61
55
69
6d
6e
d1
ea
b2
70
f1
b9
6a
be
5b
ef
f2
6b
d8
e1
ec
ec
68
63
71
d3
f0
3f
64
67
6e
65
f5
33
f3
72
c5
c1
6d
59
f3
f3
d5
cf
d2
60
e7
6c
e7
d4
e7
f2
e5
e4
70
e7
69
57
67
5f
b5
eb
68
e8
f3
d9
61
72
e1
58
bd
59
23
69
ed
aa
e4
65
e8
e9
eb
bc
cb
72
e2
46
57
72
be
e8
db
dc
84
5a
e7
e2
eb
2c
ae
cc
f1
65
c5
75
d8
62
97
c3
4f
58
f4
51
d2
ea
76
f0
f4
58
70
ec
5f
f4
44
f2
69
63
56
6f
de
ec
f4
f5
f7
57
61
58
f2
57
f0
73
ec
71
6c
73
5a
eb
f7
73
44
62
6a
d6
